<unk>	0
<s>	0
</s>	0
,	-2.54851
.	-3.0469
▁ᎠᎴ	-3.30631
▁ᎾᏍᎩ	-3.73337
;	-3.83638
▁ᎯᎠ	-4.39513
▁Ꭴ	-4.57779
▁ᎨᏒ	-4.68395
▁Ꭰ	-4.81103
Ꮓ	-4.81147
▁ᎨᏒᎢ	-5.14858
Ꭲ	-5.1629
▁	-5.19757
▁ᎥᏝ	-5.20797
ᏍᏗ	-5.27085
▁ᎨᏎᏍᏗ	-5.28021
▁ᎤᏁᎳᏅᎯ	-5.34307
▁ᏃᎴ	-5.40047
ᏰᏃ	-5.45131
?	-5.52095
▁ᏴᏫ	-5.5422
▁Ꮎ	-5.76963
▁ᎢᏳᏍᏗ	-5.78782
▁ᎾᏍᏉ	-5.79302
▁ᎩᎶ	-5.8061
▁ᎾᏍᎩᏯ	-5.80618
⁠	-5.81463
▁ᎠᏎᏃ	-5.82134
▁ᎠᏴ	-5.8478
-	-5.85622
Ꮙ	-5.87713
▁ᎾᎿ	-5.89494
▁Ꮷ	-5.9049
▁ᏱᎩ	-5.9055
▁ᏂᎯ	-5.93051
▁Ꮧ	-5.93559
▁ᏥᎩ	-5.9403
▁ᎪᎱᏍᏗ	-5.94663
Ꭹ	-5.95755
▁Ꮵ	-5.96371
▁ᎢᎦ	-5.96825
ᏍᎩ	-5.99201
▁ᎤᎬᏫᏳᎯ	-6.00722
▁ᏂᎨᏒᎾ	-6.00842
▁ᏥᏌ	-6.01773
▁“	-6.08055
▁ᏂᎦᏛ	-6.08292
▁ᏱᎰᏩ	-6.13954
▁ᎯᎠᏃ	-6.14037
ᏍᎩᏂ	-6.15255
▁Ꭲ	-6.17131
▁ᎣᏍᏛ	-6.18586
▁ᎾᏍᎩᏃ	-6.20653
▁Ᏹ	-6.23555
▁ᎤᏪᏥ	-6.26878
▁Ꮳ	-6.27448
▁ᎠᏂ	-6.27793
▁ᎢᏳᏃ	-6.29206
▁Ꮪ	-6.29806
Ꭽ	-6.34677
▁ᏧᏪᏥ	-6.34891
▁ᎦᎶᏁᏛ	-6.35935
▁ᏄᏪᏎᎢ	-6.39107
Ꭿ	-6.40803
▁ᎡᎶᎯ	-6.4166
▁ᎿᏉ	-6.4181
▁ᏞᏍᏗ	-6.43422
▁Ꮣ	-6.4395
▁ᎨᏍᏗ	-6.45489
▁Ꭿ	-6.47302
▁ᎿᏉᏃ	-6.47309
Ꮧ	-6.47856
▁Ꭶ	-6.48095
▁ᎤᏲ	-6.49723
▁ᎤᏛᏁ	-6.52041
▁ᎤᏂ	-6.5416
Ᏹ	-6.56556
▁”	-6.61644
▁ᎠᏥᎸ	-6.62042
▁ᎤᏣᏘ	-6.63441
Ꮎ	-6.65034
▁ᎡᎯ	-6.65099
▁ᏂᎦᎥ	-6.65189
▁ᏫᎵᎻ	-6.66253
,”	-6.66786
▁ᎦᎸᏉᏗᏳ	-6.69665
▁ᎬᏂᎨᏒ	-6.69965
▁ᏄᏍᏛ	-6.70902
▁ᎠᏍᎦᏯ	-6.71672
▁ᎦᏙ	-6.7179
▁ᎬᏂᏳᏉ	-6.73077
▁ᎤᏩᏒ	-6.74371
▁ᎧᏃᎮᏛ	-6.74685
▁ᎾᎯᏳ	-6.76268
▁ᎠᏁᎯ	-6.76417
▁ᎦᎸᎳᏗ	-6.76781
ᏍᎪ	-6.77014
▁ᎠᏰᎵ	-6.77865
▁ᎢᏣ	-6.79577
▁ᎠᏕᎸ	-6.79686
ᏗᏱ	-6.81342
▁ᎨᏎᎢ	-6.81387
▁ᎤᏤᎵ	-6.83814
▁ᎤᏤᎵᎦ	-6.83829
▁ᏰᎵ	-6.84538
▁ᎠᎹ	-6.84686
▁ᎢᏴᏛ	-6.87313
▁Ꮻ	-6.87432
▁ᎬᏩ	-6.90051
▁ᎠᏎ	-6.92083
▁ᎣᏏᏳ	-6.92581
▁ᎦᏙᎯ	-6.94293
▁ᏌᏉ	-6.94822
▁Ᏻ	-6.95275
▁ᎾᏂᎥ	-6.96677
▁[	-6.9741
Ꭶ	-6.9795
]	-6.98175
▁ᎪᎯ	-6.98387
▁ᏗᎧᎿᏩᏛᏍᏗ	-6.98452
▁ᏔᎵ	-6.98976
▁Ꮒ	-7.00777
▁Ꭸ	-7.00886
▁Ꮔ	-7.01201
▁ᎠᏓᏅᏙ	-7.01528
▁ᎣᏍᏓ	-7.01814
▁ᎠᏂᏍᎦᏯ	-7.033
▁ᎨᏎ	-7.04411
.”	-7.0541
▁Ꭱ	-7.05489
▁ᎤᏟ	-7.05617
▁ᎢᏥᏈᏱ	-7.07461
▁ᎢᏏᎵ	-7.09976
▁ᏔᎵᏁ	-7.10134
▁ᎤᎾ	-7.10531
▁ᎼᏏ	-7.11455
▁ᎨᏒᎩ	-7.11497
▁Ꭼ	-7.12355
▁Ꮥ	-7.1279
▁⁠	-7.14126
Ꮣ	-7.14969
▁ᎠᏫ	-7.15005
Ꮫ	-7.15416
▁Ꮽ	-7.1705
▁ᏚᏳᎪᏛ	-7.17603
▁Ꮿ	-7.19877
Ꮒ	-7.19897
!	-7.20432
▁ᎡᎳᏗ	-7.20442
▁ᎦᏙᏃ	-7.20681
▁ᎠᎩ	-7.21675
▁ᎢᏳᎵᏍᏙᏗᏱ	-7.21934
:	-7.22868
▁ᎢᏗᏢ	-7.23381
ᏍᎬ	-7.24437
▁ᏩᎦ	-7.25097
▁ᏏᏆ	-7.26853
▁ᏲᎾ	-7.27949
▁ᎢᎬᏱ	-7.28302
▁ᎠᏏ	-7.29336
Ꭰ	-7.29665
ᏙᏗ	-7.2991
▁ᏌᎳᏓ	-7.30577
Ꮅ	-7.3123
!”	-7.32139
▁ᏄᏪᏒᎩ	-7.32774
ᏍᏓ	-7.33289
▁ᎤᏂᏣᏘ	-7.33613
▁ᎢᏥ	-7.33629
?”	-7.33815
▁ᏄᏪᏎᎴᎢ	-7.34143
▁ᎢᏳ	-7.34797
Ꮟ	-7.35706
▁ᏂᎦᏓ	-7.36207
▁ᎠᎨᏴ	-7.37017
▁ᏧᏓᎴᏅᏛ	-7.38263
▁ᏥᏌᏃ	-7.39301
▁ᎾᎥ	-7.39527
▁ᏱᎨᏎᏍᏗ	-7.39778
ᏍᎦ	-7.40012
▁ᎠᏆ	-7.40528
ᎨᏍᏗ	-7.42814
▁ᎤᏙᎯᏳᎯᏯ	-7.42958
▁ᏚᏂ	-7.43017
▁ᏅᏯ	-7.43562
▁ᏅᎩ	-7.43717
▁ᎠᏂᏧᏏ	-7.45394
▁ᏧᏂ	-7.45771
ᏍᏛ	-7.45893
▁Ꭳ	-7.45901
▁ᏂᏚᏪᏎᎴᎢ	-7.46122
Ꮄ	-7.47166
▁ᏐᏈᎵ	-7.47871
▁ᏝᏍᎪ	-7.47901
▁ᎦᏚ	-7.47907
▁ᏦᎢ	-7.48428
▁ᎠᏓ	-7.48766
▁ᏣᎬᏫᏳᎯ	-7.49151
▁ᎡᏆᎭᎻ	-7.49702
▁ᎤᎬᏩᎵ	-7.49776
▁ᏧᏤᎵ	-7.50289
▁Ꮩ	-7.51387
▁ᏓᎶᏂᎨ	-7.51946
▁ᎦᎪ	-7.52412
▁ᏄᏪᏎᎸᎩ	-7.52445
ᏁᎢ	-7.54122
▁ᎣᏂ	-7.54129
▁ᎢᏧᎳᎭ	-7.54483
▁ᎬᏗ	-7.55337
ᏁᎸ	-7.56351
▁ᏇᎵᏲ	-7.5639
▁ᎦᏓ	-7.56701
▁ᏰᎵᏉ	-7.56779
ᏔᏅ	-7.58762
▁Ꮹ	-7.59156
Ꭸ	-7.59718
▁ᏤᎦᏈ	-7.59913
▁ᏧᎾ	-7.60813
▁ᎤᏙᏓ	-7.61317
Ꮕ	-7.61351
▁ᏄᏪᏎᎴ	-7.62348
▁ᎤᏤᏍᏙ	-7.63556
Ꮈ	-7.639
Ꮢ	-7.64287
▁ᏍᎩ	-7.64549
▁ᎦᎵᏉᎩ	-7.65772
▁ᎢᎩ	-7.66355
▁ᏂᏚᏪᏎᎸᎩ	-7.66559
▁ᏂᎦᏗᏳ	-7.66923
▁ᎦᏚᎲ	-7.67656
ᎲᎢ	-7.67867
▁ᏅᏗᎦᎵᏍᏙᏗᎭ	-7.68086
▁ᎬᏂ	-7.68359
▁ᎠᏂᎨᏴ	-7.68855
▁ᏱᎰᏩᏃ	-7.69047
▁ᏂᎪᎯᎸ	-7.70353
▁ᏗᎦ	-7.7044
▁Ꭵ	-7.70725
ᎸᎩ	-7.70753
▁ᎪᏪᎵ	-7.71078
▁ᏥᎷᏏᎵᎻ	-7.7129
▁ᏣᏂ	-7.7193
▁ᏧᎾᏓᎴᏅᏛ	-7.72012
▁ᏱᎨᏎ	-7.72652
▁ᎢᏯᏂᏛ	-7.72835
▁ᎡᏙᏓ	-7.72844
▁ᎬᏂᏛ	-7.72915
▁ᏉᎳ	-7.72973
▁ᎢᎦᎢ	-7.73917
▁ᎾᏍᎩᏯᎢ	-7.74752
▁ᏂᎬᎾᏛ	-7.74801
▁Ꭽ	-7.75125
ᏎᎢ	-7.75447
ᏅᎯ	-7.77078
▁ᏦᏩ	-7.77093
▁ᎬᏩᏍᏓᏩᏗᏙᎯ	-7.77941
▁ᎠᏂᏔᎵ	-7.78489
ᎴᎢ	-7.79265
▁ᎤᏅᏒ	-7.79384
▁ᏣᎵ	-7.79635
▁ᎾᎥᏂ	-7.80247
▁ᎼᏏᏃ	-7.80926
▁ᎢᏴ	-7.81007
▁ᏄᎵᏍᏔᏁᎢ	-7.81581
▁ᎥᏝᏰᏃ	-7.81598
▁ᏐᏉ	-7.82188
Ꮵ	-7.82263
▁ᎪᎯᏳᏗ	-7.82683
▁ᎤᏁᏨ	-7.8301
▁ᏗᎦᎳᏫᎢᏍᏗᏱ	-7.83258
Ꮂ	-7.83664
ᏍᎨᏍᏗ	-7.84919
▁ᏄᎬᏫᏳᏒ	-7.85038
▁ᎢᎬᏱᏗᏢ	-7.85764
▁ᏄᏂᏪᏎᎢ	-7.85795
▁ᎠᏣᏗ	-7.85919
▁ᎤᏓᏙᎵᏍᏗ	-7.86
▁ᎢᎨᏎᏍᏗ	-7.8763
ᏍᏗᏱ	-7.8771
▁ᎤᏙᎯᏳᎯ	-7.8866
▁ᎤᏓᎵᎢ	-7.88853
ᎮᏍᏗ	-7.89279
ᏙᎯ	-7.89466
▁ᎤᏥ	-7.89564
Ꮿ	-7.89686
▁ᏈᏓ	-7.89779
ᏅᎩ	-7.89954
▁ᎤᎵᏂᎩᏛ	-7.9006
▁ᏗᎦᎸᏫᏍᏓᏁᏗ	-7.90349
▁ᎡᏍᎦᏉ	-7.90598
▁ᎠᏏᏉ	-7.91025
▁ᎤᏛᏅ	-7.92377
▁ᎩᎦᎨ	-7.925
▁ᏌᏌ	-7.9343
▁ᎠᎵᏍᏓᏴᏗ	-7.93601
ᏒᎩ	-7.9366
▁ᏅᏩᏓᎴ	-7.93703
▁ᎭᏫᏂ	-7.94408
▁ᎤᏓ	-7.95397
▁ᎰᎻ	-7.95439
▁ᎦᎶᎯᏍᏗᏱ	-7.95516
ᏒᎢ	-7.9563
▁ᎢᎾᎨ	-7.95989
▁Ꮫ	-7.96978
▁ᏍᎩᎾᎾ	-7.97453
▁ᏥᎪ	-7.97481
▁ᏑᎾᎴ	-7.97502
▁Ꭷ	-7.97619
ᏍᏙᏗ	-7.98294
▁ᏒᏃᏱ	-7.98522
▁ᎢᏧᎳ	-7.98713
▁ᎤᏃᏕᎾ	-7.99579
▁ᎬᏩᎦᏘᏯ	-7.99588
▁ᎠᏧᏣ	-7.99589
▁ᏗᏣ	-7.9992
ᎸᎯ	-8.00226
▁ᎤᏩᏌ	-8.0095
▁ᎠᎾᎵᏅᏟ	-8.00986
▁ᎦᎸᎶᎢ	-8.0201
▁ᏱᎨᏎᎢ	-8.02398
▁ᎢᏤ	-8.02774
ᏉᏍᎩᏂ	-8.02826
▁ᏚᏙᎥ	-8.03459
▁ᏧᎬᏩᎶᏗ	-8.03912
▁ᏅᏙ	-8.04375
ᎪᎢ	-8.04735
▁ᎩᎶᏃ	-8.0484
▁ᎾᎿᏃ	-8.05428
Ᏻ	-8.06501
▁ᏚᎾ	-8.06521
▁ᏔᎳᏚ	-8.06565
▁ᏅᏩᏙᎯᏯᏛ	-8.07275
▁ᎢᎬᏱᏱ	-8.07352
▁ᎩᎳ	-8.07926
▁ᎣᎩ	-8.07929
Ꭺ	-8.08371
▁ᎢᎸᎯᏳ	-8.0842
▁ᎢᏓᎵᏅᏟ	-8.08424
▁ᏧᎾᏁᎶᏗ	-8.08434
▁ᎤᎾᏤᎵᎦ	-8.08464
▁ᎠᏏᏴᏫ	-8.08575
▁ᎡᎳᏂ	-8.08847
▁ᏱᎨᏒᎾ	-8.0959
▁ᏂᎦᏛᏃ	-8.10146
ᏍᎨ	-8.10203
Ꮃ	-8.10323
▁ᎤᏍᏆᏂᎪᏗ	-8.10857
▁ᎤᏚᎩ	-8.11457
Ꮑ	-8.11465
▁ᏄᎵᏍᏔᏅ	-8.12483
▁ᎡᏆ	-8.12672
▁ᎠᏆᏤᎵ	-8.13124
▁ᎠᎬᏱ	-8.13163
▁ᎢᎪᎯᏛ	-8.13167
Ꮝ	-8.14126
▁ᎭᏫᏂᏗᏢ	-8.1438
▁ᎠᏇᏥ	-8.14384
▁ᎤᏁ	-8.1451
ᏍᎬᎢ	-8.14662
▁ᏧᏤᎵᎦ	-8.14801
▁ᏗᎧᎿᏩᏗᏙᎯ	-8.149
▁ᏅᏓᏳᏓᎴᏅᎯ	-8.15613
▁ᏂᏨᏪᏎᎭ	-8.15613
▁ᏄᏂᏪᏒᎩ	-8.15651
Ꭵ	-8.15931
▁ᎦᏓᎭ	-8.15995
▁ᏕᎦ	-8.16078
▁ᎩᎳᏉ	-8.16766
▁ᎤᏇᏓᎵ	-8.16815
▁ᎤᎾᏓᏅᏘ	-8.17009
▁ᎢᏳᏰᏃ	-8.17829
▁ᎢᏳᏩᏂᏌᏛ	-8.18125
ᎮᎢ	-8.18645
▁ᎤᏛᏛᏁ	-8.18805
▁ᎠᏰᎸ	-8.20177
▁ᏃᏗ	-8.20222
▁ᏧᏙᎢᏛ	-8.20728
▁ᏤᎦᏈᏃ	-8.20729
▁ᎤᏕᎵᏛ	-8.20733
▁ᎤᏁᎳᎩ	-8.20904
▁ᎠᏁᎲ	-8.21168
▁ᏄᏪᏒ	-8.21432
ᏔᏅᎯ	-8.22006
▁ᎢᏯᎦᏴᎵ	-8.22022
▁ᏧᏍᏆᏴᏍᏗ	-8.22102
▁ᏗᎪᏢᏔᏅᎯ	-8.23371
▁ᏥᏳ	-8.23542
ᎨᎢ	-8.23617
▁ᎡᏏᎩ	-8.23982
▁ᎦᏳᎳ	-8.24263
▁ᎠᏯ	-8.24344
ᎦᏔ	-8.24527
▁ᏓᏂ	-8.24577
▁ᎦᎵᏦᏛ	-8.25641
▁ᏄᎵᏍᏔᏁ	-8.26073
▁ᎢᏨ	-8.26511
▁ᏍᏉ	-8.26748
▁ᎠᏁᎲᎢ	-8.26842
▁ᏦᏩᏃ	-8.27251
ᏗᎭ	-8.27425
▁ᎠᏍᏓᏯ	-8.27517
▁ᎦᏲᏟ	-8.2857
Ꭼ	-8.28704
ᎨᎶᎯ	-8.28744
▁ᎢᏳᎵᏍᏙᏗ	-8.28784
▁ᎠᎾᏙᎴᎰᏍᎩ	-8.28882
▁ᎤᎾᏤᎵ	-8.29084
▁ᎠᎾ	-8.2927
Ꭾ	-8.29592
▁ᎠᎦ	-8.30184
▁ᎤᏁᎳᏅᎯᏃ	-8.30296
▁ᏃᏉ	-8.30497
ᏁᎯ	-8.30538
ᎸᎢ	-8.30754
▁Ꮶ	-8.31453
▁ᎦᏁᎸ	-8.31603
▁ᎡᎳᏆᏗ	-8.31766
Ꮞ	-8.31771
▁ᏧᏅᏏᏓᏍᏗ	-8.31821
▁ᏄᎵᏍᏔᏅᎩ	-8.32008
▁ᏥᏳᎯ	-8.3201
ᏍᎪᎢ	-8.32931
ᎯᏍᏗ	-8.33072
▁ᏄᏓᎴᏒ	-8.33167
▁ᏠᎨᏏ	-8.33233
▁ᎠᏲᎱᎯᏍᏗ	-8.33442
▁ᎠᏥ	-8.33605
▁ᎧᏅᏂᏍᎩ	-8.34412
▁ᎢᎦᏛ	-8.34588
Ꮀ	-8.35417
▁ᎤᏪ	-8.35607
ᏁᎳ	-8.35758
▁ᎤᏂᏃᏕᎾ	-8.36234
▁ᏧᏕᏘᏴᏛ	-8.36236
▁ᎤᏁᎬ	-8.36469
▁ᏂᎦ	-8.36972
▁ᎤᏒᎯ	-8.37004
▁ᎠᏍᎪᎯᏧᏈ	-8.37035
Ꭴ	-8.37667
▁ᎤᏂᎬᏫᏳᎯ	-8.37805
▁ᎤᏃᎴ	-8.38276
▁ᎠᏍᎦᏂ	-8.39093
▁ᎠᏙᎴᎰᏍᎩ	-8.39353
▁ᎢᎦᏤᎵ	-8.39404
▁ᎠᏍᎪᎵ	-8.39465
▁Ᏼ	-8.3976
▁Ꮨ	-8.39884
▁ᎩᎬ	-8.40227
▁ᏂᎬᏅ	-8.403
ᎠᏁᎶᎯ	-8.40465
▁ᎠᏓᏁᎸ	-8.40549
▁ᏣᏄᏏ	-8.40939
ᏍᎨᎢ	-8.41326
▁ᎠᎺᏉᎯ	-8.41765
▁ᏂᎯᏍᎩᏂ	-8.41835
▁ᏅᏩᎾᏓᎴ	-8.42021
▁ᏕᏥ	-8.42089
ᎨᏒ	-8.42191
▁ᎥᏝᏃ	-8.42741
▁ᎾᎿᏂ	-8.43339
▁ᎢᏐ	-8.43519
ᎦᏛ	-8.43593
▁Ꭺ	-8.43986
ᏗᏍᎬ	-8.44179
ᏔᏅᎩ	-8.44634
▁ᎢᏗ	-8.44938
▁ᏂᎬ	-8.4532
▁ᏗᏂᎧᎿᏩᏗᏙᎯ	-8.45587
▁ᎥᎥ	-8.45894
▁ᏧᏂᏍᏆᏂᎪᏙᏗ	-8.4595
▁ᎤᏓᏅᏘ	-8.46899
▁ᏔᎵᏁᏃ	-8.46939
ᎵᏍᏗ	-8.47253
ᏓᏁᏗ	-8.47429
▁ᎡᏝᏪᎯ	-8.47608
▁ᎠᎦᏴᎵᎨᎢ	-8.47957
▁ᎪᎰᏍᏗ	-8.49256
Ᏼ	-8.49483
ᎬᏩ	-8.49486
▁ᎠᏲᎵ	-8.49649
▁ᎠᏄᏬ	-8.49768
▁ᏄᏂᎬᏫᏳᏒ	-8.50274
▁ᏗᏥ	-8.50548
▁ᏗᏂ	-8.50615
▁ᎦᎸᎶ	-8.50626
▁ᏤᏥ	-8.50929
▁ᎦᎾᏝᎢ	-8.51049
▁ᎨᎵᎵ	-8.51053
▁ᎠᏓᎨᏳᏗ	-8.51114
▁ᏥᎨᏒᎩ	-8.51195
ᏁᏗ	-8.51202
▁ᎤᎵ	-8.51487
▁ᎨᏐᎢ	-8.51497
▁ᏥᎨᏎᎢ	-8.51505
▁Ꮕ	-8.51833
▁Ꮴ	-8.52062
Ꮩ	-8.52156
ᎬᎢ	-8.52559
▁ᎡᏥ	-8.52615
▁ᎤᎵᏏᎩ	-8.52796
▁ᎢᏯᎩᏳᏍᏈᏛ	-8.52797
ᏍᏙ	-8.52888
▁ᏗᏂᏲᎵ	-8.52947
▁ᎠᏂᏆᎵᏏ	-8.53632
▁ᎤᏬᏰᏂ	-8.5387
ᎦᎵ	-8.53898
ᏁᎵ	-8.54267
▁ᎤᏤᎵᎪᎯ	-8.54679
▁ᎡᏣ	-8.54713
▁ᏨᏒ	-8.54858
▁ᎤᏅᏏᏓᏍᏗ	-8.54937
ᏍᏔ	-8.56069
▁ᎦᏰᎪᎩ	-8.56467
▁ᎢᎪᎯᏓ	-8.56492
▁ᎠᏂᏴᏫᏯ	-8.56492
▁ᎠᎦᏔᎲᎢ	-8.56828
▁ᎠᏛ	-8.56975
▁ᎤᏴᏍᏗ	-8.57122
ᏁᎭ	-8.57306
ᏁᏗᏱ	-8.57347
▁ᏌᏩᏂ	-8.57621
Ꮜ	-8.57685
▁ᎣᏓᎸ	-8.57886
▁ᏦᎢᏁ	-8.5824
▁(	-8.58352
▁ᏇᎵᏲᏃ	-8.58434
ᏗᏍᎩ	-8.58498
▁ᎤᏁᎳᏅᎯᏰᏃ	-8.59331
▁Ꮟ	-8.59706
▁Ꮭ	-8.60037
▁ᏗᏆᏤᎵ	-8.60211
▁ᎠᏃᎯᏳᎲᏍᎩ	-8.60283
▁ᏓᏆᎴᎳ	-8.60283
▁ᏥᏍᏕᏥ	-8.60305
▁ᎤᎬᏫᏳᏌᏕᎩ	-8.60316
▁ᎧᏁᏌᎢ	-8.60336
▁ᏄᏍᏕᏍᏗ	-8.60569
▁ᎣᎦ	-8.61189
▁ᎠᎦᏴᎵᎨ	-8.61424
▁Ꮸ	-8.61571
▁ᎤᎵᏂᎩᏗᏳ	-8.61669
ᎰᎢ	-8.61771
▁ᏣᏤᎵ	-8.62045
▁ᎨᏐ	-8.62086
▁ᎧᏁᏍᎦ	-8.62238
▁ᎠᏂᏍᎩᎾ	-8.62261
▁ᎠᎩᎾ	-8.62289
▁ᏂᎯᏃ	-8.62436
▁ᎦᎸᏉᏗ	-8.62485
▁ᎤᏰᎸᏗ	-8.62653
Ꮻ	-8.62689
▁ᎨᎳᏍᏗᏱ	-8.62727
▁ᏥᏚ	-8.62853
▁ᎨᏥ	-8.62948
▁ᎢᎦᏛᏃ	-8.6331
▁ᎠᏍᎩᎾ	-8.63551
▁ᎦᏚᎲᎢ	-8.63625
▁ᏫᏥ	-8.63629
▁ᎢᏨᏒ	-8.6386
▁ᎠᏌᎻᏓ	-8.64237
▁ᎠᏯᏙᎸᎢ	-8.64237
▁ᏗᏂᏲᏟ	-8.64239
▁ᎠᏂᏏᏴᏫᎭ	-8.64248
▁ᏧᏁᏥ	-8.64349
▁ᎠᏗᎾ	-8.6437
▁ᎡᏆᎭᎻᏃ	-8.64466
ᎬᎩ	-8.65055
ᎬᎾ	-8.65062
▁Ꮁ	-8.65418
▁ᎤᏲᎱᏒ	-8.65632
▁ᎤᏰᎸᏛ	-8.65791
ᏙᏗᏱ	-8.65814
▁ᏄᏓᎴ	-8.65999
▁ᏗᏣᏤᎵ	-8.66227
▁ᎦᏩᏒᎩ	-8.66277
▁ᎢᏳᏕᏘᏴᏛ	-8.66281
▁ᎤᏕᏁᎴᎢ	-8.66315
▁ᎪᏢᏔᏅᎯ	-8.66317
▁ᎠᏎᏉ	-8.66969
ᏛᎢ	-8.67213
▁ᏥᎨᏒ	-8.67232
▁ᏂᏚ	-8.67426
▁ᏂᎪᎯᎸᎢ	-8.67518
▁ᎤᏛᎦᏅ	-8.67574
▁ᏗᏃᏪᎵᏍᎩ	-8.67609
▁ᎤᏣᏔᏅᎯ	-8.67628
ᏔᏁᎢ	-8.67686
▁ᏱᎦ	-8.67709
▁ᏥᎨᏎ	-8.68075
▁ᏅᏓᎬᏩᏓᎴᏅᏛ	-8.68362
▁ᎢᏳᏍᎩᏂ	-8.68407
▁ᎢᏳᎾᏍᏗ	-8.68556
▁ᏣᏁᎳᏅᎯ	-8.68562
▁ᏱᏓ	-8.68624
ᏔᏂ	-8.68633
▁ᏱᏚ	-8.6958
Ꮳ	-8.69726
Ꭳ	-8.69746
ᏛᎩ	-8.69803
▁ᏗᎦᏙᎵ	-8.69872
ᏗᎦᎳᏫᎢᏍᏗᏱ	-8.69905
▁ᎤᎾᏓᏡᎬ	-8.70032
▁ᎪᎢ	-8.70065
▁ᎠᎦᏙᎥᎯᏍᏗ	-8.70224
▁-	-8.70292
▁ᎦᎵ	-8.70319
▁ᎡᏍᎦ	-8.70484
▁ᏗᏓᏍᏚᏗᏱ	-8.70489
▁ᎠᏰᎳᏍᏗ	-8.70497
▁ᏅᏲᎯ	-8.70526
ᏩᏛ	-8.70643
ᏓᏅ	-8.71508
▁ᎠᏴᏃ	-8.71548
▁ᏅᏗᎦᎵᏍᏙᏗᏍᎨ	-8.71661
▁ᏧᏂᏲᎱᏒᎯ	-8.71863
▁ᏄᏪᏎ	-8.71868
ᏍᏔᏅ	-8.71989
▁ᎤᏅᏗ	-8.71989
▁ᎤᎾᏓ	-8.72072
Ꮘ	-8.72242
▁ᎨᏴ	-8.72399
ᏍᎬᎾ	-8.72474
▁ᎤᏩ	-8.72487
▁ᏔᏕᏲᎲᏍᎩ	-8.72662
▁ᏗᏅᏃᏛ	-8.72668
▁ᎥᏣᏱ	-8.72687
▁ᎤᎾᏤᎵᎪᎯ	-8.72688
▁ᏱᏣ	-8.72705
▁ᏗᏤᏥ	-8.72717
ᏁᎴ	-8.72961
▁ᎤᏅ	-8.73705
▁ᏕᏫ	-8.73736
▁ᎭᏂ	-8.738
▁ᏗᏄᏬ	-8.73938
▁ᏗᎾᏓᏅᏟ	-8.7395
ᎸᏉᏗ	-8.74241
▁ᎭᎾ	-8.74252
ᎲᎾ	-8.74261
ᏎᏍᏗ	-8.74274
▁ᎠᏍᎪᎯ	-8.74276
▁ᎬᏅ	-8.74339
ᎭᏩ	-8.74442
▁ᎤᏲᎢᏳ	-8.74735
ᎩᏍᏗ	-8.74778
Ꮨ	-8.7478
▁ᏅᏓᎦᎵᏍᏙᏗᏍᎬᎩ	-8.74913
▁ᎤᎴᏅᎮ	-8.74945
▁ᎬᏘ	-8.74988
▁ᏚᏬᎡᎢ	-8.74991
ᏍᏘ	-8.75029
▁ᎣᏂᏃ	-8.75032
▁ᎠᎳᏂ	-8.75106
ᏅᎢ	-8.75384
▁ᎦᎵᏦᏛᎢ	-8.75684
▁ᎦᏁᎸᎢ	-8.75708
ᏔᏁ	-8.75726
▁ᏓᎦ	-8.75864
ᏁᎳᏅᎯ	-8.75871
▁ᎤᏐᏅ	-8.7589
▁ᎤᏠᏱ	-8.76366
▁ᎠᏂᏯᏫᏍᎩ	-8.76418
▁ᎤᎧᏛ	-8.76775
ᎲᎩ	-8.7687
▁ᎡᎺᏅ	-8.77157
▁ᎠᏂᏧᏣ	-8.77164
▁ᎩᎳᏈᏴ	-8.77164
▁ᎠᎬᏱᏣ	-8.77185
▁ᎭᏫᏂᏣ	-8.77191
▁ᎣᎯᏍᏙᏗ	-8.77209
▁ᎬᏔᏅᎯ	-8.77346
▁ᎤᎷᏨ	-8.78071
▁ᎨᏥᏅᏏᏛ	-8.78765
▁ᏂᏚᏪᏎᎴ	-8.79014
▁ᎬᎩ	-8.79017
▁ᏌᏉᏉ	-8.79031
▁ᎤᏙᎴᎰᏒ	-8.79329
▁ᎤᏣᎴᏍᏗ	-8.79508
▁ᎦᎸᎳᏗᏢ	-8.79664
▁ᏫᏚ	-8.80144
▁ᎬᏂᎨ	-8.8056
▁Ꮓ	-8.80827
ᏓᎵ	-8.80911
ᏓᏁ	-8.81182
ᎨᎳᏍᏗᏱ	-8.81251
▁ᏥᎨᏐ	-8.81406
▁ᏫᎾᏍᏛᎾ	-8.81863
▁ᏧᏒᎯᏛ	-8.81863
▁ᎤᏓᏅᏙ	-8.81941
▁ᎤᎵᎮᎵᏍᏗ	-8.81954
▁ᏤᎯ	-8.82211
ᏒᎾ	-8.82434
▁ᎧᏁᎬ	-8.83142
ᎾᏍᎩ	-8.83258
▁ᎠᎵ	-8.83424
▁ᎬᏩᏚᏫᏛ	-8.83497
Ꮹ	-8.8366
▁ᎢᏯᏂ	-8.83833
ᎦᏔᎭ	-8.84239
▁ᏖᎸᎳᏗ	-8.84302
▁ᎾᏂᏪᏍᎨᎢ	-8.84365
▁ᏔᎷᎩᏍᎩ	-8.84404
▁ᎠᏆᏤᎵᎦ	-8.84487
▁ᎠᎲ	-8.84938
▁ᎬᏂᏳᏉᏃ	-8.85168
▁ᎡᎭ	-8.85172
▁ᎤᎪᎲ	-8.85187
▁ᎤᎾᏛᎦᏅ	-8.85408
Ꮷ	-8.8549
▁ᎢᎸᎯᏢ	-8.85546
▁ᎠᏋᏒ	-8.85967
Ꮥ	-8.86042
ᏗᏍᎨᏍᏗ	-8.86127
▁ᎠᏂᏐᎢ	-8.86211
▁ᎨᎾᏂ	-8.86728
▁ᏓᏳ	-8.86769
▁ᎤᏏᏙᎵ	-8.86803
▁ᎭᏫᏯ	-8.86805
▁ᎢᏳᏟᎶᏛ	-8.86806
▁ᏃᏈᏏ	-8.86824
▁ᏂᎬᏩᏪᏎᎴᎢ	-8.86835
▁ᎪᏱᏁᎢ	-8.86943
▁ᎦᏚᏏ	-8.87057
▁Ꮤ	-8.87328
▁ᏑᏓᎵ	-8.87587
▁ᏤᏍᏗ	-8.87968
▁ᎢᎾᎨᎢ	-8.87999
▁ᎦᏍᎩᎸ	-8.88125
▁ᎦᎸ	-8.88588
▁ᎭᏢ	-8.88723
▁ᎠᏂᎦᏔᎲ	-8.88775
▁ᏚᏏᎳᏛ	-8.88795
▁ᏕᏣ	-8.88945
▁ᏱᏗ	-8.89295
ᏁᎲ	-8.89319
▁ᏥᎦᏔᎭ	-8.89322
▁ᏭᏕᎵᎬ	-8.89366
▁ᏑᎾᏓᏡᎩ	-8.8937
▁ᏗᏨᏍᏙᏗ	-8.89373
▁ᏧᏂᎸᏫᏍᏓᏁᎯ	-8.89406
▁ᏥᎨᏐᎢ	-8.89905
▁ᏅᏗᎦᎵᏍᏙᏗᏍᎨᏍᏗ	-8.90015
▁ᎢᏯ	-8.90614
ᏤᎵ	-8.90796
▁ᎨᏣ	-8.90954
▁ᎡᏉᏂ	-8.91187
▁ᏅᎦᏍᎪᎯ	-8.91243
ᎯᎠ	-8.91291
▁ᎤᏁᎳᏅᎯᏍᎩᏂ	-8.91485
ᎦᎸ	-8.91562
▁ᏄᎾᏍᏛ	-8.91614
▁ᏍᎩᏴ	-8.91825
▁ᎣᎭᏁ	-8.91827
▁ᎬᏃᏛ	-8.92015
▁ᎠᏥᎸᏉᏗᏳ	-8.92026
▁ᏗᎵᏍᏓᏴᏗᏱ	-8.92088
▁ᏗᎬ	-8.92389
ᏒᎯ	-8.92615
ᏥᎸ	-8.92632
ᎯᏍᏗᏱ	-8.92683
▁ᏂᏣ	-8.92785
▁ᎤᏪᎵᏎ	-8.92833
▁ᏓᏔᎴᏒ	-8.9319
▁ᎺᎵ	-8.93832
▁ᎡᏆᎻ	-8.93984
▁ᏂᎦᏪᏍᎬ	-8.94015
▁ᎤᎵᏏᎬ	-8.94191
▁ᎤᏪᎷᏁ	-8.94225
▁ᏄᏛᏁᎴ	-8.94232
ᏍᏕ	-8.94399
▁ᎠᏆᏓᏅᏙ	-8.94502
▁ᎡᎶ	-8.94598
▁ᏂᎦᏪᎭ	-8.94746
▁ᎥᏞᏍᏗ	-8.9478
▁ᎮᎾ	-8.94865
▁ᎠᏎᏉᏉ	-8.9506
▁ᏓᎾ	-8.95125
▁ᏄᎾ	-8.95483
▁ᎠᏰᎸᎢ	-8.95715
▁ᏑᎾᎴᎢ	-8.95864
ᏁᎸᎯ	-8.96015
ᎴᏍᏗ	-8.96132
▁ᎦᎵᏦᏕ	-8.96708
▁ᎩᎶᏍᎩᏂ	-8.96848
▁ᎠᏓᏅᏖᏍᎬ	-8.97031
ᏰᎸ	-8.9733
▁ᎩᎦᎨᎢ	-8.97381
ᎦᏘ	-8.97417
▁ᎠᎵᏍᎪᎸᏙᏗ	-8.97448
▁ᏗᏂᎳᏫᎩ	-8.97489
▁ᏧᏆᎶᎦ	-8.97499
▁ᏧᎾᏤᎵᎦ	-8.9757
▁ᏧᏓ	-8.97576
ᏉᏃ	-8.97638
▁ᏣᏁᎭ	-8.97812
▁ᎤᏩᏒᏉ	-8.98157
ᎳᏗ	-8.98181
Ꭱ	-8.9823
▁ᏂᏓ	-8.98479
ᏒᏃ	-8.98683
ᏍᏆ	-8.98805
▁ᏂᏥᎥ	-8.99073
▁ᎤᏁᏤᎴ	-8.99154
▁ᏈᏓᏃ	-8.99608
▁ᏍᎩᎾ	-8.99615
ᏍᏔᏁ	-8.99616
▁ᎾᏍᏉᏍᎩᏂ	-8.99795
▁ᏅᏗᎦᎵᏍᏙᏗᏍᎬ	-8.99885
▁ᎤᏙ	-9.00029
▁ᎤᏁᏤ	-9.00073
▁ᏕᎤ	-9.00084
ᎾᏓ	-9.00119
▁ᎢᏣᎵᏍᏓᏁᏗ	-9.00194
▁ᎠᎰᎵ	-9.0025
▁ᏩᎭᏯ	-9.00336
▁ᏗᎧᎸᎬ	-9.00338
▁ᏙᏱᏗᏢ	-9.00346
▁ᏣᎳᎩ	-9.00477
▁ᎡᎶᏗ	-9.00487
▁ᎤᏍᎪᎸ	-9.00605
▁ᎤᏠᏱᏉ	-9.00765
▁ᎨᎵ	-9.01061
▁ᎢᎸᏍᎩ	-9.01205
Ꮭ	-9.01294
ᏛᎦ	-9.01445
▁ᎤᎾᏙᏓᏆᏍᎬ	-9.02042
ᏍᎩᏂᏃᏅ	-9.0226
▁ᎤᏁᎦ	-9.02508
▁ᎤᏂᎷᏤ	-9.02515
ᎯᏳ	-9.02532
▁ᏣᏥ	-9.0275
▁ᎬᏩᏍᏓᏩᏗᏙᎯᏃ	-9.02802
▁ᎤᏣᏘᏂ	-9.02979
▁ᏎᎵ	-9.03062
▁ᎢᏳᎾᎵᏍᏓᏁᏗ	-9.03147
▁ᎢᏳᎾᏛᏁᏗ	-9.0317
▁ᎤᎵᏍᏓᏴᏗ	-9.03221
▁ᏂᏚᏳᎪᏛᎾ	-9.03277
▁ᎠᏂᏲᏍᎩ	-9.03278
▁ᏧᏬᏰᏂ	-9.03288
▁ᎤᎩᎬ	-9.03293
▁ᏣᏁᏢᏔᏅᎯ	-9.033
▁ᏱᏥᎦᏔᎭ	-9.03388
▁ᎤᏂᏙᏓ	-9.03402
▁ᎤᏍᏆᏂᎩᏗ	-9.03526
ᏅᏗ	-9.03717
▁ᏩᏍᏛ	-9.03747
▁ᏥᎻ	-9.03996
▁ᎾᎯᏳᏃ	-9.04057
ᏰᎵ	-9.04174
▁ᎡᎶᏛ	-9.04864
▁ᏓᏥ	-9.05135
▁ᎢᏏᎵᏃ	-9.05192
▁ᎤᎵᏍᏆᎸᏗ	-9.05576
ᏛᎾ	-9.05578
▁ᎤᏬᏢ	-9.05958
▁ᎠᏂᏅ	-9.0617
ᏕᏍᏗ	-9.06277
▁ᏧᎾᏤᎵ	-9.06281
▁ᎦᎶᎯᏍᏗ	-9.06287
▁ᏱᎦᎵᏍᏙᏓ	-9.06316
▁ᎢᏥᏍᎦᏯ	-9.06353
▁ᎤᎧᎵᏨᎯ	-9.06408
▁ᎤᏪᏘ	-9.06494
▁ᎢᏤᎲᎢ	-9.06923
▁Ꭹ	-9.06938
ᏩᏛᏗ	-9.06993
▁ᎤᎾᎵ	-9.07079
Ꭷ	-9.0717
ᏍᏔᏁᎢ	-9.07285
▁ᎤᏙᎯᏳ	-9.07396
▁Ᏺ	-9.07602
ᏱᎩ	-9.07677
▁ᎠᎦᏔᎲ	-9.0799
▁ᎢᏅ	-9.08171
▁ᎣᏥ	-9.08181
▁ᎤᎷᏤ	-9.08433
▁ᎠᏴᏍᎩᏂ	-9.08495
▁ᏦᎠᏍᎪᎯ	-9.08642
▁ᏐᎢ	-9.08749
▁ᎢᏤᎲ	-9.08778
▁ᏄᏪᏎᎸ	-9.09083
▁ᎬᏩᏂ	-9.09104
▁ᏗᎨ	-9.09154
▁ᎠᏗᏔᏍᏗ	-9.09282
▁ᏛᎦ	-9.09318
▁ᏚᏅᏓᏒ	-9.09442
▁ᏒᎦᏔ	-9.09443
▁ᎦᎶᏇ	-9.09446
▁ᏚᎾᏙᎥ	-9.09484
▁ᎦᎸᎳᏗᏣ	-9.09586
▁ᏥᏄᏍᏗ	-9.0961
ᏁᎮ	-9.0974
▁ᎫᏩ	-9.09803
▁ᎾᎥᏂᎨ	-9.09877
▁ᎬᏙᏗ	-9.09896
▁ᏃᏯ	-9.11704
▁Ꮀ	-9.11798
▁ᎴᏆᏂ	-9.11929
▁ᏆᎴᏗ	-9.11929
Ꮆ	-9.11959
▁ᏣᏙᏓ	-9.12032
ᎲᎦ	-9.12077
▁ᏡᎬ	-9.12269
▁ᎡᎲ	-9.12352
ᎪᏗ	-9.12459
▁ᎢᏯᏛᏁᏗ	-9.12525
▁ᏔᎴᎲᎦ	-9.12659
▁ᏎᏓᏂ	-9.12661
Ꮲ	-9.12666
▁ᎠᏂᏳᏩᏁᎦ	-9.12667
▁ᏧᏓᏆᏙᎩ	-9.12668
▁ᎦᏚᎢᏣ	-9.12681
▁ᎢᎬᏁᎸᎯ	-9.12692
▁ᏥᎪᏪᎳ	-9.127
▁ᎠᏂᏴᏫ	-9.12748
▁ᎤᏲᎱᏎᎢ	-9.12752
▁ᏭᎷᏤ	-9.12787
Ꮖ	-9.12952
▁ᏐᎢᏃ	-9.13417
▁ᎬᏅᎢ	-9.13497
▁ᎤᏂᏣᏘᏃ	-9.13639
▁ᏥᏕ	-9.14417
▁ᏥᏍᏆ	-9.14556
ᎦᏙ	-9.14962
▁ᎦᏚᎢ	-9.15161
▁ᎤᎵᏍᏈᏗ	-9.15192
▁ᎯᏍᎦᏍᎪᎯ	-9.15199
o	-9.15349
▁ᎤᏂᏍᎦᏅᏨ	-9.15405
▁ᎢᎾᏛ	-9.15553
▁ᎤᏛᎦᏁ	-9.15605
▁ᏅᏓ	-9.15893
▁ᏔᎳᏍᎪᎯ	-9.15992
▁ᏅᏓᎦᎵᏍᏔᏂ	-9.15993
▁ᎾᏑᏴᎾ	-9.15997
▁ᎤᎾᏓᏤᎵᏛ	-9.16003
▁ᎢᏣᎵᏅᏟ	-9.16004
▁ᏧᎾᏛᏐᏅᎯ	-9.16025
▁ᏕᏧᎬ	-9.16034
▁ᎢᏣᏛᏁᏗᏱ	-9.16048
▁ᎯᏅᏏᏓᏍᏗ	-9.16078
▁ᎩᎦ	-9.16311
ᏛᏗ	-9.1632
ᏒᎭ	-9.16623
▁ᏕᎯ	-9.16776
ᏍᎬᎩ	-9.16874
▁ᎠᎹᏱ	-9.1729
▁ᏎᎦ	-9.17479
▁ᎤᏒ	-9.17538
▁ᏙᏱ	-9.17579
▁Ꮑ	-9.18197
ᏗᏍᎨ	-9.18492
▁ᏫᏓ	-9.18545
▁ᎤᏚᎵᏍᎬ	-9.18853
ᏁᎴᎢ	-9.19061
▁ᏂᎦᎥᏉ	-9.19142
▁ᎬᏗᏍᎬ	-9.19279
▁ᎦᏰ	-9.19405
▁ᏥᏂᎬᏅ	-9.19447
▁ᎢᏯᏛᏁᎯ	-9.19452
▁ᏂᎦᎵᏍᏗᎭ	-9.1947
▁ᎤᎴᏂᏙᎴᎢ	-9.19499
▁ᎠᏂᎨᏯ	-9.19508
▁ᎦᎸᏉᏙᏗ	-9.19528
ᎾᏛ	-9.19551
▁ᎠᏕᎳ	-9.19562
▁ᎤᎬᏫᏳ	-9.19682
▁ᏭᎶᏎᎢ	-9.19719
▁ᎰᏩᏃ	-9.19839
▁ᎤᎷᏨᎩ	-9.1986
▁ᎡᎮᎢ	-9.19991
▁ᎢᏯᏍᏗ	-9.20181
▁ᎦᏁᎦ	-9.20243
▁ᎤᏛᎾ	-9.20877
ᏅᏟ	-9.21369
▁ᏂᎬᎾᏛᎢ	-9.21495
▁ᎡᎳᏂᏃ	-9.21642
▁Ꭻ	-9.21843
▁ᎤᏪᏅᏎ	-9.21845
▁ᎤᎪᎮ	-9.21879
▁ᏅᏩᏓᎴᏃ	-9.21995
▁ᎴᏥᎵ	-9.22005
ᎶᎯ	-9.22096
ᏅᎾ	-9.22098
▁ᎤᏲᎢ	-9.22185
▁ᎤᎦᎾᏍᏛ	-9.22239
▁ᏄᎵᏍᏔᏂᏙᎸ	-9.22249
▁ᎦᏬᏂᏍᎬ	-9.22339
ᎴᏅ	-9.22341
ᏄᏬ	-9.22375
ᎠᏗᏔᏍᏗ	-9.22439
▁ᏧᎸᏫᏍᏓᏁᎯ	-9.22462
▁ᏗᎩ	-9.22679
ᏢᏗ	-9.22707
▁ᎤᏁᏤᎸ	-9.22721
▁ᏙᏛ	-9.22844
▁ᎤᎵᏍᏆᏗᏍᏗ	-9.22876
▁ᏧᏂᎾᏫ	-9.22927
▁ᎤᏍᎪᏍᏛ	-9.23018
▁ᏅᎬᏩᏪᏎᎸᎩ	-9.23027
▁ᏏᏓᏁᎸᎯ	-9.23056
ᎶᏗ	-9.23092
▁ᏍᏓᏯ	-9.23092
▁ᎠᏓᏁᎯ	-9.23425
▁ᎤᎾᏫ	-9.23449
▁ᎠᏤᎯ	-9.23479
▁ᎦᏙᎬ	-9.23525
▁ᎦᏛᎦ	-9.23529
▁ᏤᎭ	-9.23546
▁ᎠᏂᎦᏔᎲᎢ	-9.23721
▁ᎦᏙᎨ	-9.24148
ᏣᏓ	-9.24165
▁ᎤᏕᏯᏙᏗ	-9.24208
Ᏺ	-9.24286
▁ᎡᏏᎩᏃ	-9.24982
▁ᏥᏓ	-9.25054
ᏅᏎ	-9.25628
▁ᎨᎻᎵ	-9.25891
▁ᎾᏍᎩᏯᏉ	-9.2591
▁ᎠᏥᏅᏏᏓᏍᏗ	-9.25993
▁ᎪᏪᎸ	-9.26045
▁ᏄᏩᏁᎴ	-9.26239
▁ᎢᏳᎵᏍᏓᏁᏗ	-9.26595
▁ᏂᎦᎵᏍᏗᏍᎬ	-9.26676
▁ᎠᏠᏁᏗ	-9.26715
▁ᏓᎿᏩ	-9.26715
▁ᎧᏃᎯᏰᎩ	-9.26715
▁ᏅᏓᏳᎶᏒᎯ	-9.26716
▁ᏧᏳᎪᏗ	-9.26721
▁ᎡᏉᎯᏳ	-9.26725
▁ᎠᎦᏘᏏᏗᏢ	-9.26765
▁ᎦᎷᏨᎭ	-9.2677
▁ᎠᎹᏟ	-9.26776
▁ᏅᏃᎯ	-9.268
▁ᏗᏰᎸᎯ	-9.26845
ᎵᏍᏙᏗ	-9.26957
▁ᎪᏪᎸᎢ	-9.27253
▁ᎠᏆᏛᏅ	-9.27312
ᎪᏩᏛᏗ	-9.2743
Ꮤ	-9.2754
▁ᏴᏫᏉ	-9.27643
▁ᎤᏁᏨᎩ	-9.2794
ᏁᎸᎩ	-9.28069
ᏂᎸ	-9.28169
ᏁᎮᏍᏗ	-9.28473
▁ᏙᏓ	-9.28591
ᏙᏓ	-9.28614
Ꮸ	-9.28935
---	-9.28968
ᏍᏙᏗᏱ	-9.29202
▁ᎢᎦᏓ	-9.29397
▁ᎦᏍᎩᎶ	-9.29547
▁ᎢᏥᏙᏓ	-9.29595
▁ᏄᏍᏕ	-9.29663
▁ᎠᏂᏃᎯᎵᏙᎯ	-9.29736
▁ᏄᏛᏁᎸ	-9.29816
▁ᎤᏔᎳᏬᎯᏍᏗ	-9.29853
▁ᎠᏂᏍᎦᎾ	-9.30073
▁ᏕᎤᏙᎥ	-9.30078
▁ᎤᏕᏘᏴᏌᏗᏒ	-9.30109
▁ᎤᏐᏱ	-9.3016
▁ᏓᏳᏓᎴᏅ	-9.30253
▁ᎤᎾᏝᎢ	-9.30393
▁ᏓᏆᎴᎷ	-9.30396
ᏙᎵ	-9.30516
Ꮺ	-9.30551
▁ᏗᏏᏓᎵ	-9.30561
▁ᎯᎸᎢᏴ	-9.30562
▁ᏤᎩᏏᏂ	-9.30562
▁ᎣᏣᎵᏅᏟ	-9.30562
▁ᏦᏰᏂ	-9.30564
▁ᏗᎨᎦᏁᎶᏗ	-9.30564
▁ᎢᏓᏓᏅᏟ	-9.30576
▁ᏗᏇᏥ	-9.30577
▁ᎨᏥᎸᏉᏗ	-9.30595
▁ᎾᎩᏪᏎᎸᎩ	-9.30595
▁ᎬᏩᏕᏁᎴᎢ	-9.30629
▁ᏕᏣᏓᏅᏛᎢ	-9.30693
▁ᏧᎬ	-9.30941
▁ᎠᏂᎪᎢ	-9.3125
▁ᎪᏪᎵᎯ	-9.31276
ᏅᏒ	-9.31442
▁Ꮖ	-9.31967
▁ᎤᏂᏲ	-9.31992
▁ᏥᎦ	-9.32149
▁ᏓᎩ	-9.32209
▁ᎪᎳ	-9.32304
▁ᎤᏂᎪᎲ	-9.32769
”	-9.33041
▁ᏱᏂ	-9.33112
▁ᏈᎵᎩ	-9.337
▁ᎠᏂᏬᏂᏍᎬ	-9.33759
ᏍᏔᏂ	-9.33764
ᏗᎦᏅᏌᏗ	-9.33937
▁ᏱᏥ	-9.33999
ᎣᏍᏓ	-9.34022
▁ᏕᏣᏙᎥ	-9.34062
▁ᎤᏟᎯᏳ	-9.34458
▁ᎠᏓᏅᏓᏗᏍᏗ	-9.34538
▁ᏘᏅᏏᏓᏍᏗ	-9.34576
▁ᎢᎳᏯ	-9.34587
▁ᏗᏘᏂᏙᎯ	-9.34606
▁ᎤᎾᎵᏍᏕᎸᏙᏗ	-9.3463
▁ᎥᏓᎵ	-9.34648
▁ᎢᏣᏤᎵ	-9.34669
▁ᎤᏩᏒᎯᏳ	-9.34734
▁ᏗᏣᏤᎵᎦ	-9.3474
▁ᎤᏕᏅᎯ	-9.3475
▁ᏎᎦᏨ	-9.34776
▁ᎤᏙᎯᏳᏒ	-9.35032
ᏕᎢ	-9.35581
▁ᎣᏓᎸᎢ	-9.35602
▁ᎠᏂᏓ	-9.3592
ᎡᎯ	-9.36131
ᏍᏉ	-9.36137
▁ᎬᏗᏍᎩ	-9.36309
▁ᎯᎪ	-9.36844
▁ᏂᏗ	-9.36968
▁ᏗᎬᏩ	-9.37091
ᎢᏳᏍᏗ	-9.37443
▁ᏩᎶᏏ	-9.37878
▁ᏧᏓᏏ	-9.38245
▁ᎠᏍᎦᎾ	-9.38285
▁Ᏸ	-9.3856
▁ᏩᏏᏓᏂ	-9.38727
▁ᏚᏬᏢᏔᏅᎩ	-9.38733
ᏙᎢᏳᏍᏗ	-9.38757
▁ᏧᏂᎸᏫᏍᏓᏁᏗᏱ	-9.38775
▁ᏄᏩᏁᎸ	-9.38809
▁ᎠᎨᏳᏣ	-9.38816
▁ᏗᏓᏅᏙ	-9.38846
▁ᏓᏏᎳᏛ	-9.38891
▁ᎠᎹᏰᎵ	-9.38908
▁ᏱᏄᏍᏗ	-9.38952
▁ᏥᏁᎬᎢ	-9.38968
ᎵᎦ	-9.39086
▁ᎤᏲᎱᏒᎯ	-9.3911
▁ᎤᎶᏐᏅ	-9.39325
ᎦᏔᎲ	-9.39483
▁ᎧᏁᎬᎢ	-9.39566
▁ᎢᏳᏍᏗᏉ	-9.39769
ᏂᏏ	-9.39987
ᎵᎪ	-9.40119
▁ᏚᏙᎥᎢ	-9.40618
ᏓᏙᎵᏍᏗ	-9.40659
▁ᎤᏓᏅ	-9.40955
ᎾᏏ	-9.41131
▁ᏗᎧᎿᏩᏗᏙᎯᏃ	-9.41246
▁ᏓᎬ	-9.41349
▁ᎦᎶ	-9.41578
▁ᎠᏤ	-9.41586
▁ᏍᏆ	-9.41652
▁ᏚᏁᏤᎴ	-9.41839
▁ᏗᎦᎸᏉᏗ	-9.41982
▁ᎠᎦᏴᎵ	-9.42055
▁ᎠᏏᏉᏃ	-9.42095
▁ᏄᏂᎬᏫᏳᏌᏕᎩ	-9.42184
▁ᏆᏂᏆ	-9.42246
ᏛᏅ	-9.42282
▁ᎵᎠ	-9.42505
▁ᏧᏩ	-9.42531
▁ᎠᏦᏴ	-9.42591
ᏗᏍᎨᎢ	-9.42906
▁ᏗᎦᎫᏍᏛᏗ	-9.42944
▁ᎢᏨᎨᏳᎢ	-9.4306
▁ᏍᏈᏍᏓ	-9.43075
▁ᏚᏬᏢᏅᎩ	-9.43091
▁ᎨᏥᏅᏏᏓᏍᏗ	-9.43091
▁ᎠᏍᏆᎨᏂ	-9.43093
▁ᎠᏂᎳᏍᏓᎸ	-9.43093
▁ᎧᏂᎩᏓ	-9.43096
▁ᎾᏍᎦᏅᎾ	-9.43097
▁ᎤᎾᏁᎳᎩ	-9.43133
▁ᏍᏔᏯ	-9.43136
▁ᎢᎩᏙᏓ	-9.4314
▁ᎧᏃᎮᏍᎩ	-9.4317
▁ᎢᎬᏱᏢ	-9.43175
▁ᎦᏬᏂᏍᎩ	-9.43175
▁ᏂᎨ	-9.4321
▁ᎤᏅᏌ	-9.4322
▁ᎦᎶᏙᏗ	-9.4322
▁ᎠᏢᏗᏱ	-9.43313
▁ᎤᏬᎸ	-9.43384
▁ᎠᏲᎩ	-9.43429
ᎶᎯᏍᏗ	-9.43465
▁ᎶᏗ	-9.4348
▁ᎦᏅᎯᏛ	-9.43532
▁ᏫᏣ	-9.43582
ᎲᏏ	-9.44002
▁ᎠᎼ	-9.44337
▁ᎡᎲᎢ	-9.4441
▁ᎣᏏ	-9.44657
▁ᎢᎬ	-9.4471
Ꮠ	-9.45204
ᏍᏛᎢ	-9.45568
Ꮪ	-9.4557
ᎸᎭ	-9.46164
ᏂᎦ	-9.4627
▁ᎠᏰᏙᎳᏛᏗ	-9.4643
ᎯᏯ	-9.4645
▁ᏩᏯ	-9.46715
▁ᎦᏅᏍᏙᏗ	-9.46886
ᏤᏍᏗ	-9.46934
ᏧᏏ	-9.47023
▁ᎠᏔᎴᏒ	-9.4703
▁ᏉᎳᏃ	-9.47079
▁ᏓᏓᎿᏩᏍᏛ	-9.47102
▁ᏓᏆᏙᎥ	-9.4713
▁ᎠᎩᏏ	-9.47157
ᎩᏃ	-9.47331
ᏛᏁ	-9.47342
▁ᎢᏥᎦᏔᎭ	-9.47361
Ꮇ	-9.47401
▁ᎠᏁᏙᎯ	-9.47416
▁ᎤᏂᏥ	-9.4742
ᎠᎴ	-9.47458
▁ᏗᎧᏃᏗ	-9.47507
▁ᏧᎸᏫᏍᏓᏁᏗ	-9.47532
ᏕᎵ	-9.4759
▁ᏩᏚᎵᏏ	-9.47622
▁ᎦᎷᏯᏍᏗ	-9.47625
▁ᏧᏃᏰᏂ	-9.47625
▁ᎯᎸᎯᏳ	-9.47631
▁ᏓᎦᎷᏥ	-9.47638
▁ᎾᏎᎵᏗ	-9.47643
▁ᎠᎩᏅᏏᏙᎯ	-9.47668
▁ᏧᏂᏢᎩ	-9.47674
▁ᏂᎦᏪᏍᎨᎢ	-9.47679
▁ᎪᎩ	-9.47709
▁ᏗᎫᎪᏙᏗᏱ	-9.4772
ᏍᏔᏅᎯ	-9.47748
▁ᎤᏥᎸᎢ	-9.47762
▁ᏗᎧᏃᏗᏱ	-9.47773
▁ᏗᏂᎦᏙᎵ	-9.47834
▁ᎠᏂᎩᏏ	-9.47838
▁ᎭᎾᎾ	-9.47859
▁ᎢᎦᎦᏛ	-9.47887
▁ᎤᏍᏆᎸᎲ	-9.4795
ᏍᏚ	-9.47979
▁ᏭᏂ	-9.48269
▁ᏭᎷᏤᎢ	-9.48356
▁ᏚᏯ	-9.48394
▁ᏱᎬ	-9.48406
ᏛᏂ	-9.4851
▁ᎢᎦᏘ	-9.48573
▁ᎾᏂᎥᎢ	-9.48714
▁ᎡᏆᎻᏃ	-9.48872
▁ᎠᏥᎸᏱ	-9.48942
▁ᎢᏤᎾ	-9.49016
ᏆᎵ	-9.49023
ᎡᎢ	-9.49139
ᎪᎯ	-9.49173
ᏛᎯ	-9.49473
ᎪᎲ	-9.49608
▁Ꮡ	-9.49609
▁ᎢᎬᏁᏗ	-9.49647
▁ᎠᎴᏬ	-9.49778
▁ᏗᏓ	-9.50387
▁ᎦᏥ	-9.50415
▁ᏄᏍᏛᎢ	-9.50518
▁ᏦᎩ	-9.51184
▁ᎨᎳ	-9.51313
▁ᎵᏇᎩ	-9.51352
▁ᏗᏓᎴᏂᏍᎬ	-9.51613
▁ᏗᎨᏫ	-9.51636
▁ᎦᎳᎨᏴ	-9.51871
▁ᏕᎦᏚᎲ	-9.5188
▁ᏗᎩᎦᏴᎵᎨ	-9.51889
▁ᎾᏂᎥᏉ	-9.51902
ᏅᏏᏛ	-9.51926
▁ᏚᎾᏓᏅᏛ	-9.51948
▁ᎦᏛᎬ	-9.5203
▁ᎤᏓᏅᏘᏳ	-9.52056
ᏍᏆᏂᎪᏙᏗ	-9.52079
▁ᏇᏂ	-9.52224
▁ᏥᏂ	-9.52235
▁ᎤᏍᎦᏎᏗ	-9.52239
▁ᎤᏍᎦᏅᏨ	-9.52253
▁ᎢᏳᏩᎫᏗ	-9.52383
▁ᎠᎵᏍᏆᏗᏍᎩ	-9.52383
▁ᎢᏥᏡᏱ	-9.52383
▁ᎢᏳᏓᎴᎩ	-9.52383
▁ᎦᎵᏆᏍᎪᎯ	-9.52383
▁ᎢᏤᏯᏔᎮᏍᏗ	-9.52383
▁ᏒᎧᏔ	-9.52384
▁ᏄᏃᎯᏳᏒᎾ	-9.52385
▁ᎢᏌᏯ	-9.52389
▁ᏫᏥᎢᎦ	-9.52391
▁ᏅᏓᏳᎵᏍᏙᏔᏅᎩ	-9.52395
▁ᏚᏙᎡᎢ	-9.52399
▁ᏄᎬᏫᏳᏌᏕᎩ	-9.52405
▁ᎢᏨᏲᏎᎭ	-9.52413
▁ᏎᎷ	-9.52413
▁ᎠᏂᎪᏕᏍᎩ	-9.52423
▁ᏧᏙᏓᏆᏓ	-9.52442
▁ᎠᏂᏣᎳᎩ	-9.52449
▁Ꮝ	-9.52459
▁ᎤᏗᎴᎩ	-9.52483
▁ᎠᏏᎾᏌᏂ	-9.52494
▁ᏗᏦᏢᏗ	-9.52527
▁ᎤᎾᎵᏍᏓᏴᏗ	-9.52528
▁ᏗᎦᎪᏗᏱ	-9.52537
▁ᎢᏥᏈ	-9.5254
▁ᎤᎾᏫᏱ	-9.5256
▁ᎤᎯᏐᏗ	-9.5257
ᎴᏃ	-9.52655
▁ᏭᏴᎴᎢ	-9.52757
▁ᎤᎾᏄᎪᏫᏒᎯ	-9.52812
▁ᎠᎫᏴᏙᏗ	-9.52895
▁ᎦᎾᏰᎯᏍᏗ	-9.53041
▁ᎢᏤᎯ	-9.53107
ᎲᏍᎩ	-9.53108
▁ᎥᎩ	-9.53228
▁ᎤᏕᏅ	-9.53344
▁ᏴᎩ	-9.53407
▁ᎴᏆᏂᏃ	-9.53481
ᏴᏫ	-9.5365
▁ᎠᎪ	-9.53686
ᏐᎢ	-9.53697
▁ᎠᎧᎵᎢ	-9.54116
ᏌᏛ	-9.54549
ᎨᏥ	-9.54613
▁ᏥᏣ	-9.55026
▁ᏱᏗᏥ	-9.55383
▁ᎯᏯ	-9.5548
ᏍᏗᏉ	-9.55593
▁ᎾᏍᎩᏴ	-9.55906
▁ᏯᎩ	-9.56098
▁ᏫᎦ	-9.56545
ᏂᎩ	-9.5659
▁ᏂᏥ	-9.56615
▁ᎤᏂᎷᏨᎩ	-9.56688
▁ᏅᏛ	-9.56734
Ꮚ	-9.56764
▁ᏅᏗᎦᎵᏍᏙᏗᏍᎪ	-9.56868
▁ᏧᏪᏅᏒ	-9.56868
▁ᏚᎪᎮ	-9.5691
▁ᎠᏂᏃᎮᏍᎬ	-9.56938
▁ᎤᏃᏴᎬ	-9.56954
▁ᏓᏓᏁᎸ	-9.57034
▁ᎪᏍᏚ	-9.57068
▁ᎡᏘ	-9.57107
▁ᏅᏛᎩᏅᏏᏛ	-9.57121
▁ᎬᏂᏗᏳ	-9.57215
▁ᎤᏂᏬᏂᎯᏍᏗ	-9.573
▁ᎢᏳᎾᏛᎿᏕᎩ	-9.57383
▁ᏍᎦᏚᎩ	-9.57383
▁ᏎᎩᎵ	-9.57385
▁ᏓᏆ	-9.57386
▁ᏗᏂᎭᏄᎸᎯ	-9.57391
▁ᎤᏂᎬᏫᏳᏌᏕᎩ	-9.57394
▁ᏌᎪᏂᎨ	-9.57398
▁ᎢᎳᎪ	-9.574
▁ᏂᏥᏪᎭ	-9.57402
▁ᎢᏳᏩᏂᏐᏗᏱ	-9.57405
▁ᏍᎩᏃᎲᏏ	-9.57406
▁ᎢᏳᏩᏁᏗᏱ	-9.57417
▁ᎠᎩᎵᏯ	-9.5742
▁ᎢᏳᏓᎴᏅᏛ	-9.57423
▁ᏏᏌ	-9.57427
▁ᎤᏩᏙᎯᏴᏓ	-9.57431
▁ᏙᏰ	-9.57432
▁ᎠᏦᎭᏴ	-9.57439
▁ᏒᎮᏱᏣ	-9.57447
▁ᎢᎬᏁᎯ	-9.57476
▁ᎠᎦᏗᏓ	-9.57513
▁ᎤᏬᏗᎨ	-9.57529
)	-9.57572
▁ᎤᏍᎦᏃᎵ	-9.57572
▁ᏓᏯᎢ	-9.57657
ᎦᎵᏍᏗ	-9.57671
▁ᏚᎸᏫᏍᏓᏁᎲᎢ	-9.57677
▁ᎧᎸᎢ	-9.57734
▁ᎠᏍᏓᏱᏳ	-9.57736
ᎾᎵ	-9.57747
▁ᎦᎸᎳᏗᏳ	-9.57867
▁ᎠᎾᏓ	-9.57899
▁ᏚᎾᏓᏅᏛᎢ	-9.5794
▁ᎨᏂ	-9.58009
▁ᎤᏰᎯ	-9.58046
▁ᎤᎾᎵᎢ	-9.58261
▁ᎪᎯᏓ	-9.58301
▁ᏄᏛᏁᎴᎢ	-9.58338
ᏁᎸᎢ	-9.58506
▁ᎤᎾᏓᏡᎬᎢ	-9.58611
ᏍᏕᎸᏗ	-9.5871
Ꮴ	-9.58757
▁ᏧᏓᏃ	-9.58761
ᏙᎩ	-9.58959
▁ᏣᏤᎵᎦ	-9.58986
▁ᏗᎧᎿᏩᏛᏍᏗᏱ	-9.59049
▁ᎤᏂᏁ	-9.59108
ᏉᏰᏃ	-9.59181
Ᏸ	-9.59564
e	-9.59595
ᏂᏯ	-9.59766
▁ᎤᏓᏅᏖᏗ	-9.59812
ᎦᏅᎯᏛ	-9.59948
▁ᎤᏬ	-9.60017
▁ᏕᎨ	-9.60021
ᎩᏎ	-9.60568
▁ᎤᎶᎩᎸ	-9.60603
ᏯᎠ	-9.60659
ᏌᎳᏓ	-9.60682
▁ᎤᏂᏣᏖ	-9.60775
▁ᏅᏓᏳ	-9.60835
ᏃᎴ	-9.61192
ᏥᏌ	-9.61295
▁ᏂᏚᎩᏨᏂᏒ	-9.61306
ᏁᎲᎢ	-9.61349
▁ᎤᏅᏒᏉ	-9.61532
▁ᎦᏓᏅᏖᏍᎬ	-9.61624
▁ᏙᎴᏛ	-9.61754
▁ᏗᎹᏗ	-9.6179
▁ᏗᎦᏚᎲ	-9.61852
▁ᏧᏯᏖᎾ	-9.61902
ᎤᏁᎳᏅᎯ	-9.61954
ᏍᏔᏅᎩ	-9.62022
▁ᎠᏓᏫ	-9.62049
▁ᎧᎳᏩᏗᏒ	-9.62112
▁ᎢᏦᎯᏳᏒ	-9.62146
▁ᎠᏤᎵᏍᏛ	-9.6215
ᏤᎸ	-9.6235
▁ᎠᏆᏚᎵ	-9.62486
▁ᏭᎶᏒ	-9.62566
▁ᎤᎪᏏᏓ	-9.62646
▁ᏨᏗᏓᎴᎲᏍᎦ	-9.62647
▁ᎢᏥᏏᏴᏫᎭ	-9.62653
▁ᏱᏅᏗᎦᎵᏍᏙᏗᎭ	-9.62655
▁ᏗᏟᎶᏍᏔᏅᎯ	-9.62656
▁ᎢᏳᎾᎵᏍᏙᏗᏱ	-9.62663
▁ᎪᏍᏓᏱ	-9.62666
▁ᎢᏯᎾᏛᏁᎯ	-9.62666
▁ᏦᏓᏂ	-9.62669
▁ᏧᏕᏘᏴᏓ	-9.6267
▁ᏗᏖᎵᏙ	-9.62671
▁ᎬᏩᏟᏍᏗ	-9.62713
▁ᎠᏍᎦᏅᎢᏍᏗ	-9.62721
▁ᎠᏋᏌ	-9.62728
▁ᎪᎯᏗᏳ	-9.62729
▁ᎤᎦᎾᏍᏓ	-9.62819
▁ᎢᏣᏤᎵᎦ	-9.62828
▁ᏧᎪᎳ	-9.62829
ᎵᏏ	-9.62833
▁ᏗᏆᏤᎵᎦ	-9.6288
▁ᎠᎵᏍᏕᎸᏙᏗ	-9.62908
ᎥᎢ	-9.63016
▁ᎢᏧ	-9.63085
▁ᎤᏚᎵᏍᎨᏍᏗ	-9.63129
▁ᎢᎦᎦᏘ	-9.6317
▁ᎦᏬᏂᎯᏍᏗ	-9.63502
ᏆᏂ	-9.63623
▁ᎡᎵᏍᏗ	-9.63664
▁ᎤᏓᏅᏖᎴ	-9.63712
c	-9.63846
Ꮗ	-9.63846
▁ᏣᏁᎳ	-9.63852
▁ᎡᏗ	-9.64043
ᎩᎶ	-9.64075
ᎵᏰ	-9.64142
ᎩᏯ	-9.64312
▁ᎠᏓᏁᎸᎢ	-9.64529
▁ᏞᎦ	-9.64631
▁ᏄᏪᏒᎢ	-9.64663
▁ᏄᎵᏍᏔᏅᎢ	-9.64826
▁ᏂᎦᏗ	-9.64954
ᏨᎩ	-9.65109
ᏅᏃ	-9.65275
ᎦᎳ	-9.65395
▁ᎤᏁᏨᎢ	-9.65585
▁ᎤᏣᏘᏰᏃ	-9.65695
▁ᏃᏥ	-9.65928
▁ᎠᏏᏴᏫᏃ	-9.66063
ᎬᏂ	-9.66157
▁ᎦᏄᎸ	-9.66158
▁ᎦᏂ	-9.66185
ᎸᎾ	-9.66219
▁ᎤᏛ	-9.66382
▁ᏧᎾᏓ	-9.66587
ᎨᏒᎢ	-9.66619
▁ᏚᎴᏅ	-9.66965
▁ᎦᏁᎲ	-9.67079
ᎸᏉᏗᏳ	-9.67088
▁ᏚᏂᎸᏫᏍᏓᏁᎲ	-9.6721
▁ᎫᏢᏗ	-9.67237
▁ᎡᏈᏌ	-9.67302
▁ᎾᎾᏛᏁᎲ	-9.6734
▁ᎢᏳᎢ	-9.67366
▁ᏗᎪᏪᎵᏍᎩ	-9.67421
▁ᎠᎵᏍᏚᎶ	-9.67427
▁ᎵᏫ	-9.67547
▁ᎤᎨᏓᎵᏴ	-9.67668
ᎢᏍᏗᏱ	-9.67671
▁ᎤᏅᏏᏴ	-9.67672
▁ᎾᎥᎢ	-9.67717
▁ᎣᏁ	-9.67751
▁ᎠᎾᎢᏒ	-9.67752
▁ᎢᏗᎦᏔᎭ	-9.67774
▁ᎬᏆ	-9.67899
▁ᎦᏅᏅ	-9.6794
▁ᏐᏓᎻ	-9.68011
▁ᏭᎷᏨ	-9.68013
▁ᎡᎵ	-9.68046
▁ᏗᏥᎾᏫ	-9.68084
ᏗᏣ	-9.68119
▁ᎤᏂᎷᏨ	-9.68164
▁ᎠᏰᏙᎳᏛ	-9.68176
ᏲᎯ	-9.68192
▁Perry	-9.68201
▁ᏧᎦᎾᏮ	-9.68201
▁ᎤᏁᎫᏥᏛ	-9.68202
▁ᎥᏳᎩ	-9.68202
▁ᎤᎩᏨᏓ	-9.68208
▁ᏗᎴᎯᏐᏗ	-9.68212
▁ᎧᏂᎩᏛ	-9.68215
▁ᎠᎦᏘᏏ	-9.68224
▁ᏗᏕᏲᏗ	-9.68228
▁ᎤᏬᏢᏔᏅᎩ	-9.68244
▁ᏧᎾᎩᎸᏗ	-9.68245
▁ᎤᏂᎩᎬ	-9.68247
▁ᏗᏓᏘᏂᏙᎯ	-9.68254
▁ᏚᏳᎪᏛᎢ	-9.68277
▁ᎠᎵᏍᏔᏴᏗ	-9.68285
▁ᏂᏗᎥ	-9.68338
▁ᏯᏆ	-9.6834
▁ᏳᏚᎵᏍᎨ	-9.6835
▁ᏚᏓᏘᎾᎥᎢ	-9.68361
▁ᎠᏆᏁᎳᏅᎯ	-9.68362
▁ᎤᏂᏍᏆᏂᎪᏎᎢ	-9.68362
▁ᎤᏫᏯ	-9.68396
▁ᎠᏍᏚᏗ	-9.68439
▁ᎤᎷᎯᏍᏗ	-9.68445
▁ᎢᏳᎾᏛᏁᏗᏱ	-9.68479
▁ᎤᎾᏰᎯᏍᏗ	-9.68515
▁ᏄᏛᏁᎸᎩ	-9.68546
ᏍᏕᏍᏗ	-9.68611
▁ᎤᏍᏆᏂᎪᏗᏳ	-9.68631
▁ᎤᏂᏴᏍᏗ	-9.68644
▁ᎠᎵᏍᎪᎸᏔᏅᎯ	-9.68723
ᏂᏗ	-9.69031
ᎪᏙᏗ	-9.6923
▁ᏂᎦᏪᏍᎬᎢ	-9.69238
▁ᎯᎸ	-9.69347
Ꮋ	-9.69355
▁ᎠᏫᏅ	-9.69507
▁ᏚᎾᏓ	-9.69781
▁ᎤᏁᏨᎯ	-9.69939
▁ᏱᏗᏣ	-9.70051
ᎨᏎᎢ	-9.70294
▁ᏦᎢᏁᏃ	-9.70452
▁ᏕᏣᏓ	-9.70498
▁ᎢᏐᏃ	-9.70779
ᏛᏃ	-9.70953
▁ᎢᏳᏉ	-9.71027
▁ᎤᏪᎵᎯᏍᏗ	-9.71031
ᏲᎵ	-9.71083
ᏁᏥ	-9.71305
ᏣᏗ	-9.71548
▁ᏂᏙ	-9.72113
Ꮔ	-9.72184
▁ᎦᏁᏌᎢ	-9.72919
▁ᎦᏃᎸᎥᏍᎬ	-9.72925
▁ᎾᏂᎥᏃ	-9.7301
▁ᎡᏉᏗ	-9.73202
▁ᏧᏓᏕᏒᏛ	-9.73247
▁ᏌᏉᏃ	-9.73303
▁ᎤᏕᏁᎸ	-9.73386
▁ᎡᏙᎲ	-9.73434
▁ᏐᎳ	-9.73455
▁ᎠᏓᎯ	-9.7348
▁ᎠᏆᏛᎦᏅᎩ	-9.7349
ᏗᏍᎪ	-9.73501
▁ᏓᏁᏩᏗᏒ	-9.73601
▁ᏕᎨᏌᏗᏒ	-9.73613
▁ᏕᏡᎬ	-9.7362
ᎦᎶ	-9.73657
▁ᎤᎸ	-9.73875
▁ᏗᎫᎪᏙᏗ	-9.73976
▁ᏓᏣ	-9.73977
▁ᎤᏓᏴᏍᏗ	-9.74021
▁ᎤᏕ	-9.74055
▁ᏗᏂᎵᎠᏅᎯᏛ	-9.74084
▁ᎢᏈᎬᎢ	-9.74084
▁ᏞᎩᏳ	-9.74087
▁ᏔᎵᏧᏈ	-9.74087
▁ᎢᏳᏪᏅᏍᏗ	-9.74088
▁ᎠᎪᏄ	-9.7409
▁ᎠᎾᏓᏅᏟ	-9.74094
▁ᏌᎺᎵᏱ	-9.74095
▁ᎩᏟ	-9.74097
▁ᎠᏫᏄᏣ	-9.74102
▁ᏧᏍᏆᏅᎾ	-9.74102
▁ᎬᏔᏂᏓᏍᏗ	-9.74108
▁ᎤᏬᏚᎯ	-9.74118
▁ᎦᎨᏛ	-9.74119
▁ᎤᏬᏚᎯᏳ	-9.74131
▁ᏗᎦᏅᏙᏗ	-9.74146
▁ᏧᏓᎴᏅᏓ	-9.74173
▁ᎢᏨᏗᏍᎨᏍᏗ	-9.74173
▁ᎠᎧᏔᎮᎢ	-9.74253
▁ᏴᎬ	-9.74282
▁ᎠᏥᏍᏛ	-9.74309
▁ᎠᏟᎶᏍᏗ	-9.74342
ᏕᎾ	-9.74355
▁ᎤᏂᏴᏍᏗᏱ	-9.74403
▁ᎤᎶᏒᏍᏗ	-9.7447
▁ᏤᎮᎢ	-9.74537
▁ᏚᎴᏁᎢ	-9.74554
ᏁᎶ	-9.7457
▁ᏰᎭ	-9.74645
▁ᎠᏎᎩ	-9.74662
▁ᎠᏁᎮᎢ	-9.74689
ᎵᏍ	-9.74864
▁ᎠᏥᎸᏉᏗ	-9.7501
▁ᎦᏍᎩᎸᎢ	-9.75232
▁ᎦᏲᏟᏉ	-9.75254
▁ᎤᏍᎪᎵ	-9.75267
▁ᎤᏚᎸᏗ	-9.7528
▁ᏱᏨ	-9.7532
▁ᏙᎩ	-9.7534
▁ᎢᏓ	-9.75356
ᎭᏗ	-9.75476
▁ᎠᎨᏴᏃ	-9.75588
▁ᏗᏆ	-9.75685
▁ᏛᎾ	-9.75728
Ꮯ	-9.75755
ᏅᏅ	-9.76153
▁ᏕᎬᏩ	-9.76225
▁ᏱᏕ	-9.76381
ᏍᎦᎸ	-9.7664
▁ᏔᎵᎭ	-9.76655
▁ᎣᏏᏉ	-9.76946
ᎳᏅᎯ	-9.77738
▁ᏱᎨ	-9.77769
▁ᏫᎬᏩ	-9.77771
▁ᏙᎯᏱ	-9.77817
ᏅᏏᏓᏍᏗ	-9.78024
n	-9.78117
ᏍᏕᎸᏗᏱ	-9.7871
▁ᏚᎳᏍᎬ	-9.78815
▁ᏚᎴᏁ	-9.79075
▁ᎤᏁᏅᏎ	-9.79099
ᏔᏅᎢ	-9.79129
▁ᎠᏜ	-9.79214
▁ᏃᏊ	-9.79298
▁ᏴᎦ	-9.7936
▁ᎰᏩ	-9.79447
▁ᏗᏣᏓᏅᏙ	-9.79487
▁ᎠᏂᏙᎾᎥ	-9.79566
▁ᎠᏈᎻᎴᎩ	-9.79602
ᎦᏓ	-9.79648
ᏓᎴ	-9.79667
ᎬᎿᎨ	-9.79701
▁ᏂᏣᏛᏁᎸ	-9.79732
ᎧᏂ	-9.7981
▁ᎤᏰᏤ	-9.79816
▁ᏨᏍᎩᏃ	-9.79818
▁Ꮜ	-9.79819
▁ᎠᏆᎧᏛ	-9.79825
▁ᎠᏁᏙᎲ	-9.79848
▁ᏓᏠᎯᏍᏛ	-9.7985
ᎠᏯ	-9.79889
▁ᏭᎶᏎ	-9.79902
▁ᏕᎭᎷᎨ	-9.79915
▁ᎤᏓᏅᏛ	-9.79949
▁ᏥᏫ	-9.79973
▁ᎠᏥᎦᏘᏗᏍᏗ	-9.80191
▁ᎢᏳᏛᏁᏗ	-9.8025
ᏗᏳ	-9.80257
▁ᏕᎦᎶᏗ	-9.80258
▁ᎤᏬᎵ	-9.80269
▁ᎤᏓᏅᏎ	-9.80292
▁ᎾᎯᏳᏉ	-9.8033
▁ᎢᏏᎺᎵ	-9.80334
▁ᎦᎷᏯᏍᏘ	-9.80334
▁ᏑᎾᏙᏓᏆᏍᏗ	-9.80334
▁ᎬᏩᏍᏓᏩᏛᏎᎢ	-9.80334
ett	-9.80334
▁ᏅᏓᏳᏂᎶᏒᎯ	-9.80336
▁ᎢᏯᏅᏙ	-9.80337
▁ᎤᎵᏗᏨ	-9.80337
▁ᏗᎬᏔᏂᏓᏍᏗ	-9.80337
▁ᏗᏦᏢᏙᏗ	-9.80338
▁ᏂᎬᏩᏪᏎᎸᎩ	-9.80341
▁ᏣᏓᎵᎢ	-9.80342
▁ᎢᎦᏪᏍᏗ	-9.80345
▁ᏕᎹᏍᎦ	-9.80353
▁ᏗᏍᏓᏓᏅᏟ	-9.80354
▁ᎭᏩᏧ	-9.80362
▁ᎠᏂᎦᏓᎭ	-9.80365
▁ᎠᏫᏒᏗᏱ	-9.80367
▁ᏙᏱᏨ	-9.80369
▁ᎤᎴᏂᏙᎸ	-9.80376
▁ᎪᏪᎳ	-9.80377
▁ᏌᎾᏱ	-9.80378
▁ᎤᏁᎵᏤᎢ	-9.80382
▁ᎯᏍᎩᏃ	-9.80387
▁ᎦᏂᎦᏔ	-9.80394
▁ᏥᏚᏙᎥ	-9.80406
▁ᎤᎾᏠᎾᏍᏗ	-9.80407
▁ᎤᏏᏩ	-9.80416
▁ᎠᏖᎵᏙ	-9.80422
▁ᎤᏬᏚᏨ	-9.80427
▁ᏗᏰᏙᎳᏛᏗ	-9.80435
▁ᏱᏂᎦᎵᏍᏓ	-9.80436
ᏤᎢ	-9.8046
▁ᎤᏕᎰᎯᏍᏗ	-9.80462
▁ᎾᏂᏪᏍᎬᎩ	-9.80474
▁ᎠᎩᏰᎸᎭ	-9.80581
▁Ꭾ	-9.80585
▁ᎤᎾᏁᎳᏅᎯ	-9.80585
▁ᎢᎬᏓ	-9.80603
▁ᏁᎲᎾ	-9.80604
▁ᏗᏂᏅᏌᏗ	-9.80636
▁ᎤᎷᎯᏍᏗᏱ	-9.80647
Ꮦ	-9.80673
ᎩᎾ	-9.80678
▁ᎤᏂᎯᏍᏗᏱ	-9.80695
▁ᏄᎾᏛᏅᎢ	-9.80793
▁ᏕᎭᎷᎨᎢ	-9.80845
▁ᏓᏁᏩᏗᏒᎢ	-9.80862
▁ᎦᏅ	-9.80899
ᏍᎦᎩ	-9.81208
▁ᎠᏁᎩ	-9.81209
ᏯᎢ	-9.81269
ᏉᎳ	-9.81288
ᏅᏒᎩ	-9.81336
▁ᎤᏟᏍᏓ	-9.81395
ᏅᏂ	-9.81403
ᏛᏁᎸ	-9.81406
ᏅᏛ	-9.81482
ᎷᎩ	-9.81599
▁ᎬᏩᎾ	-9.81667
ᎬᏅ	-9.81801
▁ᎨᏴᎢ	-9.81812
ᏗᏍᎬᎢ	-9.81841
▁ᎠᏛᎪᏗ	-9.81843
▁ᏔᎵᏁᎢ	-9.81857
ᏙᎳ	-9.82107
▁ᎨᎦ	-9.82272
▁ᏗᏤ	-9.82397
▁ᏂᎦᎵᏍᏓ	-9.82587
ᏫᏍᏗ	-9.82668
ᎷᎦ	-9.83107
▁ᏕᎩ	-9.83121
▁ᎦᏥᏯ	-9.83148
ᎧᏅ	-9.83149
▁ᎢᎾ	-9.83187
ᏍᏓᏩᏗᏙᎯ	-9.83804
▁ᏳᎾ	-9.8398
,)	-9.83987
▁ᏙᎯ	-9.84009
ᎨᏎ	-9.84021
▁ᎤᏣ	-9.8405
ᏓᏛ	-9.84148
▁ᏯᏂ	-9.84166
ᎨᏳ	-9.84249
ᎡᎵ	-9.84522
ᎩᎸ	-9.84631
▁ᎤᏇᏓᎸ	-9.84696
Ꮱ	-9.84802
▁Ꮼ	-9.84906
▁ᏍᎩᏯ	-9.85055
ᏂᏃ	-9.85218
▁ᏓᎾᏓ	-9.85314
▁ᏭᏯᏅᎮ	-9.85674
ᏯᏅ	-9.85761
▁ᎪᏢ	-9.85788
▁ᏣᏉ	-9.85826
▁ᏫᏗ	-9.85918
▁ᎤᎾᏙᎴᎰᏒ	-9.86029
▁ᎡᏏᏱ	-9.86146
▁ᎠᏥᎾᏝᎢ	-9.86181
▁ᎡᎮ	-9.86186
▁ᎤᏚᎵᏍᎨ	-9.86188
▁ᎠᏆᏚᎵᏍᎬ	-9.86278
▁ᎠᏙᎳᏅᏍᏗ	-9.86319
ᏓᎶᏂᎨ	-9.86351
▁ᎨᎵᏍᎬ	-9.86381
▁ᏚᎸᏫᏍᏓᏁᎸ	-9.86405
▁ᎹᏏᏙᏂ	-9.8645
▁ᏕᏥᎸᏫᏍᏓᏁᎲ	-9.86509
▁ᏄᎾᏛᏅ	-9.86541
▁ᏭᏴᎴ	-9.86542
▁ᏅᏗᎦᎵᏍᏙᏗ	-9.86563
ᏓᏓ	-9.86573
▁ᏙᏓᎸ	-9.86677
ᎾᏗ	-9.86751
ᏔᏅᎭ	-9.86757
a	-9.86887
ᎾᏃ	-9.86898
▁ᎠᎾᏓᎾᏏᏂᏙᎯ	-9.87
▁ᎦᏣᏄᎳ	-9.87
▁ᎢᏳᏩᎬᏘ	-9.87003
▁ᎠᎵᏰᎾ	-9.87004
▁ᎠᎱᏍᏕᏍᏗ	-9.87012
▁ᎢᎬᏩᎵᏍᏙᏗ	-9.87017
▁ᎢᏣᎵᏍᏙᏗᏱ	-9.87025
▁ᏫᎦᎷᎩ	-9.87036
▁ᎤᎵᏍᎨᏛ	-9.87045
▁ᎠᏂᎩᎷᏫ	-9.87046
▁ᏥᏄᏪᏎᎢ	-9.87051
▁ᎭᏫᏂᏨ	-9.87057
▁ᎫᎫ	-9.87061
▁ᎠᏒᎬ	-9.87082
▁ᎠᏤᎷᎩ	-9.87103
▁ᎫᎴ	-9.87104
▁ᎧᏃᎮᏗ	-9.87112
▁ᏏᏲ	-9.87127
ᏕᎩ	-9.87159
▁ᏧᎳᏏᏕᏂ	-9.87169
▁ᏄᎾᏓᎴᏒ	-9.87176
▁ᎤᏲᎱᎯᏍᏗᏱ	-9.87176
▁ᏭᏂᎶᏎᎢ	-9.87228
▁ᎢᏳᏍᏘ	-9.87259
▁ᎠᏆᏚᎵᎭ	-9.87271
ᎡᎭ	-9.87289
▁ᏗᏁᎲ	-9.87344
▁ᏱᎨᏐᎢ	-9.87368
▁ᏗᎩᏏ	-9.87428
▁ᏂᎪᎯᎸᎾᏉ	-9.87496
▁ᏚᎸᏫᏍᏓᏁᎸᎢ	-9.87501
▁ᎨᎵᎠ	-9.8753
ᎩᏒ	-9.87581
▁ᎠᏁᏙᎲᎢ	-9.87605
▁ᎢᎦᏤᎵᎦ	-9.87608
▁ᎤᎨᏳᎯ	-9.87609
▁ᎡᏙᎲᎢ	-9.87612
▁ᎤᏁᏢᏔᏅᏛ	-9.87619
▁ᎤᎩᏨᏛᏃ	-9.8774
▁ᏯᎾ	-9.87823
▁ᏗᏁᎲᎢ	-9.87933
▁ᏂᎪᎯᎸᎾ	-9.8805
ᎦᏙᏃ	-9.88078
ᏁᎰ	-9.88112
▁ᏂᏥᎥᎢ	-9.88184
▁ᎤᏂᎷᏤᎢ	-9.88297
ᏩᏒ	-9.88316
▁ᎡᎮᏍᏗ	-9.88317
▁ᏍᎩᏃ	-9.88352
ᏓᏏ	-9.88366
▁ᏆᎴᏗᏃ	-9.88568
ᏐᏅ	-9.88616
▁ᎠᎪᏩᏛᏗ	-9.88906
▁ᏣᎾ	-9.88927
ᏕᏗ	-9.89022
▁ᏗᏂᏏᏗ	-9.89167
▁ᎠᎩᎵᏲᎢᏍᏗ	-9.89186
ᏃᎯ	-9.89219
ᎵᏍᏔᏁ	-9.89564
ᏙᎴ	-9.89667
▁ᏌᏩᏂᏃ	-9.89697
▁ᎡᎾ	-9.89749
▁ᎤᏲᏨ	-9.89774
ᎸᏅ	-9.89837
▁ᎠᏋᏒᏉ	-9.89871
▁ᏥᏍᏚ	-9.89902
▁ᏁᎰ	-9.8999
ᎦᏛᎦ	-9.90485
ᏳᎯ	-9.90559
ᏔᏅᎾ	-9.90665
▁ᎤᏲᏉ	-9.9069
ᏕᏅ	-9.90708
▁ᏓᏨ	-9.90878
▁ᎪᎯᏍᎩᏂ	-9.90935
ᏎᏃ	-9.91024
▁ᎪᎨ	-9.91438
ᏍᎩᏯ	-9.91487
ᏣᏘ	-9.91619
ᎾᏝᎢ	-9.9173
▁ᏗᎾ	-9.91778
▁ᎤᏓᏅᏅ	-9.91844
▁ᏭᎾ	-9.91913
▁ᏑᎾᎴᏃ	-9.91931
ᎶᎢ	-9.91938
ᎩᏛ	-9.92011
ᏂᏴ	-9.92012
ᏎᎸ	-9.92078
▁ᏗᏥᏲᎵ	-9.92457
▁ᎠᏂᏐ	-9.92501
▁ᏔᎵᏃ	-9.92571
▁ᏣᏓ	-9.92599
▁ᎡᎳᏪ	-9.93021
▁ᏧᎾᏄᏬ	-9.93064
▁ᏏᎩᎻ	-9.9307
▁ᏣᏂᏃ	-9.9308
▁ᏕᎬ	-9.93317
ᎪᎵᏰᏍᎩ	-9.93324
▁ᎠᏂᏫᏅ	-9.9338
▁ᎤᎩᏨᏛ	-9.93414
Ꮼ	-9.93475
▁ᏐᎢᏱ	-9.93598
▁ᎤᏁᎳᏅᎯᏱ	-9.93721
▁ᏓᏫᏒ	-9.93759
▁ᏄᏛᏅ	-9.93822
ᏅᎦ	-9.9383
▁ᎤᎾᏰᎯᏍᏗᏳ	-9.93836
▁ᎠᏆᏛᎦᏅ	-9.93862
▁ᎠᎾᏓᏅᏖᏍᎬ	-9.93879
ᎸᏉᏙᏗ	-9.93943
▁ᏗᎧᏃᎩᏍᏗ	-9.94024
▁ᎡᏝᏪ	-9.94029
y	-9.94133
▁ᎠᏂᏌᏚᏏ	-9.94143
▁ᎬᏍᎦᎢᏍᏓᎩ	-9.94143
▁ᏂᎦᏅᎯᏎᏍᏗ	-9.94143
▁ᎤᎵᎪᎲᏍᏗ	-9.94144
▁ᏄᏜᏏᏛᏒᎾ	-9.94144
▁ᏧᏃᏑᎶᏨᎯ	-9.94144
▁ᏅᎩᏧᏈ	-9.94146
▁ᏌᏯᏂ	-9.94146
▁ᏧᎾᏦᎯᏍᏗ	-9.94147
ᏂᎵ	-9.94148
▁ᎳᏏᎳ	-9.94149
▁ᎤᎶᏒᏍᏔᏅᎯ	-9.9415
▁ᏔᎷᏣ	-9.94151
▁ᏫᏄᏒᎸ	-9.94151
▁ᎤᏴᏣ	-9.94155
▁ᎢᏳᏓᎨᏛ	-9.94155
▁ᏥᏔᎦ	-9.94156
▁ᎢᏨᏔᏲᏎᎭ	-9.94156
▁ᎦᏰᏌᏗ	-9.94166
▁ᎢᏅᎯᏳ	-9.94174
▁ᏫᏂᎦᎵᏍᏓ	-9.94174
▁ᏧᎾᎳᏏᏕᏂ	-9.94175
▁ᎢᏣᏓᏙᎵᏍᏗᏍᎨᏍᏗ	-9.94177
▁ᏗᏁᎶᏙᏗ	-9.9418
▁ᎢᎩᏍᏕᎵᏍᎩ	-9.94183
▁ᎢᎦᏪᏛ	-9.94193
▁ᎤᎵᏑᏫᏓ	-9.94196
▁ᎣᏌᏂ	-9.94204
▁ᎣᎦᏁᎳᏅᎯ	-9.94215
▁ᏧᎾᏓᎵᎢ	-9.94243
▁ᎤᎦᏃᏩ	-9.94253
▁ᎤᏚᏫᏛ	-9.94255
▁ᎾᏛᏁᎮᏍᏗ	-9.94275
▁ᎢᏳᏅᏁᏗᏱ	-9.94283
▁ᎪᎨᏱ	-9.9429
▁ᎤᏬᏢᏅᎯ	-9.94315
▁ᏄᎾᏛᏁᎸᎩ	-9.94338
▁ᏧᎸᏫᏍᏓᏁᏗᏱ	-9.94345
▁ᎠᏅᏗᏍᎬ	-9.94347
▁ᏚᏁᎴ	-9.94358
▁ᎤᏟᏰᏃ	-9.94384
▁ᎾᎥᏂᏳ	-9.94402
▁ᏗᎦᎵᎠᏅᎯᏛ	-9.94408
ᏓᏂ	-9.94436
▁ᎤᎾᏄᎪᏫᏎᎢ	-9.94442
▁ᏣᏁᎮᎢ	-9.94443
▁ᎤᏓᎵ	-9.94445
▁ᎤᏙᎯᏳᏗᏱ	-9.94452
▁ᎠᎵᎮᎵᏍᏗ	-9.94457
▁ᏭᎶᏒᎩ	-9.94481
▁ᎠᏓᏅᏖᏗ	-9.94524
▁ᎢᎬᏒ	-9.94685
▁ᏓᏠᎯᏍᏛᎢ	-9.94729
▁ᏕᎨᏌᏗᏒᎢ	-9.94747
▁ᎠᏥᎸᎠᏁᎶᎯ	-9.94777
▁ᎠᎦᏘᏯ	-9.94783
▁ᏅᏩ	-9.94811
▁ᎤᏔᎷᎩᏍᎩ	-9.94895
▁ᏧᎵᎢ	-9.94927
▁ᎤᏁᏤᎸᎩ	-9.95004
ᏰᎯ	-9.95196
ᏯᏅᎲ	-9.95243
▁ᎪᎯᏛ	-9.95457
▁ᎾᎯᏳᏉᏃ	-9.95517
▁ᏚᏘᏅᏎ	-9.95607
▁ᎬᏗᏍᎬᎢ	-9.95632
ᏢᏙᏗ	-9.95655
▁ᎠᏰᎸᏗ	-9.95699
ᎳᏛ	-9.95777
▁ᏃᏯᏃ	-9.95844
▁Ꮋ	-9.95897
ᏨᎯ	-9.95916
ᏙᎢ	-9.95925
▁ᎤᏰᎸᏛᎢ	-9.95937
ᏄᏪ	-9.96047
ᏩᏂ	-9.96074
ᏃᎮᎭ	-9.96119
ᏎᎭ	-9.96325
▁ᎬᎪᏩᏛᏗ	-9.96389
ᏛᎭ	-9.96451
ᎪᎸ	-9.96456
ᎵᎢ	-9.96531
▁Ꮏ	-9.96576
ᏁᏤᎸ	-9.96606
ᏛᏗᏱ	-9.96668
ᎧᏁ	-9.96671
▁ᎤᏯ	-9.9687
ᎾᏛᎦ	-9.96925
▁ᎤᏂᏣᏔ	-9.96985
▁ᏄᏍᏛᎾ	-9.97118
▁ᎯᎦᏔᎭ	-9.97126
▁---	-9.97167
▁ᏚᏅ	-9.97252
▁ᏥᎬ	-9.97272
▁Ꮺ	-9.97276
ᎦᏔᎲᎾ	-9.97386
ᏍᏗᏍᎨᎢ	-9.97684
▁ᎤᎴᏫᏍᏔᏅ	-9.97973
▁ᏳᏂ	-9.98002
▁ᎠᏂᎦᏔᎿᎢ	-9.98115
▁ᏅᏃ	-9.98136
▁ᎠᏇ	-9.98246
▁ᎠᏓᏅᏙᏍᎩᏂ	-9.98252
ᏔᎾ	-9.98304
▁ᏓᏰ	-9.98385
▁ᏓᏲ	-9.98437
▁ᏥᎨᏳᎢ	-9.98801
t	-9.9886
▁ᎠᏲᎱ	-9.98864
▁ᎤᎶᏒ	-9.98904
▁ᎣᎩᏂ	-9.9925
ᏅᎭ	-9.99351
▁ᏙᏳ	-9.99353
ᎦᎥ	-9.9944
ᏓᏁᎸ	-9.99446
ᎦᏅ	-9.99487
▁ᏙᏓᎦ	-9.99711
▁ᎠᏆᎵ	-9.99807
▁ᏙᎦ	-9.9982
ᎩᏓ	-9.99875
▁ᏂᏙᏓᏳ	-10.0002
▁ᎢᏨᏯ	-10.0006
ᏚᎵ	-10.0007
▁ᏥᏯ	-10.0011
ᏉᏗ	-10.0014
ᎩᎵ	-10.0019
ᎬᏫᏳᎯ	-10.0029
ᎵᏍᎩ	-10.0055
ᎷᏤᏗᏱ	-10.006
ᎯᏍᏙᏗ	-10.0063
▁ᎬᏩᏛᏛᏁ	-10.0064
▁ᎤᏂᎵ	-10.0069
▁Cr	-10.0072
▁ᎠᏁᏙᎮ	-10.0081
▁ᎠᏨᏍᏙᏗ	-10.0092
▁ᏧᎦᏒᏍᏗ	-10.0093
ᏗᎦ	-10.0094
▁ᎠᏂᎨᎾᏂ	-10.0104
▁ᏥᏥ	-10.0108
▁ᎮᎦ	-10.011
▁ᏎᎳᏱ	-10.0113
▁ᏫᎬ	-10.0116
▁ᎦᎾ	-10.0117
▁ᎤᏩᎨᏫ	-10.0121
ᎦᎶᏁᏛ	-10.0122
▁ᎠᏒᎨ	-10.0124
▁ᏎᎻ	-10.0126
ᏄᏬᏍᏗ	-10.0129
▁ᏕᎨᏴ	-10.0132
ᏍᏗᏍᎨᏍᏗ	-10.0134
▁ᏚᎾᏓᏡᏩᏗᏒ	-10.0134
▁ᏥᏅᏏᏓᏍᏗ	-10.014
ᎪᏣᎴᏛ	-10.0149
ᏓᏯ	-10.0152
ᎳᏏ	-10.0153
▁ᏓᏅᏅ	-10.0156
▁ᎤᏙᏓᏃ	-10.0169
an	-10.0179
▁ᎠᏓᏅᏖᏍᎨ	-10.018
▁ᎠᎩᎾᏫ	-10.0183
▁ᎢᏳᏓᏅᎯᏓ	-10.0184
▁ᎤᏙᎴᎰᏎ	-10.0184
▁ᏀᎾ	-10.0184
▁ᏍᏏᏉᏯ	-10.0184
▁ᏑᏓᎴᎩ	-10.0184
▁ᏗᎦᏙᏌᏗᏍᏗᏱ	-10.0184
▁ᏗᎪᏒᏔᏅ	-10.0184
▁ᏅᏬᏘ	-10.0184
▁ᏄᏍᏗᏓᏅ	-10.0184
▁ᏌᏙᏂ	-10.0184
▁ᏧᎾᏦᏴᏍᏗ	-10.0184
▁ᏗᏂᎨᏫ	-10.0184
▁ᎤᎧᏲᏛᎯ	-10.0184
▁ᏗᎦᏘᏍᏙᏗ	-10.0184
▁ᎦᏃᏍᎩᏍᎩ	-10.0185
▁ᎦᎶᏄᎮᏛ	-10.0185
▁ᏗᏂᎰᎵ	-10.0185
▁ᏚᏑᎬ	-10.0185
▁ᎨᏣᏍᎦᎩ	-10.0185
ᎠᏎᏃ	-10.0185
▁ᎬᎩᏍᎦᎩ	-10.0185
▁ᏍᏗᏫ	-10.0186
▁ᎦᏚᎢᏗᏢ	-10.0186
▁ᏁᏂᏏ	-10.0186
▁ᏩᏛᎬᎦ	-10.0186
▁ᎠᏂᎦᏔᎾᎢ	-10.0186
▁ᏗᏍᏆᎾᎳᏗᏍᏗ	-10.0187
▁ᏗᎳᏑᎶ	-10.0187
▁ᎢᏥᏯᏫᏍᎨᏍᏗ	-10.0187
▁ᏇᏍᏓ	-10.0188
▁ᎤᏕᎶᎰᏎ	-10.0189
▁ᏚᎦᏒᏍᏛ	-10.0189
▁ᎣᎭᏂ	-10.0191
▁ᎤᏪᎷᏅᎩ	-10.0191
▁ᎠᏂᎦᏔᎯ	-10.0191
▁ᎠᏂᎩᏏᏙᎯ	-10.0193
▁ᏄᏕᏘᏴᎮᎢ	-10.0193
▁ᏗᏥᎶᏍᏔᏅ	-10.0194
▁ᎠᏍᏚᎲ	-10.0196
▁ᎢᏥᏅᏟ	-10.0198
▁ᎣᏥᎦᏔᎭ	-10.0199
▁ᎤᏛᏐᏅᎯ	-10.02
▁ᏥᎮᎾ	-10.02
▁ᏕᎦᎶᏗᎯ	-10.0201
▁ᎤᏪᏙᎸ	-10.0202
▁ᎠᏍᎦᏰᎬᏍᏔ	-10.0202
▁ᎤᏁᎷᏁᎢ	-10.0203
▁ᎢᏥᏍᎦᏅᏨᎢ	-10.0204
▁ᎪᏢᏅᎯ	-10.0204
▁ᏤᏣ	-10.0205
▁ᎬᏩᎷᏤᎸᎩ	-10.0206
▁ᎤᏓᏅᏒᎩ	-10.0209
▁ᎡᎳᏗᏣ	-10.021
▁ᏫᎶᎯ	-10.021
▁ᎤᏓᏔᏅᎯ	-10.0211
▁ᎮᏗ	-10.0215
▁ᎤᏪᏅᏍᏗ	-10.0216
▁ᎤᏲᎱᎯᏍᏗ	-10.0216
ᏥᏯ	-10.0219
▁ᎤᎾᏛ	-10.0221
▁ᎤᏂᏍᎦᏅᏨᎯ	-10.0222
▁ᎪᏢᏒᎢ	-10.0223
▁ᎨᎾᏂᏱ	-10.0224
▁ᎧᏃ	-10.0224
▁ᏓᎧᏅᎢ	-10.0224
▁ᏥᎪᎨ	-10.0228
▁ᎠᏂᏂ	-10.0231
▁ᎤᎵᏍᏕᎸᏙᏗ	-10.0234
▁ᎤᎨᏳᎯᏳ	-10.0235
▁ᏚᎾᏓᏡᏩᏗᏒᎢ	-10.0235
▁ᎪᏣᎴᏛ	-10.0239
▁ᏓᏳᎶᏒ	-10.0248
▁ᏂᎦᏪᏍᎬᎩ	-10.0255
▁ᏚᏂᎸᏫᏍᏓᏁᎲᎢ	-10.0256
▁ᎣᏂᏱ	-10.0256
▁ᎠᏥᎸᎨᎶᎯ	-10.0261
▁ᏱᎦᎩ	-10.0261
▁ᎤᎿᏥ	-10.0263
ᏁᏃ	-10.0268
▁ᎠᏔᎴᏒᎢ	-10.0273
▁ᏓᎬᎾ	-10.0277
▁ᏂᎦᏚ	-10.0285
▁ᏱᎰ	-10.0293
▁ᏅᏗ	-10.0295
▁C	-10.0296
▁ᏡᎬᎢ	-10.0306
▁ᎢᎨ	-10.0314
▁ᎤᏓᏅᏖᎸ	-10.0322
ᏍᎪᏃ	-10.0325
▁ᎤᎪᎮᎢ	-10.0326
▁ᎠᏲ	-10.034
ᎥᎩ	-10.0341
▁ᎴᏥᎵᏃ	-10.0349
▁ᎾᎥᏃ	-10.0365
▁ᎤᏲᎱᏒᎢ	-10.0376
▁ᎭᎵ	-10.0386
ᏓᏅᏛᎢ	-10.0409
▁ᎤᏤ	-10.0427
▁ᎡᎵᏍᎨ	-10.0436
ᎩᏏ	-10.044
▁ᏗᏤᎲ	-10.0464
ᏛᏁᎵ	-10.0465
ᎾᎩ	-10.0476
ᏴᏍᏗ	-10.0478
ᎪᎳ	-10.0507
▁ᎤᏍᏘᏰᎬ	-10.0511
▁ᏧᏪ	-10.052
ᎾᏉ	-10.0536
;)	-10.0537
▁ᏗᏓᏁᎸ	-10.0546
ᎭᏂ	-10.0548
ᏓᎴᏅᏛ	-10.0562
▁ᎡᏓ	-10.0579
ᏍᏛᎩ	-10.0608
▁ᎣᎦᏤᎵ	-10.0611
ᎾᏂ	-10.062
▁ᎤᎫᏴᏗ	-10.0643
▁ᎤᏁᎳ	-10.0647
ᏂᏒ	-10.0654
ᏎᎸᎩ	-10.0656
▁ᎤᎵᏂᎬᎬ	-10.066
▁ᎤᏓᏅᏖ	-10.0696
ᏁᏍᎨ	-10.0706
▁ᏤᏆ	-10.0707
ᏌᏂ	-10.0711
ᎫᏴᏙᏗ	-10.0729
ᏂᎨ	-10.0738
▁ᏤᎩ	-10.074
ᎬᏓ	-10.0757
▁Ꮢ	-10.0761
ᏍᏕᎵᏍᎩ	-10.0771
ᏚᎩ	-10.0776
▁ᎣᏍ	-10.0777
ᎩᎳ	-10.0778
ᎴᏂ	-10.0808
ᏅᏁ	-10.0814
▁ᏄᎬᏫᏳᏒᏃ	-10.0832
ᏍᏕᎸ	-10.0851
ᏟᏍᏗ	-10.0859
▁ᎠᏰᎲ	-10.086
▁ᏚᏪ	-10.0884
▁ᎠᏍᎪᎯᏁ	-10.0884
▁ᏗᎨᏥ	-10.0889
ᏎᎸᎯ	-10.0893
▁ᏭᏂᎷᏨ	-10.0905
ᏓᎴᏅᎯ	-10.0914
▁ᎤᏂᏁᏨ	-10.0926
▁ᎤᎾᏛᏁᎢ	-10.0931
▁ᏂᎪᎯᎸᏃ	-10.0932
ᎵᏓᏍᏗ	-10.0932
▁ᏏᎻᏯᏂ	-10.0938
▁ᏗᏯᏖᎾ	-10.094
▁ᏚᎸᏫᏍᏓᏁᎲ	-10.0943
▁ᏈᎳ	-10.0946
▁ᎦᎵᏉᎩᏁ	-10.0948
▁ᎧᏃᎮᏍᎬ	-10.0949
▁ᏄᎾᏛᏁᎸ	-10.0952
▁ᎤᎵᏁᏨ	-10.0954
▁ᎤᏂᏣᏛᎩ	-10.0954
ᎡᏗ	-10.0955
▁ᎪᏱᏁ	-10.097
▁ᎦᎵᏉᎩᏃ	-10.097
▁ᏫᏚᏯᏅᎮ	-10.097
▁ᎤᏜᏅᏛ	-10.0971
▁ᏚᎸᏌᏛ	-10.0978
▁ᏗᏂᏰᎸ	-10.0979
▁ᎡᎳᏂᎬ	-10.0983
▁ᎠᏁᎵᏍᎨ	-10.0986
ᏴᏓ	-10.0986
ᎴᏗ	-10.0986
▁ᎠᏂᏁᎬ	-10.099
▁ᎤᏂᎩᏎ	-10.0993
▁ᎤᎾᏚᎵᏍᎬ	-10.0997
▁ᏂᏚᏩᏁᎸ	-10.0999
▁ᎤᏪᏅᏒ	-10.1002
▁ᎤᎾᎳᏅᎯ	-10.1004
▁ᎢᏯᏆᏛᏁᏗ	-10.1004
▁ᏧᎵ	-10.1007
▁ᎤᏂᏣᏛ	-10.1012
▁ᏱᏥᎦᏔ	-10.1012
▁ᎠᏗᏆᎸᏕᏲ	-10.1012
▁ᎠᏴᏫᏯ	-10.1013
▁ᎢᏓᎵ	-10.1014
▁ᏁᎳᎩ	-10.1014
▁ᎠᏇᎵᏒ	-10.1014
▁ᎠᏂᏩᏥᏂ	-10.1017
▁ᎦᎳᎱᏂ	-10.1017
▁ᏧᏓᎿᏩᏛ	-10.1017
▁ᏏᏌᎵᏱ	-10.1017
▁ᎾᎪᏔᏅᎾ	-10.1017
▁ᎢᏣᏅᏖᏍᏗ	-10.1017
▁ᎠᏛᏳᎨᏗ	-10.1017
▁ᏅᏓᎦᎵᏍᏙᏓ	-10.1017
▁ᏗᎨᏥᎤᏍᏕᏎᎸᎯ	-10.1017
▁ᏚᏃᏢᏔᏅᎩ	-10.1017
▁ᎢᎬᏩᏛᏁᏗ	-10.1017
▁ᏄᏓᎵᏓᏍᏛᎾ	-10.1017
▁ᏍᎪᏯ	-10.1017
▁ᎢᏧᏩᏁᏗᏱ	-10.1017
▁ᏗᏓᏬᏍᎩ	-10.1018
▁ᏂᎦᎵᏍᏔᏂᏙᎲ	-10.1018
▁ᏣᏔᎦ	-10.1018
▁ᎤᏬᏑᎶᏨᎯ	-10.1018
▁ᏗᎦᎪᏗ	-10.1018
▁ᎥᎩᏅᏏᏛ	-10.1018
▁ᏧᏆᎶᎬ	-10.1018
▁ᎾᎵᏍᏆᏗᏍᎬᎾ	-10.1018
▁ᎢᏳᏕᏘᏴᏓ	-10.1019
▁ᎢᏥᏰᎸᏎᏍᏗ	-10.1019
▁ᎠᏥᎤᏍᏕᏎᎸᎯ	-10.1019
▁ᏂᎬᏪᏎᎭ	-10.1019
▁ᎢᏧᎳᏗᏢ	-10.1019
▁ᏂᏚᎾᏓᏪᏎᎴᎢ	-10.1019
▁ᎢᏥᎦᏔᎮᏍᏗ	-10.1019
▁ᏂᏣᏛᏁᎮᏍᏗ	-10.102
▁ᎦᏂᏓᏛ	-10.102
▁ᏅᏓᎦᎵᏍᏙᏔᏂ	-10.102
▁ᎣᏂᏗᏢ	-10.102
▁ᎢᏥᎦᏙᎥᎯᏍᏗᏱ	-10.102
▁ᎪᎯᏳᎲᏍᎩ	-10.1021
▁ᎠᏌᏅᏙᏗ	-10.1021
▁ᎠᏂᏃᏍᎩᏍᎩ	-10.1021
▁ᏧᎾᎵᏂᎩᏛ	-10.1022
▁ᎢᏯᏍᏘ	-10.1022
▁ᎤᏙᎴᎰᎯᏍᏗᏱ	-10.1023
▁ᏗᏑᏢᏛ	-10.1023
▁ᏂᎦᎵᏍᏔᏅᎭ	-10.1024
▁ᎯᏍᎦᏯ	-10.1024
▁ᎠᏓᏰᏍᎩ	-10.1024
▁ᎢᏕᎯ	-10.1024
▁ᏅᏧᎵᏍᏙᏔᏅ	-10.1024
▁ᏗᏂᏬᏂᏍᎩ	-10.1026
▁ᎢᏳᎵᏍᏔᏅᎯ	-10.1026
▁ᏍᎩᏙᎵᎩ	-10.1028
▁ᎤᏣᏖ	-10.1028
▁ᎢᏯᏆᏛᏁᏗᏱ	-10.103
▁ᏚᏠᏱᎴᎢ	-10.103
▁ᎠᎦᏯᎷᏗ	-10.103
▁ᎤᏁᏓᏍᏗ	-10.1031
▁ᏧᏂᎳᏫᎢᏍᏗᏱ	-10.1034
▁ᏄᏂᏪᏒ	-10.1034
▁ᎠᏨᏯ	-10.1035
▁ᏧᏍᎪᎵ	-10.1036
▁ᎡᏂᏗ	-10.1036
▁ᎦᎾᏍᏓ	-10.1037
▁ᎤᎵᏬᏨ	-10.1038
▁ᏂᏨᏁᎸ	-10.1039
▁ᎹᏗ	-10.1039
▁ᏂᏚᏩᏁᎸᎩ	-10.104
▁ᎠᎵᏥᏙᎲᏍᎩ	-10.1045
▁ᏥᏁᎬ	-10.1047
▁ᎤᏂᎩᏒᎩ	-10.1048
▁ᏧᏂᎾᏫᏱ	-10.1049
▁ᎨᎥᎢ	-10.1049
▁ᏘᎵ	-10.1049
▁ᏓᏓᏏ	-10.105
▁ᎤᏕᎵᏒ	-10.1051
▁ᎢᏕᎾ	-10.1053
▁ᎤᏠᎾᏍᏗ	-10.1053
▁ᎤᏟᏂᎩᏓ	-10.1053
▁ᎨᏂᏗ	-10.1061
▁ᏭᏂᎷᏤᎢ	-10.1066
▁ᏂᏫ	-10.1077
▁ᎤᏍᏆᏛ	-10.1079
ᏗᏍ	-10.1093
▁ᏧᏓᏅᏛᎢ	-10.1093
▁ᎦᏛᎬᎢ	-10.1107
▁ᎭᏓᏅᏖᏍᎬ	-10.1108
▁ᎠᏂᏁ	-10.1109
▁ᎤᎪᎲᎯ	-10.1117
▁ᎡᏘᏴ	-10.1117
▁ᏦᎢᏃ	-10.1121
▁ᏣᏓᏅᏙ	-10.1125
▁ᎠᏁ	-10.113
ᏅᏍᏗᏱ	-10.113
▁ᏄᏛᏁᎸᎢ	-10.113
ᎾᏕ	-10.1144
ᎪᎵᏰᏗ	-10.1153
ᎦᏚ	-10.116
▁ᏤᎮ	-10.1165
ᏄᎪ	-10.1172
▁ᎠᏆᎵᏏ	-10.1184
▁ᎥᏝᏍᎩᏂᏃᏅ	-10.1189
ᎠᏯᏗ	-10.1195
▁ᎢᏣᏓ	-10.1216
ᏁᏍᏗ	-10.1217
ᎾᎥ	-10.1233
▁ᎪᎯᏳᏗᏍᎩ	-10.1272
ᎨᏳᏗ	-10.1293
▁ᎤᏛᏅᎩ	-10.1296
▁ᎡᎳ	-10.1299
ᏥᏅᏏᏛ	-10.1321
▁ᎦᏛ	-10.1325
▁ᏗᎬᏙᏗ	-10.1335
ᏂᎳ	-10.134
ᏎᎴ	-10.134
▁ᏭᏂᎷᏤ	-10.1344
▁ᎠᎩᎭ	-10.1345
ᏣᏛ	-10.1354
▁ᏥᏙ	-10.1358
▁ᎨᏙᎲ	-10.136
ᏍᏓᏴ	-10.1361
▁ᏧᏪᏘ	-10.1365
ᏓᏍᏗ	-10.1384
▁ᎤᎾᎵᏍ	-10.1406
▁ᏂᏕ	-10.1413
Ꮁ	-10.1417
▁ᎤᏪᏅ	-10.1428
▁Ꮾ	-10.1438
▁ᎤᏂᎲ	-10.1448
ᏂᎯ	-10.1474
▁ᏥᏓᏂ	-10.1477
▁ᏂᏣᏛᏅᎢ	-10.1483
ᏯᎥᎢ	-10.1506
▁ᏂᎦᏗᏳᏰᏃ	-10.1522
ᎦᎾ	-10.1541
ᎵᏦᏛ	-10.1592
ᏩᏗ	-10.1593
▁ᏗᎬᏩᏂ	-10.1627
▁ᏱᏚᏂ	-10.1627
ᏓᎸ	-10.165
▁ᎤᏩᏅ	-10.1653
▁ᏥᎪᏃ	-10.1653
ᏅᏎᎢ	-10.1664
ᏂᏴᏗ	-10.1667
ᏥᏁᎸ	-10.1678
▁ᎤᏴ	-10.1695
ᏪᎭ	-10.1734
ᏴᎩ	-10.1779
▁ᏄᏪ	-10.1781
▁ᎤᏃᏁᎴ	-10.1795
ᎤᏙᎯᏳ	-10.1799
ᏍᏔᏅᎭ	-10.1799
▁ᎤᏓᏂᎵᎨ	-10.1815
▁ᎠᎦᏔᎿᎢ	-10.1819
ᏎᎯ	-10.1821
▁ᎠᏉᏰᏂ	-10.1834
ᎨᎳᏍᏗ	-10.1844
▁ᎤᎾᎴᏅᎮ	-10.1844
▁Ꮉ	-10.1845
▁ᎤᏰ	-10.1846
▁ᎤᏂᏃᎮᎸ	-10.1848
▁ᎾᏆᏛᏁᎸ	-10.1851
▁ᎠᎩᎪᎲᎩ	-10.1854
▁ᏚᎪᎲ	-10.1861
▁ᏚᎧᎾᏁ	-10.1865
▁ᏫᎦᏅᏅ	-10.1866
▁ᏕᎦᏅᏅ	-10.1871
▁ᎥᏓᎸ	-10.1872
ᎢᏳᎾᏍᏗ	-10.1878
▁ᏣᎧᏛ	-10.1878
▁ᎠᏂᏨᏯ	-10.188
▁ᎦᏰᏌᏛ	-10.188
▁ᏂᏣᏛᏅ	-10.1885
▁ᎤᏰᎸᏁ	-10.1895
▁ᎤᎿᎥ	-10.1897
▁ᎨᎦᏑᏰᏛ	-10.1901
ᏰᎸᏗ	-10.1903
▁ᏯᏆᏚᎵ	-10.1903
▁ᎠᏥᎢᏍᏗ	-10.1913
▁ᎢᎬᏩᏁᏗ	-10.1913
▁ᏗᏄᎪᏗᏍᎩ	-10.1913
ᏙᏢᏅ	-10.1914
ᏞᏍᏗ	-10.1916
▁ᎠᎹᏳᎸᏓ	-10.1926
▁ᎡᎩᎵᏈ	-10.1926
▁ᎢᏗᏍᏓᏓᎳ	-10.1926
▁ᎾᏥᎾᏝᎥᎾ	-10.1926
▁ᏂᏓᎪᏔᏅᎾ	-10.1926
▁ᏚᎧᏔᏍᏔᏁᎢ	-10.1926
▁ᏣᎦᏟᎶᏍᏔᏅᎯ	-10.1926
▁Chap	-10.1926
▁ᎠᏂᏈᎵᏍᏗ	-10.1926
▁ᎠᏰᎳᏍᏘ	-10.1926
▁ᎢᏯᎬᏁᎸᎯ	-10.1926
▁ᏌᏱᎳ	-10.1926
▁ᎢᏆᎻ	-10.1926
▁ᏅᏓᎦᏥᏴᏁᎵ	-10.1926
▁ᏗᎬᏩᎸᏌᏛ	-10.1926
▁ᎤᏲᏍᏛᏉ	-10.1927
▁ᎦᎫᏍᏛᏗ	-10.1927
▁ᎠᏗᏒᏍᏗ	-10.1927
▁ᎢᏳᏛᏁᎸᎯ	-10.1927
▁ᏗᎦᏅᏍᎨᏂ	-10.1927
▁ᎧᏁᏍᎪ	-10.1928
▁ᏗᏥᎦᏙᎵ	-10.1928
▁ᏤᏈᏗ	-10.1928
▁ᎤᏪᎿᎢᏳ	-10.1929
▁ᎬᎵᏍᏆᏗᏍᎩ	-10.1929
▁ᏏᎵᏱ	-10.1929
▁ᏱᏥᏍᎦᎢᎮᏍᏗ	-10.1929
▁ᎢᏳᏪᏛ	-10.1929
▁ᎢᏳᏪᏨᎯ	-10.1929
▁ᏗᎨᏥᎾᏌᎢ	-10.1929
▁ᏥᏂᏣᏛᏅ	-10.1929
▁ᏓᎬᏔᏂ	-10.193
▁ᏣᏤᎵᎪᎯ	-10.193
▁ᎢᏣᏠᎾᏍᏗ	-10.193
▁ᎢᏳᏩᏁᎯ	-10.1931
▁ᎠᏕᏒᎲᏍᎩ	-10.1931
ᏁᏤᏗ	-10.1931
▁ᏧᎾᏓᏅᏙ	-10.1931
▁ᎦᏐᎯ	-10.1931
▁ᏦᎯᏍᏙᏗ	-10.1932
▁ᏚᏃᎡᎢ	-10.1932
▁ᏭᎷᏣ	-10.1932
▁ᎤᎩᏓᏟᏅᏯ	-10.1932
▁ᎤᎳᎨᏯᏛᏤᎢ	-10.1932
▁ᎬᏂᎨᏒᎢᏳ	-10.1932
▁ᎤᎵᏰᎢᎶᎯᏍᏗ	-10.1932
▁ᎤᏣᏔ	-10.1932
▁ᎤᎵᏍᎨᏓ	-10.1934
▁ᏦᎳᏂ	-10.1935
▁ᏳᏩᏁᎦ	-10.1935
▁ᏥᏲᏎᎸ	-10.1935
▁ᎠᎩᎬᏫᏳᎯ	-10.1935
▁ᎠᏃᏍᏛ	-10.1936
▁ᎬᏩᏍᏓᏩᏛᏒᎩ	-10.1937
▁ᎣᎩᏙᏓ	-10.1937
▁ᏓᎨᏏ	-10.1938
▁ᏭᎶᎯᏍᏗᏱ	-10.1938
▁ᎤᏂᏁᎫᏥᏛ	-10.194
▁ᏂᎦᏅᎯᏒᎩ	-10.194
▁ᎪᏪᎳᏅᎯ	-10.194
▁ᎦᏅᎯᏓ	-10.194
▁ᏥᏂᎦᏪᎭ	-10.1942
▁ᎠᎦᏔᎾᎢ	-10.1942
▁ᎤᎾᏗᏍᎦᎶᏗ	-10.1942
▁ᎰᏍᏛ	-10.1944
▁ᎠᏥᏃᎮᏍᎬᎢ	-10.1944
ᎸᏗ	-10.1945
▁ᎠᏂᏃᎮᏍᎩ	-10.1945
▁ᎡᎳᏗᏢ	-10.1947
▁ᎤᏓᏅᏖᎸᎯ	-10.1947
▁ᎡᏉᏗᏱ	-10.1947
▁ᏥᏥᎦᏔᎭ	-10.1947
▁ᎬᏩᎷᏤᎸ	-10.1948
▁ᏧᏓᏕᏍᏗᏱ	-10.1948
▁ᏧᏂᎦᏴᎵᎨ	-10.1949
▁ᎢᏳᏍᎩᏂᏃᏅ	-10.195
▁ᎤᏬᏢᏅᎩ	-10.195
▁ᎤᏕᏁᎸᎯ	-10.1955
▁ᏯᎦᏔᎭ	-10.1956
▁ᎠᎵᏍᎪᎸᏓᏁᏗ	-10.1957
ᏃᎮᏗ	-10.196
▁ᎤᎩᏨᏅ	-10.1962
▁ᎾᎨ	-10.1964
▁ᏧᏁᎬ	-10.1969
ᎥᏍᎬ	-10.1971
ᎪᏩᏛ	-10.1974
▁ᎤᏁᏢᏔᏅᎯ	-10.1975
▁ᎠᎢᏒᎢ	-10.1975
▁ᏓᏂᏁᎸᎢ	-10.1977
ᎩᏍᏗᏱ	-10.1982
▁ᎠᏚᏓᎴᏍᏙᏗ	-10.1984
▁ᎦᏍᎩᎶᎩ	-10.1987
▁ᏤᏙᎲ	-10.1991
▁ᏦᎳ	-10.1991
▁ᎤᏍᎦᏅᏨᎯ	-10.1996
▁ᎠᏆᏓᏅᏙᎩ	-10.2007
▁ᏕᏡᎬᎢ	-10.2008
▁ᎤᎾᏛᎦᏅᎯ	-10.2008
▁ᎤᏢᎩ	-10.2013
ᏤᎵᎦ	-10.2023
▁ᏂᏚᏍᏛ	-10.2027
▁ᏗᏥᏰᎸ	-10.203
▁ᎤᏅᏏᏙᎯ	-10.2033
ᏥᎪᏩᏛ	-10.205
▁ᏥᏙᎬ	-10.2054
▁ᎦᏙᎬᎩ	-10.2058
ᏒᏅ	-10.206
▁ᏙᎢᏳᏍᏗ	-10.2063
ᏍᏆᏂᎪᏗ	-10.2067
▁ᎨᎳᏍᏗ	-10.2074
▁ᎢᎦᏛᎯ	-10.2075
▁ᎤᎿᎥᎢ	-10.2076
▁ᎤᏂᏍᎦᏅᏨᎢ	-10.2078
ᎨᏯ	-10.208
ᎥᎦ	-10.2082
ᏰᎬ	-10.2086
▁ᎶᏗᏃ	-10.2086
ᏓᏡᎬ	-10.209
▁ᏅᏗᎦᎵᏍᏙᏗᏍᎬᎢ	-10.2094
▁ᎤᎷᏤᎢ	-10.2097
ᏍᏔᏅᎢ	-10.2101
▁ᏦᎯᏳᏒ	-10.2104
▁ᎠᎩᏍᏗᏱ	-10.2106
ᏁᎬ	-10.211
id	-10.2114
ᏅᏓ	-10.2138
ᎪᎩ	-10.2142
▁ᏝᏰᏃ	-10.2144
▁ᏕᎦᏛ	-10.215
ᏍᎦᏅᏨ	-10.2158
ᏁᎮᎢ	-10.2163
▁ᏱᏓᎩ	-10.2174
▁ᎠᏂᏅᎢ	-10.2178
▁ᎭᏩ	-10.2179
▁ᏛᏂ	-10.2194
ᏢᏅ	-10.2201
▁ᎤᏍᏚᎢᏒ	-10.2206
ᎪᏅ	-10.221
▁ᎾᏛᏁᎲ	-10.2211
▁ᏥᏂᎦᏪ	-10.2236
ᏍᏙᎢ	-10.2251
▁ᎣᏓᏅᏛ	-10.2273
▁ᎢᏏᎵᏱ	-10.2315
ᎨᏣ	-10.2317
▁ᏕᎭ	-10.2318
ᏲᎱᏒ	-10.2331
ᎵᏍᎪᎸᏔᏅᎯ	-10.2345
ᎦᏔᎯ	-10.2352
ᏏᏆ	-10.236
ᏓᎴᏒ	-10.2407
▁ᏫᏚᎧᎿ	-10.2408
ᏲᎱ	-10.2412
▁ᎠᏆᏓ	-10.2423
▁ᏌᏚ	-10.2451
ᏏᏗᏒ	-10.2473
▁ᏄᏓ	-10.2495
ᎶᏒ	-10.2515
▁ᎠᏁᎵᏍᎬ	-10.2515
ᏗᏃ	-10.253
ᏕᎭ	-10.2532
ᏂᏍᎩ	-10.2544
▁ᎢᏒ	-10.2549
ᏲᎭ	-10.2554
ᎦᏃ	-10.2573
▁ᎠᏙ	-10.2573
ᎵᎭ	-10.2622
ᏲᏏ	-10.2645
ᎵᏍᏓ	-10.2649
▁ᏕᏂ	-10.2673
ᎾᏫ	-10.276
ᏛᏁᏗ	-10.2769
ᎩᏍᎨᏍᏗ	-10.2772
▁ᏎᎳ	-10.2784
ᏤᎯ	-10.2795
ᏄᎦ	-10.28
▁ᎠᎢᏒ	-10.2806
ᏍᏚᏅ	-10.2822
ᎾᏄᎪᏫᏎᎸ	-10.2827
▁ᎯᎦᏘᏏ	-10.2831
▁ᏗᏂᏍᎪᎵ	-10.2835
▁ᏚᎾᎴᏁ	-10.2838
ᎦᏙᎵ	-10.2841
▁ᏚᎾᎧᏛ	-10.2844
▁ᎡᏈᎵ	-10.2844
▁ᎭᎻ	-10.2847
▁ᏦᎦ	-10.2847
▁ᎷᏈᏂ	-10.2849
▁ᏄᏂ	-10.2855
ᎠᏆ	-10.287
▁ᎠᏔᎴᎦᏒ	-10.287
▁ᏕᎦᏚᏩᏗᏒ	-10.2872
▁ᏱᏂᎬ	-10.2874
▁ᏧᏩᎫᏔᏅᏒ	-10.2875
ᎪᎱᏍᏗ	-10.2875
▁ᎠᏚᎢᏍᏛ	-10.2879
▁ᏯᎦᏔᎮ	-10.2879
▁ᏚᏬᎡ	-10.2884
▁ᏱᎨᏐ	-10.2885
ᏅᏏᏙᎯ	-10.2895
▁ᏂᎦᏪ	-10.2903
▁ᎤᏛᏐᏅ	-10.2913
▁ᎢᎬᏩ	-10.2918
▁ᏓᏂᏁᎸ	-10.2918
▁ᎣᎵᏩ	-10.2924
▁ᎦᏌᏆᎸ	-10.2926
▁ᏑᏓᎳᏍᎪᎯ	-10.2926
▁ᏗᎫᏓᎸᏗᏱ	-10.2926
▁ᎡᎹᏂᏓ	-10.2926
▁ᎦᏌᎾᎵ	-10.2926
▁ᏧᏯᏖᏃᎯ	-10.2926
▁ᎥᏘᎣᎩ	-10.2926
▁ᏧᏙᏓᏋᏓ	-10.2926
▁ᎢᏍᎦᎳᏗ	-10.2926
▁ᎦᎶᎯᏍᏗᏳᎶᏗ	-10.2926
▁ᎢᏤᎳᏗᏙᎮᏍᏗ	-10.2926
▁ᏁᎳᏍᎪᎯ	-10.2926
▁ᏧᏒᎯᏓ	-10.2926
▁ᏑᎾᏓᎴᎩ	-10.2926
▁ᏑᏕᏘᏴᏛ	-10.2926
▁ᎬᏉᏎᎰ	-10.2926
▁ᎤᏯᏖᏃᎯ	-10.2926
▁ᎻᎾᏌ	-10.2926
▁ᏱᏅᎦᎵᏍᏓ	-10.2926
▁ᏕᎨᏥᏰᎸᏔᏅᎩ	-10.2926
▁ᎤᎾᏢᏉᏗ	-10.2927
▁ᎢᏳᏩᏂᏌᏅᎯ	-10.2927
▁ᏂᏣᏪᏒ	-10.2927
▁ᎤᏪᎿᎢ	-10.2927
▁ᎠᎦᏗᏛ	-10.2927
▁ᎤᏂᏁᎫ	-10.2927
▁ᏄᎵᏍᏔᎾ	-10.2927
▁ᏗᏍᏆᎨᏂ	-10.2927
▁ᏅᏓᏳᎵᏍᏙᏗᏱ	-10.2927
▁ᏗᎧᎾᏩᏛᏍᏗ	-10.2928
▁ᏅᏓᎬᏁᎵ	-10.2928
▁ᎨᏣᏍᏓᏩᏗᏙᎯ	-10.2928
▁ᎡᎵᏆ	-10.2928
▁ᎠᎦᎵᏍᎬ	-10.2928
▁ᎢᏲᏍᏛ	-10.2928
▁ᎢᎧᏁᏨᎯ	-10.2928
▁ᏗᏓᎴᎲᏍᎦ	-10.2928
ᏗᏍᎦᎶᏗ	-10.2929
▁ᏧᎾᎴᎯᏐᏗ	-10.2929
▁ᎡᏥᎸᏉᏓ	-10.2929
▁ᎢᏳᏛᎿᏕᎩ	-10.2929
▁ᎠᏂᏈᎷ	-10.2929
▁ᎾᏂᎦᏔᎲᎾ	-10.2929
▁ᏫᏨᎷᏤᏗᏱ	-10.2929
▁ᏓᏓᎶᏂ	-10.2929
▁ᏍᎩᏄᏍᏛ	-10.293
▁ᏩᎩ	-10.293
▁ᎢᏳᏩᏂᎸ	-10.293
▁ᏛᏍᏆᎸᎯ	-10.293
▁ᎢᏳᏩᏁᎸᎯ	-10.2931
▁ᏌᏉᎤᏅ	-10.2931
▁ᎤᏁᎷᏅᎩ	-10.2932
▁ᎤᎭᎨᏛ	-10.2933
▁ᎤᏁᏍᏓᎳ	-10.2933
▁ᎢᏣᏛᎦᏅᎯ	-10.2933
▁ᎤᏂᎷᎯᏍᏗᏱ	-10.2933
▁ᎠᏂᏦᎢ	-10.2933
▁ᎢᏣᎵᏍᏕᎸᏙᏗ	-10.2934
▁ᎤᏓᏙᎵᏍᏓᏁᎴᎢ	-10.2934
▁ᏭᏂᎶᎯᏍᏗᏱ	-10.2934
▁ᎾᎩᏪᏒᎩ	-10.2934
▁ᏙᏓᏳ	-10.2935
▁ᎤᏰᎸᏅ	-10.2935
▁ᏗᏓᏂᏐᏗᏱ	-10.2935
▁ᎤᏛᎪᏗᏱ	-10.2936
▁ᎤᎷᏤᎴ	-10.2936
▁ᎣᏣ	-10.2936
▁ᏥᏍᏆᏯ	-10.2936
▁ᏕᎨᏥ	-10.2937
▁ᎤᏂᏇᏓᎸᎢ	-10.2939
▁ᎢᏣᏓᏡᎬ	-10.294
▁ᏗᎦᎴᏂ	-10.294
▁ᎠᎬᎥᎯᏍᏗ	-10.2941
▁ᎤᎾᎵᎪᎯ	-10.2942
▁ᎤᎾᏕᏅᎯ	-10.2942
▁ᎯᎨᏴ	-10.2942
▁ᏦᏢᏗ	-10.2943
▁ᏦᏓᎸ	-10.2944
▁ᏫᏚᏯᏅᎲᎩ	-10.2944
▁ᏗᎦᏓᎭ	-10.2945
▁ᎠᎩᏅᏏᏛ	-10.2945
▁ᎤᎵᏠᏯᏍᏕᏍᏗ	-10.2945
▁ᎤᎲ	-10.2946
▁ᎤᎵᏍᏔᏴᏗ	-10.2946
▁ᎦᎴᏂ	-10.2948
▁ᎤᏂᏃᎮᎸᎯ	-10.295
▁ᎠᏙᎴᎰᎯᏍᏙᏗ	-10.295
▁ᏚᏁᏤᎸᎩ	-10.2951
▁ᏂᎬᏁᎭ	-10.2952
▁ᎢᏳᏛᏁᏗᏱ	-10.2953
▁ᎤᏪᏅᏍᏗᏱ	-10.2953
ᏂᎬᎦ	-10.2953
▁ᎤᏪᏙᎸᎩ	-10.2955
▁ᏙᏧᎾᏓᏅᏛᎢ	-10.2955
▁ᏓᏕᏲᎲᏍᎬᎢ	-10.2955
ᏄᏪᏒ	-10.2956
▁ᎹᎩ	-10.2957
▁ᎤᏓᏙᎵᏣᏘᏳ	-10.2958
▁ᎤᎵᏬᏨᎯ	-10.2959
▁ᏄᎾᏛᏁᎴᎢ	-10.2962
▁ᏤᎲᎩ	-10.2962
▁ᎠᏎᏍᎩᏂᏃᏅ	-10.2963
▁ᏕᎪᏪᎸ	-10.2965
▁ᎤᏰᎸᎮ	-10.2966
▁ᎤᎾᎵᏍᏓᏴᏗᏱ	-10.2968
▁ᎤᏪᎵᏍᏗ	-10.297
▁ᎾᏂᏪᏍᎬᎢ	-10.2971
▁ᎾᎦᏔᎲᎾ	-10.2971
ᏗᏒ	-10.2975
▁ᎠᎦᏍᎬ	-10.2976
▁ᏂᎦᎵᏍᏗᏍᎨᏍᏗ	-10.2978
▁ᎠᏨᏯᎢ	-10.2985
▁ᎤᏂᎩᏍᏗ	-10.2987
▁ᏗᎦᎶᏗ	-10.2988
ᎯᏫ	-10.2988
▁ᎤᏓᏑᏯ	-10.2992
▁ᎠᏥᎸᎨᎳᏍᏗᏱ	-10.2994
▁ᎦᏰᎯ	-10.2994
▁ᎤᏄᎪᏨᎩ	-10.2996
▁ᏗᎦᏅ	-10.2996
ᎵᏍᎪᎸᏓᏁᎸᎯ	-10.3
▁ᎤᏬᎴ	-10.3005
▁ᎤᏪᏙᎵᏍᏗ	-10.3005
▁ᎧᏅᏑᎸ	-10.3005
▁ᏂᎪ	-10.3008
ᎴᏅᎯ	-10.3016
▁ᎤᎴᏁ	-10.3019
▁ᎠᏤᎵᏍᏛᎢ	-10.3023
▁ᏚᎧᎿᏅ	-10.3024
▁ᎤᏰᎸᏁᎢ	-10.3024
▁ᎤᎶᎩᎸᎢ	-10.3024
▁ᎦᎵᏉᎩᏁᏃ	-10.3026
▁ᏚᏌᎳᏓᏁ	-10.3039
▁ᎤᏃᎮᎸ	-10.3043
▁ᎠᏂᏁᎵ	-10.3045
▁ᎠᏈᎻᎴᎩᏃ	-10.305
▁ᏃᏊᏃ	-10.305
ᏁᎩ	-10.3059
▁ᎣᎬᏒ	-10.306
▁ᎭᎾᏉ	-10.3069
▁ᏄᏩᏁᎴᎢ	-10.3071
▁ᏗᎦᏅᏌᏗ	-10.3072
▁ᎤᏰᎸᎯ	-10.3075
▁ᎦᏬᏂᏍᎬᎢ	-10.3075
▁ᏭᏴᎸ	-10.3077
ᏍᏆᏓ	-10.308
ᏘᏅ	-10.3092
▁ᏚᏂᏅᏎ	-10.3099
▁ᎵᎠᏃ	-10.3105
▁Ꮞ	-10.3106
ᏛᏓ	-10.3114
▁ᏴᎨᏥ	-10.3122
ᎸᏛ	-10.3125
▁ᎾᏆ	-10.313
▁Ꮄ	-10.3131
▁ᎧᎪ	-10.3133
ᏕᎦ	-10.3136
ᎩᎸᏗ	-10.3146
ᏁᏤᎸᎯ	-10.3157
▁ᎤᎧᏛᎢ	-10.3164
▁ᎠᎾᎵ	-10.3179
ᏂᏴᏛ	-10.3191
Ꮡ	-10.3191
ᏂᎬ	-10.3197
ᏯᏛ	-10.3201
ᎾᎢ	-10.3219
▁ᏄᎾᎵᏍᏔᏁ	-10.3221
ᏰᏗ	-10.3236
▁ᎠᏂᏐᎢᏃ	-10.3241
ᏰᎭ	-10.3248
ᏪᎳ	-10.3253
ᏂᏲ	-10.3258
▁ᎢᎬᏁ	-10.3259
ᏑᏰᏛ	-10.3266
ᏆᏛ	-10.3266
▁ᎠᏍᎪᎯᏃ	-10.3281
▁ᏥᎨ	-10.3287
ᏙᎬ	-10.3305
ᏚᎵᎭ	-10.3323
ᏃᎯᏎᎸ	-10.3353
ᎶᏎ	-10.3359
▁ᎠᎧ	-10.3359
ᎦᏯ	-10.336
▁ᎠᏂᏆᎵᏏᏃ	-10.3362
▁ᎤᎦᏔᎲᏒ	-10.338
▁ᎤᏬᏂᏒ	-10.3416
▁ᎤᏂᏰᎸᏁ	-10.3421
ᏍᏛᏗᏍᏗ	-10.3426
▁ᏗᎪ	-10.3441
▁ᎬᏩᎪᎲ	-10.3442
▁ᏕᎪ	-10.3442
ᏲᎦ	-10.3447
▁ᎠᎩᎪᎲ	-10.3451
▁ᏧᏁ	-10.3456
▁Ꮗ	-10.3459
▁ᎤᏬᏚ	-10.3472
▁ᏩᏁ	-10.3492
ᎦᏨ	-10.35
ᏩᏔ	-10.3507
ro	-10.3516
ᏎᎴᎢ	-10.3528
▁ᎠᏋ	-10.3543
ᏁᎸᎭ	-10.3555
ᏅᏏ	-10.3565
ᎴᏴ	-10.3569
▁ᏱᏏ	-10.3574
ᏯᎩ	-10.3595
▁ᎤᎧ	-10.3597
ᏓᎾ	-10.3609
ᏃᎮᏍᎬ	-10.3611
▁ᎢᎪᎯ	-10.3616
ᎷᏤᎸ	-10.3619
▁ᎤᎾᏛᎦᏁ	-10.3626
ᎥᎾ	-10.363
ᏍᏊ	-10.3631
▁ᎢᏣᎵ	-10.3631
ᎥᏏ	-10.3644
ᎪᎯᏳ	-10.3648
▁ᎤᏲᎴ	-10.3656
ᏓᏲ	-10.3667
▁ᏱᏙᎦ	-10.3672
▁ᎩᎳᏃ	-10.3686
▁ᎤᎿ	-10.371
ᏅᎦᎸ	-10.3714
▁ᎠᎩᏰᎸ	-10.3716
▁ᏄᎵᏍᏔᏁᎮ	-10.3717
▁ᏰᎵᏍᎨ	-10.3721
▁ᎾᏋᏁᎸ	-10.3724
ᎴᏅᏛ	-10.374
▁ᎠᏓᏅᏖᎵᏙ	-10.3756
ᏁᎶᏗ	-10.3781
ᏆᏓ	-10.3783
ᏣᏁ	-10.3785
ᎲᏍᎦ	-10.3794
ᏃᏁᎸᎩ	-10.3805
ᏲᎯᏍᏗ	-10.3807
ᎿᎥᎢ	-10.3808
ᏯᏫ	-10.3829
▁ᎤᏦ	-10.3836
ᏲᏍᏙᏗ	-10.3836
ᏚᎬ	-10.3837
ᏩᏛᎮ	-10.3837
ᏨᎢ	-10.3856
ᏁᎰᎢ	-10.3864
ᏃᎮ	-10.3876
▁ᎦᏅᎬ	-10.3879
▁ᎩᎳᎯ	-10.3888
l	-10.3897
▁ᎬᏩᎷᏤᎴ	-10.3899
ᎡᎸᎩ	-10.39
ᎡᏍᏗ	-10.3902
ᏥᎯᏍᏗ	-10.3927
▁ᏂᎦᎵᏍᏗᏍᎨ	-10.3932
ᏑᏰ	-10.3938
▁ᏓᏓ	-10.394
ᏯᏅᎮ	-10.3943
▁ᏐᎣᏁᎳ	-10.3944
▁ᏥᏍᎪᏴ	-10.3945
▁ᏇᏕᎵ	-10.3949
▁ᎠᎩᏁᏨ	-10.395
▁ᎤᏚ	-10.3955
▁ᏌᏊ	-10.3957
▁ᏦᏈ	-10.3959
▁ᎾᎬᏁᎸ	-10.3963
▁ᎬᏯ	-10.3963
▁ᎪᏢᏒ	-10.3972
▁ᎾᏂᏪᏍᎬ	-10.3975
ᏗᏂᏅᏌᏗ	-10.3975
▁ᎤᏄᎪᏤ	-10.3976
ᎭᏕᏬ	-10.398
ᏙᎵᎩ	-10.3991
ᎠᏕᎸ	-10.3991
▁ᏲᎩ	-10.3992
▁ᎡᏙᎮ	-10.3994
ᏛᏁᎲ	-10.3998
▁ᎤᏂᏠᏱ	-10.3999
ᎵᎻ	-10.4
▁ᏕᎤᎴᏔᏅ	-10.4007
▁ᏚᏂᎸᏫᏍᏓᏁᎸ	-10.4009
▁ᏧᏓᏅᏛ	-10.4009
ᎠᎩᎾ	-10.401
ᎨᎵᎠ	-10.4012
▁ᏌᏬᏚ	-10.4017
▁ᎠᏂᏃᎯᎵᏙ	-10.402
▁ᏚᏓ	-10.402
▁ᏗᎪᏪᎵ	-10.402
▁ᏧᏂᎳᏫᎢᏍᏗ	-10.4024
▁ᏅᏲ	-10.4027
▁ᎢᏙᎻ	-10.4028
▁ᏚᏳᎪᏗ	-10.4032
ᏓᏱᎵ	-10.4035
▁ᎠᏂᏫᎾ	-10.4035
rs	-10.4036
▁ᎠᏥᏍᏕᎸᏗ	-10.4037
▁Philadelphia	-10.4037
▁ᎢᏧᎾᏓᎳ	-10.4037
▁ᎤᏓᏑᏱ	-10.4037
▁ᏆᎳᏆ	-10.4037
▁ᏇᏚᎡᎵ	-10.4037
▁ᏐᎵᎹᏅ	-10.4037
▁ᏕᏦᎯᏳᏎᏍᏗ	-10.4037
▁ᏗᎦᏒᏍᏔᏅ	-10.4037
▁ᎠᏓᏪᎳᎩᏍᎩ	-10.4037
▁ᎤᎵᏏᏂᏗ	-10.4037
▁ᏣᎵᏍᏙᏂ	-10.4037
▁ᏱᎪᎵᎦ	-10.4037
▁ᎠᎾᏛᎩᏍᎩ	-10.4037
▁ᏕᎪᏪᎵᏍᎬ	-10.4037
▁ᏗᎾᏕᏲᎲᏍᎩ	-10.4037
▁ᏱᏄᎵᏍᏔᎾ	-10.4037
▁ᎢᏳᏓᎵᎭ	-10.4037
▁ᏥᎣᎵ	-10.4037
▁ᏢᏓᏥ	-10.4037
▁ᏚᎷᏫᏍᏔᏁᎲ	-10.4037
▁ᏐᎣᏁᎳᏍᎪᎯ	-10.4037
▁ᎨᏅᎢᏍᏗ	-10.4037
▁ᎢᏦᎯᏳᎯ	-10.4037
▁ᏚᎧᎿᏁ	-10.4038
▁ᏗᎦᎸᏫᏍᏓᏁᎸᎯ	-10.4038
▁ᎤᏓᏅᎵᏰᎥ	-10.4038
▁ᎡᏅᏍᏗ	-10.4038
▁ᏱᏣᏓᏅᏖᏗᏍᎨᏍᏗ	-10.4038
▁ᏚᏍᏆᎸᏔᏁ	-10.4038
▁ᏗᎨᏥᎾᏝᎢ	-10.4038
▁ᎤᏒᎯᏰᏱ	-10.4038
▁ᏧᎴᎯᏌᏅᎯ	-10.4038
ᎭᏄᎸᎯ	-10.4038
▁ᎤᏍᏗᎧᏂ	-10.4038
▁ᏓᏳᏂᎶᏒ	-10.4038
▁ᎤᏣᎴᏓ	-10.4038
▁ᏧᏓᎴᏅᎲ	-10.4039
▁ᏄᏚᎵᏍᎬᎾ	-10.4039
▁ᏗᏛᏓᏅᎯ	-10.4039
▁ᎬᏩᏠᏯᏍᏗ	-10.4039
▁ᏚᏃᏢᏅᎩ	-10.4039
▁ᏔᎸᏗ	-10.4039
▁ᎤᏂᏇᏓᎵ	-10.404
▁ᎤᎾᎵᏗᎩᏛ	-10.404
▁ᎧᏴᏐᎵ	-10.404
▁ᎤᏬᏓᎸ	-10.404
ᎦᏗ	-10.404
▁ᏧᎴᏔᏅᎯ	-10.404
▁ᎢᏗᏅᏁ	-10.404
▁ᎦᏓᎷᏯᏛ	-10.4041
▁ᏗᏥᎸᏫᏍᏓᏁᏗᏱ	-10.4041
▁ᎬᏆᏛᏁᏗᏱ	-10.4041
▁ᎡᏣᏂᎵ	-10.4041
▁ᎤᏬᏪᎳᏅᎯ	-10.4041
▁ᏀᎢᏳ	-10.4041
▁ᎢᏥᏆᎵᏏ	-10.4041
▁ᎢᏧᏕᏘᏴᏛ	-10.4041
▁ᎤᎾᏕᏅ	-10.4042
▁ᎠᎩᎷᏥᎸ	-10.4042
▁ᎠᏂᎴᏴᏍᎩ	-10.4043
▁ᎠᏍᏆᏚᎸ	-10.4043
▁ᎥᏥᎪᎥᎩ	-10.4043
▁ᎬᏩᏲᎱᎯᏍᏗ	-10.4044
▁ᏗᎬᎪᏩᏛᏗ	-10.4044
▁ᏂᏣᏛᎦ	-10.4045
▁ᎤᎾᏓᏓᏍᎬ	-10.4045
▁ᎤᏓᎴᏨ	-10.4045
▁ᏍᎩᎾᏝᎢ	-10.4045
▁ᏗᏇᏅᏒ	-10.4045
▁ᎤᏂᎪᎮ	-10.4046
▁ᎠᏓᏍᏓᏩᏗᏙᎯ	-10.4047
▁ᎾᏯᏛᎡᏍᏗ	-10.4047
▁ᏏᏓᏁᎸ	-10.4048
▁ᎧᎸ	-10.4048
▁ᏧᏴᏢ	-10.4048
▁ᏭᏂᏴᎴᎢ	-10.4049
▁ᎠᎩᏰᎸᎲ	-10.4049
▁ᎠᎹᎴᎩ	-10.4049
▁ᏭᏂᎶᏒᎩ	-10.4049
▁ᎤᏪᎧᏅᎩ	-10.405
▁ᎤᎧᎭᏛ	-10.405
▁ᏏᏅᏓ	-10.405
▁ᎾᏍᎦᎢᎲᎾ	-10.405
▁ᏗᏦᏗ	-10.4051
▁ᏣᎾᏫ	-10.4051
▁ᏧᏴᏨ	-10.4052
▁ᎢᎩᏅᏟ	-10.4053
▁ᎤᏕᏁᎢ	-10.4053
▁ᎤᏂᏰᎸᏒᎩ	-10.4054
▁ᏄᏂᏪᏎᎸᎩ	-10.4055
▁ᎤᏅᏙᏗᏱ	-10.4055
▁ᎨᏥᏁᎸᎯ	-10.4055
▁ᎥᎩᏙᏉ	-10.4055
▁ᎢᎳ	-10.4056
▁ᎡᏙᎭ	-10.4056
▁ᏧᎾᏄᏩᎢ	-10.4056
▁ᏗᎦᎵᏍᏙᏗᎭ	-10.4056
ᏗᎦᏘᏯ	-10.4057
ᎪᎵᏯ	-10.4058
▁ᏂᎦᎵᏍᏙᏗᎭ	-10.4058
▁ᎾᏂᎡᎢ	-10.4059
▁ᎠᏚᎸᏗ	-10.406
▁ᎤᎴᏫᏍᏔᏁ	-10.4061
▁ᎤᏕᏗᏱ	-10.4061
▁ᏓᏳᏓᎴᏅᏓ	-10.4062
▁ᎤᏗᏔᎲ	-10.4063
▁ᎤᎧᏔ	-10.4063
▁ᏧᏁᏢᏔᏅᏛ	-10.4064
▁ᎾᏁᎲᎾ	-10.4064
▁ᎦᏅᏙᏗ	-10.4064
▁ᏗᏂᎦᏘᏯ	-10.4065
▁ᎠᏟᏍᏛᎢ	-10.4066
▁ᏗᎦᏓᏁ	-10.4066
ᏙᎥ	-10.407
▁ᎬᏩᎪᏩᏛᏗ	-10.4074
▁ᎢᎩᏁᎸᎯ	-10.4075
▁ᏐᏓᎻᏱ	-10.4076
▁ᏚᏬ	-10.4079
▁ᎭᎾᏂ	-10.408
▁ᏏᎠ	-10.408
▁ᏯᎩᎭ	-10.4081
▁ᎤᎾᏗᏅᏗ	-10.4085
▁ᏭᎷᏨᎩ	-10.4085
▁ᏚᏂᎸᏫᏍᏓᏁᎸᎢ	-10.4087
▁ᏩᎩᎷᏨ	-10.4088
ᏃᏗ	-10.4088
▁ᎤᏨᏉᏗ	-10.4089
▁ᏂᎦᎵᏍᏙᏗᏍᎨ	-10.4089
▁ᎡᏙᎮᎢ	-10.4091
▁ᎦᏁᏌᎢᎯ	-10.4093
▁ᏗᏟᏍᏗ	-10.4095
ᎨᏳᎯ	-10.4096
▁ᎠᏓᎨᏗ	-10.4096
ᏂᏙᎸ	-10.4097
▁ᎤᏂᎷᏤᏗ	-10.41
▁ᎤᏪᏁᎢ	-10.4102
▁ᎤᎾᏛᎦᏁᎢ	-10.4106
ᏴᏍᏗᏱ	-10.4109
▁ᎤᏯᏅᎯ	-10.4112
▁ᏗᎬᏗ	-10.4112
ᏍᏓᏩᏗᏒ	-10.4115
ᏤᏗ	-10.4115
▁ᏂᎬᏁ	-10.4118
▁ᎠᎧᎵᏬᎯ	-10.412
▁ᎤᏓᏅᏖᎸᎢ	-10.4122
▁ᏅᎩᏁᏃ	-10.4123
▁ᎤᏩᏛᎮᎢ	-10.4125
▁ᏕᏥᎸᏫᏍᏓᏁᎲᎢ	-10.4125
▁ᏱᏙ	-10.4125
▁ᏥᏴ	-10.413
▁ᎬᏙᏗᏱ	-10.4139
▁ᎾᎾᏛᏁᎲᎢ	-10.4142
▁ᎤᏓᏅᏎᎢ	-10.4146
▁ᏲᏥ	-10.4147
ᏗᏍᎪᏂᎯ	-10.4149
▁ᎦᏓᏅᏖᏍᎬᎢ	-10.4153
▁ᎢᏦᎯᏳᏒᎢ	-10.4153
ᏣᏅ	-10.4154
ᏙᎴᎰᎯᏍᏗ	-10.4171
▁ᏗᏣᏓ	-10.4172
▁ᏚᏁᏤᎴᎢ	-10.4176
▁ᎠᏍᎦᎾᎢ	-10.4176
▁ᎥᎵ	-10.4177
▁ᎡᎲᎩ	-10.4178
▁ᎠᎵᏥᏙᎲᏍᎨ	-10.418
▁ᎤᎪᎲᎩ	-10.4184
▁ᏗᏐᎢ	-10.4185
ᎳᏏᏕᏂ	-10.4189
▁ᏚᏁᎴᎢ	-10.4191
ᏫᏒ	-10.4198
▁ᎾᏂ	-10.4207
▁ᎧᏁᎢᏍᏗ	-10.4208
▁ᏚᏃᎸ	-10.4212
▁ᎤᏪᏅᏎᎢ	-10.4221
▁ᎵᏇᎩᏃ	-10.4221
▁ᏧᏬᎸ	-10.4225
▁ᎤᎾᏙᏓᏆᏍᎬᎢ	-10.4236
ᏌᏘ	-10.4239
ᎯᏛ	-10.4247
▁ᎵᏏ	-10.4248
▁ᏧᏓᏏᏃ	-10.425
▁ᏥᏄ	-10.4253
▁ᎤᏪᎷᏁᎢ	-10.4255
▁ᏧᏬ	-10.4263
▁ᏙᏓᎬ	-10.4266
▁Ꮮ	-10.4267
▁ᏅᎩᏁ	-10.4267
ᎵᏓ	-10.4275
▁ᎢᏯᏂᎢ	-10.4276
ᎸᎮ	-10.4276
ᎳᏅ	-10.4277
▁ᎦᏚᏱ	-10.4277
▁ᎠᏓᏅᏖᏍᎬᎢ	-10.428
ᎵᏍᏔᏅ	-10.4288
ᏂᏓᏍᏗᏱ	-10.4288
ᎧᎵ	-10.4296
▁ᎢᎾᏛᏃ	-10.43
ᏙᎠ	-10.4312
▁ᎤᏄᎪᎢᏍᏗ	-10.4315
▁ᏅᏗᎦᎵᏍᏙᏗᏍᎨᎢ	-10.4319
ᏗᏔ	-10.4326
ᏯᎡᏍᏗ	-10.4332
ᏰᎸᎯ	-10.4334
ᏓᎩᏍᎨ	-10.4343
▁ᏅᏓᏳᎾᎵᏍᎪᎸᏔ	-10.4346
▁ᎦᏅᎨ	-10.4374
▁ᎠᏫᎾ	-10.4387
▁ᏗᎾᏓ	-10.4393
▁ᏣᏚ	-10.4395
ᎬᎭ	-10.4396
ᏲᎪ	-10.4401
ᎯᏃ	-10.4404
▁ᏥᎨᏥ	-10.4405
ᏄᎪᏫᏎ	-10.4415
▁ᎬᏗᎭ	-10.4416
ᏄᎪᏩ	-10.4418
ᏛᏁᎢ	-10.4421
▁ᏑᏓᎵᏁ	-10.4423
ᎨᏳᎭ	-10.443
ᏃᎮᏍᎬᎢ	-10.4436
ᏯᏅᏛ	-10.4439
ᎪᏗᏱ	-10.4448
▁ᏗᏂᏩᎾᎦᎳ	-10.4454
ᎯᎭ	-10.4465
▁ᎨᏥᏁᏗ	-10.4475
ᎨᏴ	-10.448
▁ᎠᎦᏕ	-10.4481
▁ᎠᏰ	-10.4503
ᎷᏣ	-10.451
ᏒᏗ	-10.4511
ᎫᏴ	-10.453
▁ᏳᏩ	-10.454
▁ᏄᏂᎬᏫᏳᏒᏃ	-10.4544
ᏗᏔᏍᏗ	-10.4544
▁ᏨᏗ	-10.4547
ᏏᏱ	-10.4574
ᏁᎲᎩ	-10.4578
ᏥᏁᎸᎯ	-10.4579
▁ᎤᏃᎮᎴ	-10.4579
▁ᎠᏆᏓᏅᏖᏗ	-10.4588
▁ᎥᏣ	-10.4594
ᏍᏆᏂᎪᏙᏗᏱ	-10.4597
ᏍᎦᏅᏨᎢ	-10.4621
ᏥᏴ	-10.4621
ᎨᏍᏗᏗ	-10.4637
ᏍᏕᎵᎭ	-10.4646
▁ᎠᏯᎥ	-10.4649
ᎶᏍᎬ	-10.4673
ᏇᎵ	-10.4685
ᎰᎵ	-10.4687
ᎡᏗᏱ	-10.4695
▁ᎦᏨ	-10.4717
ᏪᏎᎸ	-10.4721
▁ᏧᎴ	-10.4723
▁ᏧᏅ	-10.4727
▁ᏫᏚᏂ	-10.4728
ᏛᏙᏗ	-10.4732
ᏂᎴ	-10.4733
▁ᎤᏂᏴ	-10.4736
▁ᏗᏨ	-10.474
ᎷᏥ	-10.475
ᏍᏙᏓ	-10.477
▁ᎢᎤ	-10.4773
ᏦᎯ	-10.4777
ᏙᎸ	-10.4781
ᏰᏥ	-10.4791
▁ᏤᎲ	-10.4797
ᏑᏰᏒ	-10.481
ᎩᏴ	-10.4812
ᎯᏉ	-10.4818
▁ᎢᎬᏱᏱᏃ	-10.4827
ᎸᏃ	-10.4828
▁ᎡᎳᏪᏱ	-10.4831
▁ᎩᏯ	-10.4842
ᏲᏒᎩ	-10.4848
ᏥᎩ	-10.4853
ᏍᏓᏁᎸ	-10.4857
▁ᏗᎩᎦ	-10.4859
ᏂᎭ	-10.4861
ᏦᏅ	-10.487
▁ᏧᏙ	-10.4874
ᏎᏗ	-10.4879
▁ᎠᎵᎮᎵᎬ	-10.4883
ᏙᎲ	-10.4885
ᎳᏁᎢ	-10.4892
ᎲᏍᎨᏍᏗ	-10.49
ᎵᏦ	-10.4903
▁ᏗᎪᏢ	-10.4908
ᎸᏉᏗᎭ	-10.4909
ᎳᏍᏓ	-10.493
▁ᏓᎶᏂᎨᎢ	-10.4935
ᏴᎭ	-10.4945
ᏯᎥ	-10.4947
ᏓᎳ	-10.4949
Ꮾ	-10.4951
▁ᏫᏚᎾ	-10.4953
ᎡᎴᎢ	-10.496
ᏲᎯᏎᎸᎩ	-10.4962
ᏤᎭ	-10.497
▁ᎠᏂᏍᎦ	-10.4988
ᏨᎾ	-10.4995
ᏙᎮᏍᏗ	-10.4996
ᏡᏗᏍᎩ	-10.5034
ᏢᎩ	-10.5035
ᏍᏓᏁ	-10.5047
ᏂᏙ	-10.5067
ᎪᏛ	-10.5078
ᎥᏝ	-10.508
ᎠᎩ	-10.5092
d	-10.5103
ᏲᏟ	-10.5103
h	-10.5104
ᏛᏅᎩ	-10.5105
ᏁᏢᏔᏅᏛ	-10.5116
ᎵᏍᏓᏴᏗ	-10.5127
▁ᎤᏭ	-10.5129
ᎢᏍᏙᏗ	-10.5131
ᎩᏂ	-10.5132
ᏱᏃ	-10.5155
ᎯᏓ	-10.516
ᏆᎶ	-10.517
ᎠᏂ	-10.5172
ᏗᏏ	-10.5182
▁ᏫᏚᏯᏅᎲ	-10.5183
▁ᎠᎦᏍᎦᏂ	-10.5194
ᎧᎵᏬᎯ	-10.5194
▁ᏤᎦᎳᏯ	-10.5195
ᏍᏓᏱᏳ	-10.5199
▁ᎤᏂᏃᎮᎴ	-10.5199
▁ᎮᎼ	-10.5203
ᎯᎯ	-10.5203
▁ᎢᏆᎶᏂ	-10.5206
ᏛᏁᎭ	-10.5207
ᎠᏎ	-10.5207
▁ᏂᏚᏪᏎᎸ	-10.5216
ᏪᏎᎸᎩ	-10.5217
▁ᏓᎵᏍᏗᎳᏁᎬ	-10.5226
▁ᏚᏅᏎ	-10.5227
▁ᎧᎸᎬ	-10.5228
▁ᎬᏩᏔᏲᏎᎴ	-10.5231
▁ᏯᏃᎩᏳ	-10.5232
▁ᎤᏁᎵᏎ	-10.5232
▁ᏕᎦᎳᏫᎥ	-10.5233
ᎤᏍᏆᏂᎩᏗ	-10.5235
▁ᏗᏥᎦᏴᎵᎨ	-10.5235
▁ᎤᏍᏓᎦᎸ	-10.5236
▁ᎤᏗᏛᎮ	-10.5236
▁ᏓᏟᎶᏍᏛ	-10.5237
▁ᏚᎴᎯᏌᏅ	-10.5238
▁ᎤᏬᏎᎴ	-10.5243
▁ᎤᏪᏅᏒᎩ	-10.5244
▁ᎢᎩᏍᎦᏅᏨ	-10.5245
.)	-10.5251
▁ᎠᏂᏙᎾᎡ	-10.5254
ᎤᏙᎯᏳᎯ	-10.5254
ᏍᏓᏩᏛᏒᎩ	-10.5257
ᏢᏛ	-10.5263
▁ᎧᏃᎮᏓ	-10.5264
▁ᎤᏪᎧᏁᎴ	-10.527
ᏲᎾ	-10.5272
▁ᎤᏂᎸᏉᏗ	-10.5272
ᏬᏂᎯᏍᏗ	-10.5273
▁ᏗᎪᏪᎶᏗ	-10.5273
▁ᎪᎹᎵ	-10.5275
▁ᎢᏳᏅᏁᏗ	-10.5281
ᎸᏁ	-10.5281
▁ᏫᎦᎶᎯᏍᏗ	-10.5286
▁ᏧᏬᏚᎯ	-10.5287
▁ᎡᏉᏄᎶᏗ	-10.5287
▁ᎤᎭᎸᏂᎯ	-10.5287
▁ᎤᏂᏚᏯᏍᏗ	-10.5287
▁ᎤᏓᏏᏂᏕᎾ	-10.5287
▁ᎤᏪᏲᏓᏛ	-10.5287
▁ᎦᏣᏄᎸ	-10.5287
▁ᎯᏍᎩᏧᏈ	-10.5287
▁ᎰᏪᎸᎦ	-10.5287
▁ᏂᏚᏅᏏᏴ	-10.5287
▁ᏄᏠᎾᏍᏛᎾ	-10.5287
▁ᏅᏓᎬᏴᏁᎵ	-10.5287
▁ᏆᎻᏆᏂ	-10.5287
▁ᏈᏯᏏᏆ	-10.5287
▁ᏦᎩᎸᏫᏍᏓᏁᎯ	-10.5287
▁ᏧᎦᏃᏮ	-10.5287
▁ᏫᏂᎦᎵᏍᏙᏓ	-10.5287
▁ᎠᏓᏎᎪᎩᏍᎨᏍᏗ	-10.5287
▁ᎢᏰᏆ	-10.5287
▁ᏚᏩᏂᎦᏢ	-10.5287
▁ᎩᎾᎵᎢ	-10.5287
▁ᏗᏉᏰᏂ	-10.5287
▁ᎤᏯᏅᏒᎯ	-10.5287
▁ᎠᎦᏴᎵᎨᏍᏛᏱ	-10.5287
▁ᎠᏂᏙᎾᎢ	-10.5287
▁ᏂᏚᎾᏓᏪᏎᎸᎩ	-10.5287
▁ᏗᏦᏰᏂ	-10.5287
▁ᎤᏘᏴᎯ	-10.5287
▁ᏗᎾᏓᏂᏱᏍᎩ	-10.5287
▁ᎤᏗᏗᏢ	-10.5287
▁ᎯᎸᎯᏨ	-10.5287
▁ᎢᏗᎦᏪᏍᏗ	-10.5287
▁ᏭᎬᏫᏳᏒ	-10.5287
▁ᎭᎴᏉ	-10.5287
▁ᏌᎵᏂ	-10.5287
▁ᏄᏬᎯᏳᏒᎾ	-10.5287
▁ᏅᏓᎪᎯᏥ	-10.5288
▁ᏕᏥᏲᎵᎸᎭ	-10.5288
▁ᏗᎦᏃᏣᏟ	-10.5288
▁ᏅᏃᎱᎶᏗ	-10.5288
▁ᏧᏙᏓᏆᏛ	-10.5288
▁ᏌᎶᎵ	-10.5288
▁ᎬᏩᏕᏁᎸᎯ	-10.5288
▁ᎲᏗᏍᎨᏍᏗ	-10.5288
▁ᎯᏍᎩᎦᏚ	-10.5288
▁ᏗᏆᎳᏏᏕᏂ	-10.5288
▁ᎦᎵᏦᏙᏙᏗ	-10.5288
▁ᎢᏨᏍᏗᏰᏗᎭ	-10.5288
▁ᎤᏬᏞ	-10.5288
▁ᎠᎹᏳᎶᏗ	-10.5288
▁ᎦᏯᎴᏍᏗ	-10.5288
▁ᏧᏃᏩ	-10.5288
▁ᎤᏂᎬᎥᏍᎩ	-10.5288
▁ᎢᏯᎧᎵᎢ	-10.5288
▁ᎠᎾᏓᏙᎵᏍᏓᏁᎯ	-10.5288
▁ᎯᎳᎪ	-10.5288
▁ᎤᏍᏗᎩᏛ	-10.5289
▁ᏗᎬᏩᏓᏂᎸᎢᏍᏗ	-10.5289
▁ᏅᏓᏳᏓᎴᏅᏛ	-10.5289
▁ᏧᏩᏂᎦᏝᏅ	-10.5289
▁ᎤᎴᏅᎩ	-10.5289
▁ᎪᏒᏔᏅ	-10.5289
▁ᎯᎧᏅᎭ	-10.5289
▁ᏗᏨᏂᏗᏳ	-10.5289
▁ᏧᏓᏘᎾᎢ	-10.5289
▁ᏧᏙᎢᏓ	-10.5289
▁ᏄᏂᎲᎾ	-10.5289
▁ᏚᎦᏌᏛ	-10.5289
▁ᏱᏄᎵᏍᏔᏅ	-10.5289
▁ᎥᎩᏅᏟ	-10.529
▁ᏕᎨᎦᏨᏍᏗᏍᎬ	-10.529
▁ᎢᏥᏪᏍᏗᏱ	-10.529
▁ᎠᏣᏪᏐᎸᏍᏙᏗᏱ	-10.529
▁ᏫᎨᏥᏲᎵᎭ	-10.529
▁ᎧᏃᎩᏍᏗ	-10.5291
▁ᏗᎩᏅᏒ	-10.5291
▁ᏙᏗᏣᏓᏅᏛᎢ	-10.5291
▁ᏕᎪᏢᏩᏗᏒ	-10.5291
▁ᏓᎭᏃᏫ	-10.5291
▁ᎠᏂᎾᏁᏍᎬ	-10.5291
▁ᎦᏆᏘ	-10.5291
▁ᏚᏦᎯᏍᏛ	-10.5291
▁ᎤᏂᏍᏆᏂᎪᏒᎩ	-10.5292
▁ᎡᏣᎸᏉᏗᏳ	-10.5292
▁ᎢᏥᏍᏆᏂᎪᏙᏗ	-10.5292
ᏙᎴᎰᏏ	-10.5292
▁ᏗᎧᏁᎢᏍᏗ	-10.5293
▁ᎦᎵᎡᎵᎦ	-10.5293
▁ᏥᏅᏗᎦᎵᏍᏙᏗᎭ	-10.5294
▁ᎬᏩᏓᏍᏕᎸᏗ	-10.5294
▁ᎠᏆᏓᎵᎢ	-10.5295
▁ᎡᏃᏱ	-10.5295
ᏏᏳ	-10.5295
▁ᎠᏓᏍᏓᏴᏗ	-10.5295
▁ᏌᏈ	-10.5295
ᏔᎷᎩᏍᎩ	-10.5295
▁ᎠᏂᎯᏗ	-10.5295
▁ᎤᏃᎯᏳᏗᏱ	-10.5296
▁ᎤᏂᏑᎸᏓ	-10.5296
▁ᎤᎵᎬᎭᎷᏴᎯ	-10.5296
▁ᎤᏢᏉᏗ	-10.5296
▁ᏮᏛ	-10.5297
▁ᏗᎦᏅᎯᏓ	-10.5297
▁ᎤᏓᎵᏓᏍᏗ	-10.5298
▁ᎤᎾᏛᏁᎸᏗ	-10.5298
▁ᎤᏂᎵᏦᏩᏛ	-10.5298
▁ᎭᏂᏣ	-10.5299
▁ᎤᏪᏚᎲ	-10.5299
▁ᎠᏲᏙᏗ	-10.5299
▁ᎮᏂᎵ	-10.53
▁ᎠᏓᏪᎳᎩᏍᎬ	-10.53
▁ᎢᎩᎨᏳᎯᏳ	-10.5301
▁ᏚᏁᏤᎸ	-10.5302
▁ᎠᎦᎸᏓ	-10.5304
▁ᎤᏃᏍᏛ	-10.5305
▁ᎤᎾᏕᏗᏱ	-10.5306
▁ᎢᏥᏁᏍᏗ	-10.5306
▁ᎤᏂᏩᏛᎮ	-10.5306
▁ᎤᏅᏓᏕ	-10.5306
▁ᏱᏍᎦᎢᎮᏍᏗ	-10.5306
▁ᎠᎬᎭᎸᏛ	-10.5306
▁ᎠᏋᎭ	-10.5307
▁ᏬᎩᎷᏨᎩ	-10.5307
▁ᎤᏓᏅᏖᏛ	-10.5308
▁ᏓᎬᏁᎵ	-10.5308
▁ᎯᎦᏙᎵ	-10.5309
▁ᎤᏂᎸᏉᏔᏁ	-10.5309
▁ᎧᏫ	-10.531
▁ᎤᎾᎦᏙᏍᏕᎢ	-10.531
▁ᎤᏔᏲᏎᎴ	-10.5311
ᏁᎦᎸ	-10.5313
▁ᎠᏓᏰᎨᏍᏗ	-10.5313
▁ᎠᎪᏔᏅᎯ	-10.5314
▁ᎤᏂᏍᏆᏂᎪᏙᏗ	-10.5315
▁ᏗᏓᏬᏍᏗ	-10.5315
▁ᏥᏍᎪᎵ	-10.5316
▁ᏧᎾᏄᎪᏫᏒᎯ	-10.5317
▁ᎠᎬᏗᏍᎬᎢ	-10.5317
▁ᏗᏥᎾᏫᏱ	-10.5317
▁ᎠᎪᏎᎮᏍᏗ	-10.5319
▁ᏗᎲ	-10.532
▁ᎣᎩᎾ	-10.5322
▁ᏗᎵᏍᎪᎸᏓᏁᎸᎯ	-10.5322
▁ᎤᏂᎩᏍᏗᏱ	-10.5326
▁ᎤᏂᏁᏨᎩ	-10.5326
▁ᎡᏍᎦᏂ	-10.5326
▁ᎤᎾᏅᏗ	-10.5326
▁ᎤᏂᎩᏒ	-10.5329
▁ᎪᏢᏗ	-10.5329
ᏘᏃᎸ	-10.5331
▁ᎤᏌᎯᎸᎢ	-10.5331
▁ᎠᏴᏤᏂ	-10.5331
▁ᎠᏂᎩᏍᎬ	-10.5333
▁ᎬᏁᏍᏗ	-10.5334
▁ᏧᏁᏤᎢ	-10.5336
▁ᎠᏂᏯᎢ	-10.5336
ᏁᎸᎾ	-10.5336
▁ᏎᏉ	-10.5338
▁ᏓᏂᎧᏅ	-10.5338
▁ᎠᏁᏢᏔᏅᎯ	-10.5339
▁ᎠᏓᎴᏂᏍᎬ	-10.5341
ᎾᏄᎪᎢᏍᏗ	-10.5342
▁ᎯᏬᏂᏍᎬ	-10.5342
▁ᎡᎮᎾ	-10.5343
▁ᎢᎩᏍᎦᏅᏨᎢ	-10.5343
▁ᎠᏥᎳ	-10.5344
▁ᎦᏟᎮ	-10.5345
▁ᏓᏍᏛᎢ	-10.5346
▁ᎤᏓᏛᏛᏁ	-10.5348
ᏃᎮᏍᎩ	-10.535
▁ᎦᏲᎵ	-10.5351
▁ᎤᎬᏫᏳᎭ	-10.5354
▁ᎤᏪᏅᎩ	-10.5355
▁ᎠᏇᏅᏍᏗ	-10.5357
▁ᏕᎬᏗᏍᎬ	-10.5359
▁ᎮᏓ	-10.536
▁ᎾᏆᏍᏛ	-10.5365
ᎶᎯᏍᏗᏱ	-10.5367
▁ᎤᏰᎸᎭ	-10.5368
▁ᏯᏗᎭ	-10.5369
▁ᎠᎵᎮᎵᎨ	-10.5369
ᎫᏩ	-10.537
▁ᎪᏪᎸᎩ	-10.5371
▁ᎤᏂᎪᎲᎯ	-10.5372
ᏈᎵ	-10.5374
▁ᎤᏩᏛᎮ	-10.5377
▁ᎦᏓᏍᎬᎢ	-10.5377
▁ᏄᏛᏅᎢ	-10.538
▁ᏗᏣᏙᏗ	-10.5381
▁ᏄᏓᎴᎯ	-10.5383
▁ᎤᏂᎩᏎᎢ	-10.5388
▁ᏈᎬ	-10.5391
ᏗᏍᎬᎩ	-10.5394
▁ᏅᎵᏌᎵᏉ	-10.5394
▁ᎤᏩᏛᎲ	-10.5394
▁ᎤᏂᏁᎬ	-10.5397
ᏐᏉ	-10.5399
ᎦᏛᏅ	-10.54
ᎤᏲ	-10.5401
ᎵᏍᏚ	-10.541
▁ᎦᏅᏅᎢ	-10.5423
▁ᎤᏍᎦᎴ	-10.5424
▁ᎠᎪᎵᏰᏗ	-10.5439
▁ᎤᏬᎸᎢ	-10.5444
ᏍᏆᎵ	-10.5447
ᏲᏍᏗᏍᎬ	-10.5454
▁ᏐᎳᏃ	-10.5455
▁ᎠᏂᏍᎦᎾᎢ	-10.546
▁ᎤᏄᎪᏨ	-10.5462
▁ᏄᎵᏍᏔᏂᏙᎸᎢ	-10.5473
ᏩᏛᎲ	-10.5477
▁ᎤᎶᎩᎸᏃ	-10.5478
ᏍᏖ	-10.548
▁ᏄᏍᏕᎢ	-10.5482
▁ᏄᎾᎵᏍᏓᏁᎸ	-10.5485
▁ᎤᏁᏤᎸᎢ	-10.5486
ᏍᎪᎸ	-10.5486
▁ᏙᏘ	-10.5489
ᎵᏍᏓᏏ	-10.5493
▁ᎨᎦᎫᏴᎡ	-10.5498
▁ᏙᏧ	-10.5506
▁ᏁᎵᏍᎬ	-10.5507
▁ᎹᎾ	-10.5508
ᎢᎦ	-10.551
▁ᏕᏥᏁᎸ	-10.5514
ᎵᎹ	-10.5514
▁ᎦᏅᏍᏙᏗᏃ	-10.5519
▁ᏕᏨ	-10.5521
▁ᎤᎾᏛᎦᏅᎩ	-10.5521
ᏗᎩ	-10.5524
▁ᎾᏂᎳᏍᏓᎸ	-10.553
▁ᎢᏕᎲ	-10.553
▁ᏥᎦᏔᎭᏰᏃ	-10.553
▁ᏗᏁᏙᎲ	-10.5542
ᏏᎳᏛᏗ	-10.5542
ᎵᏍᎪ	-10.5543
ᏎᏗᏱ	-10.5545
▁ᎠᏂᏔᎵᎭ	-10.5547
▁ᏣᎨ	-10.5549
ᎲᏍᎬ	-10.556
▁ᏚᏙ	-10.556
▁ᎤᏍᏆᎸ	-10.5565
▁ᏣᏚᎵᏍᎬ	-10.5566
ᎦᏰ	-10.5567
ᎷᏥᏏ	-10.5568
▁ᎤᏪᏅᏎᏃ	-10.557
ᏥᎪ	-10.5577
▁ᎤᏬᎯᏳ	-10.5583
▁ᏧᎵᏏ	-10.5583
Ꮮ	-10.5585
▁ᏏᎳ	-10.559
▁ᎠᏆᏓᏅᏛ	-10.5601
▁ᎤᏛᏅᎢᏍᏔᏁ	-10.5614
▁ᏎᎵᏃ	-10.5628
▁ᏅᏩᏍᏛ	-10.5637
▁ᎦᏬᏂ	-10.5642
▁ᏲᎦ	-10.5655
▁ᎩᎵ	-10.5668
▁ᎤᎾᎵᎮᎵᏤ	-10.5669
ᏩᏛᏗᏱ	-10.5669
ᏍᎪᎯ	-10.5674
ᏣᎳᎩ	-10.5679
▁ᏦᏥ	-10.5679
ᏫᏒᎯ	-10.5687
▁ᎦᏄᎸᏒ	-10.5689
ᏴᎦ	-10.5694
▁ᏚᎦ	-10.57
ᏔᏲ	-10.5704
▁ᎦᏁᏟᏴᏍᏗ	-10.5713
▁ᎤᎪᎲᏃ	-10.5714
▁ᏓᏤᎸ	-10.5721
▁ᏥᏁ	-10.5724
ᎵᎨ	-10.5725
▁ᏳᏚᎵ	-10.5727
▁ᏓᏥᏯ	-10.5744
ᎧᎲ	-10.5745
ᎾᏓᏤᎵ	-10.5746
▁ᏴᏓ	-10.5753
ᏢᏔ	-10.576
▁ᏂᎦᏛᏁᎲ	-10.5765
▁ᏚᏩᏛᎮ	-10.5769
ᏴᎵ	-10.5772
ᎦᏘᏓ	-10.5773
ᏃᎲᏏ	-10.578
▁ᏙᏥ	-10.5782
▁ᏓᏂᎸ	-10.5782
▁ᎢᏥᎲ	-10.5789
ᏨᏯ	-10.579
ᏍᏆᏂᎪ	-10.5794
▁ᎤᏰᎸᏎ	-10.5798
▁ᎠᎦᏘᏰ	-10.5798
▁ᏗᎨᎦ	-10.58
ᏓᏅᏙ	-10.5801
▁ᏱᏓᏂ	-10.5836
ᎨᎾ	-10.5841
ᎩᏍᎨ	-10.5856
▁ᎮᎯ	-10.5856
ᏕᏂ	-10.5863
▁ᎬᏩᏛᏗ	-10.5865
▁ᏱᏄ	-10.5869
ᏍᏓᏁᎯ	-10.5869
ᎧᏏ	-10.5878
▁ᎤᏄᏢ	-10.5884
ᏣᎵ	-10.5889
▁ᏙᏉ	-10.589
▁ᏚᏁ	-10.5892
▁ᏂᏨ	-10.5895
▁ᎤᏍᏉᏟ	-10.59
▁ᏙᎩᎾ	-10.5922
ᏕᎸ	-10.5922
ᏓᏂᏴ	-10.5923
▁ᎤᏍᏆᏂᎪᏎ	-10.5932
▁ᏄᏬ	-10.5937
▁ᏚᏭ	-10.5942
ᎩᎡᎸ	-10.5947
▁ᏗᎫ	-10.5961
ᎳᏂ	-10.5966
ᏂᏍᎬ	-10.5975
ᏝᏅ	-10.5977
ᏙᎵᏍᏗ	-10.5999
ᎧᏁᎸ	-10.6027
▁ᏧᎳ	-10.6031
▁ᎤᎾᏓᏑᏴ	-10.6054
ᏚᎢᏍᏓᏁᎸᎯ	-10.6067
ᏅᏙᏗ	-10.6075
▁ᎧᏃᎮ	-10.6081
▁ᎣᏒ	-10.609
ᏗᏍᎪᎢ	-10.6092
ᏗᎨ	-10.6093
▁ᏂᎬᏩ	-10.6099
▁ᎠᏗᏔ	-10.6103
▁ᏱᎬᎩ	-10.6106
ᏂᎩᏛ	-10.6111
▁ᎤᏂᎷᏤᎸ	-10.6114
ᏓᏁᎯ	-10.6117
▁ᎯᏍᎩᎦ	-10.6145
▁ᎧᎵ	-10.6182
▁ᎠᎫ	-10.6189
ᏪᏎᎢ	-10.6189
ᎾᎡ	-10.6194
▁ᏗᎧ	-10.6205
ᏓᏥ	-10.6209
ᏫᏛ	-10.6213
ᏲᏍᏓ	-10.6216
▁ᏓᏆᎧᎾᏅ	-10.6219
▁ᎠᎾᎵᏅᏟᏃ	-10.6231
ᏯᎦ	-10.6248
▁ᏓᏳᏂ	-10.6252
▁ᏙᏯ	-10.6254
ᏯᏗ	-10.6256
▁ᏗᎦᏓ	-10.628
ᏕᎨ	-10.629
ᏍᏓᏲ	-10.6307
ᎪᎦ	-10.6322
▁ᎠᏍ	-10.6327
▁ᏱᏙᎨ	-10.6331
▁ᎭᏗ	-10.6348
ᏫᏎᎴᎢ	-10.6352
ᏰᎸᏒᎩ	-10.6367
▁ᎣᎬ	-10.6388
ᏩᏛᎯ	-10.6392
ᎸᏓ	-10.6404
▁ᎾᏍ	-10.6412
ᏥᎦᏔᎭ	-10.6422
▁ᎤᎾᏓᏅ	-10.6432
▁ᎪᎦ	-10.6436
ᎦᏘᏯ	-10.6453
▁ᏈᎵ	-10.6457
ᏓᏂᎸᏨᎯ	-10.6469
ᏚᏓᎴ	-10.6469
ᎮᎾ	-10.6473
ᏇᏅ	-10.6483
▁ᏑᎾᎴᏉ	-10.6485
ᎡᎵᏍᏗ	-10.6485
▁ᏦᏒ	-10.6486
▁ᎦᏂᏏ	-10.6497
▁ᎠᏆᎵᏍᏓᏴᏗ	-10.6498
ᏗᏢ	-10.6512
ᏄᎪᏫᏏ	-10.6516
ᏔᏲᏎᎭ	-10.6529
▁ᎦᏁ	-10.6535
ᏎᎵ	-10.6536
ᏁᎲᎾ	-10.6538
ᏁᏓ	-10.6545
ᎦᏔᎮ	-10.6546
ᎪᏩᏛᏗᏱ	-10.6547
ᏂᎦᏓ	-10.6552
ᏯᏅᏗ	-10.6557
▁ᏥᎷᏏᎵᎻᏃ	-10.6558
▁ᎤᏲᎯᏍᏔᏁ	-10.6562
ᏢᎾ	-10.6568
ᎵᏂᎩᏗᏳ	-10.6584
▁ᏧᏄᏬ	-10.6587
▁Ꮠ	-10.659
ᏧᎬ	-10.6605
▁ᏱᎨᏣ	-10.6607
▁ᎠᎩᏁ	-10.6608
▁ᏂᎦᏗᏳᏃ	-10.6611
ᏂᏙᎲ	-10.6612
ᏚᏓᎴᏍᏙᏗ	-10.6616
▁ᏗᎩᏲᎯ	-10.6616
r	-10.6618
ᎾᏄᎪᏨᎯ	-10.6623
▁ᎧᏂᎵᏯ	-10.6624
▁ᏗᎪᏑᎴᏗᏱ	-10.6626
▁ᎡᏂᎾᏯ	-10.6631
▁ᏂᎬᏁᎲ	-10.6635
ᎠᎹ	-10.6641
ᏍᏈᏯ	-10.6647
ᏕᎰ	-10.665
▁ᏂᏣᏛᏁᎲ	-10.6653
ᎦᏘᏴ	-10.6655
▁ᏚᎾᏄᎪᏫᏎᎴ	-10.6655
▁ᎤᎵᎮᎵᏨ	-10.6657
▁ᎠᏍᏆᎵᏍᎬ	-10.6659
▁ᏙᏓᏆᏍᎬ	-10.666
▁ᏓᏂᏙᎨ	-10.666
ᎦᎵᎷᎨᏍᏗ	-10.666
▁ᏕᎦᎶᎨᏒ	-10.6661
▁ᎤᏩᏔᏅ	-10.6664
▁ᎤᏦᏱᎴ	-10.6665
ᏗᎦᎵᎠᏅᎯᏛ	-10.6668
▁ᎤᎾᏄᎪᏫᏎᎴ	-10.6668
▁ᎮᎵᎠ	-10.6669
▁ᏭᏂᎶᏎ	-10.6669
▁ᎧᏁᏌ	-10.667
▁ᏕᏣᏓᏅᏛ	-10.667
▁ᏄᎾᏛᏁᎴ	-10.6674
ᏑᎾᎴ	-10.6674
▁ᎤᏌᎯᎸ	-10.6676
ᎦᏔᎰ	-10.6676
▁ᏚᏩᏂᎦᎸ	-10.6677
▁ᎠᎾᎵᎮᎵᎨ	-10.6679
ᏰᏛ	-10.6679
▁ᎤᎾᏄᎪᏫᏒ	-10.6681
▁ᏓᏕᏲᎲᏍᎨ	-10.6682
▁ᎤᏪᏴ	-10.6682
ᎶᏁ	-10.6687
▁ᎤᎾᎩᎸ	-10.6689
▁ᎡᎵᏍᎬ	-10.669
▁ᏬᎩᎷᏨ	-10.6694
ᏙᎵᏨ	-10.6694
▁ᏂᎦᏅᎯᏒ	-10.6694
▁ᎢᏣᏚᎵ	-10.6695
ᏧᏈᏍᏗ	-10.6695
▁ᎤᎬᏫᏳᏎᏍᏗ	-10.6696
▁ᏕᎦᎧᎲ	-10.6696
▁ᎯᏍᎩᏁ	-10.67
▁ᎢᎨᎬᏁᏗ	-10.6701
▁ᏧᏭᎪᏙᏗ	-10.6704
▁ᎤᏁᏝᏅ	-10.6704
ᎷᏨ	-10.6705
▁ᎪᏌᏂ	-10.6706
▁ᏧᏂᎸᏫᏍᏓᏁᏗ	-10.6706
ᎦᏘᏕᎯ	-10.6709
ᏄᏓᎴ	-10.6709
▁ᎤᏥᎸᏒ	-10.671
▁ᎠᎯᏗ	-10.6714
▁ᎠᎵᏏᎾᎯᏍᏔᏅᎯ	-10.6716
▁ᎠᏂᏰᎪᎩ	-10.6716
▁ᎠᏲᏓᏌᎲ	-10.6716
▁ᎤᎵᏏᏂᏕᏅ	-10.6716
▁ᎤᎾᏗᏍᎦᏟ	-10.6716
▁ᎤᏩᎭᏂᎴ	-10.6716
▁ᏁᎳᏧᏈ	-10.6716
▁ᏄᎾᏓᎡᏍᏗ	-10.6716
▁ᏅᏧᏓᎴᏅᎲᎾ	-10.6716
▁ᏕᏥᎧᎿᏩᏗᏙᎮᏍᏗ	-10.6716
▁ᏚᏯᏪᎨ	-10.6716
▁ᏣᏓᏲᏁᎸᎩ	-10.6716
▁ᏱᏤᎵᎯᏍᎨᏍᏗ	-10.6716
▁ᎢᏣᎵᎮᎵᎨᏍᏗ	-10.6716
▁ᎪᎰᏍᏘ	-10.6716
▁ᎠᎪᏕᏍᎩ	-10.6716
▁ᎠᏓᏲᏁᎮᏍᏗ	-10.6716
▁ᎢᏧᎴᎭ	-10.6716
▁ᎨᎴᏏᏱ	-10.6716
▁ᏗᏦᏪᎵᏍᎩ	-10.6716
▁ᎠᏐᎥᏍᏙᏗ	-10.6716
▁ᎦᏅᏃᏩ	-10.6716
▁ᏐᎣᏁᎳᏧᏈ	-10.6716
▁ᎠᏦᎳᏅ	-10.6716
▁ᏅᏛᏆᏓᎴᏅᎯ	-10.6716
▁ᎠᎾᏓᏍᎦᎶᎩ	-10.6716
▁ᎮᏯᏔᎮᏍᏗ	-10.6716
▁ᏧᏣᏲᏍᏗ	-10.6716
▁ᏅᏥᏪᏎᎸᎩ	-10.6716
▁ᏚᏍᏓᎦᎸ	-10.6716
▁ᎤᏪᏐᏅᏴ	-10.6716
▁ᎤᏛᎴᎮ	-10.6716
▁ᎢᏳᏪᏎᎸᎯ	-10.6716
▁ᏧᏁᎿᎢ	-10.6716
▁ᏇᎵᏥᏆ	-10.6716
▁ᎾᎨᎢᏴ	-10.6716
▁ᎢᎧᏁᎢᏍᏗᏍᎨᏍᏗ	-10.6716
▁ᏗᎧᏃᎩᏍᏙᏗ	-10.6716
▁ᎠᏯᏖᏅ	-10.6716
▁ᎤᎦᏔᏔᏅᎯ	-10.6716
▁ᎤᎵᏲᏗ	-10.6716
▁ᏏᎵᏏᏱ	-10.6716
▁ᏦᎢᏧᏈ	-10.6716
▁ᎲᏓ	-10.6716
▁ᏂᎩᏪᏏ	-10.6716
▁ᏓᏲᏤᏏ	-10.6716
▁ᏕᏥᏃᎩᏍᎨᏍᏗ	-10.6716
▁ᎤᏭᏢᏔᏅᎩ	-10.6716
▁ᎤᎶᏗᏢ	-10.6716
▁ᏓᎭᏏ	-10.6716
▁ᏰᏙᎭ	-10.6716
▁ᎠᏍᎩᏗᏍᎨᎢ	-10.6717
▁ᏧᎾᎬᏩᎶᏗ	-10.6717
▁ᏫᏨᏲᏪᎳᏏ	-10.6717
▁ᎢᏦᎯᏳᏗᏱ	-10.6717
▁ᎢᎬᏛᏁᏗ	-10.6717
▁ᏍᎩᏍᏓᏩᏚᎦ	-10.6717
▁ᏔᏘᏄᎦ	-10.6717
▁ᏍᎪᎯᏍᏆ	-10.6717
▁ᎠᎾᏓᏍᏓᏩᏗᏙᎯ	-10.6717
▁ᎤᏬᏂᏎ	-10.6717
▁ᎢᏯᏥᎸᏉᏗ	-10.6717
▁ᎦᏂᎩᎸ	-10.6717
▁ᏑᏓᎵᏍᎪᎯ	-10.6718
▁ᏥᎦᏘᏏ	-10.6718
▁ᏚᎷᏫᏍᏔᏁᎮ	-10.6718
▁ᏂᎩᏪᏎᎸᎭ	-10.6718
▁ᏗᎦᎶᏔᏅ	-10.6718
▁ᏃᎩᏪᏎᎸ	-10.6718
▁ᏓᏱᎾ	-10.6718
▁ᎬᏬᎯᏳᏅᎩ	-10.6718
▁ᏧᏂᎶᎸᏗ	-10.6718
▁ᏗᎫᎪᏗᏍᎩ	-10.6718
▁ᏥᏚᏳᎪᏗ	-10.6718
▁ᏫᏗᎶᎯ	-10.6718
▁ᎿᏛᎦ	-10.6718
▁ᏱᏂᎬᏁᎭ	-10.6719
▁ᎠᎾᎵᏍᏕᎵᏍᎩ	-10.6719
▁ᏄᏪᎲᎾ	-10.6719
▁ᏓᎦᏛᏁᎵ	-10.6719
▁ᏂᏴᏁᎸ	-10.6719
▁ᎪᏪᎴ	-10.6719
▁ᏍᎩᎨᏳᎢᏳ	-10.672
▁ᎣᎦᏚᎵᎭ	-10.672
▁ᎤᏂᎩᎵᏲᎢᏍᏗ	-10.672
▁ᏂᏣᏛᎿᏕᎬᎢ	-10.672
▁ᏧᏓᎵᎢ	-10.672
▁ᎠᏂᎪᎲᎭ	-10.672
▁ᏍᏈᏍᏔ	-10.6721
▁ᏗᏣᎧᏅᎦ	-10.6721
▁ᏫᏥᎷᏨᎭ	-10.6721
▁ᎤᏣᏛᎩ	-10.6721
▁ᏗᎩᎸᏫᏍᏓᏁᏗᏱ	-10.6721
▁ᎤᎾᏓᏙᎵᏍᏓᏁᎸᎩ	-10.6721
▁ᏕᎪᏪᎴᏍᏗ	-10.6721
▁ᏚᎨᏓᎵᏴ	-10.6721
▁ᏗᎾᎢᏒ	-10.6721
▁ᎡᏥᏯᏅᏛ	-10.6721
▁ᏗᎦᏬᏂᎯᏍᏗ	-10.6721
▁ᏧᎾᏄᎪᏫᏎᏗᏱ	-10.6721
▁ᎠᏓᏪᎯ	-10.6721
▁ᎠᏂᎦᏲᏟ	-10.6721
▁ᎢᏣᏚᎵᏍᎨᏍᏗ	-10.6721
▁ᎨᏥᏍᏕᎸᏗ	-10.6721
▁ᎨᏥᏅᏒᎯ	-10.6721
▁ᎪᎯᎢᏴ	-10.6721
▁ᏣᏙᎳᏅᏍᏗ	-10.6721
▁ᏧᎷᏫᏍᏔᏁᏗ	-10.6721
▁ᎠᏓᏁᏣᏍᏚᎶᎩᎯ	-10.6722
ᏢᏂ	-10.6722
▁ᎦᏃᏙᏗᏱ	-10.6722
▁ᎡᏥᏅᏏᏓᏍᏗ	-10.6722
▁ᎯᎸᏉᏓ	-10.6722
▁ᎠᏓᏅᏖᏍᎪ	-10.6722
▁ᎠᏥᎸᏳᎵ	-10.6723
▁ᏧᏂᏬᏂᎯᏍᏗ	-10.6723
▁ᎢᏣᏓᏅᏘ	-10.6723
▁ᎭᏓᏅᎾ	-10.6723
ᏑᎴ	-10.6723
▁ᏥᏧᏣ	-10.6723
▁ᎠᎫᏩᏌ	-10.6724
▁ᎢᏣᏛᏓᏍᏓ	-10.6724
▁ᏇᏗᏂᏱ	-10.6724
▁ᎢᏥᏠᏱ	-10.6724
▁ᎠᏍᏕᏯᏓ	-10.6724
▁ᏗᏣᏓᎴᏅᏛ	-10.6724
▁ᎢᏥᏯᎡᏍᏗ	-10.6725
▁ᏥᏰᎸᎢ	-10.6725
▁ᎤᏁᏉᏨᎯ	-10.6726
▁ᎢᎦᎵᏍᏙᏗᏱ	-10.6726
▁ᏥᏣᏛᎩᎭ	-10.6726
▁ᎤᏍᎦᎣᏅ	-10.6726
▁ᎤᎵᏍᏚᎢᏛ	-10.6726
▁ᎤᎬᎥᏍᎩ	-10.6726
▁ᎤᏁᏍᎩᎸ	-10.6726
▁ᎤᏃᎯᏳᏅᎯ	-10.6726
▁ᎤᎴᏴᏒ	-10.6726
▁ᎤᏓᏙᎵᏣᏛ	-10.6727
▁ᎠᎯᏗᏳ	-10.6727
▁ᎡᏥᏁᏗ	-10.6728
▁ᏚᎭᏄᏮ	-10.6728
▁ᎢᎪᏪᎳ	-10.6729
▁ᎾᏯᏛᎥᎩ	-10.6729
ᏂᏌ	-10.673
▁ᏂᏨᎦ	-10.6731
▁ᎤᏛᏒᎯ	-10.6731
ᎷᎬ	-10.6731
▁ᎤᏃᎯᏳᏅᎩ	-10.6732
▁ᏥᏳᎪᏗ	-10.6732
▁ᎤᎾᏂᎩᏒᎩ	-10.6732
ᏓᏓᏍᎬ	-10.6732
▁ᎡᎵᏍᎨᎢ	-10.6733
▁ᎤᏔᏂᏓ	-10.6733
ᏍᏕᏓᎵᏴ	-10.6733
▁ᎤᎾᏛᏅᎩ	-10.6733
▁ᏗᏘᏲᎯ	-10.6735
▁ᎢᏍᏕᎾ	-10.6736
▁ᎹᎦ	-10.6737
▁ᎤᏙᎯᏳᎯᏍᎩᏂᏃᏅ	-10.6737
▁ᎠᏠᏗᏱ	-10.6738
▁ᎩᎳᎯᏳ	-10.6739
▁ᎠᎩᎵᎨᏂ	-10.6741
▁ᎤᎾᏛᎪᏗᏱ	-10.6741
▁ᏔᏯ	-10.6741
▁ᎤᏲᎢᏴ	-10.6741
▁ᎠᎦᏔᎯᏳ	-10.6742
▁ᏯᏂᎦᏔᎮ	-10.6743
▁ᏫᏥᎦᏛᎢ	-10.6743
▁ᎤᏪᏍᎩᎸᎢ	-10.6743
▁ᎤᏂᎪᏩᏛᏗᏱ	-10.6743
▁ᏓᏨᏁᎵ	-10.6744
▁ᎤᎿᎷᏒᎩ	-10.6745
▁ᏂᏚᏩᏁᎴᎢ	-10.6745
▁ᏥᏙᎦ	-10.6745
▁ᏧᎳᏍᎩ	-10.6746
▁ᎤᏓᏴᏎᎢ	-10.6746
▁ᎤᏂᏠᏱᎭ	-10.6746
▁ᎠᏩᎾᎦᎳ	-10.6747
▁ᎯᏁᎬ	-10.675
▁ᏓᎾᏕᏲᎲᏍᎬ	-10.675
▁ᎪᎵᏍᏗ	-10.675
▁ᏗᎾᏓᎪᎾᏗᏍᎬᎢ	-10.6751
▁ᎤᏪᎧᏁᎢ	-10.6752
▁ᎤᏩᏔᏅᎩ	-10.6752
▁ᎦᏓᏙᎵᏍᏗᏍᎬᎢ	-10.6753
▁ᎠᏂᏴᎩ	-10.6754
▁ᏝᎨ	-10.6754
▁ᏥᏁᎦ	-10.6755
▁ᎠᎢᏒᎩ	-10.6756
▁ᎠᎾᏓᎪᎾᏗᏍᎬᎢ	-10.6756
▁ᎦᎵᏉᎩᏁᏍᎩᏂ	-10.6756
▁ᏭᏂᎷᏨᎩ	-10.6756
▁ᎯᎾᎩ	-10.6757
▁ᎤᏕᎶᎰᏒ	-10.6758
ᎾᏄᎪᏫᏒᎯ	-10.6759
▁ᎠᏂᏃᎮᎭ	-10.676
▁ᎢᏳᏒᎯ	-10.6761
▁ᎤᏚᏓᎴᏛ	-10.6762
▁ᎤᏓᏙᎵᏍᏔᏁᎢ	-10.6762
▁ᎠᏨᏍᏛ	-10.6763
▁ᎤᎾᏂᎩᏎᎢ	-10.6764
▁ᎶᎻ	-10.6764
ᏞᎢ	-10.6767
▁ᎦᎢᏒ	-10.6767
▁ᎤᏦᏱᎴᎢ	-10.6767
▁ᎠᎲᏛ	-10.6767
▁ᏇᎵᎩ	-10.6767
▁ᎬᏂᏳ	-10.6771
▁ᎤᎩᏒᎩ	-10.6771
▁ᏚᏩᏂᎦᎸᎢ	-10.6772
▁ᎤᎾᏕᏗ	-10.678
ᏍᏚᎢᏒ	-10.678
▁ᎤᏰᏨ	-10.6783
▁ᎠᎩᏁᏨᎢ	-10.6783
ᎲᏍᎬᎾ	-10.6783
▁ᎤᎩᏎᎢ	-10.6784
▁ᎤᏗᏛᎮᎢ	-10.6785
▁ᏍᎪᎯ	-10.6786
▁ᏍᎪᏁ	-10.679
▁ᎤᏇᏓᎵᏉ	-10.6793
▁ᏫᎦᎷᎬ	-10.6797
▁ᎤᏄᎪᏤᎢ	-10.6798
▁ᎢᎦᎵᎢ	-10.6799
▁ᏄᏩᏁᎸᎩ	-10.68
▁ᎢᎦᎦᏓ	-10.6801
▁ᏦᎾ	-10.6803
▁ᏩᎾ	-10.6804
▁ᎡᏙ	-10.6804
▁ᏫᏚᏯᏅᎮᎢ	-10.6807
▁ᎤᎵᏍᏆᏛ	-10.6809
ᏓᏁᎮ	-10.6816
▁ᎡᏓᏍᏗ	-10.6819
▁ᎫᎦ	-10.682
▁ᎷᏈᏂᏃ	-10.6829
▁ᎤᎾᏄᎪᎢᏍᏗ	-10.6836
▁ᎠᏓᎯᎯ	-10.6838
▁ᎤᏓᏅᏙᎩ	-10.6838
ᏪᏎ	-10.6846
▁ᎡᎾᎢ	-10.6846
▁ᎢᏨᏃᎮᎮᎸ	-10.6847
▁ᎤᎾᏓᏅᏖᎴ	-10.6849
▁ᎤᎪᏩᏛᏗᏱ	-10.6855
▁ᏂᏚᎩᏨᏂᏒᎢ	-10.6862
▁ᎤᏍᎪᏒ	-10.6874
▁ᏗᎩᎦᏴᎵᎨᎢ	-10.6877
ᏠᎯ	-10.6879
▁ᏂᏕᎬᏁᎲ	-10.6884
ᎵᏍᏓᏴᏗᏱ	-10.6885
▁ᎠᏦᏴᎢ	-10.6892
ᎡᎸᎯ	-10.6899
▁ᏫᏓᏂ	-10.6899
▁ᎤᏁᏅᏎᏃ	-10.6906
▁ᏓᎧ	-10.6907
▁ᎤᎷᏤᎴᎢ	-10.6909
▁ᏕᏣᏙᎥᎢ	-10.6909
▁ᎤᏂᎪᎲᎩ	-10.6912
▁ᏥᏕᏣ	-10.6919
▁ᏚᎴᏅᏃ	-10.6925
ᏂᏴᎲ	-10.6926
▁ᎤᏂᏣᏖᏍᏗ	-10.6928
▁ᎠᏰᏟ	-10.693
▁ᏦᎠ	-10.6934
▁ᎠᏓᏫᏃ	-10.6939
▁ᏗᎪᏢᏅᎯ	-10.694
ᏍᎩᎸ	-10.6941
ᎦᎵᏴ	-10.6947
ᏄᎪᏫᏒᎩ	-10.6948
▁ᎨᏍᏗᏗ	-10.6948
ᏄᏍᏛ	-10.6954
▁ᎤᏂᏴᎮ	-10.6955
▁ᏥᏄᏍᏕ	-10.6959
▁ᏣᏗᎭ	-10.6964
s	-10.698
▁ᎲᎦ	-10.6981
▁ᏄᏪᏎᎸᎢ	-10.6984
▁ᏚᏁᏤᎴᏃ	-10.6984
▁ᏚᏲᏎ	-10.6997
▁ᎠᏰᎵᏒ	-10.7
▁ᏗᏰ	-10.7003
ᏓᎨ	-10.7003
▁ᏓᏔᎴᏒᎢ	-10.7007
▁ᎻᎳ	-10.7012
▁ᎤᎾᏝᎢᏃ	-10.7017
ᎡᎲ	-10.7033
▁ᎤᎾᏓᏅᏖᎸ	-10.7038
ᏪᎸ	-10.7039
▁ᎠᏐᏴ	-10.7047
▁ᎢᏳᎾ	-10.7052
▁ᎤᏁᏤᎢ	-10.7052
▁ᎤᏍᎦᏅᏨᎢ	-10.7053
▁ᎤᎶ	-10.7055
▁ᎤᏁᏤᎴᎢ	-10.7057
▁ᎤᏩᏔᏁ	-10.7067
▁ᎠᎦᏴᎵᎨᏰᏃ	-10.7073
▁ᏧᏁᏤᎴ	-10.7075
ᏒᏂ	-10.7076
▁ᎤᎵᏍᏆᏕ	-10.7081
▁ᏫᏄ	-10.7087
ᏯᎡ	-10.7088
▁ᎦᏯ	-10.7089
ᏏᏅ	-10.7093
ᏅᏤ	-10.7101
▁ᎤᎵᏍᏆᎸᏗᏃ	-10.7103
▁ᎤᏚᎵ	-10.7105
ᎵᏍᏓᏴ	-10.7107
ᏅᏔ	-10.7107
ᎪᎲᏍᎬ	-10.7108
▁ᎡᎶᏛᏃ	-10.711
ᏩᏘ	-10.7111
ᎬᏂᎨ	-10.7113
▁ᎤᎾᏙᏓᏆᏍᎬᏃ	-10.7116
▁ᏓᎩᎸᏫᏍᏓᏁᎲ	-10.7116
ᎵᏍᎬ	-10.7118
▁ᎤᏛᎦᏍᏕ	-10.7119
▁ᎢᎸᏍᎩᏃ	-10.7123
▁ᏫᏗᎦ	-10.7127
▁ᎢᏣᏓᏅᏖᏍᎬ	-10.7127
▁ᏱᏅᎦ	-10.7134
▁ᎠᎹᏂ	-10.7137
ᏅᏓᏗᏍᏙᏗ	-10.7144
▁ᎠᏍᎫᏕᏍᏗᏱ	-10.7148
▁ᎺᎵᏃ	-10.7151
▁ᏓᏔᎴᏒᏃ	-10.7152
▁ᏥᎳ	-10.716
▁ᏅᎦᏍᎪᎯᏃ	-10.7162
ᏒᏉ	-10.7165
▁ᎢᏨᏗᏍᎬ	-10.7168
ᏴᏗ	-10.7171
▁ᏄᏩᏁᎰ	-10.7172
ᏍᏆᎸ	-10.7175
ᏗᏍᎬᎾ	-10.7175
ᏯᏓ	-10.7179
▁ᏑᏓᎵᏃ	-10.7181
ᎾᏄᎪᏫᏏ	-10.7193
ᎵᏍᏓᏴᎲᏍᎦ	-10.7219
ᏅᏓᏛ	-10.722
▁ᏗᏐᏴ	-10.722
▁ᎨᏥᏅᏏᏛᏃ	-10.7222
▁ᏓᎧᏅ	-10.7228
▁ᏰᎵᎦ	-10.7231
ᏌᎲ	-10.7234
ᏌᏁ	-10.7266
ᎵᏛ	-10.7267
▁ᏂᎪᎯᎸᏉ	-10.7268
ᎦᏅᎦ	-10.727
ᏏᏗ	-10.7275
ᎦᏌ	-10.7276
▁ᏗᏃᏪᎵᏍᎩᏃ	-10.7281
▁ᏍᎩᏍᏕᎸ	-10.7291
al	-10.7295
▁ᎤᏓᏅᏒ	-10.7296
ᏂᎲ	-10.7316
ᏖᏍᏗ	-10.7321
ᏓᏅᏖᎴ	-10.7323
ᏬᏂᏍᎬ	-10.7325
ᏓᏬ	-10.7341
ᏏᏁ	-10.7341
▁ᏱᏣᏓ	-10.7342
ᏗᎦᎵᏍᏙᏗ	-10.7346
ᎵᏎᎲ	-10.7348
▁ᎢᏔ	-10.7364
ᎲᏍᎪᎢ	-10.7365
ᏍᏓᏁᎮ	-10.7366
ᏰᎴ	-10.7384
ᏑᎶ	-10.7391
ᏚᏥ	-10.7395
ᎶᏃ	-10.7404
ᏗᎾ	-10.7414
ᏙᎡᏍᏗ	-10.7422
ᏏᏃ	-10.7427
ᏩᏁ	-10.7428
ᏓᎦ	-10.7429
ᎡᎸ	-10.7432
ᎵᏂᎩᏛ	-10.7434
ᏅᏅᎢ	-10.7435
ᎥᏍᎨᏍᏗ	-10.7435
ᎹᏂ	-10.7438
▁ᏕᎫ	-10.7439
ᎵᏍᎦᏍᏙᏗ	-10.7443
ᏘᏃᎦ	-10.7445
ᏛᏛᏅ	-10.7457
▁ᎯᏆ	-10.7491
ᏓᏙᎵᏍᏗᏍᎬ	-10.7496
▁ᎤᏙᎯᏳᎭ	-10.7504
ᏛᏁᏗᏱ	-10.7504
ᏲᎰᏎᎸ	-10.7515
ᏥᏲ	-10.7516
ᏂᎨᏂ	-10.7519
ᏰᎸᎾ	-10.7528
ᎷᏥᎸ	-10.7531
▁ᏛᎩ	-10.7534
ᎸᏒ	-10.7538
ᎾᏄᎪᏫᏍᏗᏱ	-10.7553
ᏍᎪᎵ	-10.7554
ᎪᏒ	-10.7557
▁ᎢᎬᏱᏱᏉ	-10.7557
▁ᏣᏁ	-10.7564
▁ᏧᏁᎦ	-10.7571
▁ᏂᎬᏁᎸ	-10.7581
▁ᎠᏆᏓᏅ	-10.7581
▁ᏗᏦ	-10.7583
ᎳᎩᏒ	-10.7607
ᎵᏍᏕᎸ	-10.762
ᏠᏱ	-10.7624
ᏂᏙᎯ	-10.7624
▁ᏣᏆ	-10.7628
ᎬᏩᏂ	-10.7637
ᏗᏉ	-10.7637
▁ᎤᏍᏆᎸᎯᏗ	-10.7638
ᏆᏏ	-10.7648
▁ᏳᏫ	-10.7664
ᏣᏛᏂᏏ	-10.7668
▁ᎢᏥᏰᎸ	-10.767
▁ᎪᎯᏳ	-10.7686
▁ᎢᎩᏁᎸ	-10.7692
ᏍᏆᏛ	-10.7704
ᏁᎨ	-10.7706
ᎦᏎ	-10.7733
ᏚᎦ	-10.7735
▁ᏕᎬᏩᏂ	-10.775
▁ᎠᎾᏗᏍᎨ	-10.7757
ᎵᏍᏙ	-10.7757
ᏲᎢ	-10.7762
ᏓᎨᏳᏗ	-10.7765
ᏴᎮᎢ	-10.7766
▁Ꮘ	-10.7778
ᏛᏔᏂ	-10.7789
ᎧᎵᎢ	-10.7792
ᎪᎵᏰᎥᎯ	-10.7796
▁ᎢᏥᏁᏗ	-10.78
ᎵᎠ	-10.7809
▁ᎨᏍ	-10.7812
ᏅᏩ	-10.7813
▁ᏗᎨᏣ	-10.7823
▁ᎤᎪᎵᏰᎥ	-10.7826
▁ᏧᏂᎵ	-10.7832
▁ᏚᎵ	-10.7835
▁ᎢᏧᎳᏃ	-10.7839
ᏓᏑᏯ	-10.7842
ᏯᏫᏍᎩ	-10.7848
▁ᏦᏏ	-10.7852
ᏃᎮᎸ	-10.7854
ᎩᏌ	-10.7855
ᏡᎬ	-10.7872
▁ᏃᏳ	-10.7875
ᎵᏍᏔ	-10.7881
ᏙᏛ	-10.7936
ᏬᏁᏔᏅ	-10.7942
ᏛᎬᎦ	-10.7949
▁ᎤᏓᎵᎢᏃ	-10.7959
▁ᏓᎬᎩ	-10.7961
▁ᎯᎦᏔᎲ	-10.7991
ᏗᎦᏛᎯ	-10.7994
▁ᎤᎾᎵᎪ	-10.801
▁ᏄᏂᏪᏎ	-10.8029
ᏏᎳᏛ	-10.8064
ᎧᎯᏯᏍᏗ	-10.807
ᏓᏬᏍᏗ	-10.8071
▁ᎤᏂᎾᏫ	-10.8073
▁ᎤᏅᏒᏃ	-10.8084
▁ᏕᏅ	-10.8093
ᏅᏓᏗᏍᏗ	-10.81
▁ᏱᏓᎾ	-10.8103
ᏪᏒ	-10.8108
ᎸᏂ	-10.8119
ᏕᎨᏍᏗ	-10.8121
ᏗᏍᏗᏱ	-10.8123
ᏴᏔᏁᎢ	-10.8126
▁ᏚᏂᏲ	-10.8126
▁ᏃᎦ	-10.8129
▁ᎠᏂᎶ	-10.8129
▁ᏁᏣ	-10.8147
▁ᏓᏘ	-10.8157
▁ᎤᎾᏄᎪᏫᏎ	-10.816
▁ᎠᎫᏴᏗ	-10.816
▁ᎤᏙᎯᏳᏁ	-10.8161
ᏤᏥ	-10.8162
ᎧᎭ	-10.8169
ᏢᏗᏱ	-10.8178
ᏅᏕ	-10.818
ᏏᎸ	-10.8185
ᏕᏘᏴ	-10.819
▁ᏂᎦᎵᏍᏙᏗ	-10.821
ᏫᏍᎩ	-10.8211
ᎶᏛ	-10.8211
ᎤᎷᏨ	-10.8224
ᏤᎴ	-10.8229
▁ᎤᏂᏅ	-10.8232
ᏯᏖᎾ	-10.8232
ᏔᎵ	-10.8242
ᏂᏟ	-10.8247
▁ᎤᏂᏍᏆᏂᎪᏎ	-10.8255
▁ᏧᎳᏑᎶ	-10.8256
ᏩᏗᏒᎢ	-10.8262
ᎪᏩᏘᏍᎬ	-10.8262
ᎲᏒ	-10.8262
▁ᏣᎫ	-10.8263
ᎪᎲᏍᏙᏗ	-10.827
ᎳᏍ	-10.8276
▁ᏓᏂᎳᏫᎥ	-10.8278
▁ᎮᎳᏂ	-10.8288
▁ᎢᎬᏪᏅᏛ	-10.829
ᏁᎸᏗ	-10.8291
▁ᎤᏬᏢᏅ	-10.8294
▁ᎠᏓᏁᏣᏍᏚᎶ	-10.8299
▁ᎤᎵᏍᏗᏳ	-10.8305
ᏙᎩᏯ	-10.8306
▁ᎤᏁᎢᏍᏔᏅ	-10.8307
ᎶᎻ	-10.8308
▁ᎤᏁᎷᎬ	-10.8308
ᏧᏍᏆᏴᏍᏗ	-10.8308
▁ᏓᏕᏲᎲᏍᎬ	-10.831
ᏅᏖ	-10.8312
▁ᎠᏓᏠᏍᏗ	-10.8315
▁ᏕᎦᎳᏅᏛ	-10.8323
▁ᎠᏓᏪᎵᎩᏍᎬ	-10.8326
▁ᎠᎩᏇᏓᎸ	-10.8329
▁ᎢᏣᎵᎮᎵᎬ	-10.833
ᏯᏅᎯ	-10.833
▁ᎤᎵᏰᏔᏁ	-10.8331
ᏔᏲᏎᎸ	-10.8332
ᏫᎵᎻ	-10.8332
▁ᏕᎦᏍᎩᎸ	-10.8333
▁ᏙᏧᎾᏓᏅᏛ	-10.8333
▁ᏱᏥᎦᏔᎮ	-10.8334
▁ᏂᎦᎵᏍᏗᏍᎪ	-10.8334
▁ᎠᏂᎦᏴᎵᎨ	-10.8334
▁ᎤᏬᎯᏳᏒ	-10.8334
▁ᏧᏁᏨ	-10.8335
▁ᏯᏛᏅ	-10.834
ᎪᎵ	-10.834
▁ᎢᏣᏓᏙᎵᏍᏗᏍᎬ	-10.834
▁ᏄᏂᏪᏎᎴ	-10.8341
▁Ꮊ	-10.8341
ᏴᏐᎵ	-10.8343
▁ᏚᏓᏘᎾᎥ	-10.8343
▁ᎣᎦᏛᎦᏅ	-10.8346
ᎳᏏᏕᎾ	-10.8351
▁ᎥᎩᏙ	-10.8351
▁ᎤᎾᏓᏑᏰᏛ	-10.8353
ᎵᏦᏩᏛ	-10.8354
▁ᏱᏄᏍᏕ	-10.8359
▁ᎤᎾᏂᎩᏎ	-10.8361
▁ᎤᏬᎯᏳᏅ	-10.8365
▁ᏅᏓᏰ	-10.8366
▁ᎢᏯᎬᏁᏗ	-10.8368
▁ᏇᏓᏁᎳᎻ	-10.8368
▁ᎠᏇᏓᏍᏗ	-10.8368
▁ᏭᎷᏤᎴ	-10.8368
ᏪᏏ	-10.8369
▁ᏧᏂᎧᎿᏩᏛᏍᏗ	-10.8369
▁ᏕᎦᏬᏁᏗᏍᎬ	-10.8372
▁ᏗᎨᎫᎪᏓᏁᏗ	-10.8373
▁ᏄᏅᏁᎸ	-10.8374
▁ᏤᏅᏍᏗ	-10.8374
▁ᏗᎫᏍᏙᏍᏗ	-10.8375
ᏍᎩᏓᏍᎬᎢ	-10.8375
▁ᏭᏯᏅᎲ	-10.8376
▁ᎠᏓᏙᎵᏍᏙᏗ	-10.8377
▁ᎠᏥᏛᏙᏗ	-10.8377
ᎵᏒ	-10.8378
ᏅᏤᎢ	-10.8379
ᏫᏂᏗᏢ	-10.8379
▁ᎠᏂᏥᏊᏏ	-10.8382
▁ᎢᎬᏆᏛᏁᏗ	-10.8382
▁ᎢᎵᎡᏌ	-10.8382
▁ᎢᏯᏓᏛᏁᎯ	-10.8382
▁ᎢᏯᏛᏁᎵᏓᏍᏗ	-10.8382
▁ᎥᏆᎸᎢᏛ	-10.8382
▁ᎫᏫᏍᎫᏫ	-10.8382
▁ᎰᏢᏔᏅᎭ	-10.8382
▁ᎴᎣᏗᏏᏯ	-10.8382
▁ᎾᏥᎤᏍᏕᏎᎸᎾ	-10.8382
▁ᏂᏦᎵᎬᎾ	-10.8382
▁ᏗᎬᏩᎩᏨᏗ	-10.8382
▁ᏗᏓᎴᏅᏗᏍᎩ	-10.8382
▁ᏗᏯᏖᏅ	-10.8382
▁ᏥᏈᎣᏂ	-10.8382
▁ᏧᎾᎪᏅᏍᏓᎵ	-10.8382
▁ᎠᎵᏏᎾᎯᏍᏙᏗ	-10.8382
▁ᎠᏂᎱᏣ	-10.8382
▁ᎤᎵᏦᎯᏛ	-10.8382
▁ᎤᏖᎸᎳᏛ	-10.8382
▁ᎦᏃᎱᎩᏍᎬ	-10.8382
▁ᏗᎾᏙᎴᏆᏍᎩ	-10.8382
▁ᏗᏣᎳᏏᏗᏱ	-10.8382
▁ᏧᏂᏦᏯᏍᏗ	-10.8382
▁ᏭᏕᎵᏤ	-10.8382
▁ᎢᎬᎾᏕᏅ	-10.8382
▁ᎤᏍᏔᏲᏒ	-10.8382
▁ᎪᎵᏂᏗᏱ	-10.8382
▁ᏓᎳᏚ	-10.8382
▁ᏧᎬᏩᎳᏅᎯ	-10.8382
▁ᏓᏂᏴᎬᎢ	-10.8382
▁ᏓᏓᏂᎸᎨᏍᏗ	-10.8382
▁ᏧᎾᏗᎩᏓ	-10.8382
▁ᎤᎦᏃᏮ	-10.8382
▁ᏦᎨᏏ	-10.8382
▁ᎠᏂᎪᏗᏳ	-10.8382
▁ᏄᏓᏑᏴᎾ	-10.8382
▁ᎾᏃᎯᏳᎲᏍᎬᎾ	-10.8382
▁ᏂᏕᎤᏩᏂᎦᎸ	-10.8382
▁ᎠᎪᎲᏍᏔᏅᎯ	-10.8382
▁ᏓᏇᎪᏔᏅ	-10.8382
▁ᎠᏄᎦᎸᎯ	-10.8382
▁ᎾᏂᏍᎦᏅᎾ	-10.8382
▁ᏥᏂᏨᏪᏎᎸᎩ	-10.8382
▁ᎠᎾᎵᏖᎸᎲᏍᎩ	-10.8382
▁ᏦᏍᏓᏓᏅᏟ	-10.8382
▁ᎤᏦᎠᏎᏗ	-10.8382
▁ᏆᏏᎹ	-10.8382
▁ᏑᏓᎵᏧᏈ	-10.8382
▁ᎢᏳᏩᎬᏗ	-10.8382
▁ᎢᎨᎬᏁᎸᎯ	-10.8383
▁ᏗᎨᏘᏂᏓᏍᏗ	-10.8383
▁ᎤᏂᎵᏅᏨᎯ	-10.8383
oss	-10.8383
▁ᎹᎺᎵ	-10.8383
▁ᎾᏂᏍᎦᎢᎲᎾ	-10.8383
▁ᎠᏁᎸᏗᏍᎨᎢ	-10.8383
▁ᏥᎦᏚᎭ	-10.8383
▁ᏗᎧᏂᎨᏂ	-10.8383
▁ᏭᏕᎵᏨ	-10.8383
▁ᏱᏂᎦᎩ	-10.8383
ᏛᏛᎲᏍᎦ	-10.8383
▁ᎢᏳᎾᏓᎳ	-10.8383
▁ᏱᏥᎪᎵᏰᎣ	-10.8383
▁ᏩᎩᎷᏣ	-10.8383
▁ᏣᎦᏑᎲᎢ	-10.8383
▁ᎢᎪᏂᏯ	-10.8383
▁ᏕᎦᏅᏙᎬ	-10.8383
▁ᏔᎷᏣᎩᎯ	-10.8383
▁ᎡᏥᏲᎵᎸᎭ	-10.8383
▁ᏅᏓᏳᎾᏓᎴᏅᎯ	-10.8383
▁ᎱᏂᎷᏤ	-10.8383
▁ᏓᏲᏣᏛᏁᎵ	-10.8383
▁ᎢᏥᏇᏓᎸ	-10.8383
▁ᏕᏥᏂᏴᏎᏍᏗ	-10.8383
▁ᎬᏩᏕᏱᏛ	-10.8383
▁ᎶᏩᏂ	-10.8383
▁ᎢᏥᏁᎫ	-10.8383
▁ᏗᎬᏩᏂᏰᎯ	-10.8383
▁ᏧᎾᏍᏗᎦ	-10.8383
▁ᎦᎶᎯᏍᏗᏳᎳ	-10.8384
▁ᏁᏆᎸ	-10.8384
▁ᏄᎾᏛᏁᎵᏙᎸ	-10.8384
▁ᎤᎵᏃᎯᏴᎯ	-10.8384
▁ᎢᏯᏆᎵᏍᏙᏗᏱ	-10.8384
▁ᎪᎯᏳᎲᏍᎨᏍᏗ	-10.8384
▁ᎠᏙᎴᎰᏒᎯ	-10.8384
▁ᏚᏭᏢᏔᏅᎩ	-10.8384
▁ᏓᏓᏛᏂ	-10.8384
▁ᎤᏂᏍᎦᏎᏗ	-10.8384
▁ᏫᏥᏲᎵᎦ	-10.8384
▁ᎤᎦᏛᎾᏨᎯ	-10.8384
▁ᏚᏪᎧᏅᎩ	-10.8384
▁ᏐᎢᏗᏢ	-10.8384
▁ᎠᏂᎡᎼᎵ	-10.8384
▁ᏅᏩᏙᎯᏍᏛ	-10.8384
▁ᏓᎦᏥᏁᎵ	-10.8384
▁ᎦᏗᎨᏂ	-10.8384
▁ᏗᏟᏍᏙᏗ	-10.8384
▁ᎪᎢᏳᎲᏍᎦ	-10.8384
▁ᏯᏂᎦᏔᎲᎾ	-10.8385
ᎮᎵ	-10.8385
▁ᏧᏬᏢᏅᎯ	-10.8385
▁ᎠᎾᏛᎩᏍᎨ	-10.8385
▁ᏚᏄᏌᏛ	-10.8385
▁ᎬᏬᎯᏳᎲᏍᎩ	-10.8385
▁ᎠᏂᎾᏰᏍᎩ	-10.8385
▁ᎱᎷᏣ	-10.8385
▁ᎢᏧᏖ	-10.8385
▁ᎧᏁᏍᎬ	-10.8385
▁ᏗᏣᎴᎲᎦ	-10.8385
▁ᎢᏨᏲᏪᎳᏏ	-10.8385
▁ᏕᎦᏰᏌᏛ	-10.8385
▁ᎦᎶᏣᏗ	-10.8385
▁ᏅᏓᏳᏅᏏᏛ	-10.8385
▁ᎭᏛᏓᏍᏓ	-10.8385
▁ᎤᏛᎦᎾ	-10.8385
▁ᏧᏈᏯ	-10.8385
▁ᏗᏥᎨᏫ	-10.8386
▁ᏧᎵᎬᏩᏟ	-10.8386
▁ᏐᏁᎳ	-10.8386
▁ᎤᏬᏒᏅ	-10.8386
▁ᏗᏂᏃᎨᏂ	-10.8386
▁ᏧᎸᏫᏍᏓᏁᎸᎯ	-10.8386
▁ᎢᏥᏍᏆᏂᎪᏕᏍᏗ	-10.8386
▁ᏗᎦᎾᏌᎢ	-10.8386
▁ᏕᏅᏙᎥ	-10.8386
▁ᏓᎩᏯᏪᎦ	-10.8386
▁ᏗᎩᏴᏫ	-10.8386
▁ᏅᏁᎸᎭ	-10.8386
▁ᎤᏪᏓᏍᏗ	-10.8386
▁ᎤᎾᏙᎴᎰᎯᏍᏙᏗ	-10.8387
▁ᎦᏥᏯᏁᎳᏅᎯ	-10.8387
▁ᎬᏲᏎᎭ	-10.8387
▁ᎠᎵᏥᏙᏗ	-10.8387
▁ᏘᎦᏙᎵ	-10.8387
▁ᎤᏪᏯᎸᏤᎢ	-10.8388
▁ᏓᏂᏄᏙᎬᎢ	-10.8388
▁ᎠᏆᏓᏅᏖᏛ	-10.8388
▁ᏚᏚᏓᏛᎢ	-10.8388
▁ᏗᏣᎳᏏᏕᏂ	-10.8388
▁ᎠᎩᏍᎦᏅᏨᎯ	-10.8388
▁ᏫᏄᏪᏎᎢ	-10.8388
▁ᎠᏂᏍᎦᏰᎬᏍᏓ	-10.8388
▁ᏣᎬᏫᏳᏌᏕᎩ	-10.8388
▁ᎠᏥᏰᎯ	-10.8389
▁ᏗᏥᎸᏫᏍᏓᏁᎯ	-10.8389
▁ᎪᏒᏅ	-10.8389
▁ᎠᏂᏃᎮᏍᎨ	-10.8389
▁ᎡᏈᎳ	-10.8389
▁ᎢᏯᏓᏅᏖᏗ	-10.8389
▁ᎢᏨᏲᏪᎳᏁᎭ	-10.8389
▁ᏐᏉᎯᎭ	-10.839
▁ᏅᏛᏛᏁᎵ	-10.839
▁ᎢᏤᎵᎭ	-10.839
▁ᎤᎾᏚᎵᏍᎩ	-10.839
▁ᎤᎵᏨᏓᏆᏓ	-10.839
▁ᎠᏆᏛᏅᎢᏍᏗ	-10.8391
▁ᏚᏬᏁᏔᏅᎩ	-10.8391
▁ᎢᏤᏅᏍᏗᏱ	-10.8391
▁ᎤᏲᎱᏎᎮᏍᏗ	-10.8391
ᏩᏛᎲᏍᏗᏱ	-10.8391
▁ᏫᏂᏪᏏ	-10.8391
▁ᏭᎳᎩᏒ	-10.8391
▁ᎠᎬᏓᎨᏂ	-10.8391
▁ᎤᏆᏛᎩ	-10.8392
▁ᎠᏂᏏᎾᏌᏂ	-10.8392
▁ᎤᎧᎵᎸ	-10.8392
▁ᎠᏆᏗᏔᏍᏗ	-10.8392
▁ᎠᎾᏓᎭᏲᎯ	-10.8392
▁ᏂᏥᏪᏍᎬ	-10.8392
ᏯᏂ	-10.8393
▁ᏧᏂᏲᎯᏍᏗᏱ	-10.8393
▁ᏳᏓᏑᏯ	-10.8393
▁ᏗᏥᎧᎿᏩᏛᏍᏗᏱ	-10.8393
▁ᎦᏁᏥᏱ	-10.8393
▁ᎢᏣᏛᏁᏗ	-10.8393
▁ᎤᏬᏨᏗ	-10.8393
▁ᏦᎨᏥ	-10.8393
▁ᏤᎵᎪ	-10.8393
▁ᏅᏓᏍᏆ	-10.8393
ᏩᏕᎬ	-10.8393
▁ᎠᏆᏕᎶᎰᏒ	-10.8393
▁ᎠᏰᎢᎵᏓᏍᏗ	-10.8394
▁ᎠᏂᎧᏔᎮᎢ	-10.8394
▁ᎠᏍᎫᏕᏍᏗ	-10.8394
▁ᎠᏄᏬᎩᎯ	-10.8394
▁ᎢᏳᏪᏍᏗ	-10.8394
▁ᎢᏥᏁᏨ	-10.8394
▁ᏚᏘᏃᎮᎴᎢ	-10.8394
▁ᎢᏥᎨᏴ	-10.8394
▁ᏧᏲᎯᏍᏗᏱ	-10.8394
▁ᎤᏁᎢᏍᏗᏱ	-10.8394
ᏍᏗᏰᎬ	-10.8394
▁ᏓᏥᏁᎵ	-10.8395
▁ᎢᏣᏛᎬᎦ	-10.8395
▁ᏕᎦᏄᎪᎬ	-10.8395
ᏍᎦᏨᎯ	-10.8395
▁ᎣᎩᏅᏏᏛ	-10.8395
▁ᏣᏓᎸᎩ	-10.8395
▁ᎬᏔᏲᏎᎭ	-10.8395
ᏄᏍᏗ	-10.8395
▁ᏣᏔᎳᏬᎯᏍᏗ	-10.8396
ᏥᎶᏏ	-10.8396
▁ᎤᏂᏃᎮᏗᏱ	-10.8396
▁ᏗᎫᏍᏙᏍᏗᏱ	-10.8396
▁ᎤᏪᏙᎴᎢ	-10.8397
▁ᎤᏍᏆᏂᎪᏔᏁᎢ	-10.8397
▁ᎤᏂᏍᎦᎴᎢ	-10.8397
▁ᏇᎵᏏ	-10.8397
▁ᎢᏨᎨᏳᎢᏳ	-10.8397
▁ᏭᏓᎪᎾᏛᏛ	-10.8397
▁ᎤᏴᎵᎴ	-10.8397
▁ᏧᏬᏪᎳᏅ	-10.8398
▁ᎠᏯᏖᎾ	-10.8398
▁ᏓᏂᏴᎨᏍᏗ	-10.8398
▁ᏍᎪᏂᏗᏢ	-10.8398
▁ᎡᏍᎦᏂᏳ	-10.8399
▁ᎤᎦᏔᎲᏎ	-10.8399
▁ᎤᏂᎦᏙᎥᏒᎯ	-10.8399
▁ᎠᏋᏔᏅᎯ	-10.84
▁ᏚᏏᏔᏛ	-10.84
▁ᎤᏓᏑᏰᏛ	-10.84
▁ᎤᎾᏅᏗᏱ	-10.8401
▁ᎢᏥᏯᏅᏛ	-10.8401
▁ᎤᎾᏛᎪᏗ	-10.8401
▁ᎤᏁᏝᏅᎯ	-10.8401
▁ᏚᏪᏴ	-10.8402
▁ᏳᏲᎱᏒ	-10.8403
▁ᎠᎩᎪᏩᏛᏗᏱ	-10.8403
▁ᏣᎾᏫᏱ	-10.8403
▁ᎠᏆᏛᏁᏗᏱ	-10.8404
▁ᎤᏬᏪᎳᏅᎩ	-10.8404
▁ᎾᏥᏪᏎᎴᎢ	-10.8404
▁ᎯᏍᎪᎵ	-10.8405
▁ᎠᎩᎷᏤᎸᎩ	-10.8407
▁ᏕᎯᎧᏅ	-10.8407
▁ᏗᎭᎾᏬ	-10.8407
-“	-10.8407
▁ᎤᏂᏚᎲᎢ	-10.8408
▁ᎢᏨᏙᏗᏱ	-10.8408
▁ᎠᏈᎷ	-10.8409
▁ᏍᎦᏰᎬᏍᏔ	-10.8409
▁ᎠᏁᏙᎭ	-10.841
▁ᎤᏬᎳ	-10.8411
▁ᎢᏣᎵᏍᏓᏴᏗᏱ	-10.8411
▁ᏕᎦᎧᎲᎩ	-10.8411
▁ᏳᏪᎭ	-10.8412
▁ᎤᎦᎹ	-10.8412
▁ᎠᏌᎳᏙᏗ	-10.8413
▁ᎦᏲᏟᎨ	-10.8413
▁ᎤᎸᏉᏔᏁ	-10.8413
▁ᎠᏫᏌᏅ	-10.8413
▁ᎤᎾᏄᎪᏥᎸ	-10.8413
▁ᎬᏩᏍᎦᎩ	-10.8414
▁ᎥᏃᏥ	-10.8416
▁ᎤᏛᏅᏗᎦᎳᏫᎢᏍᏗᏱ	-10.8416
▁ᎤᏩᏂᎦᎸᎢ	-10.8416
▁ᎤᏂᎾᎥ	-10.8418
▁ᎢᏨᏁᏗ	-10.8418
▁ᎤᏂᏰᎸᎯ	-10.8418
▁ᏧᎾᏛᎾ	-10.842
▁ᎡᏥᏁᎸᎯ	-10.842
▁ᏗᎦᏁᎲ	-10.8421
▁ᎦᏁᎮᎢ	-10.8421
▁ᎯᏄᎪᎢ	-10.8421
▁ᏕᎪᏪᎸᎩ	-10.8424
▁ᎤᎶᎨᏒ	-10.8426
▁ᎠᏤᏍᏙᎩᎯ	-10.8426
▁ᏧᏓᎴᏁᎢ	-10.8427
▁ᎤᏙᎳᏅᏍᏗ	-10.8427
▁ᏛᏆ	-10.8427
▁ᎤᏂᏰ	-10.8428
▁ᎤᏔᏪᏙᏁᎢ	-10.8428
▁ᏙᏓᏆᏓ	-10.8428
▁ᏭᏴᎸᎩ	-10.8429
▁ᎠᏇᎵᏒᎩ	-10.843
ᎾᏔ	-10.843
▁ᎤᎴᏅᎲᎩ	-10.843
▁ᎤᎴᏅᎲ	-10.8431
ᏁᏏ	-10.8432
▁ᎧᏃᎮᏍᎬᎩ	-10.8432
▁ᎤᏁᏅᏒᎩ	-10.8432
▁ᎤᏂᏧᏈᏍᏗ	-10.8434
▁ᎤᎵᏰᏔᏁᎢ	-10.8434
ᏍᎦᏅᏤᎸᎯ	-10.8436
▁ᏗᎦᎫᏍᏛᏗᏱ	-10.8437
▁ᏓᏥᏂ	-10.8437
▁ᏭᎩᎶᏫᏎ	-10.8437
▁ᎢᏳᎵᏍᏔᏅ	-10.8437
▁ᎠᎳᏑᎶ	-10.8438
▁ᏚᏕᏲᏁ	-10.8442
▁ᎤᏬᏢᏅᎢ	-10.8442
▁ᏣᏓᏅᏛᎢ	-10.8442
▁ᎤᎾᏙᎴᎰᏒᎩ	-10.8443
▁ᎦᎪᎵᏍᏗ	-10.8443
▁ᎢᏥᏁᎬ	-10.8444
▁ᎠᏆᏟᏂᎬᏁᎸ	-10.8444
▁ᏱᏙᎬ	-10.8446
▁ᏂᏣᏛᏁᎲᎢ	-10.8449
▁ᎤᏕᏔᏅᎯ	-10.845
▁ᎦᎵᎷᎨᏍᏗ	-10.8452
▁ᎤᏴᎸᎩ	-10.8453
▁ᎤᏍᏓᎦᎸᎢ	-10.8453
▁ᏓᏟᎶᏍᏛᎢ	-10.8453
▁ᏥᏅᎵ	-10.8455
▁ᏣᏍᏆ	-10.8456
▁ᏩᎦᏛᎢ	-10.8458
ᏂᏌᏁ	-10.8459
▁ᎤᎵᏍᏗᏳᏃ	-10.8461
▁ᏗᏍᏆ	-10.8461
▁ᏧᏪᏥᏛᎯ	-10.8463
▁ᎡᏙᎲᎩ	-10.8464
ᏦᏛ	-10.8464
▁ᎤᏂᏩᏛᏗ	-10.8464
▁ᎤᏬᏢᏁᎢ	-10.8464
ᎦᏴᎵᎨ	-10.8465
ᏙᎲᎩ	-10.8467
▁ᎤᏦᏍᏗ	-10.8468
▁ᏭᎷᏤᎴᎢ	-10.8469
▁ᎤᏡᏗᏍᎩ	-10.8469
ᏅᎢᏍᏗᏱ	-10.847
▁ᏕᎳ	-10.8471
▁ᏧᏩᎫᏔᏅᏒᎢ	-10.8472
▁ᎭᏕᏬ	-10.8472
ᏬᎥ	-10.8473
▁ᏭᏓᏒᏍᏔᏁ	-10.8473
▁ᎩᎦᎭ	-10.8474
ᏃᏛ	-10.8475
ᏟᎶᏍᏙᏗ	-10.8475
ᏅᎵ	-10.8476
▁ᏙᎯᏉ	-10.8477
▁ᏂᏕᎦᏪᏎᎲ	-10.8477
ᏤᏪ	-10.848
▁ᎤᏓᏅᎦᎸᏛ	-10.8481
▁ᎾᏆᏛᏁᎸᎢ	-10.8481
ᏁᏦ	-10.8482
ᏔᏲᏎᎸᎩ	-10.8482
▁ᎠᎩᏩᏛᎲ	-10.8483
▁ᏣᎧᏛᎢ	-10.8484
▁ᏤᏣᎧᏃᏗ	-10.8484
▁ᎨᏙᎲᎢ	-10.8489
▁ᎠᏂᏁᎬᎢ	-10.8495
ᏙᎭ	-10.8495
ᏴᏔᏂᎸ	-10.8496
▁ᎬᏩᎷᏤᎴᎢ	-10.8496
ᏘᏄᎦ	-10.8499
▁ᎤᎶᎨᏒᎢ	-10.8502
▁ᎡᎵᎩ	-10.8507
▁ᎾᏛᏁᎲᎢ	-10.8508
ᎳᏅᎩ	-10.8508
▁ᎢᏢ	-10.851
▁ᎤᏂᏴᎮᎢ	-10.851
▁ᎤᏬᏎᎴᎢ	-10.8511
▁ᎤᏓᏅᏖᎢ	-10.8511
▁ᏓᏫᏒᎢ	-10.8518
ᏅᏁᏗᏱ	-10.8519
▁ᎤᎾᏄᎪᏫᏍᏗᏱ	-10.8523
▁ᎠᏂᎪᏩᏘᏍᎬ	-10.8523
▁ᎡᎳᏂᎬᎢ	-10.8528
▁ᏂᏣᏛᏁᎸᎢ	-10.8529
▁ᎤᏂᏁᏉᏤ	-10.8532
▁ᎤᏓᏂᎵᎨᏃ	-10.8532
ᏁᏨ	-10.8534
▁ᏙᏓᎸᎢ	-10.8535
▁ᏗᎪᏩᏛᏗ	-10.8539
▁ᎪᏛ	-10.8542
▁ᎬᎿᎨ	-10.8546
▁ᎠᎾᎢᏒᎢ	-10.8547
▁ᎤᎷᏨᎯ	-10.8549
▁ᎢᏥᎦᏔᎭᏰᏃ	-10.8567
ᎵᏍᏙᏔᏅ	-10.8572
▁ᎣᏂᏱᏃ	-10.8573
ᏂᏥ	-10.8573
▁ᎦᎳᎨᏴᎢ	-10.8575
▁ᏕᎦᏚᎲᎢ	-10.8575
▁ᏂᎨᏥᏪᏎᎸ	-10.8576
▁ᎭᏗᏔ	-10.8577
▁ᏓᏓᏁᎸᎢ	-10.858
▁ᏓᏆᏙᎥᎢ	-10.8585
▁ᏃᏉᏗ	-10.8597
▁ᏂᏨᏁᎲ	-10.8598
▁ᏓᏌ	-10.8599
ᏲᎯᏏ	-10.86
▁ᎤᏅᏙᏗ	-10.8601
ᏍᏕᎾ	-10.8604
▁ᎢᎨᏣᏛᏁᏗ	-10.8605
ᏖᎸᏗ	-10.8607
ᏇᏓ	-10.8608
▁ᎣᎨᏅᏒ	-10.8609
▁ᏏᏆᏏ	-10.8611
▁ᎠᏂᏬᏂᏍᎬᎢ	-10.8617
ᏁᏤᏗᏱ	-10.8618
▁ᎢᏥᎲᎢ	-10.8626
ha	-10.8631
ᎴᎩ	-10.8644
▁ᎠᏂᎩᎦᎨ	-10.8655
▁ᎤᏛᎦᏁᎢ	-10.866
ᏈᏱ	-10.8663
ᎩᏗ	-10.8667
▁ᏚᏳ	-10.8673
Ꭻ	-10.8678
▁ᏗᎩᏲᎱᏒᎯ	-10.868
ᏒᏓ	-10.8681
▁ᎤᎵᎮᎵᏤ	-10.8683
▁ᏥᎦᏔ	-10.8695
▁ᎤᎵᏍᏆ	-10.8696
ᏲᎰ	-10.8698
ᏁᏅ	-10.8707
▁ᏓᎾᏠᏱᎲ	-10.8715
▁ᎪᏙ	-10.8716
▁ᎬᏒ	-10.8718
ᎳᎻ	-10.8718
ᏩᏛᏛ	-10.8719
ᏓᏂᎸᎢᏍᏗ	-10.8725
▁ᏂᏥᏪᏎᎸ	-10.8726
ᏛᏁᎲᎢ	-10.8733
▁ᎦᏰᏥ	-10.8744
ᏓᏂᎸᏤᎢ	-10.8745
ᎷᎯᏍᏗ	-10.8752
ᎧᎿ	-10.8759
▁ᎠᏥᏅᏏᏓᏍᏗᏃ	-10.8759
ᏓᏍᏗᏱ	-10.8759
▁ᏕᏫᏰᏃ	-10.8761
▁ᏚᏃᏁᎴ	-10.8764
▁ᎦᎵᏦᏙᏗ	-10.8766
▁ᎡᏌ	-10.8768
▁ᎤᎾᎴᏅᎲ	-10.8773
ᏥᎾᏄᎪᏫᏏ	-10.8777
ᎸᏌᏛ	-10.8778
▁ᎤᎾᏓᏟᏌᏅ	-10.8787
ᏓᏁᎵ	-10.879
ᏍᏆᏗ	-10.88
ᎪᏎᎭ	-10.8802
▁ᏥᏍᏆᏃ	-10.8804
ᏢᏔᏂ	-10.8808
▁ᎠᎩᏃᎮᎸ	-10.8819
▁ᏴᎨ	-10.8829
ᏥᏫ	-10.8831
ᏥᏁᏗ	-10.8846
▁ᏅᏓᎬᏩ	-10.8847
▁ᎤᏙᏳ	-10.885
ᏴᎸ	-10.8857
ᎨᏳᎯᏳ	-10.8859
ᎧᎾ	-10.8864
ᎦᏅᏓᏗᏍᏙᏗ	-10.8865
ᏥᏲᏏ	-10.8865
ᏬᎢ	-10.8865
ᏥᏃ	-10.8871
▁ᎪᎯᏳᏗᏍᎩᏂ	-10.8871
ᏆᎴ	-10.8876
ᏰᎸᏅ	-10.8882
ᎾᎲ	-10.8883
▁ᏂᏣᏍᏛ	-10.8886
ᎭᏲᎲ	-10.8896
ᏩᏓ	-10.8905
▁ᎦᎳ	-10.8906
ᏥᏪᏏ	-10.8908
ᏍᎦᎢᎮᏍᏗ	-10.8912
ᏓᏗᏍᏗ	-10.8912
▁ᎤᏓᏅᏁ	-10.8916
▁ᎬᎨᏳᎢ	-10.8928
▁ᎢᏥᎭ	-10.8945
▁ᎢᎸᎯᏢᏃ	-10.8947
▁ᎩᏂ	-10.8948
ᏤᎷᎯ	-10.895
▁ᏧᎾᏗᏔᏍᏗ	-10.8954
ᎦᏙᎥ	-10.8955
▁ᎧᏁᎬᏃ	-10.8959
▁ᎢᏗᎦᏘ	-10.896
ᏁᎦ	-10.8966
ᏍᎦᎢᎮ	-10.8971
ᏢᎢ	-10.8972
▁ᎤᎾᏓᏅᏎ	-10.8987
ᏥᎦᏔ	-10.8991
▁ᎦᏳᎳᏰᏃ	-10.9009
ᏎᎮ	-10.9015
ᎷᏤ	-10.9025
ᏛᎯᏍᏙᏗ	-10.9028
ᏅᏁᎸ	-10.9036
ᎵᏱᎶᎯᏍᏗ	-10.9054
ᎲᎯ	-10.9054
▁ᎢᏳᏍᎩᏂᏃ	-10.9055
▁ᎤᏃᏢ	-10.9056
ᎵᏃᎮᏔᏅᎩ	-10.9061
ᏁᎾ	-10.9064
▁ᏤᏏ	-10.9068
ᏲᎢᏳ	-10.9072
▁ᎤᏍᏆᏂᎪᏛ	-10.9078
ᏰᏣ	-10.9083
▁ᎠᎾᏗᏍᎬ	-10.9094
ᏅᏬᏗᏱ	-10.9095
ᎾᏍ	-10.9097
▁ᎤᏚᎸᎲ	-10.9104
ᎵᎮ	-10.9108
ᎬᏃ	-10.9108
ᏍᏕᎢ	-10.9118
▁ᏣᏁᎩ	-10.9128
▁ᎦᏓᏉ	-10.9134
ᏄᎪᏤ	-10.9135
ᎵᏍᏓᏴᏙᏗ	-10.9142
ᎦᏘᏲ	-10.9146
ᎦᏙᎥᎯᏍᏗᏱ	-10.9151
ᏚᏂ	-10.9153
▁ᏩᎩᎦ	-10.9154
ᏗᏂ	-10.9157
ᎩᏐᏅ	-10.9158
ᏂᏍᎨᏍᏗ	-10.9168
ᏓᏑᏴ	-10.9183
ᏪᏒᎩ	-10.9184
ᎪᎲᎯ	-10.9185
ᎵᏬ	-10.9189
ᏴᎮ	-10.919
▁ᎢᏨᏴ	-10.9193
ᎪᎯᏳᏗ	-10.9212
ᏂᏓᏍᏗ	-10.9212
ᎪᏂ	-10.9217
▁ᏣᏍᎦᏅᏨ	-10.9222
▁ᏥᏍᎦᎢᎲ	-10.9237
ᎲᏍᎬᎢ	-10.9242
▁ᎯᎠᏍᎩᏂᏃᏅ	-10.9252
ᎠᎩᏏᏙᎯ	-10.9255
ᎦᎷ	-10.9261
▁ᎤᎵᏂᎩᏛᏰᏃ	-10.9267
▁ᎤᎾᏂᎩ	-10.9269
ᏅᎬ	-10.9271
▁ᎩᎬᏃ	-10.9275
▁ᎤᏔ	-10.9276
ᎣᏏ	-10.9283
▁ᎢᏣᏓᏅᏛ	-10.9283
ᎾᏄᎪᏩ	-10.9284
ᏆᏗ	-10.929
▁ᎠᏏᏉᏰᏃ	-10.9293
ᏁᏤᎸᎭ	-10.9299
ᏲᎩ	-10.9311
ᏛᏎᎢ	-10.9326
ᏍᏗᏰ	-10.935
ᏝᎡ	-10.9355
ᏲᎯᏎᎴ	-10.9375
▁ᏣᎵᏍᎪᎸᏙᏗ	-10.938
ᏲᎴ	-10.939
ᏍᏔᎾ	-10.9397
▁ᏚᏩ	-10.9401
ᏰᏌᏛ	-10.9403
▁ᏆᎾ	-10.9403
▁ᎠᏟᎶᎥ	-10.9415
▁ᏥᏩ	-10.9424
ᏓᏍᏕᎸᏗ	-10.9434
ᎳᏕ	-10.9441
ᏂᎶᏒ	-10.9443
▁ᏧᏁᏤ	-10.9443
ᏥᎵ	-10.9452
▁ᎢᏌ	-10.9467
ᏁᎳᎩ	-10.9473
▁ᏥᏍᎦᎾ	-10.9474
▁ᏥᏕᎦ	-10.9496
ᏲᎮᏗ	-10.9497
ᏲᏍᏔᏅ	-10.9504
▁ᏕᎯᏁᎸ	-10.9508
ᏓᏗ	-10.951
▁ᏗᏂᏅ	-10.9513
▁ᏄᏛᏁ	-10.952
ᏅᏬ	-10.9521
▁ᎥᎩᎸᏉ	-10.9524
ᏳᎳ	-10.9543
ᏙᏱ	-10.9559
ᏡᏗᏍᎬᎢ	-10.9576
ᏘᏅᏒᎩ	-10.9577
ᎶᏒᎩ	-10.958
ᏁᏒ	-10.9586
ᏙᏅ	-10.959
▁ᏛᏣ	-10.9592
ᏴᎢ	-10.9592
ᏍᎪᏒ	-10.9605
▁ᏩᎾᎢ	-10.9607
ᏪᏎᎴᎢ	-10.9622
▁ᏕᏥᎧ	-10.9626
▁ᏔᎳᏚᏃ	-10.9627
ᎯᏢᎾ	-10.9634
ᏍᎦᎳᏁᎸ	-10.9638
▁ᏥᏕᏥ	-10.9641
ᏗᏔᏍᏗᏱ	-10.9649
▁ᎤᎾᏄᎪᏫ	-10.9653
▁ᎤᏪᎵ	-10.9669
▁ᏅᏙᏃ	-10.9671
ᎱᏍᏗ	-10.9677
ᏌᎭ	-10.9682
▁ᎹᏓ	-10.9697
▁ᎢᏲ	-10.9706
ᎨᏩ	-10.9714
ᎦᏛᏁ	-10.9718
ᏨᎭ	-10.972
▁ᏱᏅ	-10.9724
ᏙᎲᎢ	-10.9726
ᏨᏗ	-10.973
ᏓᏅᎡᎮᏍᏗ	-10.9733
▁ᏃᏒ	-10.974
ᏘᏃᎯᏍᏗᏱ	-10.9757
▁ᎤᏂᏏᏗ	-10.9759
▁ᎤᏂᏲᎴ	-10.976
▁ᎤᏃᏪᎳᏅ	-10.9761
ᏍᏓᏁᏗ	-10.9762
ᏪᏎᎵ	-10.9772
ᏯᏅᎲᎩ	-10.9774
ᏓᏁᎴ	-10.9786
ᏢᏅᎯ	-10.9787
ᏴᎴᎢ	-10.9794
ᎬᎦ	-10.9804
ᎦᏅᎩ	-10.9807
ᎪᏩᏗ	-10.9813
ᎦᏥᎪᎥ	-10.9816
ᏔᏂᏓᏍᏗ	-10.9819
ᎦᎵᏍᏓ	-10.9824
ᏂᏓ	-10.9825
ᎤᏅ	-10.983
ᏟᎶᏍᏗ	-10.9834
ᎦᏌᏯᏍᏗᏕᎩ	-10.9836
Ꮌ	-10.9853
ᏓᏅᏏ	-10.9854
ᏥᎶ	-10.9855
▁ᏅᏓᎬ	-10.9864
▁ᏱᏘ	-10.9867
ᏘᏏ	-10.9878
▁ᏴᎦᏥ	-10.9883
ᏍᏓᏁᎴ	-10.989
▁ᎤᏁᎳᏅ	-10.9891
ᎠᏈ	-10.9919
ᏫᏒᎾ	-10.9922
▁ᏓᎦᏥᏯ	-10.9928
ᏂᏍᏆᏂᎪ	-10.9934
ᏚᎢ	-10.9937
▁ᎾᎩᏪᏎᎸ	-10.9942
ᏣᎢᏒ	-10.9944
▁ᎠᏚᏓᎴᏍᏗ	-10.9955
▁ᎯᏌ	-10.9957
ᏍᏓᏩᏕᎩ	-10.9959
ᏂᏛ	-10.9961
▁ᎬᏩᏛᏛ	-10.9967
ᎢᏎ	-10.9979
ᏕᎪ	-10.9987
ᎪᎵᏰᏗᏱ	-11.0008
ᏴᏨ	-11.0008
▁ᎤᎵᏘ	-11.0015
ᎡᎪᎢ	-11.0016
▁ᎠᏣ	-11.0017
▁ᎦᎸᏉ	-11.0019
ᎳᏓ	-11.0021
▁ᎢᏥᎷᏤᎸ	-11.0028
ᎷᎸ	-11.0041
ᎲᏍᎨᎢ	-11.0041
▁ᏗᏍᏆᏂᎪᏙᏗ	-11.0046
ᏙᎲᎾ	-11.0051
ᏅᏓᏗᏍᎬ	-11.0054
ᎪᏩᏘᏍᎬᎾ	-11.0054
ᏍᏆᏂᎪᏔᏅ	-11.0057
ᎪᏩᏘᎭ	-11.0058
▁ᏥᎩᎵᏲᎬ	-11.0059
▁ᏦᏢ	-11.007
▁Ꮅ	-11.0083
ᏙᎥᎯᏍᏗ	-11.0086
ᎾᏌ	-11.0089
ᎶᎨᏒ	-11.0097
▁ᎤᎧᎵ	-11.0097
ᏍᏓᏱᏗ	-11.0098
ᎪᏃ	-11.0105
ᎴᎲ	-11.0107
ᏍᏓᏱ	-11.0108
▁ᎤᏛᏛ	-11.0113
▁ᎢᎫᏩ	-11.0113
ᏚᏓᎸ	-11.0115
▁ᎬᏩᏍᏓᏩᏗ	-11.0119
▁ᏕᏥᏯ	-11.0124
ᎦᏁ	-11.0132
▁ᏥᎶ	-11.0133
ᏕᎶᎰᎯᏍᏗ	-11.0141
ᏲᎱᎯᏎᎸᎯ	-11.0142
▁ᎤᎾᏕ	-11.0145
ᏂᏐᏗ	-11.0149
ᏲᎱᎯ	-11.0152
ᏂᏰᎸ	-11.0159
ᏛᏅᎢᏍᏗ	-11.0167
ᎬᏁᎵ	-11.0168
ᎲᏍᎨ	-11.0169
ᏲᏨ	-11.017
▁ᎤᎾᏓᏅᏖ	-11.0171
ᏪᏎᏗ	-11.0171
ᏲᎱᎯᏍᏗ	-11.018
ᏰᎵᏒ	-11.0181
ᏓᏅᏖᎸ	-11.0187
▁ᎤᎾᏣᎢ	-11.019
ᎾᎦ	-11.0197
ᏢᏅᎩ	-11.02
ᎬᏫᏳ	-11.0203
ᎵᏍᎪᎸᏙᏗ	-11.0205
▁ᏭᏴ	-11.021
ᎵᎪᎯ	-11.021
ᎾᏰᎯᏍᏗ	-11.0213
ᎵᏬᏨ	-11.0218
ᏓᏱ	-11.0221
ᏆᎸ	-11.0222
ᏓᏁᏗᏱ	-11.0224
ᏴᏙᏗ	-11.0229
ᏥᏄᎪᏫᏍᏗ	-11.0231
▁ᎤᏂᏆᏘᏍᏗ	-11.0236
ᏄᎪᏨᎩ	-11.024
▁ᎦᎸᎳᏗᎨ	-11.0241
▁ᏅᎦ	-11.0242
▁ᏗᎦᏅᏬ	-11.0248
▁ᎠᏂᎸᏉᏗᏍᎨ	-11.0251
▁ᎦᏬᏂᏍᎨ	-11.0256
ᏂᏁᏟᏴᏍᏗᏱ	-11.026
▁ᎠᏂᏍᎦᎢᎮ	-11.0264
ᏂᏆᏘᎯ	-11.0266
▁ᎤᏂᏰᎸᏎ	-11.0267
ᏘᏎᎢ	-11.0271
ᎦᏔᎮᎢ	-11.0278
▁ᏧᎦᏴᎵᎨ	-11.028
ᏙᎯᏳ	-11.0281
ᏌᏛᎥᏍᎩ	-11.0281
ᏍᏓᏩᏗᏎ	-11.0282
▁ᎥᏞ	-11.0283
ᎭᎾᏬ	-11.0284
Ꮰ	-11.0284
▁ᎢᎳᎩᏳ	-11.029
▁ᏤᏆᎳᏂ	-11.029
ᏔᏲᏏ	-11.029
▁ᎤᏁᏙᎸ	-11.0292
▁ᏤᏈᏛ	-11.0292
ᏏᏔᏛ	-11.0292
▁ᏈᎵᏏ	-11.03
ᏘᏁᏒᎭ	-11.03
ᏄᎪᏫᏒᎯ	-11.03
ᎴᏙᏗ	-11.0303
▁ᎠᏙᎴᎰ	-11.0303
ᎬᏗ	-11.0309
▁ᏗᏦᎸ	-11.0311
ᏟᏴ	-11.0311
ᏗᏂᏍᎪᏂᎯ	-11.0313
ᏝᏁ	-11.0319
▁ᏫᏚᎧᎾᏁ	-11.0321
▁ᎠᎾᏛᎩᏍᎬ	-11.0321
▁ᏙᎩᎸᏫᏍᏓᏁᎲ	-11.0321
▁ᎠᏥᏃᏁᎴ	-11.0322
ᎰᏩ	-11.0322
ᏙᎤᏍᏗ	-11.0324
▁ᎠᏇᏅᏒ	-11.0327
▁ᎦᏍᎩᏓᏍᎬ	-11.0327
ᎶᏅ	-11.0327
▁ᏂᏓᏕᏘᏴᎯᏒ	-11.0329
▁ᎢᏛᏗᏍᎬ	-11.0329
▁ᏗᎾᏓᎪᎾᏗᏍᎬ	-11.0331
ᎡᏝᏪᎯ	-11.0332
▁ᎦᏲ	-11.0332
▁ᎤᏒᏂᎴ	-11.0333
▁ᎠᏂᎧᎸ	-11.0333
▁ᎠᎾᎵᎮᎵᎬ	-11.0333
▁ᎤᏃᎯᏳᏒ	-11.0333
▁ᎪᎱ	-11.0334
▁ᎤᏁᎷᏁ	-11.0335
ᎦᎸᎳᏗ	-11.0337
ᎠᏍᎦᏯ	-11.0337
▁ᎠᏂᎩᎵᏲᎬ	-11.0337
ᎤᏟ	-11.0337
ᏢᏁ	-11.0338
▁ᎠᎾᏓᎪᎾᏗᏍᎬ	-11.0339
ᏌᎳᏗ	-11.0342
ᎠᎳᏂ	-11.0342
ᏍᏚᏗ	-11.0344
▁ᏣᏤᏍᏙ	-11.0346
▁ᎠᎬᏗᏍᎬ	-11.0346
ᏲᏒ	-11.0346
▁ᎤᏚᎢᏍᏔᏅ	-11.0348
ᎨᏳᎢᏳ	-11.035
▁ᎠᎾᏕᎲᏍᎬ	-11.0352
ᎤᏁᏨ	-11.0353
▁ᏧᏓᎴᏁ	-11.0355
▁ᎾᏆᎵᏍᏔᏅ	-11.0356
ᎸᏉᏙ	-11.0356
ᏏᏂ	-11.0358
▁ᏕᎤᎷᎬ	-11.036
ᏅᏍᏓᏕᎸᎩ	-11.036
▁ᎦᎵᏆᏚ	-11.0363
▁ᎠᏉᏪᎳᏅ	-11.0365
▁ᎦᏓᏙᎵᏍᏗᏍᎬ	-11.0365
▁ᎠᎩᏍᏛᏗᏍᎬ	-11.0366
▁ᎤᎩᎵᏲᏨ	-11.0366
ᏪᎯ	-11.0367
▁ᏧᎾᏛᏐᏅ	-11.0368
▁ᎢᏳᎵᏍᏔᏂᏓᏍᏗ	-11.0368
▁ᏗᎩᎾᏫ	-11.0369
ᎤᏪ	-11.037
ᎢᏏᎵ	-11.0371
▁ᏂᎦᎵᏍᏔᏅ	-11.0371
▁ᎤᏍᏗᏰᏔᏁ	-11.0371
▁ᎢᏯᏅᏁ	-11.0372
▁ᏭᏂᎶᏒ	-11.0372
▁ᏩᏥᎳ	-11.0372
ᏖᎸᏅ	-11.0372
ᎾᏄᎪᏫᏎ	-11.0372
▁ᎨᏥᏛᏙᏗ	-11.0373
es	-11.0373
▁ᏭᏂᎶᎯᏍᏗ	-11.0373
▁ᏗᎪᏪᎳᏅ	-11.0374
▁ᏅᏓᎦᎵᏍᏙᏗᏍᎬ	-11.0375
▁ᏗᏣᎸᏫᏍᏓᏁᏗ	-11.0375
▁ᎤᏂᏰᎸᏅ	-11.0375
▁ᎤᏪᎧᏅ	-11.0376
▁ᏗᏥᎧᎿᏩᏛᏍᏗ	-11.0376
▁ᎦᏰᏥᏐᏢ	-11.0376
ᎤᏁᏅ	-11.0377
▁ᎤᏁᏉᏨ	-11.0378
▁ᎠᏉᏢ	-11.0378
▁ᏅᏗᎦᎵᏍᏙ	-11.0379
▁ᎤᎵᏂᎩᏗ	-11.0379
dinot	-11.0382
▁ᎠᎩᏍᏓᏩᏕᎨᏍᏗ	-11.0382
▁ᎠᎵᏍᎦᏁᏛ	-11.0382
▁ᎢᏣᏛᏅᎢᏍᏙᎢ	-11.0382
▁ᎢᏯᏔᏬᏍᏔᏅ	-11.0382
▁ᎤᎧᏖᏃᎴ	-11.0382
▁ᎤᏂᏍᏇᏚᎩ	-11.0382
▁ᎤᏓᏩᏗᏍᏙᏛ	-11.0382
▁ᎤᏔᎳᏬᏎᎢ	-11.0382
▁ᎤᏢᏓᎸᏛ	-11.0382
▁ᎧᎵᏎᏥ	-11.0382
▁ᎭᏟᏂᎬᏁᎸᎭ	-11.0382
▁ᎰᏢᏅᎭ	-11.0382
▁ᏂᏣᏛᎿᏕᎨᏍᏗ	-11.0382
▁ᏅᏓᎬᏯᏛᏁᎵ	-11.0382
▁ᏓᏥᏍᏓᏱᏕᎵ	-11.0382
▁ᏕᏏᎶᏂᎦ	-11.0382
▁ᏗᎦᏌᏆᎸ	-11.0382
▁ᏦᎪᏰᏂ	-11.0382
▁ᏧᏩᏗᏔᏯ	-11.0382
▁ᏱᏂᎦᏛᏁᎭ	-11.0382
▁ᎱᏁᏅᏎ	-11.0382
▁ᎷᎡᎵ	-11.0382
▁ᏄᎾᏓᏅᏛᎾ	-11.0382
▁ᏅᏧᎵᏍᏙᏔᏁ	-11.0382
▁ᏍᎩᏲᎮᏍᏗ	-11.0382
▁ᏗᎦᏃᏣᏝᏍᎩ	-11.0382
▁ᏗᏙᎴᏆᏍᏗ	-11.0382
▁ᏫᏂᏨᎦ	-11.0382
▁ᎢᏳᏩᎿᏕᎩ	-11.0382
▁ᎾᏅᏛᏁᎰ	-11.0382
▁ᏕᏥᏙᎨᏍᏗ	-11.0382
▁ᏧᏂᎳᎾᎢ	-11.0382
▁ᏭᎩᏨᏅ	-11.0382
▁ᏗᏍᎩᎧᏁᎸᎯ	-11.0382
▁ᏗᏔᎳᏗᏍᏗᏱ	-11.0382
▁ᏱᏕᏍᎬᏏ	-11.0382
▁ᎾᎵᏍᏓᏴᎲᏍᎬᎾ	-11.0382
▁ᏂᏥᎪᎸᎾ	-11.0382
▁ᏍᎩᏁᎲᏏ	-11.0382
▁ᏣᏃᏍᎩᏒᎩ	-11.0382
▁ᏄᏛᏛᎾ	-11.0382
▁ᏗᎦᏩᏒᎩ	-11.0382
▁ᏗᎪᏏᏏᏍᎩ	-11.0382
▁ᎣᏍᏓᏓᏤᎵ	-11.0382
▁ᎤᏁᎳᏫᏎᎸ	-11.0382
▁ᎯᏍᎩᏍᎪᎯ	-11.0382
▁ᏗᏑᏱ	-11.0382
▁ᎤᏩᏯᎨᎢ	-11.0382
▁ᏈᏏᎳ	-11.0382
▁ᎠᎵᏰᎢᎶᎸᎭ	-11.0382
▁ᎤᏄᏬᏍᏕᏍᏗ	-11.0382
▁ᏂᎪᎯᏳᎲᏍᎬᎾ	-11.0382
ᏤᏬᎩ	-11.0382
▁ᎤᎦᏃᏫ	-11.0382
▁ᏄᎾᏛᎾᏕᎬ	-11.0382
▁ᏗᏠᏍᎩ	-11.0382
▁ᎤᏌᎳᏓᏁ	-11.0382
▁ᏗᎫᎪᏓᏁᎯ	-11.0382
▁ᏙᏓᎫᎪᏓᏁᎵ	-11.0382
▁ᏫᏄᏕᏘᏴᎲ	-11.0382
▁ᏂᏥᏪᎠ	-11.0382
▁ᎠᎰᎵᏆᎹ	-11.0382
▁ᎾᏅᏁᎲ	-11.0382
▁ᏥᏕᏣᎪᎲᎩ	-11.0382
▁ᎥᎨᏒᎩ	-11.0383
▁ᏂᏕᎤᏍᏕᏍᏗ	-11.0383
▁ᏬᎩᎶᏒᎩ	-11.0383
▁ᏗᏂᏲᎤᎵ	-11.0383
▁ᏲᏨᏗᏍᎨ	-11.0383
▁ᏅᏓᏥᏴᏁᎵ	-11.0383
▁ᏥᏨᏰᎳᏗᏙᎲᎩ	-11.0383
▁ᏂᎬᏠᏍᎬᎾ	-11.0383
▁ᏅᏓᏣᏓᎴᏅᎯ	-11.0383
▁ᎢᎦᏪᏍᎩ	-11.0383
▁ᏕᎭᏓᏅᎡᎮᏍᏗ	-11.0383
▁ᏂᏗᎾᏰᏍᎬᎾ	-11.0383
▁ᏗᏥᏲᎱᏒᎯ	-11.0383
▁ᎧᏱᏆ	-11.0383
▁ᏂᏥᏍᎦᎢᎲᎾ	-11.0383
▁ᎤᎵᏘᎾᎥ	-11.0383
▁ᎠᎵᏰᎢᎵᏒ	-11.0383
▁ᎥᏓᎷᎶᏗ	-11.0383
▁ᎭᏰᎳᏍᏗ	-11.0383
▁ᎦᎵᏉᎩᏧᏈ	-11.0383
ᏣᎵᎮᎵᎦ	-11.0383
▁ᏕᎪᏢᏎᏍᏗ	-11.0383
▁ᏧᎾᎴᏐᏛ	-11.0383
▁ᎠᏅᏗᏍᎨᏍᏗ	-11.0383
▁ᎤᏍᏗᎩᏳ	-11.0383
▁ᎰᏌᎾ	-11.0383
▁ᏴᎦᏥᏛᏓ	-11.0383
▁ᎭᏓᏅᏓᏓ	-11.0383
▁ᏇᎳᎻ	-11.0383
▁ᏂᎬᏩᎦᏔᎲᎾ	-11.0383
▁ᏕᎯᏁᏤᎮᏍᏗ	-11.0383
▁ᏔᏘᏂᏙᎯ	-11.0383
▁ᏗᏂᎧᎿᏩᏕᎩ	-11.0383
▁ᎢᏳᏟᎶᏓ	-11.0383
▁ᏗᎦᏟᏓ	-11.0383
▁ᏍᎨᏫ	-11.0383
▁ᏥᏚᎸᏫᏍᏓᏁᎭ	-11.0383
▁ᎨᎵᏌᏕ	-11.0383
▁ᎠᎵᏍᏚᎶᎩᎯ	-11.0384
▁ᏍᎦᏥ	-11.0384
▁ᏄᏍᎦᏅᏨᎾ	-11.0384
▁ᎢᏰᏨᏁᎸᎯ	-11.0384
▁ᏙᏛᏛᏔᏂ	-11.0384
▁ᏗᏣᏓᎵᎢ	-11.0384
▁ᏂᏣᏓᏅᏛᎾ	-11.0384
▁ᏂᏪᏍᎬᎢ	-11.0384
▁ᏂᏤᎲᎾ	-11.0384
▁ᎤᏂᏃᏁᏗᏱ	-11.0384
▁ᏅᏓᏨᏁᎵ	-11.0384
▁ᏤᎿᎠ	-11.0384
ans	-11.0384
▁ᏂᎦᎾᏰᏍᎬᎾ	-11.0384
▁ᎢᏳᏩᎦᏘ	-11.0384
▁ᎤᎦᎵᏍᏗᏉ	-11.0384
▁ᎢᏣᎦᏌᏯᏍᏓ	-11.0384
▁ᏂᏑᏪᏎᎴᎢ	-11.0384
▁ᎤᏂᎾᏰᏎᎢ	-11.0384
ay	-11.0384
▁ᏣᎦᏁᎶᏗ	-11.0384
▁ᎤᏓᏅᎯᏓ	-11.0384
▁ᏗᏣᏘᏂᏙᎯ	-11.0384
▁ᎢᏓᏙᎴᎰᎯᏍᏗᎭ	-11.0384
▁ᎠᎾᏛᏁᎵᏍᎩ	-11.0384
▁ᎠᎾᏁᎸᏗᏍᎬ	-11.0384
▁ᏩᎵᏰᎢᎶᎯᎭ	-11.0384
▁ᎯᏌᎳᏛᎦ	-11.0384
▁ᏧᏂᏲᎰᏒ	-11.0385
▁ᎦᏣᏃᏍᏓ	-11.0385
▁ᎤᎶᏘ	-11.0385
▁ᎤᏮᏙᏗᏱ	-11.0385
▁ᎡᏥᎾᏰᏍᎨᏍᏗ	-11.0385
▁ᏣᏂᎧᎳ	-11.0385
▁ᏧᎾᏘᏂᏙᎯ	-11.0385
▁ᏓᎩᎸᏫᏍᏓᏁᎸ	-11.0385
▁ᎢᎬᏩᎾᏛᏁᏗ	-11.0385
▁ᏚᏌᎯᎸ	-11.0385
▁ᎠᏥᏍᎦᏨᎯ	-11.0385
▁ᏧᎾᏍᏕᏥ	-11.0385
▁ᎠᎱᎵ	-11.0385
▁ᎤᎾᏕᏘᏴᏛ	-11.0386
▁ᏄᎾᏓᏡᎬ	-11.0386
▁ᏗᏣᏓᎨᏳᎯᏳ	-11.0386
▁ᎤᏃᏢᏔᏅᎩ	-11.0386
▁ᎫᏓᎴᏅᏛ	-11.0386
▁ᎤᎾᎵᏍᏔᏴᏗ	-11.0386
▁ᎢᏨᏃᏁᎭ	-11.0386
▁ᏗᎾᏂᏏᎲᏍᎩ	-11.0386
▁ᏛᏓᎴᎲᏍᎬᎩ	-11.0386
▁ᏗᎾᏓᎾᏌᎲᏍᎩ	-11.0386
▁ᏥᏂᏥᏪᎭ	-11.0386
▁ᏂᏍᎦᏅᎾ	-11.0386
ᏓᏬᏅᏛ	-11.0386
▁ᎨᎦᎫᏴᏓᏁᏗ	-11.0386
▁ᏧᏔᎾᎶ	-11.0386
▁ᏥᏄᎵᏍᏔᏅ	-11.0386
▁ᏧᎳᏏᏕᏅ	-11.0386
▁ᏗᏕᏲᎲᏍᎩ	-11.0387
▁ᏗᏣᎦᏴᎵᎨ	-11.0387
▁ᏕᏥᎨᏳᏎᏍᏗ	-11.0387
▁ᎢᏥᎪᏩᏘᏍᎨᏍᏗ	-11.0387
▁ᎢᏣᏤᎵᎪᎯ	-11.0387
▁ᏲᏥᎦᏔᎭ	-11.0387
▁ᏧᏂᏴᏍᏕᏍᎩ	-11.0387
▁ᎠᎩᏬᏂᎯᏍᏗᏱ	-11.0387
▁ᏂᎦᏪᏍᎪᎢ	-11.0388
▁ᏂᏕᏨᏁᎸ	-11.0388
▁ᏧᎴᎯᏐᏗ	-11.0388
▁ᏗᎧᏃᎨᏂ	-11.0388
▁ᎤᏗᏌᏓᏛ	-11.0388
▁ᎬᎩᏁᏉᏤᏗᏱ	-11.0388
▁ᏪᏙᎮ	-11.0388
▁ᏄᎵᏂᎬᎬ	-11.0388
▁ᏳᏓᏬᎠ	-11.0388
▁ᎢᏣᏓᏅᏟ	-11.0388
▁ᎨᎦᎵᏍᎪᎸᏓᏁᎸᎯ	-11.0388
▁ᎤᏓᏴᏛ	-11.0388
▁ᎭᏛᎬᎦ	-11.0389
▁ᎠᏑᏱ	-11.0389
▁ᏄᏕᏘᏴᎲ	-11.0389
▁ᏗᏂᎴᏂ	-11.0389
ᏆᎳ	-11.0389
▁ᎬᏩᏁᏤᎴ	-11.0389
▁ᎦᏟᎲ	-11.0389
▁ᎤᎵᏃᎮᏔᏅᎢ	-11.0389
▁ᎠᎾᏛᎬᎦ	-11.0389
ᏁᏉᏣᏖᏍᏗ	-11.0389
▁ᎡᏣᏅᏏᏓᏍᏗ	-11.0389
▁ᎯᏍᎩᏉ	-11.039
▁ᎪᏱᏅᏍᏗ	-11.039
▁ᏂᏨᏴᏁᎭ	-11.039
▁ᏫᎨᏥᏯᏅᏛ	-11.039
▁ᏓᏦᎯᏍᏛ	-11.039
▁ᎬᏩᎾᎦᏌᏯᏍᏗᏕᎩ	-11.039
▁ᏓᎪᏄᎸ	-11.039
▁ᏭᏂᎷᏣ	-11.039
▁ᏚᏕᏘᏴᏌᏗᏒ	-11.039
▁ᎤᎾᎵᏏᎾᎯᏍᏗ	-11.039
▁ᎡᏣᎫᏴᎡᏗ	-11.039
▁ᏚᏃᏴᎬ	-11.039
▁ᏗᎩᏲᎯᏍᏗᏱ	-11.039
▁ᎠᏰᎳᏍᏗᎦᏅᎯᏛ	-11.039
▁ᏧᏏᏩ	-11.039
▁ᏗᎦᎳᏫᎩ	-11.039
▁ᎨᏥᏍᎦᎩ	-11.039
▁ᎠᎺ	-11.039
▁ᎢᏣᎵᎮᎵᎩ	-11.0391
▁ᎡᎿᎢ	-11.0391
▁ᏯᏆᏚᎵᏍᎨ	-11.0391
▁ᏔᎾᏏ	-11.0391
▁ᏗᏨᏲᎯᏎᏗᏱ	-11.0391
▁ᎤᏂᎧᎵᏨᎯ	-11.0391
▁ᎤᎾᏙᎴᎰᎯᏍᏗᏱ	-11.0391
▁ᎢᏗᏏᏴᏫᎭ	-11.0391
▁ᏚᎿᏍᏕᏢ	-11.0391
▁ᏧᎶᏒ	-11.0391
▁ᏂᎦᏥᏴᏁᎸᎭ	-11.0391
▁ᎤᏩᏃᏪ	-11.0392
▁ᎠᎩᏍᎦᏅᏥᏙᎸᎢ	-11.0392
▁ᏏᏐᎢ	-11.0392
▁ᎦᏁᏥ	-11.0392
▁ᎡᏤᎾ	-11.0392
▁ᏧᏬᎳ	-11.0392
▁ᎨᏥᏯᏅᏛ	-11.0392
▁ᏂᎨᏳᏎᏍᏗ	-11.0392
▁ᏓᎬᎩᎵ	-11.0393
▁ᏗᎵᏒᏍᏗ	-11.0393
▁ᏧᏕᏲᏅᎯ	-11.0393
▁ᏗᏂᏢᏗᏱ	-11.0393
▁ᏗᎧᎿᏩᏕᎩ	-11.0393
▁ᏧᏂᏲᎱᎯᏍᏗᏱ	-11.0393
▁ᏅᎩᏦᏁ	-11.0393
ᎾᏁᎸᏔᏅ	-11.0393
▁ᎢᏨᏰᎳᏗᏙᎭ	-11.0393
▁ᏣᏃᏎᎰᎢ	-11.0393
▁ᎠᏛᏂᏗᏍᏙᏗ	-11.0393
▁ᎢᏥᏩᏛᏗᏱ	-11.0393
▁ᎨᎦᏁᎳᏅᎯ	-11.0393
▁ᎤᏲᎱᏎᏗ	-11.0393
▁ᏧᏯᏍᎦ	-11.0394
▁ᎠᎩᏰᎸᎰ	-11.0394
▁ᏤᏌᏂ	-11.0394
▁ᎯᏁᏟᏴᎾ	-11.0394
ᏯᏪᏣ	-11.0394
▁ᎯᎸᏉᏕᏍᏗ	-11.0394
▁ᏭᏴᎮ	-11.0394
▁ᎦᎶᏐᏅᎭ	-11.0394
▁ᎠᏓᏪᎵᎩᏍᎩ	-11.0394
▁ᎠᎾᏗᏍᎪ	-11.0394
▁ᏚᏅᏍᏓᏕᎴ	-11.0395
▁ᎡᏣᏅᏟ	-11.0395
▁ᏗᏣᏁᎶᏗ	-11.0396
▁ᎬᏁᏤᎭ	-11.0396
▁ᏚᎵᏍᏚᎢᏎᎢ	-11.0396
▁ᏣᏓᏅᏖᏍᏗ	-11.0396
▁ᏥᏂᎦᎵᏍᏗᎭ	-11.0396
▁ᎤᎿᏛ	-11.0396
▁ᏓᎾᏤᎸ	-11.0396
▁ᏣᎢᏎᏍᏗ	-11.0397
▁ᎠᏁᎵᏍᎪ	-11.0397
▁ᎤᏃᎯᏳᏅ	-11.0397
▁ᏄᏩᏅ	-11.0397
▁ᎢᏯᏅᏁᎯ	-11.0397
▁ᎤᏔᏂᏗᎨ	-11.0398
▁ᏂᏣᏛᏁᎭ	-11.0398
▁ᏫᏥᎦᏘ	-11.0398
▁ᎬᏩᏔᏲᏎᎸᎩ	-11.0399
▁ᏣᏃᎮᎸᎩ	-11.0399
▁ᎤᏁᎾᎢ	-11.0399
▁ᏍᎩᎥᏏ	-11.0399
▁ᏗᎬᏩᏛᏗ	-11.0399
▁ᎤᏬᏯᏁᏒ	-11.0399
ᎵᏍᏔᏁᎢ	-11.0399
▁ᎠᏓᎪᎵᏰᏍᎩ	-11.0399
▁ᎤᏁᏅᏍᏗ	-11.04
▁ᏭᏃᏁᎸᎩ	-11.04
▁ᎤᏁᏙᎸᎯ	-11.04
▁ᏍᎩᎷᏥᏏ	-11.04
▁ᏚᎾᎴᏅᎩ	-11.0401
▁ᎡᏥᏍᏕᎸᏗᏱ	-11.0401
▁ᎤᏂᏰᎸᎭ	-11.0401
▁ᎬᏩᏃᎮᏍᎩ	-11.0401
▁ᎢᏣᏛᏁᎯ	-11.0401
▁ᏓᏘᏁᎲᎢ	-11.0401
▁ᎾᏅᏁᎭ	-11.0401
▁ᏍᎩᏅᏏᏓᏍᏗ	-11.0402
▁ᏱᏂᎪᎢ	-11.0402
▁ᎤᏦᏩᏛ	-11.0402
▁ᎤᎵᏖᎸᏅᎩ	-11.0402
▁ᏭᏂᏴᎸᎩ	-11.0402
▁ᏕᎾᏓᎪᎲᏳ	-11.0403
▁ᎠᎩᏍᏕᎵᏍᎩ	-11.0403
▁ᎤᎾᏓᏙᎵᏍᏔᏅ	-11.0403
▁ᎠᏓᎬᎿᎨ	-11.0403
▁ᎤᏂᏂᏴᏗᏱ	-11.0404
▁ᎬᎥᏏ	-11.0404
▁ᎠᎩᏃᎮᏍᎩ	-11.0404
▁ᎠᏥᎸᎨᎳᏍᏗ	-11.0404
▁ᎤᏅᎪᏤ	-11.0404
▁ᎡᏚᏥ	-11.0404
▁ᏚᏂᎸᏫᏍᏓᏁᎮ	-11.0404
▁ᎪᎵᏍᏗᏱ	-11.0405
▁ᏚᏘᏅᏒᎩ	-11.0405
▁ᏣᎾᎥᎢ	-11.0405
▁ᏂᎨᎵᏍᎬ	-11.0406
▁ᎤᏂᏄᎪᏨᎩ	-11.0406
▁ᏚᏳᎪᏗᏍᎪ	-11.0406
▁ᎠᎩᎾᏝᎢ	-11.0406
▁ᏯᏃᏉ	-11.0406
▁ᎤᏂᏃᎮᏗ	-11.0407
▁ᎠᏂᏍᏓᏩᏕᎩ	-11.0408
▁ᎢᏥᎪᏩᏘᎭ	-11.0408
▁ᏂᎦᎡᏍᏗ	-11.0408
▁ᏕᎦᏅᏌᏛ	-11.0408
▁ᎡᎭᎦᏔ	-11.0408
▁ᏗᏆᎵᎢ	-11.0409
▁ᏭᏅᏥᎴ	-11.0409
▁ᎬᏩᎪᎮᎢ	-11.0409
▁ᎠᏂᏍᏆᏂᎪᏗᏍᎩ	-11.041
▁ᎦᎸᏉᎩ	-11.041
▁ᏗᎦᏘᎴᎩ	-11.041
ᏨᏁᏗ	-11.041
▁ᎤᏂᎨᏳᎯ	-11.0411
▁ᏕᎦᏬᏁᏗᏍᎬᎩ	-11.0411
▁ᎤᏂᏄᎪᏨᏃ	-11.0411
▁ᏕᏣᎸᏫᏍᏓᏁᎲᎢ	-11.0412
▁ᎤᎾᏅᏅᎩ	-11.0412
▁ᏓᏰᏏ	-11.0412
▁ᎢᏥᎷᏤᏗᏱ	-11.0412
▁ᏓᎩᏏᎳᏛᎢ	-11.0412
▁ᏅᏩᏍᏕ	-11.0412
ᏎᎵᏙᏗ	-11.0413
▁ᏓᏰᏂ	-11.0413
▁ᎤᏁᎷᎬᎩ	-11.0413
▁ᏭᎶᎯᏍᏗ	-11.0414
▁ᏚᏬᏢᏁᎢ	-11.0414
▁ᎢᎨᏨᏁᏗ	-11.0414
▁ᏰᎵᎦᏯ	-11.0415
▁ᎠᏴᏓᏆᎶᏍᎩ	-11.0415
▁ᎠᎾᏓᏙᎵᏍᏗᏍᎬ	-11.0416
▁ᎢᎦᎵᏍᏕᎸᏙᏗ	-11.0416
▁ᎠᏍᎦᏰᎬᏍᏓ	-11.0416
▁ᎯᎰᎵ	-11.0416
▁ᎤᎾᏓᏅᏒᎩ	-11.0417
▁ᏣᏚᎵᏍᎪ	-11.0417
▁ᏚᎸᏫᏍᏓᏁᎮᏍᏗ	-11.0417
▁ᏚᏂᎧᏁᎢ	-11.0417
▁ᎠᏂᎶᎻ	-11.0417
ᏎᎪᎩᏍᏗ	-11.0418
▁ᎤᏬᎯᏳᏅᎩ	-11.0418
▁ᏗᏣᏄᏬ	-11.0418
▁ᏅᏔ	-11.0418
▁ᎣᏤᎯ	-11.0418
▁ᏂᏚᏂᏪᏎᎴᎢ	-11.0419
▁ᎤᎬᏩᎴ	-11.042
▁ᎤᎬᏩᎳ	-11.0421
ᎦᏘᎴᏅ	-11.0421
▁ᎤᏁᏓᏍᏗᏱ	-11.0421
▁ᎤᎵᏁᏨᎯ	-11.0421
▁ᎦᎸᏉᏗᏍᎨ	-11.0422
▁ᎲᏅᎢ	-11.0424
▁ᏦᎴᏍᏗ	-11.0424
▁ᏕᎤᎸᏫᏍᏓᏁᎲᎢ	-11.0424
▁ᏗᎬᏔᏅᎯ	-11.0424
▁ᏄᎵᏍᏓᏁᎸᎢ	-11.0425
▁ᏂᏣᏛᏁᎸᎾ	-11.0425
▁ᎤᏌᎳᏓᏅᎩ	-11.0426
▁ᏚᏓᏘᎿᎥᎢ	-11.0426
▁ᏣᎵᏍᎦᏍᏙᏗ	-11.0426
▁ᎤᏓᏅᎡᎴᎢ	-11.0426
▁ᎢᏥᎷᎩ	-11.0427
ᎪᏍᎬ	-11.0427
▁ᎤᏓᏑᏴ	-11.0428
▁ᏓᎾᎵᏍᏓᏴᎲᏍᎬᎢ	-11.0429
▁ᎾᏂᏪᏍᎨᏍᏗ	-11.0429
▁ᎦᏓᎥ	-11.043
▁ᎠᏁᎵᏍᎬᎩ	-11.043
ᏚᏓᎳ	-11.0431
▁ᎤᏰᎸᏅᎩ	-11.0432
▁ᎠᏛᎩᏍᎨᏍᏗ	-11.0433
▁ᏕᏣᏓᏂᎸᏨ	-11.0434
▁ᎠᎩᏰᎸᏅ	-11.0434
▁ᎡᎶᏗᏏ	-11.0435
▁ᏔᎵᏚ	-11.0435
▁ᎦᏁᏥᎢ	-11.0435
▁ᏧᏁᎶᏗ	-11.0435
▁ᏂᎦᏚᏏᏁ	-11.0436
▁ᏕᎤᏙᏍᏛ	-11.0436
▁ᎨᎳᏍᏙᏗ	-11.0437
▁ᎤᎾᎵᏎᎢ	-11.0437
ᎪᎵᏰᏍᎨᎢ	-11.0437
▁ᎠᏂᏍᎦᎢᎮᎢ	-11.0438
▁ᎿᏛᏁᎲ	-11.0438
▁ᏠᎠᏏ	-11.0438
▁ᏥᏤᎭ	-11.0438
ᏓᏅᏖᏙᏗ	-11.0439
▁ᏩᏍᏘ	-11.0439
▁ᎯᎷᎦ	-11.0439
▁ᎪᎵᎬ	-11.0439
▁ᏅᏓᏳᏓᎴ	-11.0441
▁ᏗᏲᏍᏙᏗ	-11.0442
▁ᏓᎪ	-11.0444
▁ᏧᏑᏰᏛ	-11.0444
▁ᎤᏍᏓᎦᏴᎯᏓ	-11.0444
▁ᎠᏩᎾᎦᎳᎯᏳ	-11.0444
▁ᎤᏛᎪᏗ	-11.0446
▁ᎠᎾᏗᏍᎬᎢ	-11.0446
▁ᎤᎵᎮᎵᏨᎯ	-11.0447
▁ᏓᏂᎳᏫᎥᎢ	-11.0447
▁ᎤᏂᎬᎥᏍᎬ	-11.0447
▁ᎤᏁᏅᏍᏗᏱ	-11.0448
▁ᏣᏰᎯ	-11.045
ᎶᏐᏅ	-11.045
▁ᎠᏂᎷᎩ	-11.0452
▁ᎠᏂᎦᏲᎵᏳ	-11.0452
▁ᏄᏛᏁᎸᎾ	-11.0453
ᎵᏍᏆᏙᎾ	-11.0454
▁ᎠᏇᏅᏒᎩ	-11.0455
ᎠᏁᎯ	-11.0456
▁ᎤᏥᎸᏒᎢ	-11.0457
ᏣᏘᏃᎵ	-11.0457
▁ᎤᏒᏂᎴᎢ	-11.0458
ᏍᏓᏁᎵ	-11.0458
ᏱᏙ	-11.0458
▁ᏓᎻ	-11.0458
▁ᎤᎾᎵᏃᎮᎴ	-11.0459
▁ᎠᏓᏙᎵᏍᏓᏁᎯ	-11.046
▁ᎢᏳᏩ	-11.0462
▁ᎤᏪᏴᎢ	-11.0462
▁ᎤᎷᏤᎸᎩ	-11.0463
▁ᏄᎾᎵᏍᏔᏅ	-11.0464
▁ᏏᏛ	-11.0465
▁ᏁᎳᎩᏉ	-11.0465
ᏄᏪᏎᎴᎢ	-11.0466
▁ᎤᎾᏄᎪᏫᏎᎴᎢ	-11.0466
▁ᎢᏣᏕᎶᏆ	-11.0466
ᏐᏂ	-11.0466
▁ᏱᏙᎨᏥ	-11.0466
▁ᎠᎵᏛᏓ	-11.0467
▁ᏣᏍᏆᏂᎪᏙᏗ	-11.0467
▁ᏥᎪᎥᎩ	-11.0468
▁ᎡᎵᏍᎬᎢ	-11.0469
▁ᏓᏂᎧᏅᎢ	-11.0469
▁ᎠᏂᏙᎾᎡᎢ	-11.047
▁ᏂᏚᏪᏎᎸᎢ	-11.047
▁ᎡᏈ	-11.0471
▁ᏅᎩᎦᎵ	-11.0471
ᏂᎬᎬ	-11.0472
▁ᎡᏦᎢᏳᏒ	-11.0473
ᏓᏑᏲ	-11.0473
▁ᏚᎴᏅᎩ	-11.0474
▁ᏄᎵᏍᏔᏁᎴ	-11.0474
▁ᏇᎵ	-11.0475
ᏈᏂ	-11.0476
▁ᎠᏂᏙᎾᎥᎩ	-11.0476
▁ᏣᏉᎩ	-11.0477
▁ᎤᏛᏒ	-11.0478
ᎩᎵᏲᎬᎢ	-11.0478
▁ᎤᏍᏉᎵᏱ	-11.0479
ᏍᏕᏓᎵᏴᏍᏗ	-11.0482
▁ᏧᏬᎸᎢ	-11.0483
ᎦᏔᎮᏍᏗ	-11.0483
▁ᏮᏓᏲ	-11.0483
▁ᎤᏍᏓᏲᏒ	-11.0484
▁ᎮᎵᏍᎬ	-11.0486
ᎸᏉᏛᎾ	-11.0486
▁ᎤᏓᏔᏅ	-11.0488
▁ᎦᏅᎬᎢ	-11.049
ᏃᎯᏎᎲ	-11.0493
▁ᏱᏗᏗ	-11.0493
▁ᏥᏯᎥᎢ	-11.0495
▁ᏗᎦᏚᎲᏍᎩ	-11.0499
▁ᏯᎦᏔᎮᎢ	-11.0502
▁ᏑᏟᎶᏛᏉ	-11.0502
▁ᎠᏚᎢᏍᏛᎢ	-11.0506
ᎴᏅᎭ	-11.0506
ᏁᎩᏎᎢ	-11.0508
ᏥᏲᎵᏍᏗᏱ	-11.0508
▁ᎦᏁᎲᎩ	-11.051
▁ᏪᎯ	-11.051
▁ᎤᏂᏲᎭ	-11.0511
▁ᎤᏓᏙᎵᏍᏔᏅ	-11.0518
ᎲᏎ	-11.0518
▁ᏄᎾᏛᏁᎸᎢ	-11.0519
▁ᎤᏂᏣᏔᏰᏃ	-11.0519
▁ᎦᏬᏂᏍᎬᎩ	-11.0527
▁ᏑᏓᎵᏁᏃ	-11.0528
▁ᎢᏳᎾᏃ	-11.0529
▁ᎧᏃᎮᏍᎬᎢ	-11.0529
▁ᎬᏩᎷᏤᎮ	-11.0529
ᏍᏆᏗᏍᏗ	-11.053
▁ᎤᏚᎵᏍᎬᎩ	-11.0531
▁ᎢᏓᎵᎮᎵ	-11.0532
▁ᏥᏴᎩ	-11.0532
ᎾᏰ	-11.0534
▁ᏚᏅᏎᎢ	-11.0538
▁ᏚᎧᎿᏅᏃ	-11.0545
▁ᎤᏐᏱᏉ	-11.0549
▁ᏁᏨᏁᎸ	-11.0553
▁ᎠᎢᏒᏃ	-11.0554
ᎳᏅᏛ	-11.0554
▁ᏗᎦᏘᏯ	-11.056
ᎸᏉᏔᏅᎯ	-11.0561
ᏥᎷ	-11.0562
▁ᏥᏕᎭ	-11.0563
▁ᏨᏍᎩᏃᎢ	-11.0563
▁ᎠᏆᎧᏛᎢ	-11.0565
ᏄᏪᏒᎩ	-11.0565
▁ᏮᏓ	-11.0568
▁ᏗᏥᏁᏟᏴ	-11.0572
ᏙᎮ	-11.0577
▁ᏗᏆᏓᏅᏛ	-11.0578
▁ᎦᏓᏍᎬ	-11.0578
▁ᎤᏂᏣᏖᏰᏃ	-11.0579
▁ᏚᏂᏍᏘᏰᎬ	-11.0579
▁ᎤᏰᏤᎢ	-11.0581
ᏲᎮᎢ	-11.0582
▁ᎤᏂᏁᏨᏃ	-11.0586
▁ᏏᎻᏯᏂᏃ	-11.0586
▁ᎠᏰᏙᎳᏛᎢ	-11.059
▁ᎠᏇᎷᏅ	-11.0597
ᎶᏁᏛ	-11.06
▁ᏌᎾ	-11.0603
ᏅᏁᎢ	-11.0604
▁ᎪᏢᏅ	-11.0607
▁ᏧᏪᏅᏒᎢ	-11.0611
▁ᎤᏃᏴᎬᎢ	-11.0611
▁ᎠᎦᏔᎯ	-11.0613
▁ᎤᏁᏅᏎᎢ	-11.0614
ᏓᏅᏛ	-11.0619
▁ᏚᎾᏄᎪᏫᏎᎸ	-11.062
▁ᎠᏰᎸᏒᎩ	-11.062
▁ᎠᏂᏫᏅᏃ	-11.0621
▁ᏗᏓᎴᏂᏍᎬᎢ	-11.0623
▁ᎤᏕᏅᎢ	-11.0624
ᏣᎾᏄᎪᏫᏎᎸ	-11.0624
▁ᏣᎩᏍᏗ	-11.0625
▁ᎤᏔᎴᎦᏒ	-11.0628
▁ᏙᎩᏂ	-11.0629
ᏛᏎ	-11.0641
▁ᎡᎳᏪᏉ	-11.0647
ᎨᏳᏎᏍᏗ	-11.0653
ᏚᎲ	-11.0656
▁ᏕᎨᎦᎸ	-11.066
▁ᎤᏄᏩᎥ	-11.0662
ᏥᎶᏍᏔᏅ	-11.0664
ᎵᏍᏕᎸᏙᏗ	-11.0666
▁ᏚᏙᏍᏛ	-11.0677
▁ᎤᏲᎱᏒᎩ	-11.0678
▁ᎤᏕᏘᏴᏌᏗᏒᎢ	-11.0681
▁ᏕᎤᏙᎥᎢ	-11.0681
▁ᏍᏋ	-11.0689
▁ᎵᏫᏃ	-11.0693
ᏲᎸ	-11.0694
▁ᏗᎦᎸᏫᏍᏓᏁᏗᏱ	-11.0696
▁ᎢᎩᏴᏁᏗ	-11.0703
▁ᎢᏨᏒᏉ	-11.0708
▁ᎭᏂᏉ	-11.0709
▁ᏨᏌ	-11.0716
▁ᏭᏂᏴᎮ	-11.0725
ᏃᏁᎸᎯ	-11.0728
▁ᎢᎦᏛᏍᎩᏂ	-11.0729
ᏍᏆᏂᎪᏗᏍᎩ	-11.0732
▁ᏥᎪᏩᏘᏍᎬ	-11.0734
ᎾᏰᏍᎨᏍᏗ	-11.0736
▁ᏧᏂᏅ	-11.0741
▁Ꮲ	-11.0741
ᏙᏢᎾ	-11.0741
▁ᏄᏂᏪᏎᎸ	-11.0745
ᎾᎵᏍᏓᏴᏗ	-11.0753
ᏥᏯᏅᏗ	-11.076
ᎩᎯ	-11.076
ᏣᎢ	-11.0761
▁ᏭᎪᎮ	-11.0764
▁ᎤᏁᏤᎸᎯ	-11.0767
▁ᏚᏲᎯᏎᎴ	-11.0775
ᏌᏙ	-11.0776
▁ᏕᏨᏅ	-11.0777
▁ᎢᏳᎾᏛᏁ	-11.0777
ᎶᏎᎢ	-11.0781
▁ᏘᏅ	-11.0788
▁ᏣᎪᏩᏘᏍᎪ	-11.0793
▁ᏚᎾᎵ	-11.0793
ᎪᎾ	-11.0802
ᏕᎪᎢ	-11.0804
▁ᏂᏓᏛᏁᎲ	-11.0805
▁ᏧᏲᎯᏎᏗ	-11.0805
ᎩᏍᏙ	-11.0807
▁ᎤᎵᏏᎬᎢ	-11.0809
ᎦᏘᎴᎩ	-11.0812
ᏯᏠ	-11.0813
▁ᏱᏙᎩ	-11.0819
▁ᏈᎵᎩᏃ	-11.0819
ᎴᎾ	-11.0822
▁ᎤᏂᏂᏴᎮ	-11.0824
▁ᏄᏓᎴᏒᏉ	-11.0825
ᏴᎯᎮᏍᏗ	-11.0825
ᏍᏔᏅᎾ	-11.0832
ᏐᎸ	-11.0842
▁ᏱᏤ	-11.0843
▁ᏱᏄᎵᏍᏔᏁ	-11.0848
ᎸᏁᎢ	-11.0848
▁ᎦᏟ	-11.0853
▁ᏓᏯ	-11.0858
▁ᎦᏙᎨᏃ	-11.0866
▁ᏥᏃᎮᏍᎬ	-11.0867
ᏐᏁ	-11.0873
ᎭᏯᎸ	-11.0874
▁ᎣᎩᎾᎵ	-11.0874
ᏰᎸᏎ	-11.0875
ᎵᏎᏗ	-11.0879
ᏰᎸᎲ	-11.0883
ᏙᎾ	-11.0883
▁ᎢᏦ	-11.0886
▁ᎤᏕᎵ	-11.0891
ᏍᏓᏩᏗᏒᎩ	-11.0892
ᏅᏨ	-11.0896
▁ᎤᎪᎲᎢ	-11.0899
ᎪᎰ	-11.09
ᎬᏎ	-11.0904
▁ᏚᏓᏂᎸᏨ	-11.0908
▁ᎤᏩᎨᏫᏎ	-11.0926
ᏲᎯᏎᏗᏱ	-11.0935
ᏂᏏᏅ	-11.0937
ᎵᏍᏓᏴᎲᏍᎬ	-11.0938
ᎱᏁ	-11.0942
ᏛᏁᎮᏍᏗ	-11.0949
ᏲᎳ	-11.0951
ᎨᏂ	-11.0952
ᏂᎦᎥ	-11.0953
▁ᏗᎬᏩᎾ	-11.0961
ᏂᎩᏓ	-11.0975
ᎪᎮ	-11.0979
▁ᏚᏂᏏᏂᏙᎸ	-11.0981
▁ᎤᏅᏒᏍᎩᏂ	-11.0989
ᏖᎢ	-11.0993
ᏙᎸᎯ	-11.0993
ᎧᏔ	-11.0994
ᎵᏍᏆ	-11.0999
▁ᎬᏩᏃᏁᎴ	-11.1008
▁ᎦᎵᏦᏕᏃ	-11.1012
ᏰᎢ	-11.1014
ᎴᎯ	-11.1018
ᎦᏲ	-11.102
ᏔᏪᏙ	-11.1021
ᎦᏖᏃᎲ	-11.1029
▁ᏄᎾᏓᎴ	-11.1038
▁ᏍᎩᏴᏃ	-11.1045
ᎢᏣ	-11.1048
ᏕᏯᏙᏔᏅᎩ	-11.1048
ᏍᏕᎸᎲ	-11.1061
ᎦᏔᎲᎢ	-11.1069
ᏓᏅᏛᎵ	-11.1069
ᏲᎦᏛᏅ	-11.1071
ᏠᎠᎯ	-11.1079
ᎶᏙᏗ	-11.1091
▁ᎤᎾᏛᎦᏅᏃ	-11.1093
ᎶᏂ	-11.1096
ᏓᎶ	-11.1099
▁ᏅᏩᎾᏓᎴᎢ	-11.1104
ᏥᎪᎥᎩ	-11.111
ᏓᎡ	-11.113
ᎦᏌᏯᏍᏗ	-11.1131
ᎬᏔᏅ	-11.1132
ᏥᎸᏉᏔᏅ	-11.1134
ᏙᎭᏴ	-11.1135
as	-11.1136
▁ᎢᏥᏍᎦᏅᏨ	-11.1145
ᏖᎵ	-11.1147
ᎩᏍᏆᏂᎪᏔᏅ	-11.1148
ᏛᎦᏁᎰᎢ	-11.1153
▁ᎠᏂᏯᏫᏍᎩᏃ	-11.1153
▁ᎤᎷᏨᏃ	-11.1156
▁ᏪᏣ	-11.1159
ᏩᎩ	-11.1159
ᏔᏃ	-11.1168
▁ᎤᏂᏅᏅ	-11.1173
ᏅᏓᏓ	-11.1175
ᏓᎩ	-11.1182
ᎫᏴᏗᏱ	-11.1192
ᏥᎾ	-11.1193
ᎩᎬ	-11.1194
ᎸᏉ	-11.1198
ᏢᏈᏍᏗᏱ	-11.1199
ᏓᏘ	-11.1199
ᏥᏍᎦᏯ	-11.1206
ᏓᏩᏗ	-11.1208
ᏕᎬ	-11.1208
ᏂᏪᏏ	-11.1212
▁ᎦᎬᏩᏐᏢ	-11.1226
ᏴᏛ	-11.1234
ᎩᏅ	-11.1236
ᏓᏁᎸᎩ	-11.1238
ᎵᏍᎪᎸᏓᏁᏗᏱ	-11.1238
▁ᎠᏍᎩᎾᏃ	-11.1254
ᏍᏕᎵᏍᎬ	-11.1255
ᎤᏨ	-11.1263
Ꮉ	-11.1265
▁ᎢᎪ	-11.127
ᏙᏓᏆᏓ	-11.1273
ᏁᏤ	-11.1284
ᏰᎩ	-11.1286
ᏍᏕᎸᎲᎩ	-11.1288
▁ᏝᏃ	-11.129
ᏁᎵᏍᎬ	-11.1291
ᎶᏏ	-11.1293
ᎶᎩ	-11.1299
▁ᏓᎨ	-11.1301
▁ᏚᏭᎪ	-11.131
ᏢᏔᏅᎯ	-11.1312
ᎵᏍᎦᏍᏙᏛ	-11.1317
▁ᏩᎾᎢᏒ	-11.1321
ᎩᏳ	-11.1325
ᎪᏗᏍᎩ	-11.1327
ᏔᏗ	-11.1328
ᏥᏍᏕᎸ	-11.1331
ᏄᎪᎨᏍᏗ	-11.1343
ᏓᏅᏓᏗ	-11.1357
▁ᏙᎯᏱᏉ	-11.1358
ᏠᎠᏏ	-11.1361
ᏴᏔᏁ	-11.1365
ᏲᏒᎯ	-11.1376
ᏁᎢᏍᏗᏍᎬ	-11.138
▁ᎢᏥᏍᎦᎾ	-11.1385
▁ᏚᏂᏍᏚ	-11.1386
ᏗᏎ	-11.1406
ᏢᎯ	-11.1407
▁ᏚᎸ	-11.1414
ᏨᏍᏛ	-11.1418
▁ᏳᏂᏰᎸ	-11.1428
ᎵᏃᎮ	-11.1442
ᎦᏛᎩ	-11.1444
▁ᎤᎾᏚᎵᏍᎨ	-11.147
ᏩᎯ	-11.1472
▁ᏩᏆ	-11.1481
ᏐᏴᎢ	-11.1483
ᏓᏕ	-11.1484
ᏃᎮᏛ	-11.1484
ᏓᏅᎦᎸᏛ	-11.1489
▁ᎠᏓᏅᏖ	-11.149
ᏥᏁᏗᏱ	-11.1496
▁ᏚᏜᏅᏛ	-11.15
ᏟᎶ	-11.1502
ᎾᏌᎢ	-11.1509
ᏕᏯᏙᏗᎭ	-11.1512
ᏩᏂᎦᎸ	-11.1514
ᎾᏧ	-11.152
ᎦᎸᎲᎩ	-11.1525
▁ᎠᏍᎪᎯᏧᏈᏃ	-11.1526
ᎯᏍᏔᏅ	-11.1543
ᏯᏙ	-11.1545
▁Ꮃ	-11.1587
ᎭᏄᏮ	-11.1605
ᎢᏍᏔᏅ	-11.1609
ᏰᎸᎭ	-11.162
ᏓᎳᎩ	-11.1634
ᏫᏏ	-11.1647
ᎨᎳᏗ	-11.1651
ᎨᏅ	-11.1691
▁ᏚᏂᎸ	-11.1698
ᎵᏍᏕ	-11.1702
▁ᎢᏗᎬᏁ	-11.1707
ᎾᎥᎢ	-11.1714
▁ᏕᎧᏁᏤ	-11.172
ᏌᏛᏗ	-11.1721
ᎳᏍᏗᏱ	-11.1725
▁ᏓᏥᏩᏛᎯ	-11.1731
▁ᎤᏂᎷᏤᎴ	-11.1732
▁ᎾᏛᏁᎰ	-11.1733
ᏅᎦᎸᏛ	-11.1737
▁ᎢᏣᏓᏙᎵᏍᏗ	-11.1739
▁ᎤᏩᏙ	-11.1741
ᎥᏍᎬᎢ	-11.1745
▁ᎤᎫᏴᎡᏗ	-11.1753
ᎦᏔᎲᏍᎬ	-11.1758
▁ᏱᏭ	-11.1763
ᏬᏣ	-11.1763
ᏂᏪᏎ	-11.1766
ᏘᏍ	-11.1768
ᏐᎾ	-11.1777
ᏙᏔ	-11.179
ᏍᎦᏯ	-11.1796
▁ᏙᏓᏣ	-11.1802
▁ᏕᏣᎧ	-11.1803
▁ᎬᏩᎾᏕ	-11.1804
▁ᏄᏩᏁ	-11.1829
▁ᏳᎳ	-11.1835
ᏟᏌ	-11.1842
ᏦᎣ	-11.1856
ᎷᏤᎴᎢ	-11.1859
ᏰᏨ	-11.1865
ᏁᎢᏍᏓᏁᏗ	-11.1867
ᏥᏅ	-11.1872
▁ᎠᏇᏲᏅ	-11.1874
▁ᎦᏯᎸ	-11.1875
ᏴᏙᏗᏱ	-11.1876
ᎦᎵᏍᏙᏗ	-11.1905
ᏍᏓᏯ	-11.1914
▁ᎤᏂᎿᎸ	-11.192
▁ᎠᏂᎡ	-11.1932
▁ᏚᏒ	-11.194
▁ᎦᏘ	-11.1946
▁ᏕᎦᏁᎲ	-11.1949
▁ᏬᎩ	-11.1953
▁ᎫᏓ	-11.1954
▁ᎤᎾᏤ	-11.1966
ᏎᎵᏔᏅᎢ	-11.1977
ᏗᏅᏎ	-11.1982
ᏴᏅ	-11.1983
▁ᏤᎳᏗ	-11.1983
▁ᎠᏢ	-11.1991
▁ᏕᎦᏅ	-11.1993
▁ᏂᏣᎵᏍᏓᏁ	-11.1997
ᎵᏛᏓ	-11.2003
▁ᎨᏨ	-11.2006
▁ᏓᎨᏣ	-11.2007
ᎩᎡᏗ	-11.2016
ᏁᏛ	-11.2027
▁Ꮦ	-11.2034
▁ᎤᏙᏢᏒ	-11.2041
▁ᏭᏂᏴ	-11.2044
▁ᎤᏐᏅᎢ	-11.2047
▁ᏚᏄ	-11.2051
ᎾᏛᏁᎰᎢ	-11.2055
ᏤᎾ	-11.206
Ꮏ	-11.208
ᏥᎷᎩ	-11.2094
ᏰᎸᏒ	-11.2096
▁ᏭᏩ	-11.2096
ᎡᏥ	-11.2107
ᏓᎸᏉᏙᏗ	-11.2108
ᎾᎸ	-11.2112
ᏪᎢ	-11.2113
ᎷᎯᏍᏓᏁ	-11.2113
ᎯᎮ	-11.2115
ᏥᎪᏗ	-11.2121
ᏂᎥ	-11.2128
ᏘᎨ	-11.2136
ᏥᏅᎵ	-11.2141
▁ᎢᏥᏍᎦᏅ	-11.2145
▁ᎣᏤ	-11.2153
ᏓᏁᎭ	-11.2165
ᏔᏕᎩ	-11.2171
▁ᏯᏓᏅᏖ	-11.2172
▁ᎤᏰᎸᏒ	-11.2178
ᏥᏰ	-11.2196
▁ᎯᏴ	-11.2197
ᏃᎯᏎᎴ	-11.22
ᏚᏓᎴᏍᏗᏱ	-11.2201
ᎩᏰ	-11.2202
ᏓᏴᏎ	-11.2206
▁ᏚᏛᏛᏁ	-11.2213
ᏆᏙ	-11.2218
ᏘᏰ	-11.2221
ᏱᎸ	-11.224
ᎵᏦᏛᎢ	-11.224
▁ᎠᏆᏛᎦ	-11.2252
▁ᏫᏯᏅ	-11.2261
▁ᎤᏁᎷ	-11.227
▁ᏓᏂᏁ	-11.2274
ᎦᏟ	-11.2274
ᏲᎯᏍᏔᏅ	-11.2277
▁ᎠᏂᏤ	-11.2279
ᏚᎵᏍᎬᎢ	-11.2298
▁ᎨᏥᏁᏤᎸ	-11.2303
▁ᎠᏂᎪᏩᏘᏍᎨ	-11.231
▁ᎭᏓ	-11.2316
ᏴᎯ	-11.2318
ᏰᎮᏍᏗ	-11.232
ᎷᏤᎵ	-11.2323
ᏥᏅᏏ	-11.2327
▁ᎦᏄ	-11.2332
ᏁᎶᏕᏍᏗ	-11.234
▁ᏯᏇ	-11.2342
▁ᎤᎾᎵᏍᏓᏴ	-11.2348
ᏄᏓ	-11.2358
ᏏᏍᎨ	-11.2361
▁ᎭᏓᏅᏖ	-11.2367
▁ᎤᎧᎵᏨ	-11.2371
ᎳᏑ	-11.2381
ᎤᏍᏗ	-11.239
▁ᎤᎾᏓᏅᏖᏗ	-11.239
ᏩᏘᏍᎪ	-11.239
▁ᎢᏆ	-11.2395
ᏓᏉ	-11.2397
ᎸᏨ	-11.24
▁ᏥᏨ	-11.2415
▁ᎯᏁᎩ	-11.2418
▁ᏓᏟᎶᏍᏗ	-11.2424
▁ᎤᎾᏕᏯᏙᏗ	-11.2429
ᏎᎪᎩ	-11.244
ᏅᏍᏓᏕ	-11.2441
ᏰᎵᏎᎭ	-11.2464
▁ᏥᏍ	-11.2465
ᎴᏛ	-11.2466
ᎤᎦ	-11.2466
ᏲᎲᏍᎩ	-11.2468
ᏒᏍᏗᏱ	-11.2474
ᏂᏱ	-11.2478
ᏎᎲ	-11.2482
▁ᏥᎪᏩᏛ	-11.2484
ᏁᏟᏴᏛ	-11.2486
ᏃᏍᎩᏒ	-11.2488
ᎤᎪ	-11.2491
▁ᎬᏭᎯᏍᏗ	-11.2499
ᏛᏓᏍᏓ	-11.2499
▁ᏧᏲ	-11.25
ᏓᏅᎾ	-11.2501
ᎷᏨᎭ	-11.2503
ᎩᏨ	-11.251
ᎳᏁ	-11.2512
ᎩᏳᏍᏈᏛ	-11.2512
ᎵᏂᏆᏅ	-11.2548
ᏠᎯᏍᏓ	-11.2551
▁ᎤᏂᏍᏆ	-11.2557
ᎾᎵᏖᎸᏂ	-11.2559
ᏑᏯᎩ	-11.2562
ᎵᏍᏓᏴᎲᏍᎩ	-11.2568
ᏲᎲ	-11.2569
ᎿᎢ	-11.2574
ᎪᎵᏰᎡ	-11.2575
ᏍᏚᏟ	-11.2575
ᏥᏪᏎᎸ	-11.2579
▁ᏧᏭ	-11.2582
ᏖᎳᏗ	-11.2583
ᏓᏅᏖ	-11.2593
▁ᎤᏍᏕᎸᎲ	-11.2598
▁ᏩᏚ	-11.2598
▁ᎣᎪᎯᏳ	-11.2605
ᎨᏓᎵ	-11.2607
ᏍᏚᎢ	-11.261
▁ᏚᎾᎵᎪ	-11.2622
▁ᎨᎥ	-11.2622
ᏍᏚᎩ	-11.2623
ᏣᏛᏁᎯ	-11.263
▁ᎠᎾᏓᏅᏖ	-11.2638
ᏢᏁᎢ	-11.2639
▁ᎤᏂᎬᏫᏳ	-11.2643
ᏄᎳ	-11.2649
ᏠᎾᏍᏗ	-11.2656
ᏙᎵᎦ	-11.2658
▁ᏅᎵᏌᎵ	-11.2658
ᏍᏆᏙᏅ	-11.2662
▁ᎠᎩᎨᏳᎯ	-11.2663
ᎦᏢ	-11.2667
ᏁᏢᏔᏅᎯ	-11.2667
ᎴᏫᏍᏙᏗ	-11.2674
ᎸᎥᏍᎬ	-11.2675
ᏎᎰ	-11.2675
▁ᏴᏫᏯ	-11.2676
ᏌᎥ	-11.2677
ᏍᏓᏩᏕᏏ	-11.268
▁ᏱᏙᏥ	-11.2681
ᏔᎴᏒ	-11.2681
▁ᏂᏕᎬᏁ	-11.2688
▁ᎤᏕᏯᏔᏁᎴ	-11.269
▁ᏨᏛ	-11.2696
ᏚᎵᏍᎬ	-11.2699
▁ᏱᏚᎾ	-11.2708
▁ᏱᏚᏓ	-11.2717
ᏩᎾ	-11.2718
ᎵᏏᎾᎯᏍᏗ	-11.2729
ᏚᎵᏍᎨ	-11.2729
ᏍᏓᏩᏛᏎ	-11.273
▁ᏑᏟᎶᏛ	-11.2731
ᏙᎴᏋ	-11.2731
ᎪᎵᏰᏍᎬ	-11.2734
ᏍᏉᎵᏱ	-11.2742
ᎴᏂᏓᏍᏗ	-11.2743
ᏔᎳᏬᎯᏍᏗ	-11.2744
ᏦᎢ	-11.2748
▁ᏁᎳᏚ	-11.2748
ᏚᎢᏍᏔᏅᎯ	-11.2756
ᏍᎩᏓᏎᎢ	-11.2757
ᎬᏆ	-11.276
ᎡᎾ	-11.2763
ᏍᎦᏃᎵ	-11.2763
▁ᎤᏃᏢᏗ	-11.2767
ᏍᏆᏙᎾ	-11.2768
▁ᏂᏥᎦᏔᎲᎾ	-11.2768
▁ᏗᎦᏥ	-11.2771
ᎥᏍᎨᎢ	-11.2772
ᏍᎬᎾᏉ	-11.2778
ᎵᏍᎪᎸᏓᏁᏗ	-11.2778
ᏍᏆᏂᎪᏗᏳ	-11.278
▁ᎠᏂᏍᎦᎢᎲ	-11.2783
▁ᎢᏥᎦᏔᎲ	-11.2784
▁ᏂᎬᏁᎮ	-11.2787
ᏓᏙᎵᏍᏓᏁᎯ	-11.2789
▁ᎻᏚᏏᎳ	-11.2789
▁ᏇᏣᎵᎵ	-11.2789
▁ᏖᎹ	-11.2789
ᏴᏤᏂ	-11.2794
▁ᏁᏩᏔᎵ	-11.2797
▁ᏏᎵᏆ	-11.2798
▁ᏕᎪᏢᏒ	-11.2798
▁ᏦᏑᏫ	-11.2799
▁ᎴᎻᎩ	-11.2799
▁ᏎᏘ	-11.2802
▁ᎾᏂᏪᏍᎨ	-11.2803
▁ᏗᎾᏙᏂᏍᎩ	-11.2806
▁ᏪᏥ	-11.2812
▁ᏧᏁᎵᏁ	-11.2813
▁ᏓᎬᏩᎵ	-11.2814
ᏍᏆᏂᎪᏛᎢ	-11.2816
ᏍᎫ	-11.2816
▁ᎤᏩᏎ	-11.282
▁ᎢᏣᎴᏂᏙᎲ	-11.2821
▁ᎾᎬᏁᎴ	-11.2821
▁ᏂᏓᏙᏓᏈᏒ	-11.2821
▁ᏗᏂᏐᎯ	-11.2821
ᏇᎵᏥ	-11.2824
ᎣᏍᏓᏗ	-11.2824
▁ᎦᎵᎡᎵᎬ	-11.2825
ᎢᏗᎦᏘ	-11.2825
ᏂᏐᏗᏱ	-11.2826
▁ᏚᏄᎪᏔᏅ	-11.2826
ᏍᏔᏴ	-11.2827
▁ᎤᏃᎯᏳᏁ	-11.2827
▁ᏕᏣᎸᏫᏍᏓᏁᎸ	-11.2827
▁ᎤᎾᏘ	-11.2827
ᎾᎾᏛᏁᎭ	-11.2828
ᎤᏂᎷᏤᎢ	-11.2828
ᎤᏨᏉᏗ	-11.2829
ᎠᎬᏱ	-11.2829
▁ᏚᏓᏘᎿᎥ	-11.283
▁ᏂᏣᏓᎨᏳᏒ	-11.283
▁ᏄᎵᏍᏓᏁᎸ	-11.2831
▁ᎲᏅ	-11.2831
▁ᎤᎵᏖᎸᏁ	-11.2831
▁ᏚᏂᏢᎬ	-11.2831
▁ᏕᎤᎸᏫᏍᏓᏁᎲ	-11.2831
▁ᏂᏕᎦᏪᏎ	-11.2831
▁ᎤᏔᏪᏙᏁ	-11.2831
▁ᏚᏍᎫᏓᏛ	-11.2831
▁ᏚᏂᏲᎱᏒ	-11.2832
▁ᎤᎴᏂᏙᎴ	-11.2834
▁ᎾᏂᎡ	-11.2836
▁ᏂᏚᏩᏁᎴ	-11.2836
ᏫᎾ	-11.2836
▁ᎤᏪᏍᎩᎸ	-11.2836
▁ᏚᏭᎪᏔᏅ	-11.2837
ᏁᎵᏎᎢ	-11.2837
ᏍᏕᎵᏍᎪ	-11.2837
ᎧᏃᎮᏛ	-11.2838
▁ᎠᏛᎩᏍᎨ	-11.2839
ᏂᏚᏪᏎᎴᎢ	-11.2839
ᏥᏁᎢᏍᏗᎭ	-11.284
ᎢᏤ	-11.284
▁ᏂᏚᏍᏕ	-11.2841
▁ᎾᎩᏪᏒ	-11.2842
ᏘᏍᎩ	-11.2842
ᎠᏤ	-11.2842
▁ᎦᏅᎪᎢ	-11.2845
ᏔᏲᎯᎰ	-11.2846
ᏂᏴᏍᏗ	-11.2846
ᎸᎦ	-11.2847
▁ᏓᏅᏗᏍᎬ	-11.2848
▁ᏧᏂᏒᏍᏗ	-11.2849
▁ᎢᏣᏚᎵᏍᎬ	-11.2849
▁ᎤᏁᎳᎩᏉ	-11.285
▁ᎤᏓᏅᎡᎴ	-11.285
ᏧᏔᏅ	-11.2851
▁ᎡᎩᏍᏕᎸᏗ	-11.2853
ᏍᎦᏃᎳ	-11.2853
▁ᏎᎳᎩ	-11.2855
▁ᎦᏪ	-11.2855
▁ᏓᎾᎵᏍᏓᏴᎲᏍᎬ	-11.2859
▁ᎤᏮᏔᏅ	-11.286
ᏚᎸᏅᏗ	-11.286
▁ᎤᎾᏓᏓᏍᎩ	-11.2863
ᎶᎨ	-11.2864
ᏍᏓᏩᏕᏅ	-11.2865
ᎩᎷᏫ	-11.2865
▁ᎦᏲᎦ	-11.2867
▁ᏂᎦᎵᏍᏔᏂ	-11.2868
▁ᏫᏥᎦᏛ	-11.2869
▁ᎣᎵᏩᏲ	-11.2869
▁ᏣᏁᏨ	-11.2869
ᎧᏔᎭ	-11.2869
▁ᎢᏳᏩᏂᏐᏗ	-11.287
ᏏᏔᏗᏍᏗ	-11.287
▁ᏦᎩᎾᏫ	-11.2871
▁ᎤᏲᎱᏎ	-11.2872
ᎾᎷᏒ	-11.2873
ᎵᏓᏍᏗᏱ	-11.2874
▁ᏥᏬᏂᏍᎬ	-11.2874
▁ᎣᎦᏣᏅ	-11.2874
▁ᏗᏘᏂᏙ	-11.2874
ᎤᏅᏗ	-11.2875
▁ᎤᏑᎵᎪᏨ	-11.2875
ᏚᎪᏓᏁᏗ	-11.2875
ᎡᎲᎢ	-11.2875
▁ᎤᏢᎬ	-11.2876
▁ᎢᏣᏓᏅᎦᎸ	-11.2876
▁ᎤᏃᏴᎵ	-11.2877
▁ᎠᏆᏣ	-11.2879
▁ᏗᎧᏃᎨ	-11.2879
ᏓᏙᎵᏍᏓᏏ	-11.288
ᎦᏙᎥᏒᎯ	-11.288
▁ᎤᏬᏢᏁ	-11.2882
ᎵᏍᏓᏁᎸᎩ	-11.2882
▁ᎠᏂᎢᏏᎺᎵ	-11.2882
▁ᎠᏍᏕᏱᏛ	-11.2882
▁ᎠᏬᎭᎵ	-11.2882
▁ᎢᏳᎾᏙᏓᏆᏍᏗ	-11.2882
▁ᎤᎾᏓᎪᎾᏙᏗ	-11.2882
▁ᎤᎾᏗᏍᎦᏢ	-11.2882
▁ᎤᏁᏍᏔᎶᏨ	-11.2882
▁ᎤᏓᏥᎾᏍᏛᎯ	-11.2882
▁ᎤᏩᎬᏘᎶᏓ	-11.2882
▁ᎥᏖᎣᎩ	-11.2882
▁ᎯᏥᏧᏣ	-11.2882
▁ᏁᏍᏗᏪᏎᎸᎭ	-11.2882
▁ᏂᏓᏁᏢᏛᎾ	-11.2882
▁ᏂᏗᎨᏥᎤᏍᏕᏎᎸᎾ	-11.2882
▁ᏂᏗᎨᏥᎾᏝᎥᎾ	-11.2882
▁ᏂᏚᎵᏏᏂᏒ	-11.2882
▁ᏂᏚᎾᏁᎶᏛᎾ	-11.2882
▁ᏂᏛᏓᎴᏂᏍᎬ	-11.2882
▁ᏂᏦᎯᏳᎲᏍᎬᎾ	-11.2882
▁ᏂᏦᎯᏳᏒᎾ	-11.2882
▁ᏂᏧᏪᏎ	-11.2882
▁ᏄᏃᎯᏳᏅᎾ	-11.2882
▁ᏄᏍᏆᏂᎩᏛ	-11.2882
▁ᏆᎻᏈᎵᏱ	-11.2882
▁ᏒᏗᏩᏟ	-11.2882
▁ᏓᎦᎫᏴᎯ	-11.2882
▁ᏓᎾᏦᎭᏱᎲ	-11.2882
▁ᏓᏂᎳᏍᏓᎳᏩᏗᏒᎢ	-11.2882
▁ᏓᏂᎵᎷᎬ	-11.2882
▁ᏓᏆᏓᏂᎸᎨᏍᏗ	-11.2882
▁ᏓᏊᎪᏔᏅ	-11.2882
▁ᏗᎾᎵᏦᎯᏛ	-11.2882
▁ᏙᏓᎧᏁᏤᎵ	-11.2882
▁ᏙᏗᎦᎶᎨᏒ	-11.2882
▁ᏙᏛᎾᏓᏡᏔᏂ	-11.2882
▁ᏣᎦᏨᏍᏙᏗᏱ	-11.2882
▁ᏥᏂᏥᏪᎠ	-11.2882
▁ᏥᏕᎭᏘᏁᎭ	-11.2882
▁ᏧᏄᏩᎢ	-11.2882
▁ᏧᏬᏘᏓ	-11.2882
▁ᏫᏄᎾᎵᏍᏓᏏ	-11.2882
▁ᏮᏘᎶᏏ	-11.2882
▁ᏮᏘᏯᏅᎯ	-11.2882
▁ᏯᏙᎴᎰᏍᎦ	-11.2882
▁ᏱᏓᎴᏂᏙᎭ	-11.2882
▁ᏱᏫᏣᏴᎸ	-11.2882
ᏓᎾᏕᏒᎲᏍᎪᎢ	-11.2882
ᏓᏫᏍᎦᎨ	-11.2882
▁ᎠᎧᎭᏲᏔᏅ	-11.2882
▁ᎡᎻᎳ	-11.2882
▁ᎦᎵᏒᏍᏗᏍᎬ	-11.2882
▁ᎾᏍᏆᎵᏍᎬᎾ	-11.2882
▁ᏌᏆᏯ	-11.2882
▁ᏗᎦᎨᏗᏳ	-11.2882
▁ᏗᎬᏩᎸᏌᏓ	-11.2882
▁ᏚᏅᏏᏴ	-11.2882
▁ᏥᏓᎩᎸᏫᏍᏓᏁᎭ	-11.2882
▁ᏧᏭᏓᎴᏍᏗᏱ	-11.2882
▁ᏯᏎᎦᎩ	-11.2882
▁ᏱᎦᏬᏂᎭ	-11.2882
▁ᏱᏣᏁᎢᏍᏔᏁᏍᏗ	-11.2882
▁ᎠᎨᏲᏅᎯ	-11.2882
▁ᎠᏥᏅᏩᏅᎯ	-11.2882
▁ᎢᏯᏆᏕᏘᏴᏓ	-11.2882
▁ᎤᎬᏍᏕᎵ	-11.2882
▁ᎬᏩᎦᏗᏯ	-11.2882
▁ᎹᎻᎵ	-11.2882
▁ᏄᏛᎿᏕᎬ	-11.2882
▁ᏕᎦᎧᎮᏍᏗ	-11.2882
▁ᏕᎷᎨ	-11.2882
▁ᏗᎦᎶᎩᏍᎩ	-11.2882
▁ᏗᏝᏗᏍᏗᏱ	-11.2882
▁ᏘᏰᎸᏂ	-11.2882
▁ᏙᎳᏧᎦᏣᏁᏆ	-11.2882
▁ᏯᏂᎷᎬᎾ	-11.2882
▁ᏯᏓᏅᏍᎬᎾ	-11.2882
▁ᏱᎡᏦᎢᏳ	-11.2882
▁ᎠᏁᏯᏔᎯ	-11.2882
ᎦᎭᎾᏅ	-11.2882
▁ᎾᏆᏛᏁᎵᏙᎸ	-11.2882
▁ᏁᏓᏈ	-11.2882
▁ᏗᎨᎦᏛᏅᎯ	-11.2882
▁ᏧᎾᏙᎴᏆᏍᏗ	-11.2882
▁ᏯᎵᏖᎸᎮᏍᎬᎾ	-11.2882
▁ᎬᏩᎾᏰᏍᎩ	-11.2882
▁ᏙᏓᏥᏲᎱᏏ	-11.2882
▁ᏚᏂᎧᎮᏍᏗ	-11.2882
▁ᎠᎾᏛᎩᏍᎪ	-11.2882
▁ᎢᏳᎾᏓᏡᎩ	-11.2882
▁ᎦᏄᎾᏓᎴᎩ	-11.2882
▁ᎴᎹᎩ	-11.2882
▁ᏄᎾᏓᏛᎩ	-11.2882
▁ᎦᏌᎴᏅ	-11.2882
▁ᏙᏛᎾᎴᏂ	-11.2882
▁ᏧᏓᎴᎿᎢ	-11.2882
ᏍᎩᏰᎵᏎᎮᏍᏗ	-11.2882
▁ᎢᎬᏂᎮᏍᏗ	-11.2882
▁ᎢᎸᏢ	-11.2882
▁ᏚᏪᏐᏤ	-11.2882
ᏲᏍᏙᏓᏏ	-11.2882
▁ᎠᏲᏓᏝᎲᎢ	-11.2882
▁ᎤᎧᎭᏲᏛ	-11.2882
▁ᎤᎾᏓᏛᏅᎯ	-11.2882
▁ᎬᏩᏴᎸᎯ	-11.2882
▁ᏗᎾᏓᏲᏁᎯ	-11.2882
▁ᏫᎬᏲᏪᎳᏏ	-11.2882
▁ᏬᎩᏅᏍᏔᏅᎩ	-11.2882
▁ᏕᎰᏢᏅᎭ	-11.2882
▁ᎠᏛᎯᏍᏗᏍᎩ	-11.2882
▁ᎢᎦᏗᏍᎦᎶᏗᏱ	-11.2882
▁ᎤᏗᏢᏍᏙᏗ	-11.2882
▁ᏛᏂᎾᏄᎪᏥ	-11.2882
▁ᏂᏨᏴᏁᎸ	-11.2882
▁ᏄᏩᏅᏓᎩᏎ	-11.2882
▁ᎠᏣᏉᎯ	-11.2882
▁ᎢᏳᎾᏛᎾᏕᎩ	-11.2882
▁ᏗᏲᏙᏗ	-11.2882
▁ᏍᎩᏯᏛᎦᏁᎸᎯ	-11.2882
▁ᏣᏔᎳᏬᏍᎬ	-11.2882
▁ᏧᎵᎦᎸᏓ	-11.2882
▁ᏨᏉᏍᏙᏗ	-11.2882
ᎯᏣᏛᎦᏍᏓ	-11.2882
ᏓᏒᏍᏓ	-11.2882
▁ᎣᎨᏙᎸ	-11.2882
▁ᏥᏕᏣᎸᏫᏍᏓᏁᎭ	-11.2883
▁ᎤᎦᎵᏍᏗᏳ	-11.2883
▁ᎢᏣᏛᏁᎸᎯ	-11.2883
▁ᎤᏑᎸᏓ	-11.2883
▁ᏓᏓᏂᏌᎲ	-11.2883
▁ᏓᏥᏯᏓᏙᎵᏍᏓᏁᎵ	-11.2883
▁ᏚᏟᏂᏆᏅᏁ	-11.2883
▁ᎩᏓᎴᎣᎹ	-11.2883
▁ᏙᎩᎾᏦᏒ	-11.2883
ᏧᎪᏓᏏ	-11.2883
▁ᎢᏣᏄᏬᏍᏕᏍᏗ	-11.2883
▁ᎤᏅᏂᏍᏗᏱ	-11.2883
▁ᎤᏕᏒᏂᎸᎯ	-11.2883
▁ᏂᎦᏗᎹᏏ	-11.2883
▁ᏗᎨᏥᏲᎯᏎᎸᎯ	-11.2883
▁ᏂᏕᏣᏛᏁᎮᏍᏗ	-11.2883
ᎩᏪᏎᎲᎩ	-11.2883
▁ᎤᏣᏪᏐᎸᏍᏕ	-11.2883
▁ᎠᏌᏅᏗ	-11.2883
▁ᎤᏩᏂᎦᏢ	-11.2883
ᏑᎵᎪᎬ	-11.2883
▁ᎤᏁᎢᎸᏗ	-11.2883
▁ᎬᏍᎦᎵ	-11.2883
▁ᎤᏩᏂᎸᎩ	-11.2883
▁ᏧᏬᏪᎳᏁ	-11.2883
▁ᎤᏎᎦᏨᎯ	-11.2883
▁ᏗᏂᎬᏓᎨᏂ	-11.2883
▁ᎠᏍᎦᏲᎯ	-11.2883
▁ᎤᎵᏌᎵᏓᏁ	-11.2883
▁ᏚᏲᎵᎸ	-11.2883
▁ᏛᎾᏛᎦᏂ	-11.2883
▁ᏓᏑᏫᏍᎬ	-11.2883
▁ᎢᎬᏩᏍᏗᎭ	-11.2883
▁ᏨᏓᏯᎢ	-11.2883
▁ᏱᏂᏓᎦᎵᏍᏔᏂ	-11.2883
ᎦᏟᏏᏍᎪ	-11.2883
▁ᎤᎾᏛᏓᏍᏛ	-11.2883
▁ᎤᏪᏯᎸᏅᎩ	-11.2883
▁ᎡᏗᎸᏉᏓ	-11.2883
▁ᎫᎾᏓᎴᎩ	-11.2883
▁ᏗᎦᏃᏙᏗᏱ	-11.2883
ran	-11.2883
▁ᎠᏍᎦᎢᎮᏰᏃ	-11.2883
▁ᏗᎾᏓᏙᎵᏍᏓᏁᎯ	-11.2883
▁ᏁᎨᏒᎾ	-11.2883
▁ᏗᏓᏂᏱᏍᎩ	-11.2883
▁ᎩᏅᎪᎢ	-11.2883
ᏕᏗᏴᏛ	-11.2883
▁ᏱᏗᏣᏰᎸᏁᎢ	-11.2883
▁ᏱᏨᏰᎵᏎᎭ	-11.2883
▁ᎠᏃᎵᎩ	-11.2883
▁ᎪᏢᏅᎥᏍᎩ	-11.2883
▁ᏕᏣᏓᎨᏳᏎᏍᏗ	-11.2883
▁ᎨᏥᎦᏘᏗᏍᏗ	-11.2883
▁ᎭᎦᏌᏯᏍᏓ	-11.2883
ᎦᏚᎩᏱ	-11.2883
▁ᏙᏗᎾᎵᏍᏓᏴᎲᏍᎬ	-11.2883
▁ᏥᏍᎦᏅᎩ	-11.2883
▁ᏚᏃᎩᏎ	-11.2883
▁ᎡᏣᎫᏴᏏ	-11.2883
▁ᏅᏛᏂᏪᏏ	-11.2883
▁ᎢᏳᎾᏓᏁᏟᏴᏛ	-11.2883
▁ᏁᏥᏪᏎᎸᎭ	-11.2883
▁ᎤᏕᎳᏓ	-11.2883
▁ᏫᏓᏯᏂᏍᎪ	-11.2883
▁ᏧᎾᏓᏂᎸᎢᏍᏗᏱ	-11.2883
▁ᏗᎫᏓᏙᏗ	-11.2883
▁ᏚᏂᏬᏁᏔᏁ	-11.2883
▁ᎬᏬᎳᏕᏍᎬ	-11.2883
▁ᎤᏓᏴᎳᏔᏅ	-11.2883
▁ᎾᎩᎲᎾ	-11.2883
▁ᎤᏔᏲᎴ	-11.2883
▁ᎡᏗᏂᏱ	-11.2883
▁ᎢᏥᎦᏛᏂᏙᎯᏉ	-11.2883
▁ᎢᏳᎾᎵᏍᏔᏅᎯ	-11.2883
▁ᏌᎶᎻ	-11.2883
▁ᏓᏤᎵᏍᏛ	-11.2883
ᏩᎾᎦᎶ	-11.2883
▁ᎤᎾᏓᏃᏴᎵᏍᏛ	-11.2884
▁ᎨᏍᏓᏗ	-11.2884
▁ᏓᏂᏂᏓᏛ	-11.2884
▁ᎦᏰᏥᏙᎵᏍᏗ	-11.2884
▁ᏧᏂᎸᏫᏍᏓᏁᎸᎯ	-11.2884
▁ᏗᏂᏁᎵᏛ	-11.2884
▁ᎤᎯᏐᏓᏁ	-11.2884
▁ᏕᏦᏕᏍᏗ	-11.2884
▁ᏍᎩᏯᏅᏓᏗᏍᎨᏍᏗ	-11.2884
▁ᏙᏓᏳᏲᏏ	-11.2884
▁ᎤᎾᏕᏘᏱᏍᎬ	-11.2884
▁ᎠᏙᏂᏍᎩ	-11.2884
▁ᎤᎩᏠᏫᏎ	-11.2884
▁ᎠᎩᎵᏬᎢᏍᏗ	-11.2884
▁ᎩᏂᏙᏓ	-11.2884
▁ᏂᎦᎵᏍᏗ	-11.2884
▁ᏗᎧᏃᎩᏛ	-11.2884
▁ᎤᎪᏗᏗ	-11.2884
▁ᎤᏓᏅᎦᎸᏓ	-11.2884
▁ᎥᏇᎵᏎᎸ	-11.2884
▁ᎠᎦᎵᏍᎪᎸᏓᏁᎸᎩ	-11.2884
▁ᏭᏓᏓᎩᏅᏎ	-11.2884
▁ᏧᎾᏓᏅᏬᏗᏱ	-11.2884
▁ᎢᏥᎧᎵᏣ	-11.2884
▁ᏗᏗᏰᎸ	-11.2884
▁ᎱᏂᎷᏣ	-11.2884
▁ᏂᏕᎦᎵᏍᏗᏍᎨ	-11.2884
▁ᏕᏣᎧᎿᏩᏗᏙᎮᏍᏗ	-11.2884
▁ᏱᏚᏲᏎ	-11.2884
▁ᏳᏲᎱᏎᎸ	-11.2884
ᏏᏀᎥ	-11.2884
▁ᏴᎨᏥᎪᏩᏛ	-11.2884
▁ᎤᎸᏫᏒ	-11.2884
▁ᏂᏪᏎᎸᎭ	-11.2884
▁ᏚᏭᏓᏔᏅᎩ	-11.2884
▁ᎠᎦᎫᏴᎡᏗ	-11.2884
▁ᏗᎬᏩᏁᎶᏗ	-11.2884
▁ᏭᏂᏩᏛᎮ	-11.2884
▁ᏂᏚᏩᏂᎦᎸ	-11.2884
▁ᏄᏂᎪᎸᎾ	-11.2884
▁ᏕᎬᏩᏠᏎᎢ	-11.2884
▁ᏕᎤᎴᎯᏌᏅ	-11.2884
▁ᎠᏆᎵᏥᏙᏗᏱ	-11.2884
▁ᏅᏓᏳᎵᏍᎪᎸᏔᏅᎯ	-11.2885
▁ᏫᏲᏪᎳᏏ	-11.2885
▁ᏚᏁᏅᏒ	-11.2885
▁ᎤᎾᎵᏍᏓᏴᏁᏃ	-11.2885
▁ᎢᏣᏕᏗᏱ	-11.2885
▁ᏧᏬᏪᎶᏗ	-11.2885
▁ᏥᏄᏩᏁᎸ	-11.2885
▁ᏧᏚᎪᏔᏅᎯ	-11.2885
▁ᏫᎦᎢᏒ	-11.2885
▁ᏓᎬᏅᏏ	-11.2885
▁ᎠᏟᏍᏕ	-11.2885
▁ᏗᏂᎦᏘᎴᎩ	-11.2885
▁ᏧᎵᎩᏏ	-11.2885
▁ᎪᏍᏔᏱ	-11.2885
▁ᎣᏣᎵᎡᎵᏤ	-11.2885
▁ᎪᏍᏔᏴ	-11.2885
▁ᏧᏁᏅᏒ	-11.2885
▁ᎤᎾᏨᏓᎵ	-11.2885
▁ᏥᏯᎵᎡᎵᏤᎭ	-11.2885
▁ᏗᏍᎩᏲᎯᏏ	-11.2885
▁ᎦᏅᏍᎨᏂ	-11.2885
▁ᎤᏁᎵᏨ	-11.2885
▁ᎱᎷᏤ	-11.2885
▁ᏓᏍᏆᏚᎸ	-11.2885
▁ᏍᎩᏰᎸᏗ	-11.2885
▁ᏧᎾᏨᏍᏗᏱ	-11.2885
ᎻᏂ	-11.2885
▁ᎠᏂᎵᎾ	-11.2885
▁ᎤᏗᏩᏒᎯ	-11.2886
▁ᎤᎵᏨᏓᏆᏛ	-11.2886
▁ᎠᏓᎦᎵᏍᏓᏗᏍᎩ	-11.2886
▁ᏂᏚᏩᏅ	-11.2886
▁ᎣᎦᎵᎪᏅ	-11.2886
ᏦᏎᎭ	-11.2886
▁ᎠᎾᏡᏗᏍᎬ	-11.2886
▁ᏚᎵᎬᏩᏢ	-11.2886
▁ᏚᏙᏓᏈᏒ	-11.2886
ᏃᎵᏤ	-11.2886
▁ᏛᏂᎪᎯ	-11.2886
ᏲᎩᏂ	-11.2886
▁ᎠᏓᏴᏍᏔᎩᏍᎩ	-11.2886
▁ᎤᏁᏐᎠᏒᎩ	-11.2886
▁ᎠᏂᏐᏢᎢᏍᏗᏍᎩ	-11.2886
▁ᏂᏚᏂᏪᏎᎸᎩ	-11.2886
▁ᏱᏄᏩᏁᎰ	-11.2886
▁ᏭᏕᏁᎢ	-11.2886
▁ᎾᏅᏁᎰ	-11.2886
▁ᏦᏚᎯ	-11.2886
ᎶᏁᏔᏁ	-11.2886
▁ᏍᏊᏓᎳᎩ	-11.2886
▁ᏚᎾᎭᏄᏮ	-11.2886
ᏁᎢᏍᏓᏁᎸᎯ	-11.2886
▁ᏧᎾᏓᎴᏅᏓ	-11.2886
▁ᎠᏥᏂᏌᏁ	-11.2886
▁ᏓᏂᏰᏌᏛ	-11.2886
▁ᏅᏓᏳᎶᎯᏍᏗᏱ	-11.2886
▁ᏱᏚᏳᎪᏗ	-11.2886
ᎬᏲᎵᎭ	-11.2886
▁ᎱᎷᏨ	-11.2886
▁ᏧᎾᏕᎶᏆᏍᏗ	-11.2886
▁ᎠᎩᏲᎱᎯᏍᏗᏱ	-11.2887
▁ᎢᏨᏂᏗᏳ	-11.2887
▁ᏂᎦᏖᏍᏗ	-11.2887
▁ᎢᏗᎬᏁᎸᎯ	-11.2887
▁ᎬᎩᏁᏤᎸᎯ	-11.2887
ᎩᏍᏓᏩᏕᎬᎾ	-11.2887
▁ᏂᏨᏁᎮᏍᏗ	-11.2887
▁ᏣᏍᎦᎸᎩ	-11.2887
▁ᎢᏣᎵᏍᏓᏴᏗᏍᎨᏍᏗ	-11.2887
▁ᏗᏘᏲ	-11.2887
▁ᎢᏖᎳ	-11.2887
▁ᎤᏩᎾᏕᏍᎩ	-11.2887
▁ᎤᎵᏏᏅᏗ	-11.2887
▁ᏚᎵᏃᎮᏔᏁᎢ	-11.2887
▁ᏘᎹᏂ	-11.2887
▁ᎢᏯᏋᏁᏗᏱ	-11.2887
▁ᏅᏯᏗᎦᎪᏗᏱ	-11.2887
ᏂᏅᎪᎠ	-11.2887
▁ᏚᎾᎴᏅ	-11.2887
▁ᎡᏣᏙᎵᎩ	-11.2887
▁ᏗᏅᏂᏗᏳ	-11.2887
ᏓᏅᏔ	-11.2887
▁ᏗᏓᏙᏕᏍᏗᏍᎩ	-11.2887
▁ᏧᏍᏆᎳ	-11.2887
▁ᏧᏓᏅᏓᏗᏍᏙᏗᏱ	-11.2887
▁ᎬᏩᏂᏍᏓᏩᏗᏙᎯ	-11.2887
▁ᏗᏜᏍᏔᏅᎯ	-11.2888
▁ᏧᏪᎷᏁ	-11.2888
▁ᎢᏥᎧᎵᏨᎯ	-11.2888
ᏠᏯᏍᏗᏍᎨᏍᏗ	-11.2888
▁ᏧᏅᎨᏫ	-11.2888
▁ᎢᏣᏓᏟᏌ	-11.2888
▁ᏱᏂᏣᏛᏁᎸ	-11.2888
▁ᎧᏃᎨᏂ	-11.2888
▁ᎣᎩᎵᏦᏩᏛ	-11.2888
▁ᎾᏥᎸᏉᏛᎾ	-11.2888
▁ᏗᏂᏙᎬ	-11.2888
▁ᎢᏣᏟᏂᎬᏁᎮᏍᏗ	-11.2888
▁ᏗᏥᏲᎯᏍᏗᏱ	-11.2888
▁ᏗᎩᏂᏴᏗᏱ	-11.2888
▁ᎩᎵᏯᏗ	-11.2888
▁ᏧᏏᎳᏛᏙᏗ	-11.2888
▁ᎤᎾᎵᏓᎩᏛ	-11.2888
▁ᎨᏥᏰᎸᎯ	-11.2888
ᏍᎦᏍᏓᏁᏗᏱ	-11.2888
▁ᎻᏗᏂᏱ	-11.2888
ᏩᎾᏓᎴ	-11.2888
▁ᏱᏥᏰᎸᎾ	-11.2888
▁ᏕᎦᎶᏛ	-11.2888
▁ᎢᎾᎩᏃ	-11.2888
▁ᏗᎦᎵᏦᏛᎢ	-11.2889
▁ᎤᏓᎷᎸ	-11.2889
▁ᏗᎩᏣᏗ	-11.2889
▁ᏁᏓᏂᎵ	-11.2889
▁ᎭᏠᎠᎯ	-11.2889
▁ᎡᎶᏂᎵ	-11.2889
▁ᏃᎦᏛᏅ	-11.2889
▁ᎬᏛᎪᏗ	-11.2889
▁ᎤᏪᏰᏂ	-11.2889
▁ᎤᏅᏟᏃ	-11.2889
▁ᏗᏣᎵᏂᎩᏗᏳ	-11.2889
▁ᎢᏓᎻ	-11.289
▁ᎬᏯᎵᎡᎵᏤᎭ	-11.289
▁ᏂᏚᎵᏍᏔᏁ	-11.289
▁ᏧᏂᎷᏫᏍᏔᏁᏗ	-11.289
▁ᎨᏥᎩᎵᏲᎢᏍᏙᏗᏱ	-11.289
▁ᏓᎦᎾᏄᎪᏫᏏ	-11.289
▁ᏙᏓᎬᏁᎵ	-11.289
▁ᎭᏙᎴᎰᎯ	-11.289
▁ᎦᎶᎪᏗ	-11.289
▁ᎡᏣᏑᏰᏛ	-11.289
▁ᎠᏍᏓᏱᏗᏍᎩ	-11.289
▁ᎣᏥᎨᏳᎢ	-11.289
▁ᏚᏂᏚᎲ	-11.2891
▁ᎠᏗᏔᏍᎨᏍᏗ	-11.2891
ᏄᏬᎡᎢ	-11.2891
▁ᏧᎾᏤᎵᎪᎯ	-11.2891
▁ᏱᏓᏲᎩ	-11.2891
▁ᎦᏳᎸ	-11.2891
▁ᏭᏓᏐᎴᎢ	-11.2891
▁ᏂᏕᎲᏁ	-11.2891
▁ᏅᏧᏪᏎᎢ	-11.2891
▁ᏓᎬᎷᏤᎵ	-11.2891
▁ᎠᎾᏟᏃᎮᏍᎬ	-11.2891
▁ᏳᏪᎾ	-11.2891
▁ᎤᏓᏅᏓᏕᎢ	-11.2891
▁ᏧᏙᏍᏙᏗ	-11.2891
▁ᎤᏓᏱᎴᎢ	-11.2891
▁ᏍᎩᏲᏍᏓ	-11.2891
▁ᏓᎩᏲᎯᏎᎸ	-11.2891
▁ᎤᏂᏔᎳᏬᏍᎬᎢ	-11.2892
▁ᏥᏐᎯ	-11.2892
▁ᎠᏂᏏᎾᏌᏅ	-11.2892
▁ᏍᎩᎨᏳᎯᏳ	-11.2892
▁ᏗᎩᏙᏓ	-11.2892
▁ᎦᏣᏃᏍᏔ	-11.2892
▁ᏒᎦᎾᏲᎪ	-11.2892
▁ᎥᎦᏥᎪᎥᎩ	-11.2892
ᏟᏂᎬᎬ	-11.2892
▁ᎦᎬᏩᏐᏢᏕᎢ	-11.2892
▁ᎢᏳᏂᏪᏍᏗᏱ	-11.2892
▁ᏧᏄᎪᏙᏗᏱ	-11.2892
▁ᏧᏅᎪᏤ	-11.2892
▁ᏗᎪᏍᏔᏱ	-11.2892
▁ᎤᏓᏍᏛᏗᏍᏗ	-11.2892
▁ᏓᏍᎩᏁᎵ	-11.2893
▁ᏁᏪᏎᎴᎢ	-11.2893
▁ᏃᎦᏍᏛ	-11.2893
▁ᏥᏂᏣᏛᏁᎸ	-11.2893
▁ᏫᎤᎶᏎᎢ	-11.2893
▁ᎢᏥᎷᏨᎭ	-11.2893
▁ᎢᏣᏛᎪᏗᏱ	-11.2893
▁ᎢᏥᎩᎵᏲᎬᎢ	-11.2893
▁ᎢᏣᏙᎴᎰᎯ	-11.2893
▁ᏕᎦᏃᏣᎸ	-11.2893
▁ᏥᏥᏯᎠ	-11.2893
▁ᏳᏃᎵᏤ	-11.2893
▁ᏈᏂᏏ	-11.2894
▁ᎤᎩᎸᎩ	-11.2894
▁ᎪᏢᏛᎩ	-11.2894
▁ᎬᎾᏬᏔᏅᎯ	-11.2894
▁ᏧᏄᎪᏔᏅ	-11.2894
▁ᏱᏥᏯᎠ	-11.2894
▁ᏔᏔ	-11.2894
▁ᎠᏥᏂᏌᏅ	-11.2894
▁ᎢᏦᎵᎩ	-11.2894
ᏏᏐᏗ	-11.2894
▁ᏂᎬᏩᏂᏪᏎ	-11.2894
▁ᎢᏯᏅᏓ	-11.2894
▁ᎪᏍᏓᏯ	-11.2894
ᎤᏂᎷᏨ	-11.2894
▁ᎬᏩᏂᏴᏗᏱ	-11.2894
▁ᏄᏪᎡᎢ	-11.2895
ᏁᏤᎭ	-11.2895
▁ᏧᎾᏂᏏᏗᏱ	-11.2895
▁ᎤᎿᎸᎯ	-11.2895
▁ᏅᏋᏁᎸ	-11.2895
▁ᏍᎩᎾᏄᎪᏫᏏ	-11.2895
▁ᎯᏌᏙᏯ	-11.2895
▁ᎡᎵᏊ	-11.2895
▁ᎦᎾᏄᎪᏥᎸᎭ	-11.2895
▁ᎠᎩᎩᎬ	-11.2895
▁ᎠᏥᏐᏅᏅ	-11.2895
ᎵᏂᎪᎯᏍᏗᏍᎩ	-11.2895
▁ᏤᏏᏂ	-11.2895
▁ᎠᎾᏟᎲ	-11.2895
ᏍᏓᏱᏗᏍᏗᏱ	-11.2895
▁ᏌᎻ	-11.2896
ᏛᏛᎲᏍᎨᏍᏗ	-11.2896
▁ᎬᏩᏂᏴᎲᎩ	-11.2896
▁ᎤᎾᏛᏅᎢᏍᏔᏁ	-11.2896
▁ᏗᏂᎾᏕᎩ	-11.2896
▁ᏅᏩᏍᏗᏉ	-11.2896
▁ᏧᏂᏲᏏᏍᎩ	-11.2896
▁ᏕᎤᎴᏅ	-11.2896
▁ᎠᏂᎨᏳᏣ	-11.2896
▁ᎤᏂᏁᎢᏍᏗᏱ	-11.2896
ᎵᏍᎪᎸᏓᏁᎰ	-11.2896
▁ᏭᏓᏅᏖᎴ	-11.2897
▁ᎤᎾᏓᏅᏍᏗᏱ	-11.2897
▁ᏚᎧᎾᏅ	-11.2897
▁ᎤᎾᎵᏍᏓᏴᏁᎢ	-11.2897
▁ᎠᎾᏁᎷᎩ	-11.2897
ᎨᎮᎩ	-11.2897
▁ᎠᏓᏛᏗᏍᎩ	-11.2898
▁ᎠᎦᏍᎦᏂᏗᏢ	-11.2898
▁ᏧᏂᏍᏓᎢ	-11.2898
▁ᎠᏆᏕᏗᏱ	-11.2898
▁ᎾᎦᎸᎳᏗᏴ	-11.2898
▁ᎤᏁᏍᏔᎳ	-11.2898
▁ᏩᎾᎨ	-11.2898
▁ᎠᎦᏔᏛᏍᎩ	-11.2898
▁ᏯᎦᏔᎰ	-11.2898
▁ᎠᎦᏙᎥᎯᏍᏙᏗ	-11.2898
▁ᎠᎾᎦᎵᏍᎩ	-11.2898
ᎵᏥᏙᎲᏍᎩ	-11.2898
▁ᏭᏘᏅᏍᏔᏁᎢ	-11.2898
▁ᎠᏥᎶᎥ	-11.2898
▁ᎣᎩᏅᏏᏓᏍᏗ	-11.2898
▁ᏣᎩᏯᎠ	-11.2898
▁ᎠᏂᎬᎾᎨ	-11.2899
▁ᎣᏥᏃᎮᏍᎩ	-11.2899
▁ᎮᏙᎭ	-11.2899
▁ᏓᏥᎷᏥ	-11.2899
▁ᏓᎶᎨ	-11.2899
▁ᎤᏓᏁᏟᏴᏍᏓᏁᎴ	-11.2899
▁ᎬᏩᏂᎩᏍᏗ	-11.2899
ᏒᎦᎶᏗ	-11.2899
▁ᎢᏨᏰᎳᏗᏙᎲ	-11.2899
▁ᏓᏕᏏ	-11.2899
▁ᏕᏥᎳᏫᎩ	-11.29
▁ᎠᏖᎵᏙᎩᎯ	-11.29
ᏍᏆᎸᎲ	-11.29
▁ᎢᎬᏴ	-11.29
▁ᎢᏣᎵᏍᏓᏴᏗ	-11.29
▁ᏧᏂᏄᎪᏫᏍᏗᏱ	-11.29
▁ᎠᏆᎴᏅ	-11.29
▁ᎢᏥᏴᎭ	-11.29
▁ᏗᏥᏅᏏᏓᏍᏗ	-11.2901
▁ᏗᏣᎵᎢ	-11.2901
▁ᎾᏂᎠ	-11.2901
▁ᏚᎩᏒᎩ	-11.2902
ᏅᎡᎵ	-11.2902
▁ᏫᏥᎶᎯ	-11.2902
▁ᎤᏟᏂᎩᏛ	-11.2902
▁ᎤᏆᏖᏍᏗ	-11.2902
▁ᎠᏂᏍᏆᏂᎪᏍᎨ	-11.2902
▁ᎢᏥᏴᏍᏗᏱ	-11.2902
▁ᎠᏆᏡᏗᏍᎩ	-11.2902
▁ᎮᎮᏍᏗ	-11.2902
ᏓᏬᏍᎬ	-11.2902
▁ᎤᏅᏪᎥ	-11.2902
▁ᏚᏓᏴᎳᏛ	-11.2902
▁ᎤᏍᏔᏩᏛᏎ	-11.2902
▁ᎤᏅᎪᎢᏍᏗ	-11.2902
▁ᎤᎾᏓᏅᏓᏕᎢ	-11.2903
▁ᎤᏁᏉᎢᏍᏗᏱ	-11.2903
▁ᎤᏪᏟᏌᏁ	-11.2903
▁ᏣᎾᏗᎭ	-11.2903
▁ᎠᎩᏍᎦᏅᏨᎢ	-11.2903
▁ᎤᏪᏙᎵᏤᎢ	-11.2903
▁ᎠᏂᎷᏨᎭ	-11.2903
▁ᎢᏥᎦᏔᎰ	-11.2903
▁ᎩᎳᏊ	-11.2903
▁ᏗᎦᎫᏍ	-11.2903
ᏕᏘᏱ	-11.2903
▁ᎤᏤᏘ	-11.2903
▁ᎯᎨᏳᏎᏍᏗ	-11.2903
▁ᎤᏄᎩᏣᏁ	-11.2903
▁ᎠᎩᎸᏙᏗ	-11.2904
▁ᎾᏆᎵᏍᏓᏁᎸᎩ	-11.2904
▁ᏂᏓᎾᏓ	-11.2904
▁ᏯᎩᏰᎸᎭ	-11.2905
▁ᏗᎦᏃᎸᏗᏍᎬ	-11.2905
▁ᏯᏆᏛᏁᎸ	-11.2905
▁ᏣᏠᎾᏍᏗ	-11.2905
▁ᏳᎷᏨ	-11.2905
▁ᎠᏓᏬᎯᎳ	-11.2905
▁ᏥᎧᏍᎨᏂ	-11.2905
▁ᏳᎨᏳᎭ	-11.2905
▁ᏗᎵᏍᏚᎶ	-11.2905
ᎬᎭᎷᏰᎢ	-11.2906
▁ᏗᏒᏆᎶᏍᏗ	-11.2906
▁ᏓᏓᏁᎳᏗᏒᎢ	-11.2906
▁ᏚᏠᏒᏎᎢ	-11.2906
▁ᎤᏅᏓᏗᏗᏒᎢ	-11.2906
▁ᏗᏆᏓᎴᏅᎢ	-11.2906
▁ᎠᎾᏓᏩᏛᎯᏙᎢ	-11.2906
▁ᏚᏚᎪᏔᏅᎢ	-11.2906
▁ᎦᎷᏨ	-11.2906
▁ᏗᎧᎿ	-11.2906
▁ᎤᏍᏓᏱᏕᎸᎩ	-11.2906
▁ᎤᏛᎦᏍᏔᏁᎢ	-11.2906
ᎧᎲᏍᏗᏱ	-11.2906
▁ᎤᎵᏍᏛᏧᏁᎢ	-11.2906
▁ᏕᏣᏓᏘᎾᎥᎢ	-11.2906
▁ᎤᎬᎭᎷᏴ	-11.2906
▁ᎠᏲᏟᎨ	-11.2906
ᏔᎴᏐ	-11.2906
▁ᎠᏛᏅᎢᏍᏙᏗᏱ	-11.2907
▁ᏧᎾᎵᏍᏓᏴᏗᏱ	-11.2907
▁ᎤᏂᏰᏨ	-11.2907
▁ᎢᏥᏯᎥᎢ	-11.2907
▁ᏧᎾᏄᎪᏫᏎᎴᎢ	-11.2907
ᏛᏂᏗᏍᏕᏍᏗ	-11.2907
▁ᎣᎦᏛᎦᏅᎯ	-11.2907
▁ᎧᏁᎨᎢ	-11.2907
▁ᎣᎦᏣᏅᎩ	-11.2907
▁ᎠᏲᎱᏍᎨᏍᏗ	-11.2908
▁ᎧᏁᎩ	-11.2908
ᏍᏆᏂᎪᏓᏁᏗ	-11.2908
ᏰᎸᎰ	-11.2908
▁ᎢᎬᏩᏛᏛᏁ	-11.2908
ᏒᏁᎰ	-11.2908
▁ᏧᎶᏎ	-11.2908
▁ᏧᏂᏰᎸᎭ	-11.2908
▁ᏄᏁᎩᏴ	-11.2909
▁ᏭᏲᎢᏴ	-11.291
ᎩᎸᏂ	-11.291
▁ᏑᏓᎵᎦᎵ	-11.291
▁ᎤᎾᏍᎪᏎ	-11.291
▁ᎠᎾᏓᏙᎵᏍᏗᏍᎨᏍᏗ	-11.291
▁ᎤᏁᎳᏗᏍᏗᏱ	-11.2911
▁ᎤᎾᏗᏔᏍᏗᏱ	-11.2911
▁ᏱᏂᏨᏁ	-11.2911
▁ᎤᏂᏍᏆᏂᎪᏔᏅ	-11.2911
▁ᏥᏃᎪᎢ	-11.2912
▁ᏚᎾᏄᎪᏫᏎᎢ	-11.2912
▁ᎪᎹᎵᏱ	-11.2912
▁ᎠᎩᏁᏤᎸᎩ	-11.2912
ᎴᎲᏍᎦ	-11.2912
▁ᏱᎾᎩ	-11.2912
ᎩᎦᏘᏛ	-11.2912
▁ᎢᏓᎵᎮᎵᎩ	-11.2912
ᏓᏁᎸᎯ	-11.2913
▁ᏭᏴᏍᏗᏱ	-11.2913
▁ᏥᎪᎥ	-11.2913
▁ᏫᏓᏆᎧᎾᏅᎩ	-11.2913
▁ᏥᎪᎵᏰᏍᎬ	-11.2914
ᎾᏓᏅᎡᏗᏱ	-11.2914
▁ᎣᏤᎲᎢ	-11.2914
▁ᏥᏥᎪᏩᏘᎭ	-11.2914
ᏙᎵᏍᏙ	-11.2915
▁ᏣᎦᏙᎥᎯᏍᏗᏱ	-11.2915
▁ᎤᏁᏙᎴᎢ	-11.2916
▁ᏗᎦᏁᎸᎢ	-11.2916
▁ᎠᎩᏰᎯ	-11.2916
ᏍᏔᏁᎰ	-11.2916
ᏃᎯᏴᎯ	-11.2917
▁ᏧᏓᎴᏅᎢ	-11.2918
▁ᏓᏗᎶᏂᏃ	-11.2918
▁ᎤᏂᏄᎪᏤᏃ	-11.2918
▁ᎨᏥᏅ	-11.2918
▁ᎢᏥᏰᎸᎭ	-11.2918
▁ᎦᎸᏌᏛ	-11.2918
▁ᎠᏂᎦᏔᎮᏍᏗ	-11.2918
▁ᎠᏍᏆᏂᎪᎯᏍᏗ	-11.2919
▁ᎠᏄᎯᏍᏗᏍᎬ	-11.2919
▁ᎠᎩᏅᏏᏓᏍᏗ	-11.292
▁ᎮᏙᎲᎢ	-11.292
▁ᏓᏕᏲᎲᏍᎬᎩ	-11.292
▁ᎤᏃᎮᎸᎯ	-11.292
▁ᎤᏂᏴᎲᎩ	-11.292
▁ᏇᎯ	-11.2921
▁ᎠᏂᎦᏘᏯ	-11.2921
▁ᎾᏆᏛᏅᎢ	-11.2921
▁ᎤᏔᎳᏬᏍᎬᎢ	-11.2921
▁ᏚᏪᏲᏁᎢ	-11.2922
▁ᏓᏰᏙᎳᏛᎢ	-11.2922
▁ᏚᏅᏩᏅᎩ	-11.2922
ᏑᎸ	-11.2922
ᏓᏌᎳᏗᏍᎨᏍᏗ	-11.2923
ᏗᎦᎴᏲᏤ	-11.2923
▁ᏚᏄᎪᏫᏒ	-11.2923
▁ᏗᏐᏂ	-11.2923
▁ᎠᏂᎦᏔᎯᏳ	-11.2923
▁ᎨᏥᏍᏕᎸᏗᏱ	-11.2924
ᏌᎳᏙᏗᏱ	-11.2924
▁ᎤᎾᏓᏑᏴᎩ	-11.2924
▁ᎤᎵᏌᎳᏓᏁ	-11.2924
▁ᎣᎦᏤᎵᎦ	-11.2924
▁ᎤᏍᎦᏃᎵᏳ	-11.2924
▁ᏯᎦᏓ	-11.2925
▁ᎠᏍᏓᏱᏛᎯ	-11.2925
▁ᎤᏢᎨ	-11.2925
▁ᏕᏓᏓᎪᎲᏳ	-11.2926
▁ᎤᏓᏏᏁᎢ	-11.2926
▁ᏦᎨᏅᏒ	-11.2926
▁ᎩᎦᎨᏍᏛᏱ	-11.2926
▁ᎤᎾᏛᏅᎢᏍᏗ	-11.2926
▁ᎠᎩᏠᏫᏍᏗ	-11.2926
▁ᎠᏨᏏᏰᏗ	-11.2926
▁ᎠᏒᏆᎶᏍᏗ	-11.2926
▁ᎩᏥ	-11.2926
▁ᎠᏓᏅᏙᎩᎯ	-11.2927
▁ᎤᏂᏲᎸᎩ	-11.2927
ᏟᏏᏍᎪᎢ	-11.2927
ᎢᏗᏢ	-11.2927
▁ᎾᎾᏛᏁᎮᏍᏗ	-11.2928
▁ᎠᏁᎷᎲᏍᎨ	-11.2928
▁ᎡᏥᎦᏔᎭ	-11.2928
ᏆᏚᎵᏍᎬᎾ	-11.2929
▁ᎢᏥᏰᎸᎯ	-11.2929
▁ᎤᎩᎵᏲᎢᏍᏗᏱ	-11.2929
▁ᎤᏓᏙᎵᏍᏔᏅᎩ	-11.2929
▁ᏣᎵᏍᏓᏴᏗ	-11.2929
▁ᎤᎾᏄᎪᎢᏍᏗᏱ	-11.293
▁ᎠᏥᏃᎮᏍᎬ	-11.293
ᎵᏏᎲᏍ	-11.293
▁ᎤᏔᏲᎸ	-11.2931
▁ᏚᏭᎪᏔᏁᎢ	-11.2931
▁ᎠᏔᏲᎯᎮᏍᏗ	-11.2931
ᎬᏯᏘᏃᎮ	-11.2931
ᏣᎴᏛ	-11.2932
▁ᎪᏢᏙᏗ	-11.2932
▁ᎤᎾᏠᎾᏍᏛ	-11.2933
▁ᎤᎾᏓᏅᏖᎸᎩ	-11.2933
▁ᎠᎩᎾᏫᏱ	-11.2933
▁ᎠᏗᏅᏓ	-11.2934
▁ᎲᏂ	-11.2935
▁ᎢᏥᏍᏆᏂᎪᏙᏗᏱ	-11.2935
▁ᎠᏕᎸᏓᎶᏂᎨ	-11.2935
▁ᎠᏥᏁᎸᎩ	-11.2936
▁ᏤᏙᎭ	-11.2936
▁ᎤᏍᏓᏩᏛᏎᎢ	-11.2936
▁ᎤᏄᎸᏁ	-11.2936
▁ᎤᏂᏰᎸᏗ	-11.2937
▁ᏣᏁᏨᎢ	-11.2937
▁ᎤᏢᎦ	-11.2937
▁ᎤᏘᏯᏍᏓᏁᏗ	-11.2937
▁ᎤᏇᏓᏢ	-11.2937
▁ᎤᏬᎯᏨᏃ	-11.2938
▁ᏚᏂᏲᏎ	-11.2938
▁ᎤᏂᏁᏨᎯ	-11.2938
▁ᎤᏁᎫ	-11.2939
▁ᎤᎵᏖᎸᏁᎢ	-11.2939
▁ᎡᏓᏍᏗᏱ	-11.294
▁ᏓᏥᏍᏛ	-11.2941
▁ᎦᎾᏰ	-11.2941
▁ᎢᏥᏔᏲᎯ	-11.2941
▁ᎤᏙᏯᏅᎯᏛ	-11.2942
▁ᏥᏚᏁᏤᎴ	-11.2942
▁ᎪᎵᎩ	-11.2942
▁ᏚᏲᎯᏎᎸᎩ	-11.2942
▁ᎧᏃᎮᎭ	-11.2942
▁ᎤᏬᏂᏒᎩ	-11.2943
ᎵᏃ	-11.2944
▁ᎤᎩᎵᏲᎢᏍᏗ	-11.2944
▁ᎤᏂᏩᏛᏗᏱ	-11.2945
▁ᎤᏂᏍᏆᏂᎪᏙᏗᏱ	-11.2946
▁ᏚᎾᏔᏅᎩ	-11.2946
▁ᎠᏎᎵᏔᏅᎯ	-11.2947
▁ᎤᏯᏅᎮᎢ	-11.2947
▁ᏓᏍᏆᏂᎪᏗ	-11.2947
▁ᎠᏤᎷᎯᏍᏗ	-11.2947
▁ᎠᏣᏅᎩ	-11.2948
▁ᏂᏍᏆᏛᏁ	-11.2948
ᏓᏘᏂᏙᎯ	-11.2949
▁ᏧᏏᎳᏛᏗ	-11.2949
▁ᎠᏆᏛᎦᏅᎯ	-11.2949
ᏕᏣ	-11.295
ᎨᏎᏍᏗ	-11.295
▁ᏂᏓᏕᏘᏴᎯᏒᎢ	-11.2952
ᎵᏍᏚᎸ	-11.2952
▁ᏧᎦᏴᎵᎨᎢ	-11.2952
▁ᎦᏯᎸᎢ	-11.2953
▁ᏧᏂᎯᏍᏗᏱ	-11.2953
▁ᎤᏁᏙᎸᎢ	-11.2953
▁ᎡᏥᏁᏗᏱ	-11.2954
▁ᏕᎦᎸᎢ	-11.2954
▁ᎤᏛᏛᏅᎩ	-11.2954
▁ᎾᏆᏛᏁᎸᎩ	-11.2954
▁ᏣᏚᎵᎭ	-11.2955
▁ᏚᏛᏛᏁᏃ	-11.2955
▁ᏚᏂᏲᎱᏒᎩ	-11.2956
▁ᎠᏫᎾᎨᏍᏗ	-11.2956
▁ᏥᏤᎾ	-11.2956
▁ᎾᎾᏛᏁᎲᎾ	-11.2957
▁ᎣᏥᏁᎸ	-11.2957
▁ᎤᏍᏓᏩᏛᏎ	-11.2958
▁ᎤᎩᏢ	-11.2959
▁ᏣᏰᎸᏅ	-11.2959
▁ᎤᏢᎬᎩ	-11.2961
▁ᎤᏯᏪᏐᎴ	-11.2961
▁ᎤᎾᏚᎵᏍᎬᎩ	-11.2961
ᏄᏪᏎ	-11.2961
▁ᎤᏪᏓᏍᏗᏱ	-11.2961
ᏨᏒᎩ	-11.2962
▁ᎢᏨᏁᏗᏱ	-11.2962
▁ᎤᎾᏗᏔᏍᏗ	-11.2963
▁ᏗᎹ	-11.2965
▁ᎤᏪᎷᏅ	-11.2966
▁ᏙᏌ	-11.2967
ᎦᏴᎵ	-11.2967
▁ᎠᏂᎦᏴᎵᎨᎢ	-11.2967
▁ᏕᎦᏍᎩᎸᎢ	-11.2967
▁ᏙᎤᏍᏗ	-11.2968
▁ᏂᎨᏨᏁ	-11.2969
▁ᎤᎾᏅᏅ	-11.2969
▁ᏗᎾᏙᏂᏍᎩᏃ	-11.2969
▁ᏱᎾᏛᎦ	-11.2969
▁ᎠᏍᏆᏂᎪᏛ	-11.297
▁ᎤᏍᏚᎢᏒᎩ	-11.297
▁ᎤᏂᎷᏨᎯ	-11.297
▁ᏴᎦᎬ	-11.2971
ᎧᏁᏗ	-11.2972
ᏁᎸᏗᏍᎬ	-11.2973
▁ᏕᎩᎸᏫᏍᏓᏁᎲ	-11.2973
▁ᏗᎵᏍᎪᎸᏔᏅᎯ	-11.2973
▁ᎬᏂᏳᏰᏃ	-11.2973
▁ᎢᏣᎵᎮᎵᎬᎢ	-11.2974
▁ᎣᎦᏓᏅᏔᏩᏕ	-11.2974
▁ᏧᎶᏎᎢ	-11.2974
▁ᎤᏂᏅᏅᎢ	-11.2975
▁ᎯᏰ	-11.2975
▁ᎤᏔᎷᎩᏍᎬ	-11.2976
▁ᎤᏬᎯᏳᏒᎢ	-11.2976
ᏎᎸᎢ	-11.2976
▁ᏄᏂᏪᏎᎴᎢ	-11.2977
▁ᏣᏍᎦᎩ	-11.2977
▁ᏓᎩᎸᏫᏍᏓᏁᎲᎢ	-11.2979
▁ᎠᎼᎯ	-11.2979
▁ᎤᎾᎵᎪᎲ	-11.2979
▁ᏈᎵᎩᏱ	-11.298
ᏛᏅᎢᏍᏔᏅᎯ	-11.2982
▁ᎠᎩᏇᏓᎸᎢ	-11.2983
▁ᏧᏄᏬᎢ	-11.2983
▁ᎦᎢᏒᎢ	-11.2984
ᎣᏁ	-11.2984
▁ᎯᎦᏔᎲᎢ	-11.2984
▁ᎪᏢᏗᏱ	-11.2984
▁ᎣᏏᏉᏍᎪ	-11.2984
▁ᎤᎵᏂᎩᏛᏯ	-11.2986
ᏛᎯᏎᎸ	-11.2987
▁ᏗᏂᏁᎯ	-11.2987
▁ᎡᏥᏁᎸ	-11.2988
ᎦᏓᎢᏅ	-11.2988
▁ᎠᏔᎸ	-11.2991
ᏛᏁᎵᏍᎩ	-11.2992
▁ᎤᎵᏍᏆᏗᏍᏗᏱ	-11.2993
▁ᎤᏰᎸᏎᎢ	-11.2993
ᎵᏍᎨ	-11.2994
ᏯᏅᎲᎭ	-11.2994
▁ᎤᎧᎵᎢᏍᏗᏱ	-11.2994
▁ᏦᎢᎦᎵ	-11.2995
▁ᏗᏆᏄᏬ	-11.2995
▁ᎤᏲᏍᏔᏅᎯ	-11.2995
▁ᏗᏍᏕᎵᏍᎩ	-11.2996
▁ᎤᏌᎳᏓᏅ	-11.2996
▁ᏌᏉᎯᏳ	-11.2996
▁ᎢᏳᎵᏍᏓᏁᏗᏱ	-11.2996
▁ᏳᏛᎾ	-11.2997
▁ᎠᏂᏣᏗ	-11.2997
▁ᎠᎩᏲᏏᏍᎬ	-11.2998
▁ᎠᏥᏍᏕᎸᏗᏱ	-11.2998
▁ᏚᎴᎯᏌᏅᎢ	-11.2998
▁ᏕᎦᎳᏫᎥᎢ	-11.2998
▁ᎤᏛᏃᎯ	-11.2998
ᏗᎹ	-11.2999
▁ᎣᏥᏬᏂᏍᎬ	-11.3002
▁ᎢᏕᎲᎢ	-11.3005
▁ᏰᏙᎮ	-11.3006
ᎵᏰᎢᎶᎸ	-11.3007
ᎦᏕ	-11.3007
▁ᏗᏓᏘ	-11.3009
▁ᎠᎵᏥ	-11.3009
▁ᎤᏍᎦᏃᎳ	-11.3009
▁ᏕᎫᏓᏛ	-11.3009
▁ᎠᏂᏁᏉᎨ	-11.301
▁ᎤᏍᎩᏓᏎᎢ	-11.301
▁ᎯᎳ	-11.3011
▁ᎤᏬᏢᏗᏱ	-11.3011
▁ᎮᎳᏂᏃ	-11.3011
▁ᎤᏂᏍᏆᏂᎪᏎᏃ	-11.3011
▁ᏗᏤᏅᏒ	-11.3012
▁ᎤᏩᏒᏍᎩᏂᏃᏅ	-11.3012
▁ᎦᏄᎸᏒᎢ	-11.3013
▁ᏑᎾᎴᎢᏳ	-11.3013
▁ᏏᎦ	-11.3013
▁ᎤᏲᎯᏍᏔᏅ	-11.3014
ᏓᏎᎪᎩᏍᏗᏱ	-11.3018
▁ᏧᏍᏕᎸᏗᏱ	-11.3019
ᎯᎠᎾ	-11.3019
▁ᏕᎳᏃ	-11.302
▁ᎢᏳᎾᎵᏍᏓᏁᏗᏱ	-11.3021
▁ᏗᏥᎦᏴᎵᎨᎢ	-11.3021
▁ᎠᏕᎶᎰᎯᏍᏗ	-11.3022
▁ᏰᎮᏍᏗ	-11.3023
▁ᎦᎵᏦᏅ	-11.3025
▁ᎤᏰᎸᏅᎢ	-11.3027
▁ᏧᎵᏏᎬ	-11.3028
▁ᎤᏰᎸᎲ	-11.3029
▁ᏕᎦᏚᏩᏗᏒᎢ	-11.3029
▁ᎯᏍᎩᏁᏃ	-11.3031
▁ᎢᏯᏛᏁᏗᏱ	-11.3033
▁ᏧᏂᏰᎸ	-11.3034
▁ᎠᏓᏰ	-11.3035
▁ᏣᏁᎮ	-11.3035
▁ᎦᎾᏄᎪᏫᏍᎪ	-11.3037
▁ᎣᎳ	-11.3038
ᏚᎸ	-11.3041
ᏂᎦᎵᏍᏓ	-11.3043
ᎧᏁᎬ	-11.3043
▁ᎢᏯᏋ	-11.3045
▁ᏚᎾᏓᏂᎸᏨ	-11.3046
ᏡᏔᏂ	-11.3047
ᏓᏅᏘ	-11.3049
ᎾᏁᎴ	-11.3055
▁ᎤᏬᎴᎢ	-11.3055
▁ᏳᏁᎭ	-11.3056
▁ᏓᏳᏓᎴᏅᎩ	-11.3056
▁ᎠᏥᏅ	-11.3057
▁ᎤᏕᎶᎰᎯᏍᏗ	-11.3057
▁ᎢᏆᎶᏂᏃ	-11.3058
▁ᎤᎵᏁᏨᎢ	-11.306
ᎣᏏᏉᏗ	-11.3063
▁ᏚᏑᏰᏒ	-11.3068
▁ᏂᏚᏛᏁᎸ	-11.3068
ᎯᎸ	-11.3072
▁ᎠᏆᏓᏅᏖ	-11.3073
ᏄᎪᎢ	-11.3074
ᏓᏤᎵᏛ	-11.3074
ᎯᏐᏗ	-11.3076
▁ᏕᎦᏛᎢ	-11.3077
ᎵᏫ	-11.3078
▁ᏌᏊᏃ	-11.3081
ᏯᏅᎡᎵ	-11.3081
ᎵᏖᎸᏂ	-11.3081
ᏥᏂ	-11.3084
▁ᏬᏥ	-11.3086
▁ᎤᏚᏓᎳ	-11.3086
ᏖᎸ	-11.3088
▁ᎤᏄᎪᏤᏃ	-11.309
▁ᏧᎾᏄᏬᎢ	-11.3093
ᎵᏙᎸᎢ	-11.3093
ᏁᏉᏤᏗᏱ	-11.3093
ᏍᏔᏱ	-11.3095
▁ᎤᏂᎷᏤᏗᏱ	-11.3096
ᏘᏂᏒ	-11.3098
ᎬᏉ	-11.3099
▁ᏕᎦᎵᏦᏛ	-11.3099
ᏍᎦᎢᎲᎾ	-11.31
▁ᏩᏥᏯᏅ	-11.3101
▁ᏍᎩᏳ	-11.3101
▁ᏧᏄᏬᏍᏗ	-11.3105
ᏕᏙᎭ	-11.3105
▁ᎤᏜᏅᏛᎢ	-11.3107
▁ᏎᎳᏃ	-11.3107
▁ᏕᏥᎧᏅ	-11.3109
▁ᎤᏇᏓᎸᎢ	-11.3111
▁ᏭᏯᏅᎮᎢ	-11.3111
▁ᏗᎦᏅᎯᏛ	-11.3112
▁ᎤᏂᏃᎮᎸᎩ	-11.3116
▁ᎨᏆ	-11.3117
ᏗᏔᏍᎬ	-11.3117
▁Ꮌ	-11.3118
▁ᎤᏤᎵᎪ	-11.312
▁ᏉᏏ	-11.312
ᏙᏙᏱ	-11.312
ᏆᎧᎿᏅᎩ	-11.312
▁ᎠᏂᏙᎾᎥᎢ	-11.3121
▁ᎢᏓᏓ	-11.3121
▁ᏴᎾ	-11.3124
▁ᎪᎢᎭ	-11.3124
ᏍᏚᎩᏎ	-11.3124
ᏲᎵᎴ	-11.3128
ᎵᎯ	-11.313
ᏂᏍᏓᏩᏚᎦ	-11.3132
▁ᏍᎩᎵ	-11.3138
▁ᏂᎨᏒ	-11.3139
ᏂᏆᏘᎭ	-11.3141
ᎤᏙ	-11.3145
ᏚᏓᎴᏍᏗ	-11.3146
ᎦᎲ	-11.3147
▁ᎤᏁᏅ	-11.3149
ᏐᏢᎢᏍᏗᎭ	-11.3151
▁ᏈᎳᏃ	-11.3152
▁ᎤᏅᏏᏴᎢ	-11.3152
▁ᎤᎨᏓᎵᏴᎢ	-11.3152
ᏓᏅᏬᏗ	-11.3153
▁ᎬᏗᏍᎬᎩ	-11.3153
▁ᎠᏔ	-11.3155
ᎦᏙᎥᎯᏍᏗ	-11.3156
ᏄᎸᎲ	-11.3156
ᏨᎦ	-11.3156
▁ᎠᏂᏐᎢᏍᎩᏂ	-11.3156
ᏰᎵᏏ	-11.3158
ᏍᏔᏁᏗ	-11.3158
ᏣᎵᏍᎦᏍᏙᏛ	-11.3159
ᎸᏂᏗᏍᎩ	-11.3161
ᏃᎮᎮᎸᎩ	-11.3164
ᏃᏴᎵ	-11.3164
ᏥᎶᏛ	-11.3167
▁ᎧᎳᏩᏗᏒᎢ	-11.3168
▁ᏗᎦᏚᎲᎢ	-11.317
▁ᎤᎿᎷᏎ	-11.317
▁ᎤᏙᎴᎰᏒᎩ	-11.3172
ᏓᎴᎲᎦ	-11.3175
▁ᏎᎳᏱᏃ	-11.3176
▁ᏭᎶᏒᏍᏛ	-11.3179
ᏅᏙ	-11.3184
▁ᏧᏃᎸ	-11.3186
▁ᏫᏙ	-11.319
▁ᎣᎩᎷᏤᎸ	-11.319
ᏛᏅᎢᏍᏗᏍᎨ	-11.3191
ᏏᏙᎮ	-11.3191
ᏥᏌᎳᏙᏗ	-11.3192
ᎳᏁᎸᎯ	-11.3197
▁ᎤᏲᎴᏃ	-11.3197
▁ᎤᏍᏚᏁ	-11.3199
▁ᎤᎾᏂᎩᏒ	-11.3199
ᏍᎦᏅᏨᎯ	-11.32
ᏓᏛᏁᎮᏍᏗ	-11.3201
ᏏᎳᏕ	-11.3203
ᏥᏁᎰᎢ	-11.3203
▁ᏙᏣᏓ	-11.3203
ᏥᏯᏂᏍᎨᏍᏗ	-11.3204
ᎷᏤᎸᎭ	-11.3206
▁ᏆᎷ	-11.3206
ᏯᏛᏁᏗᏱ	-11.3207
ᎪᎲᏍᏔᏁ	-11.3207
▁Ꮚ	-11.3209
▁ᏚᏂᏃᎩ	-11.3211
▁ᎢᎦᎦᏛᎢ	-11.3214
▁ᏓᏓᎿᏩᏍᏛᎢ	-11.3214
ᎸᏉᏛ	-11.3214
ᏃᏎᎭ	-11.3218
ᎵᏍᏗᏍᎬ	-11.3219
ᏗᏛ	-11.3222
▁ᏚᏪᎧᎮ	-11.3222
▁ᎠᏍᎦᏯᏯ	-11.3223
ᎸᏏ	-11.3226
ᎫᏍᏛ	-11.3226
▁ᎠᏂᏃᎮᏍᎬᎢ	-11.3231
ᎪᎨ	-11.3233
ᏛᏅᎢᏍᏔᏅᎩ	-11.3233
ᎵᏎᎭ	-11.3235
ᏂᏫ	-11.3236
▁ᏳᎾᎵᎪ	-11.3238
▁ᎤᏍᎩᏓᏒ	-11.324
▁ᏚᎴᏁᏃ	-11.3245
▁ᎤᎾᎵᏥᏙᏅ	-11.325
ᏭᎪ	-11.3252
▁ᎤᎵᏂᎩᏗᏳᏍᎩᏂ	-11.3254
ᎸᏉᏙᎢ	-11.3254
ᏥᎾᏄᎪᏫᏎᎸ	-11.3254
ᎪᏪᎳ	-11.3256
ᏂᎨᏒᎾ	-11.3266
▁ᏳᎵᏃᎯᏰ	-11.3268
▁ᏚᎾᎦᎴᏅ	-11.3269
ᏆᎵᎢ	-11.327
▁ᎤᏪᏁ	-11.3272
▁ᎠᏆᏛᎦᏅᎩᏃ	-11.3273
▁ᎤᏂᎪᎲᎢ	-11.3276
▁ᎠᏐ	-11.3282
ᏄᎪᏨ	-11.3286
▁ᎾᏯᏛᎥ	-11.3288
▁ᏣᏓᏰ	-11.3289
ᏍᏛᎾ	-11.3291
ᎦᏉ	-11.3294
ᏂᏪᎠ	-11.3297
ᎧᎵᏨ	-11.3301
▁ᎤᏍᎦᏤ	-11.3301
ᎵᏂᎪᎯᏍ	-11.3307
▁ᏫᎬᏪᎧ	-11.3309
ᏓᏁᎲᎾ	-11.3311
ᏘᏴ	-11.3317
▁ᏕᎨᎦᏛ	-11.3318
ᎪᎮᎢ	-11.332
▁ᏍᎩᏲᏎ	-11.332
▁ᎬᏩᏛᏛᏅᎩ	-11.3321
▁ᏥᏂᎦᏪᏍᎪ	-11.3321
▁ᎠᏍᎦᏂᏍᎩᏂ	-11.3323
ᏥᏁᎪᎢ	-11.3328
ᏁᏤᎢ	-11.3331
ᏂᏬᏂᏍᎩ	-11.3335
ᏕᏨᎩ	-11.3338
ᏬᏂ	-11.3339
▁ᏪᎮ	-11.334
▁ᎠᏆᎴᏂᏙᎸ	-11.3344
▁--	-11.3345
ᎪᏩᏘ	-11.3346
ᏄᏛᏗ	-11.3347
▁ᏫᎬᏩᏴ	-11.3349
ᎯᏍᎩᏂᏃᏅ	-11.335
▁ᏕᎧᏅ	-11.3353
ᏁᏢ	-11.3354
ᎦᏘᏗᏍᏗᏱ	-11.3354
ᏍᏆᏂ	-11.3355
ᎬᏩᏂᎪᏩᏛ	-11.3359
▁ᏂᏥᎥᏰᏃ	-11.3365
▁ᏓᎱᏃᎲ	-11.3368
▁ᎣᎩᎭ	-11.337
▁ᎢᏨᏰᎵᏎ	-11.3373
▁ᎢᎳᎻ	-11.3373
▁ᎪᎵ	-11.3376
ᏃᎮᏍᎨᏍᏗ	-11.338
ᎵᎵ	-11.3384
ᏇᏅᎯ	-11.3385
ᏅᏓᏗᏍᎨᏍᏗ	-11.3386
▁ᏥᏅᏗᎦᎵᏍᏙᏗ	-11.3389
ᎨᎯᏓᏍᏗ	-11.3393
ᏳᏍᏗ	-11.3395
ᏈᏃ	-11.3395
ᏣᎴ	-11.3406
▁ᏆᎩ	-11.3406
ᏛᎩᎭ	-11.3408
ᎫᏏ	-11.341
▁ᏕᎨᏥᏲ	-11.3415
▁ᎹᎵ	-11.3417
ᏥᏰᎸ	-11.3418
ᏅᏒᎾ	-11.3419
ᎵᎪᏁᎸᎯ	-11.3419
▁ᏫᏚᎷᏤᎴ	-11.3422
ᎧᏃᎮ	-11.3427
ᏏᏔᏕᎢ	-11.3427
▁ᎠᏍᏓᏱ	-11.343
▁ᏳᏰᎸᏁ	-11.3434
▁ᎤᎾᏛᎦ	-11.3434
ᏓᏠ	-11.3437
▁ᏳᏫᎦ	-11.3437
ᎯᏴᎩ	-11.3439
ᏱᎴ	-11.344
ᎨᎲ	-11.3441
ᏂᎮ	-11.3442
▁ᎢᎶ	-11.3443
▁ᏧᏩᏔᏁ	-11.3447
▁ᏓᎾᏗᏔᏍᎨ	-11.3447
ᎾᏣᎡᎢ	-11.3449
ᏩᏒᎬ	-11.3456
ᏲᎯᏎᏗ	-11.3458
▁ᏙᎬ	-11.3461
ᎵᎮᎵᏥ	-11.3465
ᏂᏴᎯ	-11.3466
▁ᏄᎾᏍᏛᎢ	-11.3472
▁ᎤᏂᎪᎲᏃ	-11.3472
ᏛᏂᏗᏍᏗ	-11.3476
▁ᎤᏚᎵᏍᎬᎢ	-11.3476
▁ᎤᏎᎵᏔᏅ	-11.3478
▁ᎦᏍᎩᎶᏃ	-11.3479
ᎦᏔᎲᎩ	-11.3479
ᏫᏒᏗ	-11.348
▁ᎠᎵᏍᎪ	-11.3482
Ꮽ	-11.3486
ᎦᏬ	-11.3488
ᏬᎥᎢ	-11.3491
ᎲᏉ	-11.3494
ᏓᏅᏖᏗ	-11.3495
▁ᏚᏂᏅᏨ	-11.3499
ᏍᏆᏂᎪᏔᏂ	-11.3505
ᏴᏂ	-11.3512
▁ᏯᎩᎪ	-11.3515
ᏴᏍᏕᏍ	-11.3518
ᏏᏉ	-11.352
ᏂᏴᎭ	-11.3521
ᏓᏅᏖᎮ	-11.3524
▁ᎤᎦᎾᏍᏛᏃ	-11.3525
ᏄᎮᎵ	-11.353
▁ᏓᏟᏰᎵᏙ	-11.353
▁ᎠᏓᎴᏂ	-11.3532
ᏴᏓᏆᎶᎥᎩ	-11.3543
▁ᏱᏂᏣ	-11.3546
▁ᏫᏗᎩ	-11.3549
▁ᏱᏣᏓᏅᏖ	-11.3553
▁ᎠᏏᏴᏫᏉ	-11.3563
▁ᏣᏓᏡᏗᏍᎪ	-11.3563
ᏌᎡ	-11.3565
ᎴᏅᎲ	-11.3566
ᏥᎨᏳᎢ	-11.3566
ᎵᏎ	-11.3569
▁ᎯᏍᎦᏍᎪᎯᏃ	-11.3572
ᏦᏕ	-11.3573
▁ᎤᎾᎵᎪᏒ	-11.3578
▁ᎤᎾᏨᏎ	-11.358
ᏲᎱᏎ	-11.358
▁ᎤᎵᏂᎩᏗᏳᏰᏃ	-11.3589
ᏩᏅ	-11.36
▁ᎠᏂᎦᏘᏴ	-11.3601
ᏕᎲ	-11.3602
▁ᏚᏄᏩᎥ	-11.3603
ᏓᏇ	-11.3607
ᎦᏌᎴ	-11.361
ᏪᎶ	-11.3611
▁ᏯᎩᏰᎸ	-11.3614
ᏲᎮᎸᎩ	-11.3614
▁ᏦᎠᏍᎪᎯᏃ	-11.3619
ᏥᎪᏩᏗᎭ	-11.3621
▁ᎦᎵᏦ	-11.3633
ᎾᏅᏁ	-11.3634
▁ᏚᏂᎧᎵ	-11.3637
ᏓᏁᎰ	-11.3638
ᏯᏍᏛ	-11.3646
ᏠᏱᎭ	-11.3646
▁ᎣᎬᏙᏗ	-11.3648
ᎨᎦ	-11.3649
▁ᎤᏂᎷᏤᏃ	-11.366
ᎸᏉᏙᏗᏱ	-11.3663
ᎪᏁᎶ	-11.3664
ᎦᎶᎯᏍᏗᏱ	-11.367
▁ᏄᏅᏁ	-11.3679
ᎾᎨ	-11.3682
▁ᏧᏂᏲ	-11.3684
ᏪᏎᎭ	-11.3686
ᏓᏅᏖᎳ	-11.3697
ᎢᎲ	-11.3698
▁ᏧᎦᎴᏅ	-11.3701
▁ᎠᏂᎦᏔᎲᎩ	-11.3704
▁ᏚᎾᏓᎸ	-11.3704
ᏕᏯᏙᏓ	-11.3712
ᏥᎬᏩᎶ	-11.3714
▁ᎤᎾᎴᏅᏗ	-11.3715
ᎯᎠᏃ	-11.3717
ᏎᏒ	-11.3718
ᎦᏘᏰᎢ	-11.3726
ᏔᏲᎯᎲ	-11.373
▁ᎦᏃᎯᎵᏙ	-11.3736
▁ᎤᏂᏩᏒ	-11.3737
ᏚᏓ	-11.3744
ᏂᏕᏅ	-11.3749
▁ᎤᏂᏬᏂᏒ	-11.3753
▁ᏣᏲ	-11.3753
ᎬᏙᏗ	-11.3762
▁ᏭᏏᎳᏛᏁ	-11.3764
ᎩᎵᏲᎩ	-11.3765
ᏙᎴᎰᏒ	-11.3773
▁ᏥᏯᎥ	-11.3774
▁ᎦᏍᎩᎸᏃ	-11.3785
▁ᎭᏢᏃ	-11.3787
ᏛᏁᎰ	-11.3789
▁ᏫᎦᎶ	-11.3792
ᎪᏙᎯ	-11.3801
ᏱᎦ	-11.3801
ᏲᏍᏙᏓᏁᏗ	-11.3805
ᏞᎩ	-11.3809
ᎾᏗᏅᏎ	-11.3812
ᎨᏫ	-11.3815
ᎪᏕᏍᏗ	-11.3816
ᏅᏣ	-11.3832
ᏗᏓ	-11.3833
▁ᏕᎦᏄᎪᏫᏍ	-11.3835
ᏪᎴ	-11.3852
▁ᏴᎦᏲ	-11.3859
▁ᏱᏓᏚ	-11.3865
ᎢᏳ	-11.387
▁ᏓᏈ	-11.3872
▁ᏣᎦᎴ	-11.3879
ᏥᏩᎯᏍᏔᏅᎯ	-11.3879
ᏗᎦᏅᎯᏛ	-11.388
ᏓᏲᏁᏗ	-11.3889
▁ᎤᏓᏅᎡᎸᎩ	-11.3891
ᏂᎦᎵ	-11.3892
▁ᎠᏰᎸᏰᏃ	-11.3896
▁ᏰᎮ	-11.3896
ᎬᏂᏛ	-11.3898
ᎨᏛ	-11.3901
ᏥᏩᏛᎲ	-11.3906
ᏲᏎᎸ	-11.3907
ᏲᏍᏔᏂ	-11.3915
ᏲᎮᎴᎢ	-11.3915
▁ᎠᎵᎮᎵᎪ	-11.3918
ᎮᎴ	-11.3918
▁ᏣᏕ	-11.3923
ᏍᏆᏂᎩᏗ	-11.3927
ᏥᎪᎥ	-11.3928
▁ᎢᏨᏯᏅᏓᏗᏍ	-11.3929
ᏅᎦᎸᎮᎢ	-11.393
ᏙᏯᏅᎯᏕᎢ	-11.3933
ᏂᎩᏏ	-11.3937
ᎦᏌᏯᏍᏕᏍᏗ	-11.3938
ᎪᎵᏰᏍᎨ	-11.394
▁ᏖᎾ	-11.3941
▁ᏕᏫᏃ	-11.3941
ᏍᏆᏂᎪᏛ	-11.3945
ᎩᏯᏅᏛ	-11.3953
ᏴᏢ	-11.3962
ᎾᏗᏍᎪᎢ	-11.3964
ᏂᎪ	-11.3968
▁ᏗᎦᏙᎵᏃ	-11.3969
ᎾᏏᏁ	-11.3974
ᎲᏃ	-11.3974
ᏂᎪᎲ	-11.3979
▁ᎤᏣᏔᏅᎯᏃ	-11.3994
ᎩᏐ	-11.3996
▁ᏫᏗᎨ	-11.4002
ᏄᎵᏍᏔᏁᎢ	-11.4003
▁ᏄᎨᏳᏎ	-11.4004
ᎶᎸᎯ	-11.4004
▁ᏙᏓᏥ	-11.4005
ᏩᎵ	-11.4005
ᏏᎵ	-11.4007
ᏁᏁᎴ	-11.4011
ᏍᏋ	-11.4013
▁ᎬᏩᏄᎯ	-11.4015
ᏁᏟᏴᏍᏗ	-11.4022
ᏥᏁᏤᎸᎯ	-11.4023
▁ᎡᎳᏪᏱᏉ	-11.4041
▁ᎤᎦᏙᏍᏕ	-11.4054
▁ᏥᏂᎬ	-11.4055
ᎶᏔᏅ	-11.4056
ᏃᎯᏎᏗ	-11.4066
ᏪᏥ	-11.4076
ᏩᏗᏒ	-11.4078
ᏬᏁᏙᏗ	-11.408
ᏲᏎ	-11.4085
ᏐᏢ	-11.4087
ᏍᏓᏩᏛᏍᏗᏱ	-11.4089
ᎵᏗ	-11.4089
▁ᎢᏥᎧᎵᎢ	-11.4092
ᏠᏯᏍᏙᏗᏱ	-11.4097
ᏁᏤᎮᏍᏗ	-11.4103
ᏂᏡ	-11.4106
ᎶᏁᏗ	-11.4107
▁ᏧᏂᏯ	-11.4112
▁ᎤᏛᏓᏍᏓᏁᎴ	-11.4113
ᏧᏓ	-11.4118
ᎪᏩᏘᏍᎨᏍᏗ	-11.4125
ᏍᏆᏂᎪᏙ	-11.4127
ᏕᎳ	-11.4127
▁ᏱᏄᎾ	-11.4128
ᏱᎵᏙ	-11.4129
ᎾᏗᏅᏗ	-11.413
ᎪᏁ	-11.4134
ᏓᎢᏅᏒᎩ	-11.4135
ᎬᎾᎨ	-11.4137
▁Ꮰ	-11.4138
ᏍᏆᎵᏍᎨ	-11.414
▁ᏗᏓᎴᎲ	-11.414
ᏙᏢᏒᎢ	-11.414
ᎳᎩ	-11.414
ᏄᎪᏫᏒ	-11.4154
▁ᎤᏬᏰᏂᏃ	-11.4157
ᏴᏔᏅᎩ	-11.4165
ᏱᎵᏙᎸ	-11.4166
▁ᏗᏂᏲᎵᏃ	-11.4168
ᏄᎪᏥ	-11.417
ᏍᏗᏰᏔᏅᎩ	-11.4177
ᏥᏳ	-11.4179
ᏰᎸᎮ	-11.4186
ᎰᎸ	-11.4187
ᏂᎩᏍᎬ	-11.4195
▁ᎠᏲᎵᏃ	-11.4198
▁ᏚᏂᏴ	-11.4199
▁ᎠᏉᎯᏳ	-11.4209
ᏈᏓ	-11.4209
▁ᎨᏥᏯᏅᏗ	-11.421
ᎪᎵᏰᏍᎪᎢ	-11.4215
ᎤᎾ	-11.4217
ᏘᎷᎦ	-11.4217
ᎧᏁᏥ	-11.4218
ᏧᏓᎴ	-11.4225
ᏅᏯ	-11.4226
▁ᎠᏥᏯᏅᎲ	-11.4226
ᏭᎾ	-11.4228
▁ᎠᎩᏍᏆᏂᎪ	-11.4232
ᏙᏍᏛᎢ	-11.4249
ᏩᏕᎦ	-11.4249
ᎸᏉᏔᏂ	-11.4249
▁ᎤᎦᏔᎲᏒᎩ	-11.4251
ᏕᏯᏙᏗ	-11.4252
▁ᎮᎵ	-11.426
ᏰᎦ	-11.4265
▁ᏎᏗ	-11.4272
▁ᏅᏓᏣ	-11.4292
ᏂᏁᏨ	-11.4292
▁ᎠᎵᎮᎵ	-11.4293
▁ᎬᏩᏯᏫ	-11.4293
ᎢᏴ	-11.4294
ᎴᏔᏂ	-11.4296
▁ᎠᏍᏆᏂᎪᏍᎨ	-11.4302
▁ᎠᏓᏁᎸᏃ	-11.4304
ᎧᎵᎢᏍᏗᏱ	-11.4311
ᎨᏃ	-11.4312
ᏉᎨ	-11.4315
▁ᏧᎦᏌᏬᎸ	-11.432
▁ᎠᎺᏉᎯᏃ	-11.4324
▁ᏚᏩᏛᎲ	-11.4333
ᏥᎾᏌ	-11.4333
▁ᎤᏂᏴᎸ	-11.434
ᏂᎷᏨ	-11.4345
ᎾᎵᏍᎦᏍᏙᏗ	-11.4352
▁ᎢᎦᏛᏉ	-11.4355
ᎬᏩᎶ	-11.436
ᏓᎨᏳ	-11.4369
ᎦᏄᎪᎬᎢ	-11.4373
▁ᏕᎬᏆ	-11.4376
ᏓᏅᏒ	-11.4387
ᏙᎦ	-11.4393
ᎫᏴᏗ	-11.442
ᏛᏃᎯ	-11.4423
▁ᎢᏯᎦ	-11.4424
ᎾᎻ	-11.4426
▁ᏕᎨᏣ	-11.4429
▁ᎤᏂᏲᎮ	-11.4429
ᏨᏓ	-11.4438
▁ᏣᎪ	-11.4445
ᏓᎵᏁᎯᏕ	-11.4446
▁ᏔᎳ	-11.4449
ᏍᏕᎵ	-11.445
▁ᏴᎨᏨ	-11.445
ᏦᎯᏳᏅ	-11.4452
ᎷᎨᏍᏗ	-11.4457
▁ᎤᏬᏒ	-11.4459
ᎦᎵᏍᏓᏛ	-11.4465
ᏛᎦᏅ	-11.4467
ᏩᎾᎦᎳᎯᏳ	-11.4468
ᏕᏃ	-11.4471
ᏍᏘᏰᎬᎢ	-11.4475
ᏓᏁᎲᎩ	-11.4476
ᏕᏏ	-11.4479
▁ᎤᏬᎯᏳᏁ	-11.4479
ᎪᏔᏅ	-11.4479
ᎵᏍᏓᏴᎲᎦ	-11.4481
▁ᏱᏥᏍᏆᏂᎪ	-11.4488
ᏁᎶᎯ	-11.449
▁ᏚᏲ	-11.4491
▁ᎤᏗᏍᎦᏢ	-11.4492
ᎸᏫᏍᏓᏁᏗ	-11.45
▁ᎠᎾᏙ	-11.45
ᏓᏁᎲ	-11.4509
ᎦᏙᎥᏎ	-11.4509
ᏳᎵ	-11.4514
ᎵᏨ	-11.4523
▁ᏮᏓᏥ	-11.4525
ᎵᏙᎯ	-11.453
▁ᏗᏂᏁ	-11.4531
ᏕᏘ	-11.4538
ᏰᏅ	-11.4552
ᏓᏂᏐᏗᏱ	-11.4552
▁ᏓᎦᏥ	-11.4553
ᏘᏅᏍᏔᏁᎢ	-11.4557
ᏁᏤᎸᎩ	-11.456
ᏓᏴᎳᏛ	-11.4561
ᎤᏂ	-11.4561
▁ᏫᏓᎦ	-11.4563
▁ᎤᏲᏍᏔᏅ	-11.4565
ᏥᏖᎸᏗ	-11.457
ᏍᏆᏂᎪᏕᏍᏗ	-11.4575
▁ᏔᎴ	-11.4577
▁ᎤᏓᏣᎦᎸ	-11.4579
ᎧᏃ	-11.4579
ᏲᎲᎩ	-11.4581
ᏣᏉᏍᎪ	-11.4601
▁ᎦᏂᏴᏗ	-11.4603
▁ᎦᎬ	-11.4603
ᏂᏴᏎᏍᏗ	-11.4605
ᎵᏌᎳ	-11.4606
▁ᏓᎴᎲᏍᎬ	-11.4611
ᏦᏩ	-11.4615
ᏅᏨᎩ	-11.4619
ᏫᏗ	-11.4625
▁ᎤᏪᏯ	-11.4626
ᎦᏓᏅᏖᏗ	-11.4634
ᏓᏪ	-11.4641
▁ᎤᎾᏣ	-11.4644
ᏍᏓᏁᎭ	-11.4668
ᏥᏃᎮᏍᎬ	-11.4671
ᏄᎪᏫᏍᏗᏱ	-11.4678
▁ᏂᏕᎦ	-11.4687
▁ᏚᏌᎳᏓᏅ	-11.4689
▁ᏧᏭᎪ	-11.4697
ᏂᏆᏘᎮᏍᏗ	-11.4699
ᏩᏛᎮᎢ	-11.4699
▁ᎦᏄᎪᎬ	-11.4699
ᎾᏝᎠ	-11.4708
ᏍᎦᎬ	-11.4715
ᎧᎾᎾ	-11.4716
ᏗᏔᎯ	-11.473
ᎾᏁᎶ	-11.4732
ᏟᏂᎩᏓ	-11.4736
ᏥᏍᏕ	-11.4741
ᏌᎵ	-11.4741
ᎩᏎᎢ	-11.4755
ᎾᏣᏅᎩ	-11.4756
ᏠᏯ	-11.4764
▁ᏩᏴᏍᏗ	-11.4774
ᎮᎸ	-11.4776
ᎧᏔᎲ	-11.4784
ᎧᎸ	-11.4785
ᎪᏩᏔ	-11.4798
ᎵᏰᏅ	-11.4805
ᏬᏥ	-11.4806
ᏃᎯᏰ	-11.4813
ᏠᎯᏍᏔᏅ	-11.4818
ᏎᎮᏍᏗ	-11.4818
ᎮᏗᏱ	-11.4822
▁ᎰᎯᏳᎲᏍᎦ	-11.4824
▁ᎬᎨᏳ	-11.483
▁ᎤᏂᎧᎲ	-11.4834
ᏯᏛᏗ	-11.4837
▁ᎦᏁᏟᏴ	-11.4837
ᎵᎩ	-11.4839
ᏒᏁ	-11.4842
ᎠᎴᏂ	-11.4843
ᏛᏅᎢᏍᏙᏗ	-11.4844
ᎾᎾᎵᏍᏗ	-11.4845
▁ᎢᏣᏙᎴᎰ	-11.486
ᎦᎸᏉᏗᏳ	-11.4862
▁ᏥᏍᎦᏅᏤᎸ	-11.4872
ᏓᏛᏁᎭ	-11.4875
ᎸᏌ	-11.4876
▁ᏓᎾᎵ	-11.4885
ᏖᏃᎯ	-11.4887
▁ᎢᏣᎵᏏᎾᎯᏍᏗ	-11.4892
ᏂᏂᏌᏁᎢ	-11.4894
▁ᏓᏰᏣ	-11.4896
ᏍᏓᏁᎲ	-11.4897
ᏓᏴᎳᏔ	-11.4902
ᎪᏓ	-11.4903
▁ᏥᏨᏲᏎ	-11.4915
▁ᏄᎾᎵᏍᏓᏁ	-11.4934
ᎩᎳᎾᎳᏗᏍ	-11.4935
ᏲᏍᏙᏗᏱ	-11.4936
ᎥᏍᎩ	-11.4938
ᏍᎫᏕ	-11.4938
ᎵᏍᎪᎸᏓᏏ	-11.4939
ᎠᏡᏗᏍᎩ	-11.4946
ᎧᏔᎮᎢ	-11.4951
ᏕᏲᎲ	-11.4956
ᏥᎰᎵ	-11.4959
ia	-11.496
ᏖᏍ	-11.4965
ᏐᏢᎢᏍᏙᏗᏱ	-11.4966
ᏩᎯᏍᏔᏅᎯ	-11.4977
ᏝᏁᎢ	-11.5003
ᏛᏂᏏ	-11.5012
▁ᏘᎩ	-11.5016
▁ᎾᏋ	-11.5025
ᏏᏯ	-11.5038
▁ᏓᎬᏯ	-11.5044
ᏁᏟᏴᏒ	-11.5051
ᏕᏔᏅᎯ	-11.506
ᎾᏄᎪᏫᏍᎦ	-11.5067
ᏥᎪᏩᏘᎭ	-11.507
ᏁᎵᏍᎨ	-11.5071
ᎵᎸ	-11.5074
▁ᎠᎦᏔᎲᎩ	-11.5085
▁ᏱᏫ	-11.5095
ᏣᎩ	-11.5098
▁ᏕᎦᎾ	-11.5099
ᎧᏘ	-11.5106
ᏄᎯ	-11.511
ᏘᏍᏓᏁᎯ	-11.5111
ᎾᏕᏘᏴ	-11.5115
ᎨᏐ	-11.5115
▁ᎤᏲᏏᏍᎨ	-11.5116
ᏓᏅᏛᎳ	-11.513
ᏓᎾᏩ	-11.5131
▁ᏗᎦᎳ	-11.5137
▁ᎠᏆᏛ	-11.5138
ᎶᎨᏒᎢ	-11.5143
▁ᎧᏁᎢᏍ	-11.5143
ᏂᏍᏚᏁ	-11.5151
ᏚᎳ	-11.5158
ᏕᏣᏙ	-11.5158
ᎬᏁᎲ	-11.5164
ᎵᏍᏓᏴᏅ	-11.5166
ᎩᎨᏳᎯᏳ	-11.517
ᎫᏴᎡᎸ	-11.5178
▁ᎤᎸᏕ	-11.5183
ᏩᏛᎯᎵ	-11.5184
ᏗᎬᏁᏗ	-11.5194
ᏪᎵ	-11.5196
ᏘᏱ	-11.52
ᎬᏍᎪᎸᏁᎢ	-11.52
ᏕᏨ	-11.5208
ᏎᎵᏙᏔ	-11.5215
ᎾᏣᎥ	-11.5215
ᏣᏛᏅᎢᏍᏓᏁ	-11.5219
ᏙᎰᎢ	-11.5219
ᏛᎩᎠ	-11.5227
▁ᎢᏣᎦᏔᏅᏎ	-11.523
▁ᏗᏟ	-11.5232
▁ᎤᏣᏘᏂᏉ	-11.5237
ᏣᎦᎸ	-11.5239
ᎵᏍᎨᎢ	-11.525
le	-11.5255
ᎫᎩ	-11.5255
ᏟᏐᏗᏱ	-11.5255
ᏧᏢ	-11.5256
ᎵᏍᎪᎸᏓᏁᎸ	-11.5257
▁ᎦᎳᏅᏛ	-11.5266
▁ᏕᏤ	-11.5266
ᏃᎮᎸᎩ	-11.5267
ᎸᏅᎭ	-11.5269
ᏠᏍᏗ	-11.527
▁ᎠᏑ	-11.5273
ᏔᏍᏗ	-11.5277
ᏙᎥᎢ	-11.5277
ᏛᏁᎸᎢ	-11.5285
ᏢᎭ	-11.5301
ᏌᏕ	-11.5303
▁ᏕᏣᏓᏠ	-11.5307
ᏓᎧᏁ	-11.5308
ᏍᏓᏁᏗᏱ	-11.5319
ᎧᏯ	-11.5319
▁ᏯᏆᏓ	-11.532
ᏂᎦᏘᏯ	-11.5328
ᏙᏔᏅᎩ	-11.5328
ᏓᏙᎵᏍ	-11.5337
ᏂᎬᎬᎢ	-11.5344
ᎯᎲ	-11.5347
ᏅᏏᏙ	-11.5347
▁ᏭᎷᏤᎸ	-11.5351
ᎪᎡ	-11.5358
ᏭᏂ	-11.5359
ᎦᏗᏓ	-11.5377
ᏴᎵᏎ	-11.5377
ᏬᎯᏳᏁᎢ	-11.5384
ᎪᏩᏘᏍᎨᎢ	-11.5384
▁ᎠᏆᏚ	-11.5385
ᎠᎩᎷᏨ	-11.54
ᏴᏒ	-11.5409
ᏳᎵᏍᏙᏗ	-11.5414
ᎡᎰ	-11.5417
ᏩᏛᎯᏙ	-11.542
ᏥᎩᎡᏗ	-11.542
ᏓᎨᏳᎯᏳ	-11.5423
ᏥᏲᎢ	-11.543
ᎩᏍᏕᎸᏗᏱ	-11.5432
ᏫᏍᎪᎢ	-11.5437
ᎰᏂ	-11.5442
ᏳᏃ	-11.5443
▁ᏕᏣᎵ	-11.5443
▁ᏬᏤ	-11.5449
ᏌᎳ	-11.5453
ᎾᏰᏍᎦ	-11.5454
▁ᎠᏥᏍᏛᏗᏍᏙᏗ	-11.5471
▁ᎠᎵᎮᎵᏤᏗ	-11.5472
ᏤᎸᎩ	-11.5475
▁ᏳᏬᎯᏳ	-11.5478
▁ᎢᏳᏲ	-11.5482
ᏓᏁᏟᏴ	-11.5487
▁ᎤᎵᏍᏚ	-11.5487
ᏍᏕᎸᎯ	-11.5487
ᏁᏉ	-11.549
▁ᏭᎶ	-11.5492
ᎵᎮᎵᏍᏗ	-11.5495
ᏕᏒ	-11.5495
ᎨᏳᎢ	-11.55
ᎥᏍᎦ	-11.5514
▁ᎫᏩᎾ	-11.5514
ᏥᏃᎮᎭ	-11.5515
▁ᏫᏕ	-11.5517
ᎸᏉᏔᏅ	-11.5522
ᎿᏬ	-11.553
ᏌᎩᏒ	-11.5531
ᏥᎸᏉᏔᏅᎯ	-11.5531
ᏣᎬ	-11.5534
ᏓᏅᏓᏗᏍᏗ	-11.5535
▁ᎤᏪᎧᏁ	-11.5538
ᎩᎦᏔᎲᎾ	-11.5545
ᏂᎭᏲᎲ	-11.5547
ᏍᎩᏯᏅᎡᎸ	-11.5554
ᏩᏂᎦ	-11.5557
▁ᎭᏓᏅ	-11.5557
ᎵᎪᏅ	-11.556
ᏟᏍᏔᏅᎩ	-11.5561
ᎡᎩ	-11.5562
ᏂᏌᏂ	-11.5562
▁ᎧᏁᏉᎨ	-11.5574
ᏯᏔ	-11.5582
▁ᎠᏂᏬᏂ	-11.5582
ᏇᏗ	-11.5584
ᏬᏂᎯᏍᏗᏱ	-11.5584
ᏥᎩᎡᎸ	-11.5584
▁ᎤᏍᏓᏱᏛ	-11.5586
▁ᎠᎱ	-11.5586
or	-11.5591
ᎴᎬ	-11.5598
▁ᎤᏪᎷ	-11.5603
ᎪᏩᏘᏍᎪ	-11.5613
▁ᎠᎩᎾᎥ	-11.5613
▁ᏫᎷᏥ	-11.5616
▁ᎤᎵᏓᏍᏔᏅ	-11.5616
ᏂᏴᏗᏱ	-11.5617
ᏗᎦᎶ	-11.5619
▁ᎢᏣᏓᏅᏖ	-11.5624
ᏛᏔᏁ	-11.5624
▁ᏅᏗᎦ	-11.5625
▁ᏚᏆ	-11.5631
ᎦᏧ	-11.5633
ᎯᏰ	-11.5634
▁ᎪᎶ	-11.5637
ᏍᎪᎳ	-11.5639
ᎩᎪᎲᎯ	-11.5642
ᎪᎥ	-11.5646
ᏥᏍᏈ	-11.5651
ᎴᏅᏗ	-11.5653
▁ᎢᏥᎦᏴᎵᎨ	-11.5656
▁ᏓᏥᎶᏍ	-11.5658
ᎵᏍᎪᎸᏙᏗᏱ	-11.5664
▁ᏓᏰᏙᎳᏛ	-11.5668
ᏍᏚᎲᏍᎪ	-11.5668
ᎰᏒ	-11.5677
▁ᏚᎾᏓᏅ	-11.5687
ᏕᏘᏴᎲ	-11.5689
▁ᎦᏣᏄᎵ	-11.5697
ᎨᎵ	-11.5705
ᎪᎵᏰᏍᎬᎢ	-11.5705
ᎦᏙᎥᏒ	-11.5716
ᏅᏬᏗ	-11.5719
ᎵᏍᎪᎸᏓ	-11.5719
ᏂᎬᎨ	-11.5722
ᎾᏁᏍᎨ	-11.5727
ᏕᏙ	-11.573
ᏍᎦᏤᎢ	-11.5733
ᏂᏏᎾ	-11.5734
ᏙᎰ	-11.5735
ᏰᎢᎵᏙᎲᎢ	-11.574
ᏨᏍᏗ	-11.574
ᏲᏢᎾᏁ	-11.574
▁ᎠᏓᎾᏅ	-11.5757
▁ᎢᏯᎾᏛᏁ	-11.576
ᎧᎲᎦ	-11.5766
▁ᎠᏐᏢᎢᏍᏙᏗ	-11.5769
ᏓᏛᏁᎵ	-11.5773
ᎤᏛᏁᎢ	-11.5774
▁ᎣᎩᏍᏛᏗᏍ	-11.5775
ᏃᎯᏏ	-11.5788
▁ᏥᏂᏣ	-11.5792
ᏓᎢᏅ	-11.5795
▁ᎡᎬ	-11.5804
ᏍᏆᏗᏍᎬ	-11.5806
ᏏᏏ	-11.5815
ᎪᎲᎩ	-11.582
ᎦᏔᎲᏍᏗᏱ	-11.5824
ᎶᏒᎯ	-11.5826
ᏙᏂ	-11.5833
ᏤᎮ	-11.5833
▁ᎣᎩᎸᏉᏗ	-11.5837
▁ᎧᏁᏉ	-11.5838
ᎪᏪᎵ	-11.5838
ᏂᏚ	-11.5842
ᎦᏂ	-11.5843
ᏚᎢᏍᏓᏁ	-11.5844
ᎦᏙᏍᏕᎢ	-11.5847
ᏛᎦᏅᎢ	-11.5854
ᏗᏅᏗ	-11.5855
ᏔᏛ	-11.5857
ᏘᏃᎯᏍᏗ	-11.5868
ᏄᎪᏫᏒᎭ	-11.5869
ᎦᏔᎰᎢ	-11.587
ᎬᏍᎦᎳ	-11.587
ᏁᏉᏥ	-11.5873
ᏁᏟᏴᏎ	-11.5881
ᏧᎦ	-11.5884
ᏪᏎᎮᏍᏗ	-11.5889
ᎫᏴᎡᏗ	-11.5891
ᎬᏁ	-11.5899
ᏛᎦᏁᎴ	-11.5903
▁ᏰᏣ	-11.5909
ᎸᏫᏍᏓᏁᎭ	-11.5912
▁ᎢᏥᎨᏳᎯ	-11.5912
ᎵᏳ	-11.5913
▁ᎤᏪᎧᎲ	-11.5913
ᏂᎶ	-11.5915
ᎵᏍᏓᏴᎲᏍᎬᎢ	-11.5926
ᏑᏫᏓ	-11.5932
ᏂᎨᏥᏪᏎᎴ	-11.5933
ᎠᏎᏗ	-11.5936
▁ᎤᏞ	-11.5936
ᎸᏎ	-11.5938
ᎾᏙ	-11.5942
ᏥᎪᎵᏰᏗᏱ	-11.5943
▁ᏕᏨᏯ	-11.5944
▁ᎣᎩᏙ	-11.5944
ᎸᎲ	-11.5945
▁ᎥᏓᏗ	-11.5951
▁ᏫᎦᎾᏄᎪ	-11.5955
ᏍᏈᏗ	-11.5955
ᎷᏏ	-11.596
ᏄᏬᎥ	-11.5967
ᏰᏏ	-11.5967
ᏓᏅᏓᏗᏍᏔᏅ	-11.5973
▁ᎤᏁᏉᏤ	-11.5975
ᎰᏅ	-11.5976
ᏍᏉᏟ	-11.5979
ᏂᏅ	-11.5979
ᎲᎭ	-11.5983
ᎵᏱᎵᏕ	-11.5993
▁ᏥᏂᎦᎵᏍᏗ	-11.5993
ᏍᏕᎵᏍᎨ	-11.5996
ᎪᏩ	-11.5999
ᏌᎢ	-11.6009
ᎪᏪᎸᎢ	-11.6012
ᎵᏲᏃ	-11.6012
ᎵᏰᎢᎶ	-11.6015
ᏯᎦᏔᏂ	-11.6021
ᏙᏳ	-11.6022
ᏓᏂᎵᎨ	-11.6023
▁ᎤᏦᏍᏔᏁ	-11.6024
ᏍᎪᏎ	-11.6025
▁ᏓᎾᏓᎧ	-11.6032
▁ᏫᏘ	-11.6034
Ꮊ	-11.6034
ᏥᏛ	-11.6036
▁ᎠᎦᏞ	-11.6036
ᏛᏁᎸᎩ	-11.6038
ᏘᏲᎯ	-11.6039
ᏂᎶᏒᎯ	-11.604
ᏫᏱ	-11.6052
ᎸᏅᎩ	-11.6054
ᏪᏌ	-11.6055
ᏍᎦᏰᎬᏍᏔ	-11.6059
ᏣᏛᎦᏁ	-11.6061
ᎵᏍᏚᎶ	-11.6062
ᏛᏗᏍᎨᏍᏗ	-11.6066
ᎦᎾᏍᏓ	-11.6068
▁ᏓᎫ	-11.6069
▁ᏯᏋ	-11.6069
ᏗᎦᎵᏍᏙᏗᏍᎨ	-11.6071
ᏤᎳ	-11.6077
ᎪᎯᎩ	-11.6077
ᏂᎪᎵᏰᎥ	-11.6079
ᎦᏪᏍᎬᎩ	-11.608
ᏍᎩᏓᏒᎢ	-11.6083
ᏅᎪᏨ	-11.6085
ᏍᏙᏗᏍᎨ	-11.6087
ᎶᏄᎮᏗᏱ	-11.6087
ᏌᏬᎸ	-11.6089
ᎪᎸᏛ	-11.609
ᏔᎷᎩᏍᎬ	-11.6094
ᎸᏉᏕᏍᏗ	-11.6101
ᏰᎾ	-11.6103
ᏰᏂ	-11.6106
ᏏᎾᏌᏂ	-11.6107
ᎦᏔᎿᎢ	-11.6107
▁ᏱᎬᏆ	-11.6108
ᎦᎾᏅᎪ	-11.611
ᏓᏘᎾᎥ	-11.6112
ᏘᏃᎮᎴ	-11.6112
ᏓᏙ	-11.6113
ᏯᏛᎥ	-11.6113
▁ᏱᏅᏩᏍᏗ	-11.6115
ᏙᎵᏨᎢ	-11.6119
ᏔᏲᏎᎮ	-11.6122
▁ᎨᎢᎾᏂ	-11.6123
ᏂᏪᏍᎨ	-11.6124
▁ᎢᏏᎦ	-11.6124
▁ᎤᎾᏗᎦᎴᏲᏨᎯ	-11.6125
ᏨᏌ	-11.6129
▁ᎢᏓᏙᎴᎰᎯ	-11.6129
ᎨᎳᏍᏙᏗ	-11.613
ᏂᏆᏘᎲ	-11.613
▁ᏛᎬ	-11.613
▁ᏓᎩᎪᎲ	-11.6134
ᎪᏫ	-11.6134
ᏛᎦᏁ	-11.6136
ᏉᎯᏳ	-11.6139
ᏓᎦᎶᏐᏂ	-11.6139
ᎦᏖᏃ	-11.6143
ᏱᎵ	-11.6145
▁ᎠᏌᎹᏗ	-11.6145
ᎤᏁᏤ	-11.6147
ᎦᏅᎯᏓ	-11.6147
▁ᎠᎩᏫ	-11.6149
ᎵᏍᎪᎸᏗᏍᎬ	-11.6151
ᎮᎵᎠᏍᎪ	-11.6151
ᎭᏁ	-11.6153
▁ᎤᏂᏂᎬᏎᎲ	-11.6154
▁ᎤᏅᏍᎦᎴ	-11.6154
▁ᎤᎾᎵᎪᏎ	-11.6154
ᎦᎾᏄᎪᏫᏍᎪ	-11.6154
▁ᎤᏓᏙᏎᎴ	-11.6155
▁ᏓᎾᏓᏅᏖᏍᎬ	-11.6155
ᏂᎦᏛᏁᎰᎢ	-11.6155
▁ᏳᏂᎪᎮ	-11.6155
ᎩᎦᎨᏍᏛᏱ	-11.6156
ᏕᏓᏓᎪᎲᏳ	-11.6156
ᎣᏏᏉᏍᎪ	-11.6156
ᏂᏁᎦᎸ	-11.6158
ᏗᎦᎪᏗᏱ	-11.6158
▁ᏩᏂᎦᏛ	-11.6159
▁ᎢᏣᏓᏁᏟᏴᏏᏒ	-11.616
ᏄᏩᎢᏴ	-11.616
ᏁᎢᏍᏔᏁ	-11.616
▁ᏥᎦᎷᎪ	-11.616
▁ᏱᏅᏎᎦᎩ	-11.616
▁ᏚᎸᏫᏍᏓᏁᎮ	-11.6161
▁ᎢᏨᏬᏁᏔᏅ	-11.6161
▁ᎤᏁᎸᏔᏁ	-11.6161
ᎤᏬᏚᏨ	-11.6161
ᎠᏋᏌ	-11.6162
ᏘᏅᏎ	-11.6162
▁ᎤᏔᎳᏬᏍᎬ	-11.6162
▁ᏫᏚᏳᎪᏛ	-11.6162
▁ᎾᏆᎵᏍᏓᏁᎸ	-11.6162
ᎠᎳᏑᎶ	-11.6163
ᏧᏂᎸᏫᏍᏓᏁᎯ	-11.6163
ᏔᏕ	-11.6163
▁ᏂᎤᏪᏎ	-11.6163
▁ᎠᏍᏆᏂᎪᏗᏍᎨ	-11.6163
ᎬᏂᏳᏉ	-11.6163
▁ᏂᏚᏂᏪᏎᎴ	-11.6163
▁ᏕᏣᎸᏫᏍᏓᏁᎲ	-11.6164
▁ᎭᏕᎶᎰ	-11.6165
ᏓᎩᏎ	-11.6165
ᏣᏄᏏ	-11.6165
▁ᎠᎾᎢᏎ	-11.6165
▁ᏓᎩᏏᎳᏛ	-11.6166
▁ᎠᏉᎸ	-11.6166
▁ᏚᏰᎵᎯᏍᏔ	-11.6166
▁ᎤᎾᎦᏙᏍᏕ	-11.6166
▁ᏚᏠᏱᎴ	-11.6167
▁ᏄᏕᏘᏴᎮ	-11.6167
ᎬᏂᏗᏳ	-11.6167
▁ᎠᎵᏍᏕᎵᏍᎬ	-11.6167
ᎺᎵ	-11.6168
ᎤᏔᎷᎩᏍᎩ	-11.6169
ᎡᎳᏂ	-11.6169
▁ᏂᎬᏩᏪᏎᎴ	-11.617
▁ᎠᏫᎾᎨ	-11.617
▁ᎤᏂᏇᏓᎸ	-11.617
ᏂᏚᏪᏎᎸᎩ	-11.617
▁ᎠᏂᏫᎾᎨ	-11.6172
▁ᎠᏂᎪᎵᏰᏍᎨ	-11.6172
ᎣᎯᏍᏙᏗ	-11.6172
ᏐᏈᎵ	-11.6172
ᏧᏪᏥ	-11.6172
▁ᏚᏫᏞᏫᏒ	-11.6173
ᏕᎶᏆᏍᏗ	-11.6173
▁ᎦᏃᎪ	-11.6173
▁ᏚᏂᏂᏴᎮ	-11.6174
ᎦᎵᏉᎩ	-11.6174
ᏈᎳ	-11.6174
ᏚᏓᎴᏛ	-11.6174
▁ᏚᏪᎧᏁᎴ	-11.6174
ᏟᎶᏛ	-11.6176
ᏗᏂᎦᏘᏯ	-11.6177
ᏖᎸᎮᏍᎬ	-11.6177
▁ᎦᎶᏐᎲᏍ	-11.6178
ᏓᏙᎵᏣᏘᏳ	-11.6178
ᏪᏛ	-11.6179
ᎯᏄᎪᎢ	-11.6179
ᏍᏆᏃᏴᎪ	-11.618
▁ᏚᏂᎧᎲ	-11.618
▁ᎤᏕᎰᎯᏍᏗᏳ	-11.618
ᎵᏍᎪᎸᏔᏅ	-11.6181
ᎡᏆ	-11.6182
ᎾᏓᏗᏍᎪ	-11.6182
▁ᏚᏬᏢᏁ	-11.6182
ᏤᎦᏈᏃ	-11.6182
▁ᏄᏅᏁᎴ	-11.6183
ᎾᏕᎶᏆ	-11.6183
▁ᎠᏐᏢᎢᏍᏗᏍᎬ	-11.6183
▁ᎾᏆᏛᏅ	-11.6183
ᏛᏛᎮᎸ	-11.6183
ᎦᏁᎳᏅᎯ	-11.6184
ᏎᎵᏔᏁ	-11.6184
ᏯᏪᎢᏍᏗ	-11.6184
ᏧᏙᎢᏛ	-11.6185
▁ᎮᎲ	-11.6186
ᎪᏎᎮᏍᏗ	-11.6186
ᏓᏨᏁᎵ	-11.6187
▁ᎦᏙᎴᎣ	-11.6187
▁ᏄᏩᏂᏌᏅ	-11.6188
▁ᏚᏪᏲᏁ	-11.6189
▁ᎠᏟᏍᏛ	-11.6189
ᎠᎨᏴ	-11.6192
ᏌᏙᏱ	-11.6192
▁ᏕᏥᎳᏫ	-11.6192
ᏁᏙᎮ	-11.6193
▁ᎤᏂᏚᎲ	-11.6194
ᏅᏫᏍᏔᏅ	-11.6195
▁ᎠᏋᏔᏅ	-11.6195
▁ᏩᎩᎶᏒ	-11.6195
▁ᏚᏂᎳᏫᏨ	-11.6195
ᎪᏢᏅᎯ	-11.6196
ᏂᏐᏢᎢᏍᏙᏗ	-11.6196
ᎬᏂᎨᏒ	-11.6197
ᏍᏚᎢᏎ	-11.6197
ᏀᎢ	-11.6197
▁ᎠᎩᎪᏁᎸ	-11.6197
ᏏᏲ	-11.6198
ᏧᏁ	-11.6198
▁ᏥᏍᏚᏂᎩᏍᏗ	-11.6199
▁ᎦᎾᏄᎪᏥᎸ	-11.6199
▁ᎡᎩᏁᎸ	-11.6199
▁ᎤᏂᏁᎢᏍᏔᏅ	-11.6199
▁ᎤᎾᏘᏅᏍᏗ	-11.62
ᏓᏅᏘᏐ	-11.6201
▁ᏓᏂᏙᎬ	-11.6201
ᏁᎦᎸᎢ	-11.6201
▁ᏗᎨᏥᎢᏍᏗ	-11.6201
▁ᏚᎸᏫᏍᏓᏁ	-11.6201
▁ᏗᎦᎳᏫᎢᏍᏗ	-11.6201
▁ᏱᏥᏏᎾ	-11.6201
ᏣᏁᎳ	-11.6202
ᎧᎿᏩᏗᏓ	-11.6202
▁ᎢᏳᏂᏪᏍᏗ	-11.6202
▁ᏧᏄᎪᏙᏗ	-11.6202
ᏣᏛᎦᏁᎸ	-11.6202
ᎻᎦ	-11.6203
ᏟᎶᏍᏔᏅ	-11.6203
ᏅᏍᏓᏕᎴ	-11.6203
▁ᏫᏨᎷᏤᏗ	-11.6203
▁ᏭᏂᎷᎯᏍᏗ	-11.6203
ᎦᏌᏯᏍᏙᏗ	-11.6204
ᏤᏍᏙᎩᎯ	-11.6204
▁ᎤᎵᏍᎪᎸᏔᏁ	-11.6204
ᏜᏏᏛᎡᎲᎾ	-11.6204
ᎨᏢᏔᏅᎭ	-11.6205
ᏤᏙᎭ	-11.6205
▁ᎠᏂᏁᏉ	-11.6206
ᏧᏍᏛ	-11.6206
ᏢᏈᏍᏗ	-11.6206
▁ᎢᏳᎾᎵᏍᏙᏗ	-11.6206
ᏗᎦᎵᏍᏙᏗᎭ	-11.6206
▁ᎤᏃᎯᏳᏗ	-11.6207
ᎵᏍᏓᏴᎾᏁᏗ	-11.6207
ᏩᏙᎯᏯᏛ	-11.6207
ᏅᏁᎮᏍᏗ	-11.6208
ᏝᏪᎯ	-11.6209
ᏯᏛᏂᏏ	-11.621
▁ᎤᏂᏁᎢᏍᏗ	-11.621
ᏐᎭᏛ	-11.621
▁ᎤᎵᏏᎾᎯᏍᏗ	-11.621
▁ᏂᏣᎵᏍᏔᏅ	-11.621
▁ᏇᏗᏂ	-11.621
ᎪᏢᏔᏅᎯ	-11.621
▁ᎠᏆᎵᎮᎵᏍᏗ	-11.621
▁ᎵᏳ	-11.6211
▁ᎤᎾᏠᏤ	-11.6211
▁ᏕᎬᎦᎿᏩᏗᏙ	-11.6211
▁ᏗᎩᎸᏫᏍᏓᏁᏗ	-11.6211
er	-11.6211
ᏣᎵᎡᎵᏤᏗ	-11.6212
▁ᎢᏣᏛᎦᏅ	-11.6212
▁ᎠᎾᏙᎴᎰ	-11.6212
ᏗᏌᏓᏕ	-11.6213
ᏐᏈ	-11.6213
▁ᏧᏃᏚᎯ	-11.6213
▁ᏱᏣᏚᎵ	-11.6213
▁ᎾᏆᎵᏍᏔᏁ	-11.6213
ᎴᏫᏍᏔᎾ	-11.6213
in	-11.6213
▁ᎦᏓᎷᎪᏗ	-11.6214
▁ᎦᏃᏙᏗ	-11.6214
ᎵᏏᎾᎯᏍᏛᎾ	-11.6214
▁ᏂᎨᎬᏁᎸ	-11.6215
ᎦᏃᎱᎩᏍ	-11.6215
ill	-11.6215
▁ᎢᏣᏓᏤᎵ	-11.6215
ᏍᏓᏩᏛᏛ	-11.6215
▁ᎤᎩᏓᏟ	-11.6216
ᎫᎪᏓᏁᏗ	-11.6216
▁ᏳᏔᎳᏬ	-11.6216
ichael	-11.6216
reland	-11.6216
treet	-11.6216
ᎦᏨᏩᏍᏙᏗᏱ	-11.6216
ᏍᏕᎵᏌᏕᏒᎭ	-11.6216
ᏓᏓᎾᏁᎶᏂᎨ	-11.6216
ᏗᎦᏔᏫᎢᏍᏗᏱ	-11.6216
ᏥᏍᏓᎷᎩᏍᎩ	-11.6216
▁ᎠᎩᏔᎳᏬᏍᎬ	-11.6216
▁ᎠᎩᏬᏂᏒ	-11.6216
▁ᎠᎩᏲᎱᏏᏗ	-11.6216
▁ᎠᎵᎬᏚᎶ	-11.6216
▁ᎠᎾᎵᏥᏙᎲᏍᎨ	-11.6216
▁ᎠᎾᏓᏌᎩᏙᎲ	-11.6216
▁ᎠᏍᎪᎯᎫᏈ	-11.6216
▁ᎠᏐᏢᎢᏍᏗᏍᎨᏍᏗ	-11.6216
▁ᎠᏥᎤᏍᏕᏎᏗ	-11.6216
▁ᎡᏣᎵᎡᎵᏤᎮᏍᏗ	-11.6216
▁ᎡᏤᏲᏅᎢ	-11.6216
▁ᎢᎡᏍᏕᎵᏌᏕ	-11.6216
▁ᎢᎦᏲᎦᏛᏁᏗ	-11.6216
▁ᎢᎬᏂᎢᏛᏉ	-11.6216
▁ᎢᏍᏙᏎᎸᎭ	-11.6216
▁ᎢᏦᎦᏓᎵ	-11.6216
▁ᎢᏯᎳᏏᏔᏅ	-11.6216
▁ᎢᏳᏅᏂᏌᏛ	-11.6216
▁ᎤᎳᏍᏚᏒ	-11.6216
▁ᎤᎾᏓᏄᏴᏗ	-11.6216
▁ᎤᏁᏍᏓᎶᏨ	-11.6216
▁ᎤᏍᎫᏓᏁᎦᎸ	-11.6216
▁ᎤᏍᏆᎷᎪ	-11.6216
▁ᎤᏓᏅᎵᏰᏓ	-11.6216
▁ᎤᏓᏦᎯᏯ	-11.6216
▁ᎤᏩᎦᏘᎶᏓ	-11.6216
▁ᎤᏩᎫᏘᎶᏛ	-11.6216
▁ᎤᏲᎱᏏᏕᎾ	-11.6216
▁ᎦᎫᏍᏓᎥ	-11.6216
▁ᎦᏖᏌᏗ	-11.6216
▁ᎦᏨᏩᏍᏔᏅᎯ	-11.6216
▁ᎨᏤᎳᏗᏙᎮᏍᏗ	-11.6216
▁ᎬᏩᏃᎯᏳᏗ	-11.6216
▁ᎬᏩᏓᏡᏫᏍᏔᏅᎩ	-11.6216
▁ᎭᏓᎦᏖᏙᎢᏍᎨᏍᏗ	-11.6216
▁ᎯᏲᏍᏗᏍᎩ	-11.6216
▁ᎳᎭᎢᎶᎢ	-11.6216
▁ᎾᎾᏓᏛᏍᎬᎾ	-11.6216
▁ᏂᎠᏂᏪᎭ	-11.6216
▁ᏂᎧᏪᏍᎬᎩ	-11.6216
▁ᏂᏓᎷᎸᎥᏍᎬᎾ	-11.6216
▁ᏂᏓᏂᎧᎿᏩᏕᎬᎾ	-11.6216
▁ᏂᏓᏓᏂᎸᎬᎾ	-11.6216
▁ᏂᏕᏥᎾᏝᎥᎾ	-11.6216
▁ᏂᏗᎦᎵᏍᏔᏂ	-11.6216
▁ᏂᏗᏣᏓᏂᎸᎬᎾ	-11.6216
▁ᏂᏚᎾᏑᎴᎲᎾ	-11.6216
▁ᏂᏣᏠᎾᏍᏛᎾ	-11.6216
▁ᏂᏥᏪᏍᎪᎢ	-11.6216
▁ᏄᎵᏍᎨᏗᏴ	-11.6216
▁ᏄᏂᎦᏙᎥᏒᎾ	-11.6216
▁ᏅᏓᎨᏥᏅᏏᏛ	-11.6216
▁ᏅᏓᏍᏛᏴᏁᎵ	-11.6216
▁ᏅᏓᏲᏣᏛᏁᎵ	-11.6216
▁ᏅᏩᏍᏗᏗᏎᏍᏗᏉ	-11.6216
▁ᏈᏯᏏᏱᏆ	-11.6216
▁ᏍᎩᎨᏳᎭᏧ	-11.6216
▁ᏍᏆᏎᎵᏓᏁᎸᎢ	-11.6216
▁ᏍᏆᏎᎵᏓᏏ	-11.6216
▁ᏍᏇᎵᏎᏗᏱ	-11.6216
▁ᏐᎣᏁᎵᏁ	-11.6216
▁ᏓᎪᏄᎶᏏᏙᎮᏍᏗ	-11.6216
▁ᏓᎵᏖᎸᏂᏙᎮᏍᏗ	-11.6216
▁ᏓᏂᏍᏔᏲᎯᎲ	-11.6216
▁ᏓᏆᏚᏫᏍᏔᏅᎩ	-11.6216
▁ᏓᏛᎯᏍᏓᏁᎮᏍᏗ	-11.6216
▁ᏔᏓᏅᏗᏍᏓ	-11.6216
▁ᏕᎦᎶᎴᎬᎢ	-11.6216
▁ᏕᏥᏅᎪᎥᏗᏍᎨᏍᏗ	-11.6216
▁ᏕᏥᏅᏫᏍᎨᏍᏗ	-11.6216
▁ᏗᎩᎪᎶᎯ	-11.6216
▁ᏗᎩᎸᏫᏍᏓᏁᎯ	-11.6216
▁ᏗᎬᏩᏁᎶᏙᏗᏱ	-11.6216
▁ᏙᏓᏳᎸᏫᏍᏓᏁᎵ	-11.6216
▁ᏙᏗᏂᏁᎸᎢ	-11.6216
▁ᏚᎵᏘᎾᎥ	-11.6216
▁ᏚᎾᏠᏱᎴᎢ	-11.6216
▁ᏚᏃᏣᎳᏁ	-11.6216
▁ᏚᏃᏣᎶᏤ	-11.6216
▁ᏚᏟᎶᏍᏓᏁᎸᎩ	-11.6216
▁ᏚᏢᏫᏎᎴ	-11.6216
▁ᏚᏯᏪᎬ	-11.6216
▁ᏛᎵᏛᏔᏂ	-11.6216
▁ᏛᏥᎷᏥ	-11.6216
▁ᏝᏬᏔ	-11.6216
▁ᏣᏍᏕᏅᏨ	-11.6216
▁ᏣᏗᏫᏍᏓ	-11.6216
▁ᏣᏚᎧᏔᏁ	-11.6216
▁ᏤᎦᏬᎥᎯ	-11.6216
▁ᏥᏫᏗᎨᎦᏘᏅᏍᏔᏁ	-11.6216
▁ᏧᎦᏎᏍᏗᏕᎩ	-11.6216
▁ᏧᎪᏅᏍᏓᎵ	-11.6216
▁ᏧᏓᏅᎵᏰᏓ	-11.6216
▁ᏧᏓᏴᎳᏙ	-11.6216
▁ᏨᏆᏁᎶᏗ	-11.6216
▁ᏨᏓᎬᏯᏎᎮᎵ	-11.6216
▁ᏩᎦᏘᏅᏍᏙᏗᏱ	-11.6216
▁ᏩᏓᏁᏟᏴᏍᏓ	-11.6216
▁ᏫᏗᏍᎩᏯᏅᏏ	-11.6216
▁ᏭᏪᏙᎴᎢ	-11.6216
▁ᏯᏕᎶᎰᏍᎦ	-11.6216
▁ᏱᏅᏓᎦᎵᏍᏙᏓ	-11.6216
▁ᏱᏙᎬᏩᎸᏫᏍᏓᏏ	-11.6216
▁ᏱᏚᏓᏌᏝᎮᏍᏗ	-11.6216
▁ᏱᏚᏪᏘᎸ	-11.6216
▁ᏱᏨᏲᏪᎳᏁᎭ	-11.6216
▁ᏳᏙᎴᎰᏎ	-11.6216
▁ᏴᎬᏂᎷᎩ	-11.6216
▁ᎠᏍᏈᏅ	-11.6216
▁ᎤᏓᏁᏟᏴᏍᏔᏁᎴ	-11.6216
▁ᎦᎨᏥᏐᏢ	-11.6216
▁ᎫᏘᏍᎬ	-11.6216
▁ᏂᎦᎸᏉᏗᏍᎬᎾ	-11.6216
▁ᏃᎩᏪᏒᎩ	-11.6216
▁ᏇᏣᏱᏗ	-11.6216
▁ᏓᏓᏬᏍᏗᏍᎬᎩ	-11.6216
▁ᏦᎩᎦᏴᎵᎨᎢ	-11.6216
ᎵᏰᏑᏍᏚᏬ	-11.6216
ᏗᎨᏥᏰᎪᎢ	-11.6216
▁ᎢᏍᏉᏎᎭ	-11.6216
▁ᎤᎵᏏᏂᏕᎾ	-11.6216
▁ᎤᎶᏏᎶᏛ	-11.6216
▁ᎤᎾᏦᏍᏔᏁ	-11.6216
▁ᎤᏁᏄᎳᏍᏔᏁᎢ	-11.6216
▁ᎤᏂᎾᏰᏒᎩ	-11.6216
▁ᎤᏓᏏᏂᏕᏅ	-11.6216
▁ᎬᎭᏃᏓ	-11.6216
▁ᏂᏚᎿᏍᏕᏢᎾ	-11.6216
▁ᏄᏓᏅᎯᏒ	-11.6216
▁ᏄᏓᏓᎸᎾ	-11.6216
▁ᏌᎷᏱ	-11.6216
▁ᏍᎩᏯᏅᏓᏗᏍᎬᎢ	-11.6216
▁ᏓᏰᏍᏗᏩᏛᎯ	-11.6216
▁ᏗᎪᏒᏍᏔᏅ	-11.6216
▁ᏗᎪᏪᎶᏙᏗ	-11.6216
▁ᏗᏂᏃᎩᏍᎩ	-11.6216
▁ᏗᏂᏍᏔᏲᎯ	-11.6216
▁ᏗᏛᏂᏗᏳ	-11.6216
▁ᏙᏗᎦᏚᎲ	-11.6216
▁ᏙᏛᏂᏲᎯᏎᎵ	-11.6216
▁ᏙᏧᏁᏅᏒ	-11.6216
▁ᏥᏅᏓᎦᎵᏍᏔᏂ	-11.6216
▁ᏧᎧᎭᏲᏛ	-11.6216
▁ᏧᎩᏓᏟ	-11.6216
▁ᏧᏃᏕᏍᏗᏍᎩ	-11.6216
▁ᏧᏠᎠᏒ	-11.6216
▁ᏭᎦᏔᎲᏍᏔᏅ	-11.6216
▁ᏭᏅᎬᏛ	-11.6216
▁ᏯᏓᏬᏍᎨᏍᏗ	-11.6216
▁ᏱᎱᏩ	-11.6216
▁ᏳᏥᏍᎪᎸ	-11.6216
ᏥᏲᎤᎯ	-11.6216
▁ᎠᎻᏗᏏ	-11.6216
▁ᎠᏂᏁᎢᏍᏗᏍᎩ	-11.6216
▁ᎠᏓᏍᏕᎸᏓ	-11.6216
▁ᎢᏨᏂᏌᏛ	-11.6216
▁ᎤᎾᎵᏍᎪᎸᏔᏅᎩ	-11.6216
▁ᎤᎾᏗᏒᎸ	-11.6216
▁ᎤᏁᏓᏥᏛ	-11.6216
▁ᎤᏂᏔᏲᎴ	-11.6216
▁ᎤᏔᎷᎩᏍᎨ	-11.6216
▁ᎤᏦᏔᎮ	-11.6216
▁ᎨᏂᏏᎳᏗ	-11.6216
▁ᎪᎸᏌᏛᏗ	-11.6216
▁ᎯᎳᏳᎢ	-11.6216
▁ᎻᎴᎳ	-11.6216
▁ᎾᏉᎯᏳᏒᎾ	-11.6216
▁ᏂᎪᎯᎴᏍᏗ	-11.6216
▁ᏄᎵᏍᏚᎸᎾ	-11.6216
▁ᏈᏥᏱ	-11.6216
▁ᏓᎬᏯᎫᏴᎡᎵ	-11.6216
▁ᏓᏍᏆᎸᎮᎬᎢ	-11.6216
▁ᏕᎦᎦᏙᏍᏛ	-11.6216
▁ᏕᏣᏤᎴᏍᏗ	-11.6216
▁ᏗᏕᎶᏆᏍᎩ	-11.6216
▁ᏙᏓᎨᏥᏲᎯᏎᎵ	-11.6216
▁ᏚᏂᎵᏬᏨᎩ	-11.6216
▁ᏝᏬᏚ	-11.6216
▁ᏥᎾᎾᏛᏁᎰ	-11.6216
▁ᏥᏂᎦᏛᏁᎭ	-11.6216
▁ᏧᎾᏁᎳᎩᎭ	-11.6216
▁ᏧᏍᏆᏅᏂ	-11.6216
▁ᏴᎨᏦᎯᏳᎲᎦ	-11.6216
aire	-11.6216
ᏂᏆᏘᎸ	-11.6216
ᏕᏯᏔᏁᎭ	-11.6216
ᏤᏲᎲᏍᎦ	-11.6216
▁ᎠᎦᏘᏗᏍᏙᏗ	-11.6216
▁ᎠᎩᎳᏫᏍᏗᏱ	-11.6216
▁ᎠᎾᏓᎸᏉᏗᏍᎩ	-11.6216
▁ᎠᏥᎸᏳᎸᏗ	-11.6216
▁ᎡᏥᎦᏙᎥᏒᏰᏃ	-11.6216
▁ᎢᏳᏂᏨᎯ	-11.6216
▁ᎤᎦᏑᎲᎢ	-11.6216
▁ᎤᎦᏛᎴᎯᏍᏗᏱ	-11.6216
▁ᎤᎾᏁᎶᏔᏁ	-11.6216
▁ᎤᏓᎴᎾᏍᏗᏱ	-11.6216
▁ᎤᏙᎴᎱ	-11.6216
▁ᏅᏩᏛᏁᏍᏗ	-11.6216
▁ᏒᎦᏙᎯ	-11.6216
▁ᏗᎦᎾᎯᏍᏙᏗ	-11.6216
▁ᏗᏂᎭᏲᎯ	-11.6216
▁ᏗᏂᏏᎲᏍᎩ	-11.6216
▁ᏚᎾᏂᏏᏁᎢ	-11.6216
▁ᏚᏇᏍᏘ	-11.6216
▁ᏣᎦᏥᎶᏍᏔᏅ	-11.6216
▁ᏦᎧᏔᏂ	-11.6216
▁ᏮᏓᎦᏙᎴᎣᏏ	-11.6216
▁ᎠᎾᎵᏍᏓᏴᏂᏙᎮ	-11.6216
▁ᎢᏯᏂᏪᏍᎩ	-11.6216
▁ᎣᎾᏫᏱ	-11.6216
▁ᎤᏁᎳᎥᎯ	-11.6216
▁ᎤᏩᎢᏎᎸᎯ	-11.6216
▁ᏓᏤᏅᎡᎵ	-11.6216
▁ᏗᏲᎳᏅᎯ	-11.6216
▁ᏠᏆᎹ	-11.6216
▁ᏥᎦᏍᎦᏂ	-11.6216
▁ᏧᎶᎸᏗ	-11.6216
▁ᏧᏛᏒᏁ	-11.6216
▁ᏭᏩᏌᏙᏰᎢ	-11.6216
▁ᏱᏄᏓᎠ	-11.6216
▁ᎠᎾᎵᏙᎩᏯᏍᎩ	-11.6216
▁ᎠᏂᏇᎵᏏ	-11.6216
▁ᎢᏯᏆᎵᏍᏓᏁᏗ	-11.6216
▁ᎤᏕᏯᏔᏁᎸ	-11.6216
▁ᎦᎷᎶᎩ	-11.6216
▁ᎾᏂᏴᎬᎾ	-11.6216
▁ᏙᏓᏰᏣᏬᏍᏔᏂ	-11.6216
▁ᏭᏴᏅᎮ	-11.6216
▁ᏱᎰᏣᏰᏃ	-11.6216
ᎩᏲᎱᏎᎲᎩ	-11.6216
▁ᏅᏗᏛᏁᎵᏒ	-11.6216
▁ᏚᎾᎵᏯᏍᏚ	-11.6216
▁ᎢᏍᎩᎪᏩᏘᏍᎨᏍᏗ	-11.6216
▁ᎢᏨᏁᏤᎸᎢ	-11.6216
▁ᎤᎾᎵᏛᏔᏅ	-11.6216
▁ᎤᎾᏕᎶᏆᏍᏗᏱ	-11.6216
▁ᎬᏍᎦᎳᏅᎯ	-11.6216
▁ᏄᎸᏉᏔᏅᎾ	-11.6216
▁ᏗᏂᏃᏣᎵ	-11.6216
▁ᏗᏑᏫᏍᎩ	-11.6216
▁ᏧᏕᏲᏗᏱ	-11.6216
▁ᏱᏍᎩᎪᏩᏘᏍᎨᏍᏗ	-11.6216
▁ᏱᏩᏍᏔ	-11.6216
▁ᎠᏍᏆᎾᎸ	-11.6216
▁ᎡᎵᏍᏓᎦ	-11.6216
▁ᎢᏨᏲᏎᏰᏃ	-11.6216
▁ᎨᎬᏓᏁᏗ	-11.6216
▁ᎾᏂᎦᏔᎾᎥᎾ	-11.6216
▁ᏚᎭᏁᎦᎸ	-11.6216
▁ᎠᏕᏄ	-11.6216
▁ᎤᏂᏍᏛᏛᎯ	-11.6216
▁ᎤᏚᏣᎳᏅᎩ	-11.6216
▁ᎾᎾᎵᏍᏗᎭ	-11.6216
▁ᏂᏙᏓᎦᏪᏎᎵ	-11.6216
▁ᏄᏂᏍᎦᏅᏨᎾ	-11.6216
▁ᏓᎦᏥᏁᏉᎢ	-11.6216
▁ᏕᎯᏯᏁᎶᏕᏍᏗ	-11.6216
▁ᏕᏤᏯᏙᏤᎮᏍᏗ	-11.6216
▁ᏗᎬᏩᎾᏛᎪᏙᏗ	-11.6216
▁ᏬᎩᏃᎸᎩ	-11.6216
▁ᏱᏄᎵᏍᏔᏃ	-11.6216
▁ᎡᏍᏗᏔᏲᏏ	-11.6216
▁ᎢᏥᎪᎵᏰᎥᎭ	-11.6216
▁ᎵᎰᏉ	-11.6216
▁ᎾᏂᎦᏔᎿᎥᎾ	-11.6216
▁ᏣᏓᏅᏖᏗᏱ	-11.6216
ᏬᎯᎵᏴᏍᏓᏁ	-11.6216
▁ᎠᏍᏚᎢᏛ	-11.6216
▁ᎠᏥᏅᏩᏅᎢ	-11.6216
▁ᎠᏲᏩᏁᎦ	-11.6216
▁ᎤᏍᎦᎢᏓ	-11.6216
▁ᎾᏓᏛᏁᎲᎢ	-11.6216
▁ᏂᏙᏓᎬᏁᎵ	-11.6216
ᎩᎵᏲᎨᏍᏗ	-11.6216
ᏨᏯᏛᏛᏂ	-11.6216
▁ᎢᎨᏥᏛᎯ	-11.6216
▁ᎤᎦᏌᏛᎢ	-11.6216
▁ᏗᎾᏓᏙᏕᏍᏗᏍᎩ	-11.6216
▁ᎠᏂᎫᏌᏩᎩ	-11.6216
▁ᎤᏰᎶᎢᏍᏔᏁᏃ	-11.6216
▁ᏂᏚᎾᎵᏂᎬᎬ	-11.6216
▁ᏍᎩᏯᏛᏓᏍᏓᏏ	-11.6216
▁ᏙᎦᏠᏒᎩ	-11.6216
▁ᏧᎦᏙᏍᏙᏗ	-11.6216
▁ᏮᏓᎦᎶᏏ	-11.6216
▁ᎨᎩᏍᎦᎩ	-11.6216
▁ᏓᏨᏳᏓᎴᏏ	-11.6216
▁ᏫᏴᎨᏥᎷᎩ	-11.6216
▁ᏳᏂᏣᏔ	-11.6216
▁ᎢᏣᏛᎩᏍᎨᏍᏗ	-11.6216
▁ᎵᏆᏗᎻ	-11.6216
▁ᏄᎵᏍᏔᏂᏙᎴ	-11.6216
▁ᏥᎨᏳᎠ	-11.6216
ᏣᏘᏃᎯᎮᏍᏗ	-11.6216
▁ᎠᏃᏢᏅᎥᏍᎩ	-11.6216
▁ᎢᏳᎾᏕᏘᏴᏛ	-11.6216
▁ᏓᏍᏔᏅᏅ	-11.6216
▁ᎠᏄᎦᎸᏃ	-11.6216
▁ᎣᏌᏯ	-11.6216
▁ᎤᏙᏣᎸᎢ	-11.6216
▁ᎢᏏᎳᎻ	-11.6216
ᏓᎾᏫᏛᏗ	-11.6216
▁ᎫᏓᎴᏍᎩ	-11.6216
▁ᏄᏅᏂᏌᏁ	-11.6216
▁ᏧᏃᏑᎴᏗ	-11.6216
▁ᎤᏄᏬᎥᎯ	-11.6216
▁ᎤᏎᎵᏓᏁᎴᏃ	-11.6216
ᎬᏣᏝᏅ	-11.6216
▁ᎯᏯᏛᎥᎦ	-11.6216
▁ᏥᏂᏴᏁᎭ	-11.6216
▁ᏥᏚᏃᎱᎦᏁ	-11.6216
▁ᏥᏰᎸᎥ	-11.6216
ton	-11.6216
ᏙᏥᎵᏦᏛᎦ	-11.6216
▁ᎠᏍᏆᎸᎲᎭ	-11.6216
▁ᎬᏁᏤᎸᎢ	-11.6216
▁ᏕᏓᎧᏂᏍᎬ	-11.6216
▁ᏗᎦᏚᏗᏱ	-11.6216
ᎱᏢᏔᏅᎭ	-11.6216
▁ᎢᏤᎳᏗᏙᎭ	-11.6216
▁ᏐᏚᎯ	-11.6216
▁ᏓᏂᎾᏌᏛ	-11.6216
▁ᏗᏛᏃᏛ	-11.6216
▁ᏥᏄᎾᏍᏛᎢ	-11.6216
▁ᏧᎳᏏᏗᏱ	-11.6216
▁ᏳᏁᏐ	-11.6216
▁ᎤᏗᏛᎲᎩ	-11.6216
▁ᏗᎨᎦᎸᎢᏛ	-11.6216
▁ᎬᏬᏍᏔᏅᎯ	-11.6216
▁ᏅᏓᏨᏴᏁᎵ	-11.6216
▁ᎢᏰᎬᏁᎸᎯ	-11.6216
▁ᎤᏓᎾᏏᏅᏍᏔᏁᎢ	-11.6216
▁ᏄᎾᏓᏁᏟᏴᏎᎢ	-11.6216
ᎿᎸᏍᏗᏍᎨᏍᏗ	-11.6216
▁ᏄᏂᏧᏈᏍᏕᏍᏗ	-11.6216
ᎾᎪᏄᎸ	-11.6216
▁ᎠᏉᎵᏨ	-11.6216
▁ᎺᎵᎩᏏᏕᎩ	-11.6216
ᎵᏍᏓᏁᎵᏕᎬ	-11.6216
▁ᎤᏂᏲᎢᏎᎸᎯ	-11.6216
▁ᏓᎾᏦᏍᎬ	-11.6216
▁ᏴᎦᎦᏗᏔ	-11.6216
▁ᎤᎾᏓᏓᏍᎩᏌᎲ	-11.6216
▁ᏥᏯᎵᎪᏁᎯ	-11.6216
▁ᏫᏚᎾᏘᏃᎮᎸᎩ	-11.6216
▁ᎾᏂᎾᏰᏍᎬᎾ	-11.6216
▁ᎾᏆᎵᏍᏓᏁᎵᏕᎬ	-11.6216
▁ᏗᎬᏩᎾᏓᏂᎸᎢᏍᏗ	-11.6216
▁ᎠᎵᏱᎵᏒᎢ	-11.6216
▁ᎡᏥᏁᏉᎡᏗ	-11.6216
▁ᎦᏥᏃᏍᏛ	-11.6216
▁ᎠᎵᏍᏆᏛᎭ	-11.6216
▁ᎡᏣᏁᎳᏁᎸ	-11.6216
▁ᏂᏥᏍᎦᏅᎾ	-11.6216
▁ᏅᏓᏳᏄᎪᏨᎯ	-11.6216
▁ᏓᏆᎴᎸ	-11.6216
▁ᏫᏚᎵᏍᏘᏂᎸ	-11.6216
▁ᏄᎾᏙᏓᏈᏒ	-11.6216
ᎳᏍᏕᎵᏴᏌ	-11.6216
▁ᎤᏃᎱᎦᏅ	-11.6216
▁ᎤᏅᏘᏛ	-11.6216
▁ᎦᏛᎩᏍᎬ	-11.6216
▁ᏗᎬᏎᎰᎲᏍᏗ	-11.6216
ᏩᏛᎱᎦ	-11.6216
▁ᎤᏄᏖᏎ	-11.6216
▁ᎻᏗᏯᏂ	-11.6216
▁ᏓᏱᏓᎵ	-11.6216
▁ᎠᏥᎸᏉᏙᏗ	-11.6216
▁ᎢᏣᏓᏯᏫᏍᎨᏍᏗ	-11.6216
▁ᏂᎦᎵᏍᏔᏂᏙᎮᏍᏗ	-11.6216
▁ᏕᎦᏕᏲᎲᏍᎬ	-11.6216
▁ᏂᎦᎷᎶᎬᎾ	-11.6216
▁ᎡᏣᏁᏍᎨᎲᎯ	-11.6216
ᎾᏬᏍᏔᏁᎢ	-11.6216
▁ᎹᏈᎳ	-11.6216
▁ᏓᏳᏂᏄᎪᏨᎩ	-11.6216
▁ᎠᏆᏁᎳᏫᏎ	-11.6216
▁ᏗᏥᏅᏍᎨᏂ	-11.6216
▁ᏚᏄᏮ	-11.6216
▁ᏭᏗᏢᏍᏔᏅ	-11.6216
▁ᏕᎧᏃᎮᏍᎬ	-11.6216
▁ᏅᏓᏥᏯᏛᏁᎵ	-11.6216
▁ᎤᎾᎵᏍᏓᏴᏃᏅ	-11.6216
ᏚᎸᎡᎸᎩ	-11.6216
▁ᎢᏯᏖᏅ	-11.6216
▁ᎤᏉᏔᏗ	-11.6216
▁ᏏᏗᎻ	-11.6216
▁ᏙᏍᏓᏓ	-11.6216
▁ᏮᏓᏥᎶᏏ	-11.6216
▁ᏣᎪᏎᎰᎢ	-11.6216
▁ᎤᏬᎦᏒ	-11.6216
▁ᏰᏦᏎᎮᏍᏗ	-11.6216
▁ᎠᎦᎸᏥ	-11.6216
▁ᎠᏂᎾᏰᏍᎬ	-11.6216
▁ᎢᏥᏁᎢᏍᏗᏱ	-11.6216
▁ᎤᏔᎶᏁ	-11.6216
▁ᎠᎾᏗᏒᎯᎮ	-11.6216
▁ᏓᏂᏏᎳᏛᎥᏍᎨ	-11.6216
▁ᏪᏙᎰ	-11.6216
▁ᎠᎾᏓᎩᎡᎯ	-11.6216
▁ᏥᏚᏓᏲᏎ	-11.6216
▁ᎠᎾᎵᏥᏙᎲᏍᎦ	-11.6216
▁ᎤᎦᏔᏔᏁᎢ	-11.6216
▁ᏂᏥᎾᏰᏍᎬᎾ	-11.6216
▁ᏦᏓᎻ	-11.6216
▁ᏦᏪᎶᏗ	-11.6216
▁ᏙᎩᎾᏗᏔᎲ	-11.6216
▁ᏚᏂᎳᏫᏦᎴ	-11.6216
▁ᎠᎫᏤᎵᎪ	-11.6216
ᏣᏛᏓᏍᏗᏍᎨᏍᏗ	-11.6216
▁ᎤᎾᏣᏪᏐᎸᏍᏙᏗᏱ	-11.6216
▁ᏗᏓᏛᏍᎩ	-11.6216
▁ᏚᏃᏪᎸᎢ	-11.6216
ᏑᏢᏛ	-11.6216
▁ᎦᏅᏃᏫ	-11.6216
▁ᎡᏓᎵᏍᎦᏍᏙᏛ	-11.6216
▁ᎢᏳᎾᎵᏍᏔᏁᏗ	-11.6216
▁ᎢᏣᏟᏂᎬᏁᏗᏱ	-11.6216
▁ᎢᏣᏓᏅᏓᏓ	-11.6216
▁ᏅᏓᎬᏩᏍᏓᏩᏛᏛ	-11.6216
▁ᏧᏁᎩᏳ	-11.6216
▁ᏙᎩᏃᏢ	-11.6216
▁ᏂᎨᏣᏛᏁᎮᏍᏗ	-11.6216
ille	-11.6216
▁ᎦᏢᏍᎩ	-11.6216
▁ᎡᏥᎸᏉᏗᏍᎨᏍᏗ	-11.6216
▁ᎤᏂᏛᏗᏍᎩ	-11.6216
▁ᏚᎾᏠᎯᏍᏛ	-11.6216
▁ᏚᏪᎧᎲᏎ	-11.6216
▁ᎠᎩᏟᏲ	-11.6217
▁ᎠᎴᏅᎲᎭ	-11.6217
▁ᏚᎾᏁᏢᏔᏅᏒᎢ	-11.6217
▁ᏥᏄᏧᏈᏍᏗ	-11.6217
▁ᏅᏓᎬᏓᎴᏅᏛ	-11.6217
ᏍᏓᏩᏕᏒᎭ	-11.6217
▁ᎢᏨᏯᏅᏓᏗᏍᏗᏍᎬᎢ	-11.6217
▁ᏙᏘᏲᎢ	-11.6217
▁ᏱᏂᎬᏩᏍᏗᏉ	-11.6217
▁ᏓᎾᎴᎯᏌᏅ	-11.6217
ᏓᎴᏴᏗᏍᎩ	-11.6217
▁ᏗᎬᏯᏠᎢᏍᏗ	-11.6217
▁ᏗᏩᎾᎨ	-11.6217
ᏂᏍᏋᎦ	-11.6217
▁ᎠᏎᎵᏛᏍᎬ	-11.6217
▁ᏗᎩᎧᏁᎸᎯ	-11.6217
▁ᏂᏣᏚᎵᏍᎬᎾ	-11.6217
▁ᏂᏕᎦᏅᎯᏒᎩ	-11.6217
▁ᎠᏇᏙᏅ	-11.6217
▁ᏂᏚᏂᎨᏳᏒ	-11.6217
▁ᎤᏂᏔᎳᏬᏒᎩ	-11.6217
▁ᏙᏥᏲᎦ	-11.6217
▁ᏥᏓᏓᏂᎸᎪᎢ	-11.6217
▁ᎪᎵᎦᏓ	-11.6217
▁ᎡᎳᏆᏘ	-11.6217
ᏧᎧᎸᏨ	-11.6217
▁ᎤᏰᏥᏍᎩ	-11.6217
▁ᎢᎨᏓᏍᏗᏱ	-11.6217
ᏣᏓᏅᎡᎸ	-11.6217
▁ᏂᏗᏨᎦ	-11.6217
▁ᎠᏆᏎᎵᏙᏔᏅ	-11.6217
ᎾᏟᏃᎮᎸ	-11.6217
ᏑᎶᏨᎯ	-11.6217
▁ᏕᎱᎪ	-11.6217
▁ᏕᏨᏁᏍᏗ	-11.6217
▁ᏳᎾᏛᏅᎢᏍᏗ	-11.6217
▁ᎠᎩᎸᏗᏍᎩ	-11.6217
▁ᎾᏋᏁᎮᏍᏗ	-11.6217
ᎶᏅᎮᎸ	-11.6217
ᏈᏴᎡᏗ	-11.6217
ᏓᏂᏲᎰᏍᎪ	-11.6217
▁ᏅᏧᏪᏎᎴᎢ	-11.6217
▁ᎦᏃᎱᎩᏍᎨ	-11.6217
▁ᏧᏲᏍᏔᏅᎯ	-11.6217
▁ᏁᏥᎦᏔᎲᎾ	-11.6217
ᏠᎠᏒᎩ	-11.6217
▁ᎤᏬᏠ	-11.6217
▁ᏍᎩᏲᎢᏳᎲᎦ	-11.6217
▁ᏧᎾᎳᏏᏕᏄᎶᏗ	-11.6217
ᏬᏁᏓ	-11.6217
▁ᏍᎩᏂᏌᏅᎭ	-11.6217
▁ᎢᏣᏛᎪᏗ	-11.6217
▁ᏗᏧᎪᏗᏍᎩ	-11.6217
ᏯᏒᎦᎶᏔ	-11.6217
▁ᎠᏆᏍᎦᏱ	-11.6217
▁ᏩᏂᎦᏖᎢ	-11.6217
▁ᎠᏅᏍᎬᎢ	-11.6217
▁ᎠᏓᏅᏬᎯᏍᏗᏍᎩ	-11.6217
▁ᎠᏰᎴᎩ	-11.6217
▁ᎤᎾᏘᏍᏙᏗᏱ	-11.6217
▁ᎠᏉᎯᏳᎲᏍᎨᏍᏗ	-11.6217
▁ᏧᎾᏓᏟᏴᏗ	-11.6217
▁ᏛᏂᎷᏥ	-11.6217
▁ᏤᏣᏛᏅᎩ	-11.6217
▁ᎤᏲᏏᏌᏁᎢ	-11.6217
▁ᏧᎾᎳᏏᏕᏅ	-11.6217
▁ᏄᎪᎸᎾ	-11.6217
▁ᏛᏓᎸᎢ	-11.6217
▁ᏗᏦᏢᏅᎯ	-11.6217
▁ᎢᏨᏲᎵᎦ	-11.6217
▁ᎬᎩᏩᏛᎲᎩ	-11.6217
▁ᎤᏪᎧᎮ	-11.6217
▁ᏫᏓᏂᎷᎦ	-11.6217
▁ᏱᏣᏞᎨᏍᏗ	-11.6217
▁ᎢᏳᏥᎶᏓ	-11.6217
▁ᏓᏰᏥᎪᎢ	-11.6217
▁ᏗᎩᏄᎪᏨ	-11.6217
▁ᏳᏂᏃᎮᎸ	-11.6217
▁ᎢᏥᎪᏙᏍᎨᏍᏗ	-11.6217
▁ᏓᏳᏠᎠᏒᎩ	-11.6217
▁ᎠᏆᏙᎴᎰᎯᏍᏗᏱ	-11.6217
▁ᏓᏳᏍᏕᎸᎯ	-11.6217
▁ᎨᏥᏰᎸᎢ	-11.6217
▁ᎠᏆᏛᏐᏅᎯ	-11.6217
▁ᏚᏂᎦᏘᎸᏎ	-11.6217
▁ᏂᏥᏲᎯᏍᏗᏍᎬᎾ	-11.6217
▁ᏕᏥᎸᏉᏕᏍᏗ	-11.6217
▁ᏕᏣᏂᏴᏒ	-11.6217
ᏟᏫᏛᏗ	-11.6217
▁ᏄᏓᏛᏁᎴ	-11.6217
▁ᏄᏓᏅᏛᎾ	-11.6217
▁ᏕᎤᏲᎯᏎᎴᎢ	-11.6218
▁ᏕᎤᏲᏎ	-11.6218
▁ᎤᏂᏏᏁᎢ	-11.6218
▁ᎥᏆᏬᏍᏙᏗ	-11.6218
▁ᏛᎩᏲᎵ	-11.6218
▁ᎤᏂᎦᏙᎥᏒ	-11.6218
▁ᎠᎩᏁᎢᏍᏗᏱ	-11.6218
ᎶᏄᎮᎸᎩ	-11.6218
ᏍᎦᏃᎸ	-11.6218
▁ᏌᎵᎹ	-11.6218
▁ᏓᏣᏙᎴᎰᏏ	-11.6218
▁ᏴᏗᏓᎴᎲᏍᎦ	-11.6218
▁ᎨᏆᏂᏃ	-11.6218
▁ᎧᏩᏯ	-11.6218
▁ᎠᎾᏉᎯ	-11.6218
▁ᏗᎧᏃᎩᏓ	-11.6218
▁ᎭᏛᏅᎢᏍᏓ	-11.6218
▁ᏑᎧᏔ	-11.6218
ᏍᏇᎵᏰᏗ	-11.6218
▁ᏭᎵᏍᏘᏂᎸ	-11.6218
ᏟᏂᎬᏁᎲ	-11.6218
▁ᏱᏚᏛᏓᏍᏓᏁᎴᎢ	-11.6218
▁ᏧᏓᎴᏅᏔᏅᎯ	-11.6218
▁ᎭᎴᎲᎦ	-11.6218
▁ᎬᏩᏛᎡᎴᏍᏗ	-11.6218
▁ᎤᎾᏅᏓᏛᎩ	-11.6218
▁ᏄᎵᏁᏨ	-11.6218
▁ᏫᎬᎷᏤᏗᏱ	-11.6218
▁ᎫᏩᎶᏐᏅ	-11.6218
▁ᎬᏍᏗᏰᏗᎭ	-11.6218
▁ᎫᏩᏓᏅᏖᏗ	-11.6218
▁ᏁᏙᎲᎾ	-11.6218
▁ᏗᎬᏩᏂᎾᏝᎢ	-11.6218
▁ᎠᏯᏖᏂ	-11.6218
▁ᎢᏳᏩᎪᏗ	-11.6218
▁ᎠᎾᏘᏍᏗᏍᎩ	-11.6218
▁ᎠᎾᎵᏍᎩᏍᎬ	-11.6218
ᏆᎶᎦ	-11.6218
ᏗᎩᏴᎩ	-11.6218
▁ᏕᎧᏅᏫ	-11.6218
▁ᏚᏂᏐᏨ	-11.6218
▁ᏧᎧᎭᏲᏓ	-11.6218
▁ᏌᏗᏏ	-11.6218
▁ᏱᎦᏂᏆᏘᎭ	-11.6218
▁ᏥᏂᎬᏁᎭ	-11.6218
▁ᎠᏏᎾᏌᏅ	-11.6218
▁ᏐᏆᎵ	-11.6218
▁ᏚᏂᏎᎪᎩᏎ	-11.6218
▁ᏱᏄᏩᏁᎸ	-11.6218
▁ᎣᏣᏓᏅᏟ	-11.6218
▁ᏂᎪᎵᎬᎾ	-11.6218
▁ᏱᏦᎯᏳᎲᎦ	-11.6218
▁ᎤᎾᏞᏒ	-11.6218
▁ᎠᎦᏘᏅᏍᏗᏱ	-11.6218
▁ᎣᎦᎵᏍᏓᏴᏗ	-11.6218
▁ᏯᏥᏯᏝ	-11.6218
▁ᏗᎨᏥᏰᎯ	-11.6218
▁ᏅᏛᎴᏅᏛ	-11.6218
▁ᏚᏂᏃᎸᎩ	-11.6218
▁ᏫᏍᎩᏩᎯᏏ	-11.6218
ᏥᏍᏢ	-11.6218
▁ᏓᎦᏓᏅᏏ	-11.6219
▁ᏚᏂᏲᏏᏍᎬ	-11.6219
▁ᏥᎦᏡᎦ	-11.6219
▁ᏱᎾᎾᏛᏁᎰ	-11.6219
ᎩᏍᏚᎲᎩ	-11.6219
▁ᎰᎵᏈ	-11.6219
▁ᏫᏚᏂᏴᏍᏗᏱ	-11.6219
▁ᎢᏣᏓᏄᎸᏗ	-11.6219
▁ᎢᏣᏗᏔᏍᎨᏍᏗ	-11.6219
▁ᏗᎨᏧᎪ	-11.6219
▁ᎥᎩᏁᏤᎸᎯ	-11.6219
ᎵᏍᏔᏴᎾ	-11.6219
▁ᏭᏅᎪᏤ	-11.6219
ᏅᎦᎵᏍᎬᎢ	-11.6219
ᏙᎰᏎ	-11.6219
▁ᎢᏲᎦᏛᏁᏗᏱ	-11.6219
▁ᏒᏟ	-11.6219
▁ᏤᏥᎤᏍᏕᏎᏗᏱ	-11.6219
▁ᏗᏗᏙᏗ	-11.6219
▁ᏧᏓᏂᎸᎢᏍᏗᏳ	-11.6219
▁ᏧᏃᏚᎯᏳ	-11.6219
▁ᏗᎬᏩᏂᏯᎢ	-11.6219
▁ᏥᏚᏲᏎ	-11.6219
▁ᏬᏥᎦᏛ	-11.6219
▁ᏧᎧᏃᏗᏱ	-11.6219
▁ᏗᎻᎾᏗ	-11.6219
▁ᎤᏗᎴᎲᏍᎨᎢ	-11.6219
▁ᏅᏓᏳᏪᏒᎩ	-11.6219
▁ᎨᏦᎯᏳᏗ	-11.6219
▁ᏕᏣᏏᎳᏛ	-11.6219
▁ᎠᏥᎸᏳᎶᏗ	-11.6219
▁ᏫᏄᏩᏁᎴ	-11.6219
▁ᎢᏳᏪᏍᏘ	-11.6219
▁ᎢᎬᏩᏅᏁᏗ	-11.6219
▁ᎢᏣᏛᎿᏕᎩ	-11.6219
ᏨᏉᏛᎾ	-11.6219
▁ᎤᏬᎯᏨ	-11.6219
▁ᏓᏆᎭᏄᏮ	-11.6219
ᎵᏖᎸᏂᏍᏗ	-11.6219
▁ᎤᎩᎴᏍᏗ	-11.6219
▁ᎤᏓᏬᎡ	-11.6219
▁ᏧᎾᏛᏒᎯ	-11.6219
▁ᎢᎬᏴᏁᏗᏱ	-11.6219
▁ᎣᎩᎾᏟᏃᎮᎸ	-11.6219
▁ᏫᎯᎶᎯ	-11.6219
▁ᎡᏣᏓᏅᏛᎵ	-11.6219
▁ᏚᎾᏠᏱᎸᎩ	-11.6219
▁ᎠᏓᏓᏱᎮᏍᏗ	-11.6219
▁ᏓᏉᏙᎥ	-11.6219
▁ᎠᏂᏂᎩᎸ	-11.6219
▁ᎫᎵᏍᏔᏅ	-11.622
▁ᏱᏙᎦᏰ	-11.622
▁ᎣᎦᏛᏅᎢᏍᏗ	-11.622
▁ᏫᏚᎧᎾᏅ	-11.622
▁ᏯᏂᎷᎩ	-11.622
▁ᏕᏥᎵᎷ	-11.622
▁ᎦᏁᏐᎠᏍᎬ	-11.622
▁ᏧᏂᏲᎱᎯᏍᏗ	-11.622
▁ᏯᏥ	-11.622
ᎳᏫᏎᎮᏍᏗ	-11.622
▁ᏗᏣᏠᏱᎸᎩ	-11.622
ᏕᏤ	-11.622
▁ᎤᏂᏁᏉᎢᏍᏗᏱ	-11.622
▁ᏕᏥᏁᏤᎮᏍᏗ	-11.622
▁ᎢᏦᎵᏍ	-11.622
▁ᎤᏛᎸᎮ	-11.622
▁ᎠᎾᎵᏥᏙᎲᏍᎩ	-11.622
▁ᎦᎸᏓᏱ	-11.622
▁ᏍᎩᏯᏘᏃᎮᎸᎭ	-11.622
▁ᏣᎾᏓᎾᏏᏂᏙᎭ	-11.622
▁ᏥᎦᎷᎯᏍᏗᎭ	-11.622
ᎿᎥᎾ	-11.622
▁ᏱᏂᏣᏛᏁᎳ	-11.622
▁ᏂᏨᎾᏛ	-11.622
▁ᎹᏚ	-11.622
▁ᏓᏥᎾᏄᎪᏫᏎᎵ	-11.622
ᎬᏑᎶᏙᏗ	-11.622
▁ᏱᏣᏰᎸᏅ	-11.622
▁ᎢᏨᏍᏓᏩᏕᏅ	-11.622
▁ᎢᏨᏁᏤᎭ	-11.622
ᏁᏢᏙᏗᏱ	-11.622
▁ᏚᏂᏖᎸᏁ	-11.622
▁ᏗᏋᏅ	-11.622
▁ᎠᎵᏱᎶᎸᎭ	-11.622
▁ᏚᏂᏔᏲᏎᎴ	-11.622
▁ᏕᎦᏂᏌᎲ	-11.622
▁ᏕᏣᏓᏅᏖᏍᏗ	-11.622
ᏟᎶᏍᏔᏂ	-11.622
▁ᎦᎾᏜᎢ	-11.622
▁ᏧᎾᏁᎳᏗᏍᏗᏱ	-11.622
▁ᎢᎾᏏᏃ	-11.622
ᏍᏚᎢᎡᎸ	-11.622
▁ᏂᎬᏁᏕᏍᏗ	-11.622
▁ᎤᏃᏒᏅ	-11.622
▁ᎣᎦᏁᎳᎩ	-11.622
▁ᏂᏥᏪᏒᎭ	-11.622
▁ᏓᏘᎭᏁᎲ	-11.622
▁ᏓᏳᏗᏩᏏ	-11.622
▁ᎥᎩᏂᏐᏗᏱ	-11.622
▁ᎤᎾᏕᏯᏔᏁᎴᎢ	-11.622
▁ᎤᏂᏍᏘᏰᎬ	-11.622
▁ᎾᏆᎵᏍᏔᏁᎸ	-11.622
▁ᎠᎾᏙᎴᎰᏍᎨᏍᏗ	-11.622
▁ᎦᏓᏆᏟ	-11.622
ᏠᏱᎸᎩ	-11.622
▁ᎨᏣᎵᏍᏕᎸᏙᏗ	-11.622
▁ᏗᎾᏓᎯᎯ	-11.622
ᏯᏆ	-11.622
▁ᎠᏂᏯᏙᎯᎯ	-11.622
▁ᏪᎵᏏ	-11.6221
▁ᎡᏥᎨᏳᎢᏳ	-11.6221
▁ᏳᏬᎯᏳᎮ	-11.6221
▁ᎦᎵᏍᏕᎵᏍᎬ	-11.6221
▁ᏱᏥᏩᏘᎭ	-11.6221
▁ᎤᏂᏲᎯᏍᏙᏗ	-11.6221
▁ᏚᏍᏕᎸᎯᎸ	-11.6221
▁ᏚᏰᎵᏏᏙᎴᎢ	-11.6221
▁ᎢᏳᎾᏓᎵ	-11.6221
ᎨᏳᏅᎾ	-11.6221
▁ᎢᏥᏫᏅ	-11.6221
▁ᏗᏤᎵᏏ	-11.6221
▁ᏚᏯᏙᎮᎴ	-11.6221
▁ᎥᎩᏂᎵ	-11.6221
▁ᏗᎧᎾᏗ	-11.6221
▁ᏚᎳᏫᏛ	-11.6221
▁ᎢᏗᏓᏛᏁᏗ	-11.6221
▁ᏭᏕᎵᎨ	-11.6221
▁ᏙᏛᎴᏂ	-11.6221
▁ᎬᏃᏓ	-11.6221
▁ᎠᏱᏍᎨᏍᏗ	-11.6221
▁ᎢᏳᏩᏁᏗ	-11.6221
▁ᏓᏍᏕᎵᏍᎬᎩ	-11.6221
▁ᏯᏬᏅ	-11.6221
▁ᏱᎪᎵᎬᎾ	-11.6221
▁ᎠᏓᎴᏂᏍᎨᏍᏗ	-11.6221
▁ᏱᏣᏓᏅᏛᎾ	-11.6221
ᎵᎯᎮᎢ	-11.6221
ᏦᎣᏍᏙᏗ	-11.6221
▁ᎠᎬᏔᏅᏛ	-11.6222
▁ᏗᏂᏂᏙᎯ	-11.6222
▁ᎠᎾᎵᏍᏓᏴᏗᏍᎬ	-11.6222
ᏕᎰᏍᎬᎾ	-11.6222
▁ᎢᏗᎦᎸᏉᏗ	-11.6222
▁ᏱᏚᏂᎸᏫᏍᏓᏁ	-11.6222
▁ᎤᎾᏚᎸᏅᎥᏍᎬ	-11.6222
▁ᎤᎾᎵᏍᏔᏴᏅ	-11.6222
ᏴᎳᏎᎢ	-11.6222
ᏯᏛᎦᏁᎵ	-11.6222
▁ᎢᏥᏲᎮᏍᏗ	-11.6222
▁ᎤᎵᎪᎾ	-11.6222
▁ᏕᎧᏁᏤᎲ	-11.6222
▁ᎢᎨᎳᏗᏙᎭ	-11.6222
▁ᎢᎫᏓᎴᏍᏗᏱ	-11.6222
▁ᎢᏓᎢᏎᏍᏗ	-11.6222
▁ᏄᏛᏁᎳ	-11.6222
▁ᏕᏣᎸᏫᏍᏓᏁᎮᏍᏗ	-11.6222
▁ᎠᏂᎪᏩᏘᏍᎩ	-11.6222
▁ᎨᏣᎷᏤᏗᏱ	-11.6222
▁ᏭᏂᎧᏁ	-11.6222
▁ᏧᎾᏚᎪᏓᏁᏗᏱ	-11.6222
ᎨᏳᎲᏍᎨᏍᏗ	-11.6222
▁ᏍᎩᏯᏓᏅᏏ	-11.6222
ᎨᎲᏒᎩ	-11.6222
▁ᎢᏥᎪᎲ	-11.6222
▁ᎨᎦᏎᎸᎯ	-11.6222
▁ᎭᎵᏍᏓᏴᎲᎦ	-11.6222
▁ᏱᎾᏛᏁᎮ	-11.6222
▁ᎢᏥᎦᏔᎯᏳ	-11.6222
▁ᎢᏥᏂᎬᏎᎲᎢ	-11.6222
▁ᎤᏬᎯᏳᎯᏍᏛ	-11.6222
▁ᎤᎾᏓᏙᎵᏍᏙᏗᏱ	-11.6222
▁ᏩᏌᏅ	-11.6222
▁ᎣᎦᏂᎩᏒᎩ	-11.6222
ᏯᏪᏐᎸᏍ	-11.6222
▁ᎧᏁᏉᏥᏎ	-11.6222
▁ᎤᏃᎯᏳᎯᏍᏛ	-11.6222
ᏛᏅᎢᏍᏓᏁᏗᏱ	-11.6222
▁ᎨᏥᏃᎮᏍᎬᎢ	-11.6223
▁ᏕᎾᏓᎪ	-11.6223
▁ᎤᏂᏴᏔᏂᎯᏍᏗᏱ	-11.6223
ᏛᏓᎴᎲᏍᎩ	-11.6223
▁ᏕᏨᏗᏍᎨᏍᏗ	-11.6223
▁ᎣᎦᏅᏅᎩ	-11.6223
ᏅᏮᎦ	-11.6223
▁ᏄᏲᎱᏒᎩ	-11.6223
▁ᎢᏨᏅᎵ	-11.6223
▁ᏥᏗᎧᎸᎪ	-11.6223
▁ᎠᏙᏅᏗ	-11.6223
▁ᎢᏨᏲᎢᏳ	-11.6223
▁ᎬᏩᏄᎸᏗ	-11.6223
ᏘᏌ	-11.6223
▁ᎠᏆᏐᎭᏛ	-11.6223
▁ᎤᎾᏓᏅᎡᎸᎩ	-11.6223
▁ᎭᎿ	-11.6223
▁ᏗᎻᏟᏯ	-11.6223
▁ᏚᏂᏁᏤᎴ	-11.6223
▁ᏣᏂᎦᏴᎵ	-11.6223
▁ᎣᏦᎯᏳᎲᏍᎦ	-11.6223
▁ᏗᎬᏩᏍᏕᎸᏗ	-11.6223
▁ᎬᏩᏍᏚᎢᏍᏗ	-11.6223
ᎾᏌᎾᎩᏍᎬ	-11.6223
▁ᎢᏣᏣᏪᏐᎸᏍᏓ	-11.6223
▁ᏥᎨᎳᏗᏙᎮ	-11.6223
▁ᏗᎪᏍᏓᏯ	-11.6223
▁ᏂᎦᏁᎲᎾ	-11.6223
▁ᏗᎦᎸᏉᏔᏅᎯ	-11.6223
▁ᎡᏥᏍᎦᏅᏤ	-11.6223
▁ᏱᏦᎵᎦ	-11.6223
▁ᏗᎫᎪᏗᏱ	-11.6223
▁ᎠᏉᎯᏳᎲᏍᎩ	-11.6223
▁ᎢᏗᏜ	-11.6224
▁ᏋᏗᏱ	-11.6224
▁ᎡᏥᏯᎡᏍᏗ	-11.6224
▁ᎰᎯᏳᎲᎦ	-11.6224
▁ᎢᏣᎴᏂᏓᏍᏗᏱ	-11.6224
▁ᏥᏓᎩᏂᏴ	-11.6224
▁ᎢᏥᎷᎨᏍᏗ	-11.6224
ᏢᏈᏍᎦ	-11.6224
▁ᎤᏗᏩᏒᎩ	-11.6224
ᎦᏎᏍᏔᏅ	-11.6224
▁ᏦᎢᎭᏃ	-11.6224
▁ᏧᏩᎿ	-11.6224
▁ᏫᏨᏲᏪᎳᏁᏗᏱ	-11.6224
ᎵᏍᏓᏴᎲᏍᎨᎢ	-11.6224
▁ᎢᏰᏨᏁᏗᏱ	-11.6224
ᎾᏟᎴ	-11.6224
ᎩᏙᎵᏍᏗᏱ	-11.6224
ᎸᎦᏍᏙᏗ	-11.6224
▁ᏗᎧᏃᎮᏗ	-11.6224
▁ᎾᎾᏓᏁᏟᏴᏏᏒ	-11.6224
▁ᎭᎵᏘ	-11.6224
▁ᏭᏪᏙᎸ	-11.6224
ᏎᎵᏛᎦ	-11.6224
▁ᏓᏂᏅᎬ	-11.6224
▁ᏧᏪᏲᏅᎯ	-11.6224
▁ᏚᏍᏚᏤ	-11.6224
▁ᎢᏯᎩᏪᏍᏗᏱ	-11.6224
▁ᏣᏙᎴᎰᎯᏍᏗᏱ	-11.6224
▁ᏧᏪᏙᎵᏍᏗᏱ	-11.6224
▁ᏳᏲᏤᎢ	-11.6224
ᏛᎿ	-11.6225
▁ᏕᎤᏅᏅ	-11.6225
ᏃᎮᎮᎸᎯ	-11.6225
▁ᎤᎾᎳᏍᏓᎡᏗ	-11.6225
▁ᏗᏨᏙᏗᏱ	-11.6225
▁ᎠᏆᏙᎴᎰᏒ	-11.6225
▁ᏧᏂᏯᏪᏨ	-11.6225
▁ᎹᏌ	-11.6225
▁ᏍᎩᏍᏓᏩᏕᎩ	-11.6225
▁ᏗᎩᎸᏙᏗ	-11.6225
▁ᏕᎦᎶᏍᎬ	-11.6225
▁ᏕᎨᏥᎵᎥᏂ	-11.6226
▁ᎤᎧᎭᏲᏓ	-11.6226
▁ᎤᏂᏑᎵᎪᏤ	-11.6226
▁ᏗᏣᏓᏂᎸᏨᎯ	-11.6226
ᏠᏯᏍᏛᎾ	-11.6226
▁ᏧᏅᏔᏅᎯ	-11.6226
ᎥᏍᎩᏱᎩ	-11.6226
ᏦᏁ	-11.6226
▁ᎤᏔᏕᎩᏍᎨ	-11.6226
▁ᎤᏓᎪᎵᏰᏗᏱ	-11.6226
ᏗᎧᏁ	-11.6226
ᎦᏛᎲᏍᎬ	-11.6226
▁ᎣᎬᏌ	-11.6226
▁ᏓᏈᎵᏯ	-11.6226
▁ᎦᏙᎴᎣᏍᎦ	-11.6226
▁ᏄᎾᏍᏕᏍᏗ	-11.6226
▁ᏧᎾᎭᎾᏬ	-11.6226
▁ᏧᏬᏚᎯᏳ	-11.6226
▁ᏚᏅᏴ	-11.6226
▁ᎻᏌ	-11.6226
ᎵᎲᏲᎵ	-11.6226
▁ᎤᎾᏁᎳᏛ	-11.6226
▁ᎤᏬᏢᏅᏅᎯ	-11.6227
▁ᏓᎦᎵᏍᏙᏓ	-11.6227
▁ᏱᏍᎩᏃᏁᎴ	-11.6227
▁ᎤᏪᏰ	-11.6227
▁ᏳᏁᏉᏥ	-11.6227
▁ᎯᏁᏒᎭ	-11.6227
▁ᏧᏄᎪᏤᎢ	-11.6227
▁ᏍᎪᎾ	-11.6227
▁ᎠᏆᎵᏍᎦᏍᏙᏛ	-11.6227
▁ᏂᎩᏴᏁᎸᎭ	-11.6227
▁ᎤᏍᏆᎸᎯᏗᏒᎩ	-11.6227
▁ᎢᏣᏙᎴᎰᎯᏍᏗᏱ	-11.6227
▁ᏱᏓᎨᏏ	-11.6227
▁ᏚᏰᎵᏎ	-11.6227
▁ᏳᏓᏅᏒ	-11.6227
ᎦᎴᏅᏗᏱ	-11.6227
▁ᎢᏥᎷᏤᏗ	-11.6227
ᏓᏙᎵᏍᏗᏍᎨᏍᏗ	-11.6227
▁ᎥᎩᏍᏕᎸᏗᏱ	-11.6227
▁ᏚᏂᏯᎣ	-11.6228
▁ᎭᏓᏙᎵᏍᏗᏍᎬ	-11.6228
▁ᎡᏦᎢᏳᏗᏱ	-11.6228
▁ᏕᏣᎧᏛ	-11.6228
▁ᎤᎾᏤᎸᎯ	-11.6228
▁ᎨᎪᏢᏅᎯ	-11.6228
▁ᏌᎳᏓᏱᎵ	-11.6228
▁ᎬᏩᏂᏃᎮᏗ	-11.6228
▁ᏧᏂᏍᏚᏗ	-11.6228
ᎦᎧᎲᏍᎨᏍᏗ	-11.6228
▁ᎠᏌᏍᏛ	-11.6228
▁ᎣᎩᎪᏩᏛᏗᏱ	-11.6228
▁ᎨᏥᏁᎢᏍᏗᏍᎬ	-11.6228
▁ᎤᏃᏢᏅᎩ	-11.6228
▁ᎠᏆᏓᏅᏔ	-11.6228
▁ᏚᎵᏥᏙᏁᎴᎢ	-11.6228
▁ᎬᏁᏤᎲᎢ	-11.6228
▁ᏄᏍᏗᏕᎬᎢ	-11.6228
▁ᏓᎪᏄᎴᎢ	-11.6228
▁ᎤᎾᏓᏁᏟᏴᏒᏒᎢ	-11.6228
▁ᏚᏪᏣᎦᎸᎮᎢ	-11.6228
▁ᎤᏓᏅᏔᏕᎢ	-11.6228
▁ᏕᎦᏆᏛ	-11.6228
▁ᎠᏆᏁᎸᏔᏅ	-11.6228
▁ᎢᏣᏛᎩᏍᎬᎢ	-11.6228
▁ᎢᏨᏯᏛᏁᏗᏱ	-11.6228
▁ᏙᏓᏰ	-11.6228
▁ᎦᏁᎵᏛ	-11.6228
▁ᎠᏯᎦᏯ	-11.6229
▁ᎬᎩᎷᏤᏗᏱ	-11.6229
▁ᏦᏥᎦᏔᎭ	-11.6229
▁ᎢᎬᏩᏂᎩᏍᏔᏁ	-11.6229
▁ᏍᎩᏩᎯ	-11.6229
▁ᎦᏃᎦ	-11.6229
▁ᎦᏟᏓ	-11.6229
▁ᎯᏫᏅ	-11.6229
ᏍᏕᎸᏙᏗ	-11.6229
ᏟᏰᎵ	-11.6229
▁ᏗᏣᎵᏂᎪᎯᏍᏙᏗᏱ	-11.6229
▁ᎠᎦᏬᎡᎢ	-11.6229
▁ᏗᏓᏂᎸᎩ	-11.6229
▁ᏳᏚᎵᏍᎬᎾ	-11.6229
▁ᏱᏥᏩᏘᏍᎪᎢ	-11.6229
▁ᎢᏨᎷᏤᏗᏱ	-11.6229
▁ᏫᏗᎦᏘ	-11.6229
▁ᎠᏂᎪᏩᏗᏍᎬ	-11.6229
▁ᎠᏯᏦᎯ	-11.6229
▁ᎢᏨᏁᎢᏍᏗᏍᎬᎢ	-11.6229
▁ᏭᎵᏰᎢᎶᎸ	-11.6229
▁ᏗᎨᎪᏍ	-11.6229
ᎫᏴᏛ	-11.6229
▁ᎯᎶᏁᎥᎭ	-11.6229
▁ᏄᎾᎵᏍᏔᏁᎲ	-11.6229
ᏂᏍᎩᏴᎦ	-11.6229
▁ᎤᎵᏒᏍᏔᏁᎢ	-11.6229
▁ᏣᏍᏉᏂᎪᏗ	-11.623
▁ᏙᏥᏩᏛᎲᎩ	-11.623
▁ᏅᏛᎾᎵᏍᏔᏂ	-11.623
▁ᏦᏕᏆᏠᏥ	-11.623
▁ᎢᏳᏅᏁᎯ	-11.623
▁ᏍᎩᏍᏕᎳ	-11.623
▁ᏨᏗᎦᏚᎭ	-11.623
▁ᎦᏌᎴᎾ	-11.623
▁ᏓᎪᏪᎳᏂ	-11.623
▁ᏅᏓᏥᏪᏎᎵ	-11.623
▁ᎦᏴᏓᏗ	-11.623
▁ᎤᏍᏗᎩᎨ	-11.623
▁ᏕᎭᏕᏲᎲᏍᎬᎢ	-11.623
▁ᎠᎯᏗᎨ	-11.623
▁ᎠᎫᏣ	-11.623
▁ᏅᏓᎦᏛᏁᎵ	-11.623
ᎦᎵᏍᏓᏗᏍᏗᏱ	-11.623
▁ᏓᏂᎧᎿᏩᏗ	-11.623
ᏲᏞᎯᏍᏗ	-11.623
▁ᏗᎦᎪᏙᏗᏱ	-11.623
▁ᎠᏯᏙᎵ	-11.623
▁ᏣᏚᎵ	-11.623
▁ᏈᎪᎵ	-11.623
▁ᏓᎾᎵᏍᏓᏴᎲᏍᎨᎢ	-11.623
▁ᏕᎬᏩᏘᏃᎮᎴᎢ	-11.623
▁ᎢᏨᎪᏩᏛᏗᏱ	-11.6231
▁ᎤᎾᏁᏢᏔᏅᏒᎢ	-11.6231
▁ᎠᏆᏢᏈᏍᏗᏱ	-11.6231
▁ᏓᏰᏥᏁᎵ	-11.6231
▁ᎤᏒᎦᎸᎩ	-11.6231
▁ᏳᏰᎸᎮ	-11.6231
▁ᎠᏂᏲᎵᎮ	-11.6231
▁ᎬᏩᏂᏴᎮᎢ	-11.6231
▁ᏱᎦᏕᎣᏍᎦ	-11.6231
▁ᎠᎩᏰᏨ	-11.6231
▁ᎠᏆᎵᎮᎵᏨᎩ	-11.6231
▁ᎡᎯᏍᏗᏳ	-11.6231
▁ᎤᎸᏓᎸᎥᏍᎩ	-11.6231
ᏐᏲ	-11.6231
▁ᎤᎾᏁᎶᏔᏅᎩ	-11.6231
▁ᎤᏪᎷᎬᎩ	-11.6231
▁ᏄᏟᏂᎬᎬ	-11.6231
▁ᎡᏙᏙᏱ	-11.6231
▁ᏣᏫᏎᎢ	-11.6231
▁ᏫᏄᏒ	-11.6231
▁ᎤᎾᏓᏄᎸᏗ	-11.6231
▁ᏃᎦᏛᏁᎸ	-11.6231
ᏗᎨᎳᏍᏙᏗ	-11.6231
▁ᏥᏚᏙᎠ	-11.6231
▁ᎹᎳ	-11.6231
▁ᎠᏆᎵᏍᏕᎸᏙᏗ	-11.6232
▁ᎠᏥᎸᎨᎳᏍᏙᏗ	-11.6232
▁ᏭᏂᏴᎸ	-11.6232
▁ᏭᏗᏅᏎ	-11.6232
▁ᎤᎾᏁᎳᏗᏍᏗᏱ	-11.6232
▁ᎦᏓᏫᏔᏅ	-11.6232
ᏄᏪᏎᎢ	-11.6232
▁ᎢᏣᏓᏅᏓᏗᏍᏗᏱ	-11.6232
▁ᎠᏓᎦᏘᏕᎯ	-11.6232
▁ᎪᏪᎳᏅ	-11.6232
▁ᏫᎤᏂᎶᏎᎢ	-11.6232
▁ᎣᏥᏃᎮᎭ	-11.6232
▁ᏧᏪᏯ	-11.6232
▁ᏓᎦᎾᏬ	-11.6232
ᎷᎳ	-11.6232
▁ᎨᏣᏓᏑᏴ	-11.6232
▁ᏳᏇᏗ	-11.6232
▁ᏣᎷᎯᏍᏗᏱ	-11.6232
▁ᏓᏂᏙᎦ	-11.6232
▁ᎠᏛᏍᎨ	-11.6232
▁ᏱᏥᏁᎦ	-11.6232
▁ᏫᏥᏤᎢ	-11.6232
▁ᏱᏥᏏᎾᎯ	-11.6232
▁ᎢᏨᎥᏏ	-11.6232
▁ᏚᏂᎵᏬᏤᎢ	-11.6232
▁ᏧᎾᏦᏗ	-11.6233
▁ᏯᏲᎱᎯ	-11.6233
▁ᎢᎩᏍᏕᎵᎭ	-11.6233
▁ᎬᏩᏂᏍᎦᎩ	-11.6233
▁ᎠᏒᏛᏓ	-11.6233
▁ᎤᏂᎦᎾᏍᏓ	-11.6233
ᏍᏚᏣ	-11.6233
▁ᏫᎷᏨᎭ	-11.6233
▁ᏂᏂᏫ	-11.6233
▁ᏓᏥᏁᎢᏍᏔᏂ	-11.6233
▁ᎦᎳᎨᏰ	-11.6233
▁ᏭᏙᎯᏳᎲ	-11.6233
▁ᎦᎨᏥᏁᏗᏱ	-11.6233
▁ᏚᎧᎵᏤ	-11.6234
ᏯᏓᏂᎸᏥ	-11.6234
▁ᎠᏆᏛᏛᏅ	-11.6234
▁ᎠᏆᎵᏂᎬᎬᎢ	-11.6234
▁ᏚᏃᎸᏎᎢ	-11.6234
▁ᎠᎾᏔᏍᎩᏍᎩ	-11.6234
▁ᎢᏨᏃᏁᎸᎯ	-11.6234
▁ᎠᎩᏁᎫ	-11.6234
▁ᏓᎾᏗᏔᏍᏗᏍᎨ	-11.6234
▁ᏂᎬᏩᏍᏛ	-11.6234
ᏜᏗᏍᏗ	-11.6234
ᏲᏢᎾᏁᏗ	-11.6234
▁ᎥᎰᎵ	-11.6235
▁ᎠᏆᎵᎮᎵᏍᏗᏱ	-11.6235
ᏱᎵᏙᎯ	-11.6235
▁ᎤᎾᎵᏍᏓᏴᏅᎩ	-11.6235
▁ᎭᏂᏨ	-11.6235
▁ᏣᏂᎧᏔᎮᎢ	-11.6235
▁ᏱᏍᎩᏃᎯᏎ	-11.6235
▁ᎤᎾᏓᏅᏖᏛ	-11.6235
▁ᏥᎦᏘᏏᏗᏢ	-11.6235
▁ᎠᎫᏴᎡᏗᏱ	-11.6235
▁ᏄᏛᏁᎵᏙᎸ	-11.6235
▁ᏗᎨᏥᎸᎯ	-11.6235
▁ᎢᏳᏏᏗ	-11.6235
▁ᏧᏳᎪᏘ	-11.6235
▁ᎠᎾᎵᏍᏔᏴᎲᏍᎬ	-11.6235
▁ᎦᏓᏙᎵᏍᏗᏍᎨᏍᏗ	-11.6235
▁ᎣᏥᏁᎦ	-11.6236
▁ᏖᏒᎭ	-11.6236
▁ᎠᎾᎵᎲᎢ	-11.6236
▁ᏧᏩᏍᏉᎸ	-11.6236
▁ᏦᎩᎾᏫᏱ	-11.6236
▁ᏧᏁᏢᏔᏅᏒᎢ	-11.6236
ᎳᏫᏎᏗ	-11.6236
▁ᏧᎬᏩᏟ	-11.6236
▁ᎤᎾᏓᏅᎦᎸᏛ	-11.6236
▁ᏕᏥᏩᏛᎲ	-11.6236
▁ᏧᏪᏲᎲᏍᎩ	-11.6236
▁ᎢᏗᏧᏏ	-11.6236
▁ᎢᏣᏅᏓᏓ	-11.6237
▁ᏗᏣᏏᎳᏛᏗ	-11.6237
ᏩᎫ	-11.6237
▁ᏗᎦᏅᎬ	-11.6237
▁ᏓᏁᎶᏛᎩ	-11.6237
▁ᏚᏬᎥᎩ	-11.6237
▁ᎠᎦᎸᎢᏛ	-11.6237
▁ᏳᎵᏬᏨ	-11.6237
▁ᏓᎩᎧᎭ	-11.6237
▁ᏘᏁᏥ	-11.6237
▁ᎠᏂᏬᏗᎨ	-11.6237
ᏄᏬᎥᎭ	-11.6237
▁ᎤᏙᏓᏆᏛ	-11.6238
la	-11.6238
▁ᏧᏂᎦᏯᎷᏗ	-11.6238
▁ᎦᎶᏐᏅ	-11.6238
▁ᏧᎾᏄᎪᏤᎢ	-11.6238
▁ᎢᏥᏍᎪᎵ	-11.6238
▁ᏥᎦᏁᎭ	-11.6238
ᏥᏰᎸᏂ	-11.6238
▁ᎤᏂᎾᏗᏅᏗ	-11.6238
▁ᎠᏂᏍᎦᏰᎬᏍᏔ	-11.6238
▁ᎢᏤᏙᎮᏍᏗ	-11.6238
▁ᎠᏂᏃᎲᏍᎨ	-11.6238
▁ᏬᏯ	-11.6238
ᎷᏤᎰᎢ	-11.6238
▁ᎭᏅᏓᏓ	-11.6238
▁ᎢᏣᏓᏅᏘᏳ	-11.6238
▁ᎨᏥᏃᎮᏍᎩ	-11.6238
▁ᏣᏁᏉᏣᏘ	-11.6238
▁ᏳᏰᎸᎭ	-11.6238
▁ᏗᏣᏘᏄᎦ	-11.6238
▁ᏄᎵᏍᏙᏔᏅ	-11.6238
▁ᏗᎦᎪᏙᏗ	-11.6238
▁ᏚᏂᏂᏴᎲ	-11.6238
▁ᎤᏁᏍᎨᎴ	-11.6238
▁ᏗᎪᏏᏐᏗ	-11.6239
ᏋᏕᏨ	-11.6239
ᏚᏏ	-11.6239
ᏏᏔᏗᏍᏗᏱ	-11.6239
ᎨᏳᏒᎾ	-11.6239
▁ᎠᏓᏬᏍᏗᏱ	-11.6239
ᏯᏫᏍᎨᏍᏗ	-11.6239
▁ᏚᏂᏰᎵᏒ	-11.6239
ᏁᏉᏣᏘ	-11.6239
▁ᏚᏅᏫᏍᏔᏅ	-11.6239
ᏖᎸᎮᏍᎨ	-11.6239
▁ᏕᎦᏄᎪᏫᏍᎦ	-11.6239
▁ᎠᎵᏃᎮᏗᏍᎬᎢ	-11.6239
▁ᎠᎩᎾᏄᎪᏫᏎᎸᎩ	-11.6239
▁ᎠᎾᏓᏁᏟᏴᏏᏒ	-11.6239
▁ᏅᎩᏗᏂᏅᏌᏗ	-11.6239
▁ᎤᏃᏴᎩ	-11.6239
▁ᏣᏱᎵᏙᎯ	-11.6239
▁ᎠᏲᎤᎵ	-11.624
▁ᎠᏆᏓᏅᏖᏙᏗ	-11.624
▁ᎠᏓᏁᏣᏍᏚᎶᎩ	-11.624
▁ᏗᎪᏢᏙᏗ	-11.624
▁ᎢᏕᎮᏍᏗ	-11.624
▁ᎨᏥᎾᏌᎢ	-11.624
▁ᏚᏂᏃᏁᎴ	-11.624
ᏓᏙᎵᏍᏓᏁᎸᎩ	-11.624
▁ᏚᏍᏚᎢᏎ	-11.624
▁ᏳᏬ	-11.624
▁ᎠᎾᎵᏍᏓᏴᎲᏍᎩ	-11.624
▁ᎡᎩᏩ	-11.624
▁ᏥᎬᏗᎭ	-11.6241
▁ᎡᎳᎻ	-11.6241
▁ᏂᏣᎵᏍᏔᏅᎩ	-11.6241
▁ᏩᏥᎳᎨ	-11.6241
▁ᎠᏩᏘᏍᎪᎢ	-11.6241
▁ᏂᏚᏅᏅ	-11.6241
▁ᎤᏁᎵᏒᎩ	-11.6241
▁ᏚᏂᎳᏫᏨᎩ	-11.6241
▁ᎣᎵᏩᏲᎯ	-11.6241
ᏍᎦᎳᏤ	-11.6241
▁ᏱᏣᏚᎵᎭ	-11.6241
ᏠᎯᏍᏗᏱ	-11.6241
▁ᏳᏰᎸᏅ	-11.6241
▁ᏭᏓᎪᎾᏛᏗ	-11.6241
▁ᎢᏦᎯᏳᏅ	-11.6241
▁ᎧᏁᏉᎩ	-11.6242
ᏓᎢᏅᏎᎢ	-11.6242
▁ᏂᏯᏛᏂᏏ	-11.6242
▁ᏣᏂᏃᎮᎭ	-11.6242
▁ᎤᏅᏣᏛ	-11.6242
▁ᏚᎾᏟᏴ	-11.6242
▁ᎤᎾᎵᏖᎸᏅᎩ	-11.6242
▁ᎦᏐ	-11.6242
▁ᎨᏥᏚᎢᏍᏓᏁᎸᎯ	-11.6242
ᏃᏪᎳᏁ	-11.6242
▁ᏣᏍᎦᏅᎪᎢ	-11.6242
▁ᎨᏥᏛᏙᏗᏱ	-11.6242
▁ᏭᏩᏅᏓᏕᎢ	-11.6242
ᏍᏕᏥ	-11.6242
▁ᎣᎩᎪᎲᎯ	-11.6242
▁ᎤᏂᎷᎯᏍᏗ	-11.6243
▁ᏳᏩᏛᎮᎢ	-11.6243
▁ᏚᎪᏓᏁᎯ	-11.6243
▁ᏙᏂᏍᎩ	-11.6243
▁ᎠᏯᎣᎢ	-11.6243
▁ᎢᏣᎦᏌᏯᏍᏕᏍᏗ	-11.6243
▁ᎣᏣᎢᏒ	-11.6244
▁ᏓᏜᏍ	-11.6244
▁ᏗᏥᏙᏓ	-11.6244
▁ᏙᏓᎨᏥ	-11.6244
▁ᏩᏎᎯ	-11.6244
ᏎᎪᎩᏛ	-11.6244
▁ᎭᏗᏛ	-11.6244
▁ᏚᏯᏅᎮᎢ	-11.6244
ᏩᏎ	-11.6245
ᏙᎯᏳᎲᎦ	-11.6245
▁ᎢᎦᎵᏍᏓᏁᏗ	-11.6245
▁ᏧᏂᎷᏤᎸ	-11.6245
▁ᎨᏥᏛᎦ	-11.6245
▁ᎤᎧᏲᏓ	-11.6245
▁ᎤᎵᏍᎫᏮ	-11.6245
▁ᎤᎵᏍᏛᏧᏅ	-11.6245
▁ᎤᏯᏍᏚᏎᎢ	-11.6245
▁ᏅᏛᏁᎵ	-11.6245
▁ᎤᎱᏍᏕᏎᎴ	-11.6245
▁ᎤᎿᏬᎡ	-11.6245
▁ᎤᏍᏚᎩᏒ	-11.6245
▁ᎤᏓᏁᏟᏴᏛ	-11.6245
▁ᎤᎵᏬᎢᏍᏗ	-11.6245
▁ᎣᎩᏍᎦᏅᏨᎢ	-11.6245
▁ᎤᏅᎦᎳᎲ	-11.6245
▁ᎤᏁᏢᏔᏅᏒᎢ	-11.6246
▁ᎠᏂᏲᎯᎲ	-11.6246
▁ᎤᏂᏯᏙᎴ	-11.6246
▁ᎤᏃᏢᏅᎯ	-11.6246
▁ᎡᏣᏁᎸᎯ	-11.6246
▁ᎣᎦᎵᏍᏓᏴᏗᏱ	-11.6246
▁ᎦᏁᎵᏒ	-11.6246
▁ᏗᎾᎵᏍᏓᏴᏂ	-11.6246
ᏘᏒᎴᎢ	-11.6246
▁ᎠᎵᏥᏙᎲᏍᎬ	-11.6247
▁ᎡᎵᎩᏱ	-11.6247
▁ᎤᏬᏁᏔᏅᎢ	-11.6247
▁ᎠᏆᏤᎵᎪᎯ	-11.6247
▁ᎧᏁᎦ	-11.6247
▁ᏄᎳᏉ	-11.6247
▁ᎢᏣᏗᏔᏍᏗᏱ	-11.6247
▁ᏕᎨᏲᎲᏍᎨ	-11.6247
▁ᏇᏓᏁᎳᎻᏱ	-11.6247
▁ᏧᏂᎧᎿᏩᏛᏍᏗᏱ	-11.6247
ᎵᏍᏓᏴᏁᎢ	-11.6247
ᏕᎰᏏ	-11.6247
▁ᎮᎳᏂᏱ	-11.6247
▁ᏥᏚᎦᏒᏍᏙ	-11.6248
▁ᎤᏓᏴᏒᎩ	-11.6248
▁ᏚᏄᏬᎡᎢ	-11.6248
▁ᏨᏒᎯᏳ	-11.6248
▁ᎢᏗᎬᏓ	-11.6248
▁ᎧᏁᎢᏍᏗᏍᎨᏍᏗ	-11.6248
▁ᏦᏥᏰᎸ	-11.6248
▁ᏂᏣᎵᏍᏓᏁᎲᎢ	-11.6248
▁ᎢᏯᎬᏁᏗᏱ	-11.6248
▁ᏗᏯᏖᏃ	-11.6249
▁ᏣᏙᎵᎦ	-11.6249
▁ᎢᏣᏓᏁᎮᏍᏗ	-11.6249
▁ᏗᏑᏫᏓ	-11.6249
▁ᏧᏯᏪᎢᏍᏗ	-11.6249
ᏯᏖᏃ	-11.6249
ᎩᎸᏔᏅᎯ	-11.6249
▁ᎦᏗᏔᏍᎬ	-11.6249
ᏱᎵᏓᏍᏗᏱ	-11.6249
▁ᎯᎦᏔᎮᏍᏗ	-11.6249
▁ᎤᏍᏆᎸᎮ	-11.6249
▁ᎢᏣᎢᏒᎢ	-11.625
▁ᏗᏣᎸᏫᏍᏓᏁᏗᏱ	-11.625
▁ᎯᎩᏍᎪ	-11.625
▁ᏄᎾᏛᎿᏕᎬᎢ	-11.625
▁ᏥᏮᎦᏙᎢ	-11.625
ᏥᎦᏔᎲᎾ	-11.625
▁ᎯᎪᏩᏘᎭ	-11.625
ᎵᏂᎪᎯᏍᏙᏗᏱ	-11.625
▁ᎡᏥᏲᎭ	-11.625
▁ᎤᏁᎳᏫᏎᎲᎢ	-11.625
▁ᏕᎦᎸᏫᏍᏓᏁᎸᎢ	-11.625
▁ᏚᎴᏔᏁ	-11.625
▁ᏂᏣᏛᏁᎲᎾ	-11.625
▁ᎠᏂᎵᏫ	-11.625
▁ᎤᏅᏫᏍᏗᏍᎩ	-11.625
▁ᎠᏓᎳᎻ	-11.6251
▁ᏂᎦᏪᎠ	-11.6251
▁ᏚᏅᏩᏁᎢ	-11.6251
ᏛᏗᏍᎪᎢ	-11.6251
▁ᏛᎨᏥ	-11.6251
▁ᎠᏆᏕᏗ	-11.6251
▁ᎦᎬᏙᏗ	-11.6251
▁ᎢᏣᏓᏅᏖᎭ	-11.6251
▁ᎣᏨᏗᏍᎬ	-11.6251
▁ᏗᎾᏟ	-11.6251
▁ᏓᎾᏓᏅ	-11.6251
▁ᎾᏂᏪᎭ	-11.6251
▁ᏭᏩᎦᏘᏗᏒᎢ	-11.6252
▁ᎤᏮᏔᏅᎩ	-11.6252
ᏖᏍᎬᎢ	-11.6252
▁ᏗᎪᏱ	-11.6252
▁ᎬᏩᏡᏗᏍᎬᎢ	-11.6252
▁ᏨᏓᎸᎢ	-11.6253
▁ᏟᏗ	-11.6253
▁ᎪᏌᏂᏱ	-11.6253
▁ᎥᏘᏍᎩ	-11.6253
▁ᏗᎪᏪᎳᏅᎯ	-11.6253
▁ᎢᎨᎬᏁᏗᏱ	-11.6254
▁ᎦᏅᏆᎶᏏᎶᏛ	-11.6254
▁ᏚᏰᎵᏒ	-11.6254
▁ᏫᏥᎶᎢ	-11.6254
▁ᎬᏬᏎᎸᎩ	-11.6254
▁ᎤᏂᎪᎵᏰᏗᏱ	-11.6254
▁ᎤᎯᏌᏛ	-11.6255
▁ᎬᏩᎨᏳᎯ	-11.6255
▁ᎤᏂᏲᎰᏎᎸ	-11.6255
▁ᏩᎩᎶᏒᎩ	-11.6256
▁ᏍᎩᏁᏥ	-11.6256
ᎾᏕᎬᎢ	-11.6256
ᏘᏅᏍᏗᏱ	-11.6256
▁ᏱᏙᎨᏗ	-11.6256
▁ᏍᏆᏛᎦᏁ	-11.6256
▁ᏚᎸᏫᏍᏓᏁᎰᎢ	-11.6256
ᏚᎨ	-11.6256
ᏛᏓᏍᏓᏁᎵ	-11.6256
▁ᏚᏂᎧᏁ	-11.6256
▁ᎤᏠᎩ	-11.6257
▁ᎢᏥᏃᎮᏍᎩ	-11.6257
▁ᎤᏟᏃᎮᏔᏁᎢ	-11.6257
▁ᏛᏨ	-11.6257
▁ᎤᎵᏛᏔᏁᎢ	-11.6258
▁ᎤᏂᏲᎸᎯ	-11.6258
▁ᎤᎵᏦᏔᏁᎢ	-11.6258
▁ᏫᏱᏣ	-11.6258
▁ᏱᎾᏰᏍᎨᏍᏗ	-11.6258
▁ᎢᏗᎹ	-11.6258
ᏦᎢᏳ	-11.6259
▁ᎢᏳᏪᏍᏗᏱ	-11.6259
ᏅᏨᎾ	-11.6259
ᏓᏏᏒ	-11.6259
▁ᎦᏐᏂ	-11.6259
▁ᏤᏅᏍᏗᏱ	-11.6259
▁ᎢᏣᎵᎪᎯ	-11.6259
▁ᏂᎬᏒᎾ	-11.626
▁ᎤᏓᏑᏰᏍᏗ	-11.626
▁ᏂᏥᎦᏔᎲᎾᏉ	-11.626
▁ᏓᎪᏩᏘᏍᎬ	-11.626
▁ᏍᎩᏃᎯᏏ	-11.626
▁ᏍᏆᎳ	-11.626
ᏅᏬᎳᏕᏍᎬ	-11.626
▁ᏣᏰᎸᎭ	-11.6261
▁ᏚᏂᎩᏒ	-11.6261
▁ᏣᏁᏤᏗᏱ	-11.6261
▁ᎤᏂᏲᏍᏙᏗᏱ	-11.6261
▁ᏥᏥᏃᎮᎭ	-11.6261
▁ᏳᏍᎦᏅᏨ	-11.6262
▁ᏚᎷᎬᎢ	-11.6262
▁ᎤᏗᎴᎬ	-11.6262
▁ᎤᏂᏂᎩᏛ	-11.6262
▁ᎤᏪᎷᎩ	-11.6263
▁ᎦᎵᏦᏩᏛ	-11.6263
▁ᎬᏩᏅᏏᏙᎯ	-11.6263
ᎵᏉᎩ	-11.6263
▁ᏥᏕᏙᎭ	-11.6263
▁ᏩᏲᎯ	-11.6263
ᏓᎢᏅᏗᏱ	-11.6263
ᏁᎳᏲᏍᎬ	-11.6263
▁ᏫᏂᎬᎦ	-11.6264
▁ᏚᏟᎶᏍᏓᏁᎴᎢ	-11.6264
▁ᎩᎦᎨᎠᏗᏔᏍᏗ	-11.6264
ᏍᏚᎶᏙᏗ	-11.6265
ᏚᏁᎢ	-11.6265
ᏍᏔᏯ	-11.6265
▁ᏃᏊᏛ	-11.6265
ᏒᏂᏍᏗᏱ	-11.6266
▁ᏱᏗᏥᏯᏅ	-11.6266
▁ᏭᎳᏛ	-11.6266
▁ᏗᏥᎦ	-11.6266
▁ᏚᏬᏁᏔᏁᎢ	-11.6266
▁ᏓᏐᏴᎢ	-11.6267
▁ᎤᏍᏆᎸᎭ	-11.6267
ᎦᏓᎡᎢ	-11.6267
ᏍᏓᏩᏕᎪᎢ	-11.6267
▁ᎠᏳᎾᎦᏃ	-11.6268
▁ᏚᏟᎶᏍᏓᏁᎴᏃ	-11.6268
▁ᏕᎪᏢᏒᎩ	-11.6268
▁ᎤᎷᏤᎸᎯ	-11.6268
▁ᏱᏅᏗᎦᎵᏍᏙᏗᏍᎨᏍᏗ	-11.6268
▁ᏧᎬᏩᎴ	-11.6268
ᏁᎢᏍᏓᏁᎭ	-11.6269
▁ᏕᏣᏓᎨᏳᏒ	-11.6269
▁ᏣᏁᏆ	-11.6269
▁ᎤᏰᎾᎥ	-11.6269
ᎤᏥᎸᏎᏍᏗ	-11.6269
▁ᎤᎵᎮᎵᏍᏗᏳ	-11.627
▁ᎡᏣᏙ	-11.627
▁ᎠᏯᎡᎢ	-11.6271
▁ᏙᎨᏥ	-11.6271
ᏓᏙᎵᏍᏗᎭ	-11.6272
▁ᏄᏓᏪᏎᎴ	-11.6272
▁ᏩᏁᎾ	-11.6272
▁ᏙᏛᏁᎵ	-11.6272
▁ᏅᏓᏳᎾᏄᎪᎢᏍᏗ	-11.6272
▁ᏱᎦᏗᎭ	-11.6272
▁ᏗᏍᏆᏂᎪᏗᏍᎩ	-11.6273
▁ᏂᏍᎩᏴᏁᎸ	-11.6273
▁ᎢᏳᏊ	-11.6273
▁ᎤᏁᎢᏍᏔᏁᎢ	-11.6273
▁ᎤᏗᏔᎮᎢ	-11.6273
ᏲᏞᏒ	-11.6273
▁ᎤᏁᏉᏤᎢ	-11.6273
▁ᏩᎾᎦᎳ	-11.6273
▁ᎢᏣᏓᎳ	-11.6273
ᏢᏥᏰᏍ	-11.6273
▁ᎤᏁᎸᏔᏁᎢ	-11.6273
ᏟᏂᎬᏁᎰ	-11.6273
ᎦᏓᎭ	-11.6274
ᎶᎦ	-11.6274
▁ᏍᎩᏁᎮᏍᏗ	-11.6274
▁ᎤᎵᏍᏙᏰ	-11.6275
▁ᏱᏄᎾᏍᏗ	-11.6275
ᏥᏲᎵᎭ	-11.6275
▁ᏥᏁᏣᏛ	-11.6275
▁ᏧᏂᏒᏍᏗᏱ	-11.6275
▁ᎠᏉᎯᏳᎭ	-11.6275
▁ᎢᏤᎳᏗ	-11.6275
▁ᏐᎭ	-11.6276
▁ᎤᏓᏅᏓᏛᎩ	-11.6276
▁ᎣᏥᏯᎥ	-11.6276
▁ᎤᏂᎿᎥᎢ	-11.6276
▁ᎤᏬᏛ	-11.6276
▁ᎤᏭᏢᏅᎩ	-11.6276
▁ᏗᏄᎪᏗᏍᎩᏱ	-11.6276
ᏓᏡᏗᎭ	-11.6276
▁ᏥᎨᎲ	-11.6276
▁ᎨᎪᏣᎴᏛ	-11.6276
▁ᎠᎩᏩᏛᎲᎩ	-11.6277
▁ᎦᎷᎨᏍᏗ	-11.6277
▁ᏧᎵᏬᏨ	-11.6277
▁ᏥᏂᏫ	-11.6277
ᏯᎩᏍᎪ	-11.6277
▁ᎥᏘ	-11.6277
▁ᎠᏍᏆᏂᎪᏗᏍᎨᏍᏗ	-11.6278
▁ᎢᏣᏓᏁᏟᏴᏏᏒᎢ	-11.6278
▁ᎠᎵᏰᎢᎶᎦ	-11.6278
ᎦᏌᏯᏍᏙᏗᏱ	-11.6279
▁ᏕᎯᏬᏁᏗᏍᎬ	-11.6279
▁ᎧᏁᏉᎨᎢ	-11.6279
▁ᎡᎩᏍᏕᎸᏗᏱ	-11.6279
ᏙᏓᏋ	-11.6279
▁ᎠᏩᏉᎯ	-11.628
▁ᏚᏂᎪᎲᏃ	-11.628
▁ᎠᏰᏙᎳᏕᏍᏗ	-11.628
▁ᎠᏲᏍᏗᏍᎪ	-11.628
▁ᎠᏑᏴᏗ	-11.628
▁ᏄᏅᏁᎸᎩ	-11.628
▁ᏫᎾᏛᎦ	-11.628
ᎲᏍᎬᎩ	-11.628
▁ᏚᏂᏴᎲ	-11.6281
▁ᎤᎾᏓᏡ	-11.6281
▁ᎠᏃᏎᎮ	-11.6281
ᎪᎸᏏ	-11.6281
▁ᎬᏩᎾᏝᎢ	-11.6281
ᎵᏃᎮᏗᏍᎨᏍᏗ	-11.6282
▁ᏧᏓᏂᎸᎢᏍᏗ	-11.6282
▁ᎢᏳᎵᏍᏓᏁ	-11.6282
▁ᏕᎫᎪᏗᏍᎬ	-11.6282
ᏕᎬᏲᎯᏏ	-11.6283
▁ᎤᏂᎧᎵᏤ	-11.6283
▁ᎢᎬᏩᏁᏗᏱ	-11.6284
▁ᎠᎾᎢᏎᎢ	-11.6284
▁ᏅᎩᏗᎦᏅᏌᏗ	-11.6284
▁ᎤᏟᎶᎥᎩ	-11.6285
▁ᎠᏯᏨᏗ	-11.6285
▁ᏫᏚᏂᏯᏅᎲ	-11.6285
ᎫᏱᏍᎪ	-11.6285
ᎾᏓᏙᎵᏍᏓᏁ	-11.6285
▁ᎠᎩᏃᎮᏍᎬᎢ	-11.6285
▁ᏚᎸᏌᏓ	-11.6285
▁ᏣᏁᏢᏔᏅᏛ	-11.6285
▁ᎠᏒᏛ	-11.6285
▁ᎤᏍᏘᏰᎩ	-11.6286
▁ᏨᏔᏅᎯ	-11.6286
ᎾᏙᎴᏆᏍᎬ	-11.6286
▁ᏕᎤᎸᏫᏍᏓᏁᎸ	-11.6287
ᏂᏜ	-11.6287
▁ᏚᏙᎡᏍᏗ	-11.6287
▁ᏥᎦᎷᎪᎢ	-11.6287
▁ᏇᎳ	-11.6287
▁ᎤᏁᎢᏍᏔᏁ	-11.6287
ᏗᎦᎵᏍᏙᏗᏍᎨᏍᏗ	-11.6287
▁ᏭᏓᎾᏫᏛᎮ	-11.6287
▁ᎤᏂᏲᎰᎢ	-11.6288
ᏴᏎᎸᎩ	-11.6288
▁ᏕᎨᏛ	-11.6288
▁ᎾᎬᏁᎸᎭ	-11.6289
▁ᏧᎳᏏᏕᎾ	-11.6289
▁ᏭᏯᏅᎲᎩ	-11.6289
ᎨᏙᎰ	-11.6289
ᏐᏅᏤᎸᎩ	-11.629
ᎣᏍᏛ	-11.6291
▁ᏗᎵᏍᎪᎸᏙᏗ	-11.6291
▁ᎤᏓᏅᏖᏗᏍᎬ	-11.6291
▁ᎠᏂᏔᏲᎯᎮᏍᏗ	-11.6292
ᏍᏆᏗᏍᏗᏱ	-11.6292
▁ᏄᏅᏁᎴᎢ	-11.6292
ᎨᎬᏁᎵ	-11.6293
▁ᏫᎷᎩ	-11.6293
▁ᎤᏃᎯᏳᎯ	-11.6293
▁ᎠᏄᎯᏍᏗᏍᎬᎢ	-11.6293
▁ᎤᏓᏙᎵᏣᏘ	-11.6293
▁ᎠᎩᏰᎸᏗᏱ	-11.6293
▁ᎤᎾᏤᎵᎪ	-11.6294
▁ᎤᎾᎵᎪᏒᎢ	-11.6294
▁ᏓᏅᏗᏍᎬᎢ	-11.6294
▁ᏚᏄᎪᏔᏅᎢ	-11.6294
▁ᏕᏣᎸᏫᏍᏓᏁᎸᎢ	-11.6295
▁ᎤᏢᎬᎢ	-11.6295
▁ᏗᎧᏃᎩᏍᏗᏱ	-11.6295
▁ᏚᏍᎫᏓᏛᎢ	-11.6295
▁ᏱᏮ	-11.6295
▁ᎤᎵᏦᎯᏓ	-11.6295
▁ᎤᏩᏂᎴᎢ	-11.6295
▁ᎠᏥᎢᏍᏗᏱ	-11.6295
▁ᎠᏐᏢᎢᏍᏗᏍᎬᎢ	-11.6295
ᏣᏙ	-11.6295
▁ᏚᏂᏢᎬᎢ	-11.6296
▁ᏑᎠ	-11.6296
▁ᎤᏃᎯᏳᏁᎢ	-11.6296
▁ᎤᏬᏍᎩᎵ	-11.6296
▁ᏯᏆᏚᎵᎭ	-11.6297
▁ᎤᏬᎯᏤ	-11.6297
▁ᏚᏃᏁᎸᎩ	-11.6297
▁ᎢᎦᏛᏁᎯ	-11.6298
ᎪᎵᎩ	-11.6299
▁ᎤᎵᏍᏆᏙᏅ	-11.6299
ᎾᏰᏍᎬᎾ	-11.6299
▁ᏍᎩᏯᏅᏛ	-11.63
ᏅᏁᏗ	-11.63
▁ᎤᏍᏚᏞ	-11.63
ᎪᏢᏁᎢ	-11.6302
▁ᎠᏂᏫᎾᎨᏍᏗ	-11.6303
▁ᎤᏰᎸᏐᎢ	-11.6303
▁ᎠᏘᏍᏗᏍᎩ	-11.6304
▁ᏅᏁᎮᏍᏗ	-11.6304
▁ᏥᎥᎡ	-11.6304
▁ᎠᎾᏓᏛᎥ	-11.6305
▁ᏄᏃᎯ	-11.6305
▁ᎤᏂᎾᏝᎢ	-11.6306
▁ᎠᏓᏍᏕᎵᏍᎩ	-11.6306
ᎩᎵᏲᎬ	-11.6306
▁ᎠᎩᏁᏨᎩ	-11.6307
▁ᎤᎩᎵᏲᏨᎯ	-11.6307
ᎯᎰᎢ	-11.6308
▁ᏓᎩᎪᎲᎩ	-11.6309
▁ᏍᏆᏕᏁᎸ	-11.6309
ᏙᎵᏍᏗᏉ	-11.6309
▁ᎯᏴᎭ	-11.631
▁ᏧᏂᎶᏒ	-11.631
ᎤᏙᎯᏳᎭ	-11.631
▁ᏂᏕᎬᏁᏍᏗ	-11.631
▁ᎮᎲᎢ	-11.6311
▁ᎠᏂᎲᏍᎨ	-11.6311
▁ᏚᏄᎪᏫᏒᎩ	-11.6311
▁ᎠᏓᏙᎵᏍᏙᏗᏱ	-11.6312
ᎾᏝᎥᎢ	-11.6312
ᏰᎶᎴ	-11.6313
ᏫᏍᎪ	-11.6313
ᎾᎩᏪᏒ	-11.6314
▁ᎤᎾᏦᏗ	-11.6314
▁ᏕᏥᎨᏳᏒ	-11.6314
▁ᎠᏥᎦᏘᏗᏍᏗᏱ	-11.6315
▁ᏣᏍᏆᏂᎪᏙᏗᏱ	-11.6315
ᎭᏂᏉ	-11.6316
▁ᎤᏲᎰᏒ	-11.6316
ᏥᏲᎭ	-11.6317
ᎫᏴᎲ	-11.6317
▁ᎠᎾᏕᎲᏍᎬᎢ	-11.6317
▁ᎤᏃᎯᏳᏒᎢ	-11.6317
▁ᎤᏁᎵᏒ	-11.6318
▁ᏤᎪᎢ	-11.6318
ᏥᏰᎸᎾᏁᎰᎢ	-11.6319
▁ᏣᏍᏆᏂᎪᏗ	-11.6319
▁ᎫᏢᏗᏱ	-11.6319
▁ᎤᎾᎵᏗᎩ	-11.6319
▁ᏚᏪᎧᏁᎢ	-11.632
ᏫᏃ	-11.632
ᏓᎾᏫᏛᎮ	-11.6321
▁ᏗᎦᏅᏬᎢ	-11.6321
▁ᎠᎵᏖᎸᏂᏍᏗ	-11.6321
▁ᎤᏓᏅᏖᏗᏍᎨᎢ	-11.6322
▁ᎾᏯᏛᎥᏃ	-11.6322
▁ᏣᏰᎸᏗ	-11.6323
▁ᎤᎵᏍᎪᎸᏓᏁᎸᎩ	-11.6323
▁ᎢᏳᏪ	-11.6323
ᏪᏙᎵᏨᎩ	-11.6324
▁ᎠᎾᏓᏅᏖᎵᏙ	-11.6324
▁ᏥᏧ	-11.6324
▁ᏣᏴᏍᏗ	-11.6324
▁ᎠᎩᏍᏛᏗᏍᎬᎢ	-11.6325
▁ᎤᏕᏒᏅ	-11.6325
ᏰᎵᏎᏗ	-11.6326
ᏝᏅᎯ	-11.6326
ᏍᏢᏂᏍᏔᏅ	-11.6327
▁ᎤᎾᎵᏍᎪᎸᏔᏅᎯ	-11.6327
ᏗᏔᎲᎩ	-11.6328
▁ᎾᏎᎵ	-11.6328
▁ᎠᏛᏍᎨᎢ	-11.6328
▁ᎤᎾᏂᎩᏒᏃ	-11.6328
▁ᎤᏓᏴᏍᏗᏱ	-11.6329
▁ᏭᏂᎦᏐᎠ	-11.6329
ᏌᎾ	-11.633
▁ᏕᎨᏥᏰ	-11.633
▁ᎤᎾᎳᏅᎯᏍᎩᏂ	-11.6331
▁ᎠᎵᏍᏓᏴᎲᏍᎬᎢ	-11.6331
▁ᎠᏂᏍᎦᎩ	-11.6331
ᎬᏔᏅᎯ	-11.6331
ᏆᏒᎦᎸ	-11.6331
▁ᎤᏍᏕᎸᎯᏙᎯ	-11.6332
ᏍᏚᎢᏍᏗᏱ	-11.6332
ᎵᏂᎬᎬ	-11.6333
ᎧᏃᏗ	-11.6333
▁ᎪᏢᏒᎩ	-11.6333
▁ᎪᏫ	-11.6333
▁ᏕᏣᎴ	-11.6335
▁ᏧᏁᎵᏁᏃ	-11.6335
▁ᏓᏕᏲ	-11.6335
▁ᎠᏂᏍᎦᎢᎲᏃ	-11.6335
▁ᏦᏑᏫᏃ	-11.6335
▁ᏁᏩᏔᎵᏃ	-11.6335
▁ᏎᏘᏃ	-11.6335
▁ᏏᎵᏆᏃ	-11.6335
▁ᎾᎾᏛᏁᎮ	-11.6335
ᎥᎭ	-11.6336
▁ᏧᎾᏓᎵ	-11.6336
ᎴᏫᏍᏗᏍᎨ	-11.6336
▁ᏛᎬᏯᏘᏃ	-11.6337
▁ᎤᎾᏓᏴᎳᏛ	-11.6338
ᏥᏅᏬᏗ	-11.6338
▁ᎤᏪᏘᏁᎢ	-11.6338
ᎤᏏ	-11.6339
▁ᎠᏓᏪᎵᎩᏍᎬᎢ	-11.6339
▁ᏂᏚᏩᏁ	-11.634
▁ᎠᏆᏣᏃ	-11.634
ᏬᏗᎨ	-11.634
▁ᏘᏅᎵ	-11.634
▁ᏕᎦᏥᏯ	-11.6343
▁ᎬᏩᏃᏁᎴᏃ	-11.6343
▁ᎤᏁᎷᎬᎢ	-11.6343
▁ᏂᎬᏁᎮᏍᏗ	-11.6343
ᏰᏌᏛᎢ	-11.6344
ᏛᏛᏁᎢ	-11.6344
▁ᏖᏒ	-11.6345
▁ᎤᏘᏃᎴᎢ	-11.6346
ᏗᎬᏩᎧᏃᏗ	-11.6346
▁ᎤᎾᏓᏅᏔᏩᏕ	-11.6347
▁ᏱᏂᎬᎦ	-11.6347
ᎮᎯ	-11.6347
▁ᎤᏕᎶᎰᏌ	-11.6347
▁ᎤᏂᏬᏂᎯᏍᏗᏱ	-11.6347
ᏂᏏᏅᎩ	-11.6348
▁ᎤᏓᎾᏫᏛᎮ	-11.6348
▁ᎦᏄᎸᎯ	-11.6349
▁ᎤᏍᏆᏗᏍᏗᏱ	-11.6349
▁ᎤᏅᎪᏨ	-11.6349
▁ᏂᏪᏏ	-11.635
ᏄᎪᏫᏎᎢ	-11.635
▁ᎾᎾᏛᏁᎭ	-11.6351
▁ᏂᎦᎵᏍᏗᏍᎪᎢ	-11.6351
ᏁᏟ	-11.6352
▁ᎦᎵᏉᎩᎦᎵ	-11.6353
ᎩᏁᏤᎸᎢ	-11.6354
▁ᎤᎾᏤᎵᎦᏯ	-11.6354
ᎯᎦᏔᎭ	-11.6355
▁ᏧᏂᏁᏗᏱ	-11.6355
ᏱᏐ	-11.6355
ᎸᏣ	-11.6355
▁ᏥᏃᎯᏎᎸ	-11.6356
ᎩᎾᏄᎪᏫᏒ	-11.6356
▁ᏱᏥᎦᏔᎮᎢ	-11.6357
ᏗᏯ	-11.6358
▁ᏱᏄᏍᏕᎢ	-11.6359
ᏯᏄᎵᏳ	-11.6359
▁ᏕᎦᏯᎸ	-11.636
ᎧᎿᏩᏚᎦ	-11.6361
ᏌᏅ	-11.6361
ᏂᎷᏣ	-11.6362
▁ᏓᏕᏲᎲᏍᎨᎢ	-11.6362
ᏂᏏᏗᏱ	-11.6363
▁ᎠᏂᎩᎵᏲᎬᎢ	-11.6363
▁ᎤᎦᏙᎥᏎ	-11.6363
▁ᏙᏓᏆᏍᎬᎢ	-11.6363
ᎵᏙᎮ	-11.6364
▁ᎾᏍᏊ	-11.6365
ᎩᎶᏫᏎ	-11.6366
▁ᎠᎧᎵᎢᎯ	-11.6366
ᏮᏕᏨ	-11.6366
▁ᎦᏓᎥᎢ	-11.6367
ᏚᎾᏚᏫᏍᏔᏁᎢ	-11.6369
▁ᏧᎦᏴᎵᎨᏃ	-11.6369
▁ᏗᎦᏅᏬᏃ	-11.6369
▁ᎤᏓᏴᏎ	-11.637
▁ᏚᏑᏰᏎ	-11.637
ᏏᏕᏅ	-11.6371
ᏁᏤᎴ	-11.6371
▁ᏴᎨᏤ	-11.6371
ᎯᎶᎥ	-11.6371
▁ᏥᎪᏩᏘᎭ	-11.6371
ᎶᏌ	-11.6371
ᏅᏫᏍᏗᏍᎨ	-11.6371
ᏌᎴ	-11.6372
ᎳᏑᎳ	-11.6375
ᎶᏒᏍᏙᏗᏱ	-11.6376
▁ᎤᎦᏘᏗᏍᏗᏱ	-11.6376
▁ᎤᏓᏅᏙᎩᎯ	-11.6378
▁ᏫᎲᎦ	-11.6379
ᏋᏂ	-11.6379
▁ᏚᎸᏫᏍᏓᏁᎸᎩ	-11.638
ᏪᏒᏛ	-11.6382
▁ᎤᎵᏍᎪᎸᏙᏗᏱ	-11.6384
ᏓᏢ	-11.6386
ᎾᏍᏉ	-11.6386
▁ᎤᏛᏗᏕᎨ	-11.6386
ᏰᏍᏔᏁᎢ	-11.6386
▁ᎦᏛᎬᎦ	-11.6387
▁ᎤᎾᎵᎮᎵᏤᎢ	-11.6387
ᏰᎢᎸᏍᏗᏱ	-11.6388
ᏯᏃ	-11.6389
ᏥᏯᏫᏍᎬ	-11.639
▁ᎶᏛ	-11.639
ᏚᎸᏫᏍᏓᏁ	-11.6391
ᎶᏒᎢ	-11.6392
▁ᎤᏌᎨ	-11.6392
▁ᎤᏓᏴᎳᏛ	-11.6392
ᎾᏓᏙᎵᏍᏗᏍᎪᎢ	-11.6393
ᏮᏕ	-11.6393
ᏓᏅᏓᏗᏍᏔᏅᎯ	-11.6394
ᏣᏃᏁᎵ	-11.6394
▁ᎾᏆᎵᏍᏓᏁ	-11.6395
▁ᎤᏍᏚᎩᏎ	-11.6397
ᎦᏓᎡ	-11.6397
▁ᏆᏏ	-11.6397
ᏍᏚᏁᎢ	-11.6397
▁ᎤᏚᎢᏍᏔᏅᎢ	-11.6399
▁ᏧᏁᏨᏃ	-11.64
▁ᏥᏩᏛᎲ	-11.6401
▁ᎠᏓᏁᏣᏍᏚᎶᏃ	-11.6403
ᎳᏕᏗ	-11.6404
ᏁᎳᏕᎢ	-11.6404
▁ᎤᏐᏱᎭ	-11.6405
ᏔᎳᏗ	-11.6405
▁ᏥᏃᎮᏍᎬᎢ	-11.6406
▁ᎤᏩᏛᎲᎩ	-11.6406
▁ᎤᎪᎵᏰᎡ	-11.6406
▁ᏕᎤᎴᏔᏅᎢ	-11.6406
▁ᏁᎵᏍᎬᎾ	-11.6406
▁ᏄᏬᏚᏒ	-11.6407
ᏌᏙᏯ	-11.6407
▁ᎤᏰᎯᏍᎩᏂ	-11.6407
▁ᎤᎾᎷᏒ	-11.6408
▁ᏕᏥᎸᏫᏍᏓᏁ	-11.6409
ᏣᎦᏔᎲᏛ	-11.6409
▁ᏱᏚᏩᏛᎲ	-11.641
▁ᏙᏓᏥᏯ	-11.6411
ᏣᏓᏂᎸᎩ	-11.6411
▁ᎤᏍᏆᏙᏅ	-11.6412
▁ᎤᎷᏥᏗ	-11.6412
ᎬᏂᏐᏗᏱ	-11.6413
ᎵᏯ	-11.6413
▁ᎯᏆᏃ	-11.6413
▁ᏂᎦᎵᏍᏗᏍᎨᎢ	-11.6414
▁ᏕᏥᏍᏚ	-11.6415
▁ᏫᎦᎾᏄᎪᎢ	-11.6416
ᏄᎵᏍᏓᏁᎴ	-11.6417
ᏝᎥ	-11.6417
▁ᎦᎵᏆ	-11.6417
▁ᏂᎦᏛᏁᎰᎢ	-11.6418
ᏥᎯᎮᏍᏗ	-11.6418
▁ᏫᏓᏗ	-11.6418
▁ᏫᏚᎷᏤᎸ	-11.6421
ᏣᎵᏥᏙᎲᏍᎦ	-11.6421
ᎸᏉᏓ	-11.6427
▁ᏚᎾᎵᏂᎬᎬ	-11.6428
▁ᎤᏍᎩᏓᏒᎢ	-11.6428
ᏛᏏ	-11.6429
ᎬᏩᎶᏓᏁ	-11.6429
ᎫᏱᏍᎨᏍᏗ	-11.643
ᏓᏒᏂ	-11.6431
ᎴᏈ	-11.6431
ᎦᎵᏯ	-11.6431
ᏉᏎᏗ	-11.6433
▁ᎠᎹᏱᎭ	-11.6435
▁ᎤᎵᏠᏯᏍᏛ	-11.6436
▁ᎤᏚᎢᏍᏔᏅᎯ	-11.6437
▁ᎡᏂᎾᏯᏃ	-11.6437
▁ᎠᏂᎷᎬ	-11.644
ᏗᎴᎲᏍᎬᎢ	-11.644
ᎪᏢᏅ	-11.6441
▁ᎤᏲᏨᎯ	-11.6442
▁ᏗᏥᏰᎸᎢ	-11.6446
▁ᎬᏩᎵᎪᏁ	-11.6446
▁ᏍᏊ	-11.6448
▁ᎠᎪᏎᎴ	-11.6449
ᏂᏱᏍᎩ	-11.6452
▁ᏩᎩᎶᎯ	-11.6452
ᏓᏓᎴᏔᏂ	-11.6452
▁ᎠᏂᏃᎮ	-11.6454
▁ᎤᏄᎪᏨᏃ	-11.6454
ᏙᎴᎰᎯᏍᏙᏗ	-11.6454
ᏱᎵᏕᎲᎢ	-11.6454
ᏇᎵᏒ	-11.6454
ᎾᏟᏃᎮ	-11.6455
▁ᏪᏙᎲ	-11.6455
ᎭᏄᏫ	-11.6455
ᎬᏩᎸ	-11.6458
ᏕᎶᎰᏌ	-11.6459
ᎾᏌᎾᎩ	-11.6459
▁ᏕᎩᎸᏫᏍᏓᏁᎸ	-11.6459
▁ᏫᏔ	-11.646
▁ᎠᏓᏅᏓᏗᏍᏗᏱ	-11.6461
▁ᎤᏟᎯᏳᏍᎩᏂ	-11.6462
ᎶᏄᎮᏗ	-11.6463
ᏂᎾᎷ	-11.6465
▁ᏓᏥᏯᎵ	-11.6466
▁ᏫᎦᎶᏍᎬ	-11.6466
ᏁᏓᏍᏗ	-11.6467
ᎧᏁᎢ	-11.6469
▁ᎤᏩᎾᏬᏒ	-11.647
▁ᎤᏲᎱᎯᏎᎸᎯ	-11.6471
▁ᎮᎼᏃ	-11.6471
▁ᏫᏚᏯᏅᎲᏃ	-11.6471
▁ᎦᏰᏌᏛᎢ	-11.6472
▁ᎠᏂᏍᎦᎾᏍᎩᏂ	-11.6473
ᏆᎧᎿᏅ	-11.6473
▁ᎦᎪᎨ	-11.6475
▁ᎤᏂᎷᏤᎭ	-11.6475
▁ᏚᏅᏎᏃ	-11.6475
▁ᏚᏲᏍᏔᏅ	-11.6476
ᏣᎦᏎᏍᏓ	-11.6476
▁ᏗᏂᏰᎸᎢ	-11.6476
▁ᎨᏥᏙᎵᏍᏗ	-11.6476
ᏫᏒᎢ	-11.6477
ᏄᏯᎩ	-11.6478
▁ᎬᏩᎵᏃᎮᏔᏁ	-11.6479
▁ᏥᏂᎦᎵᏍᏗᏍᎪ	-11.6479
▁ᏣᏢᏗ	-11.648
ᏘᏁᎬ	-11.6484
▁ᎠᏁᏙᎯᏉ	-11.6486
ᎭᎵᏙᎩ	-11.6486
ᏫᏚᏓᎢᏅ	-11.6486
ᏍᏓᏩᏗᏙᎮ	-11.6488
ᎬᏇᎯᏍᏗᎭ	-11.6488
ᏃᎯᏳᎲ	-11.6488
▁ᏂᏓᏅᏁᎲ	-11.6488
▁ᎪᏒ	-11.6489
ᏍᎫᏕᏒᎩ	-11.649
▁ᎤᏬᎯᏳᎯ	-11.6491
▁ᏚᎸᏌᏛᎢ	-11.6493
ᏆᏤᎵ	-11.6494
ᏥᏯᏓᏙᎵᏍᏓᏁᎭ	-11.6494
▁ᎤᏔᏲᏎᎸᎩ	-11.6495
ᎣᎩ	-11.6495
▁ᎤᏲᏨᎩ	-11.6497
▁ᎵᏓ	-11.6499
▁ᎠᏆᏚᎸᎲ	-11.6502
ᏰᎸᏁᎢ	-11.6505
ᎦᎴᏂ	-11.6505
▁ᎤᏂᏁᏨᎢ	-11.6506
ᎾᏓᏂᎸᏤ	-11.6507
▁ᏚᏁᏒ	-11.651
▁ᎤᏤᎸᏅ	-11.651
ᎵᏍᏔᏴᎲ	-11.6514
ᏅᏍᏔᏁᎢ	-11.6514
▁ᎠᏓᏅᏖᏍᎨᎢ	-11.6514
▁ᎠᏁᏙᎮᎢ	-11.6515
ᏓᎵᏱ	-11.6516
ᎾᎦᎵᏳ	-11.6516
▁ᏥᏯᎠ	-11.6517
ᏓᏡᏗᏍᎪᎢ	-11.652
▁ᏧᎾᏙᏅ	-11.6521
ᏣᏉ	-11.6521
ᎾᏠᏨᏃ	-11.6523
ᏍᏆᏓᏃ	-11.6523
ᏲᎱᏎᎸᎯ	-11.6523
▁ᏂᎬᏁᎰ	-11.6529
▁ᏍᎩᎾᎾᏂ	-11.6529
ᏥᏩᏛᎡᎭ	-11.6532
▁ᎠᏁᎵᏍᎨᎢ	-11.6532
▁ᎤᎾᏓᏙᎵᏍᏓᏁᎴ	-11.6533
ᎭᏛᎦ	-11.6533
▁ᏂᏨᏪᏎᎸ	-11.6533
ᎧᏅᎩ	-11.6534
▁ᎠᏒᎨᏍᏗ	-11.6537
ᏍᎫᏕᏍᎬ	-11.654
ᏥᎦᏘᏗ	-11.654
▁ᏕᎬᏕ	-11.6543
▁ᎤᏩᏛᎲᏃ	-11.6543
ᏩᏘᎭ	-11.6545
▁ᎢᏳᏩᏁᎸ	-11.6547
▁ᎤᏚᎵᏍᎨᎢ	-11.6552
▁ᎳᏏ	-11.6554
ᏲᏎᎮᏍᏗ	-11.6555
▁ᎡᏥᏯᏅᎲ	-11.6557
ᏨᏎ	-11.6558
ᎥᏍᎪ	-11.6559
▁ᎤᎵᏌᎳ	-11.6562
▁ᎠᎵᏍᎪᎸᏙᏗᏱ	-11.6563
▁ᏱᏝ	-11.6564
ᎾᎿ	-11.6564
ᏣᎵᏍᎪᎸᏓᏏ	-11.6565
ᏍᎦᏅᏤ	-11.6565
▁ᎢᏨᏰᎳᏗᏙᎸ	-11.657
▁ᏄᎵ	-11.6571
▁ᏚᏂᎸᏫᏍᏓᏁᎲᏰᏃ	-11.6571
▁ᎤᎾᎦᏙᏍᏛ	-11.6572
▁ᎢᏗᎦᏔᎭᏰᏃ	-11.6573
▁ᏱᏅᎨᏣ	-11.6573
ᎵᏎᎮ	-11.6573
▁ᎤᎾᎴᏅᎮᏃ	-11.6573
▁ᎬᏩᎸ	-11.6573
▁ᎤᏁᎵᏎᎢ	-11.6575
ᎵᏃᎮᏗᏍᎬ	-11.6575
▁ᎮᏙᎲ	-11.6579
▁ᏎᎦᏉ	-11.658
▁ᎠᏆᏚᎵᏍᎬᎢ	-11.658
▁ᎠᎾᎵᏍᏓᏴᎲᏍᎬ	-11.6581
▁ᎤᎾᎵᏖᎸᏅ	-11.6582
▁ᎷᎦ	-11.6584
▁ᎺᎵᏍᎩᏂ	-11.6586
▁ᏚᎪᎲᏃ	-11.6587
▁ᏛᎾᎢ	-11.6588
ᏗᎴᎩ	-11.6589
ᏤᎸᏗ	-11.6591
▁ᏫᏚᎾᎧᎿᏅ	-11.6594
ᏓᎨᏛ	-11.6595
▁ᎤᎾᏄᎪᏨᎯ	-11.6595
ᏓᏂᎸᎪᎢ	-11.6595
▁ᏧᎾᏄᏬᏍᏗ	-11.6596
ᏓᏅᏖᏍᎨ	-11.6598
▁ᎠᏁᏙᎮᏍᏗ	-11.6601
ᎵᎨᏂ	-11.6603
ᏯᏙᎳᏛ	-11.6604
▁ᎤᏂᏲᏍᏔᏁ	-11.6605
ᏓᏅᏒᎭ	-11.6608
▁ᏚᏑᎦ	-11.6613
▁ᎤᏂᏣᏛᎩᏃ	-11.6614
▁ᏫᏚᏠᏎ	-11.6618
ᏚᏪᎧᏁᎢ	-11.6618
▁ᏕᎰ	-11.662
ᏕᎰᎯᏍᏗᏱ	-11.6621
ᎹᎵ	-11.6624
▁ᏂᎦᏥᏴᏁᎸ	-11.6625
ᏘᏍᎬᎾ	-11.6626
ᏓᏁᏘ	-11.6627
ᏗᏔᎲᎭ	-11.6628
ᏃᎸᏔᏅᎩ	-11.6628
▁ᎤᎾᎴᏗ	-11.663
ᏓᏬᎠ	-11.6634
ᎨᏳᏐ	-11.6635
▁ᎠᏍᏓᏱᏗᏍᏗ	-11.6635
ᏥᏅᎦᎸᎡ	-11.6639
▁ᏥᏅᏏᏓᏍᏗᏃ	-11.6639
ᏍᏚᏛ	-11.6639
▁ᏎᎻᏃ	-11.664
▁ᎢᏥᎩᎬ	-11.6641
▁ᎠᏂᎨᎾᏂᏃ	-11.6642
ᏤᎮᏍᏗ	-11.6642
▁ᏕᎭᏘᏁ	-11.6644
▁ᎮᎦᏃ	-11.6646
ᎧᎵᎵ	-11.6647
ᏤᎵᎯᏍᎪ	-11.6647
▁ᎤᏂᏔᏲᏎᎴ	-11.6648
ᏆᎵᏍᏓᏁ	-11.6651
ᏲᏣᏃ	-11.6652
ᎾᏏᏗ	-11.6652
▁ᏂᏥᎥᏉ	-11.6655
▁ᎤᏓᏙ	-11.6655
▁ᎤᏅᏕᏨ	-11.6657
ᎯᏍᏗᏱᏉ	-11.6659
▁ᏚᏰᎵᎯᏍᏔᏅ	-11.6659
ᏕᎶᏆᎥ	-11.6659
▁ᎣᏥᎩᎵᏲᎬ	-11.6659
ᏂᏣ	-11.666
ᏗᏨ	-11.6663
ᏴᏍᎪᏳᏁ	-11.6663
ᎾᏰᎯᏍᏗᏳ	-11.6664
ᏤᎳᏍᏓ	-11.6664
ᎧᏂᏍᎬ	-11.6664
▁ᎤᎸᏖᎴ	-11.6665
▁ᏧᎭᎾᏬ	-11.6671
▁ᎢᏣᎵᎪ	-11.6672
ᏓᏐ	-11.6673
▁ᏱᎨᏩ	-11.6674
ᎾᏁᏍᎨᏗ	-11.6677
ᎬᏬᎯᏳ	-11.6678
▁ᎠᎩᏂᎬᏎᎲ	-11.6681
▁ᏐᎢᏱᏃ	-11.6682
ᏅᏍᎪᎢ	-11.6686
▁ᎢᎩᏇᏓᎸ	-11.6687
ᏓᎦᏟᏌᏂ	-11.6688
ᏥᎷᏤᎸ	-11.6689
▁ᎠᏂᏬᏂᏍᎨ	-11.6689
▁ᏁᎰᏃ	-11.6689
ᏃᏫ	-11.6693
ᎧᎵᏨᎯ	-11.6696
ᎩᏒᎩ	-11.6698
ᏯᏙᎮᎮᏍᏗ	-11.6702
▁ᎡᎭᏏ	-11.6706
▁ᎩᎶᏍᎩᏂᏃᏅ	-11.6709
▁ᎨᎵᏍᎬᏃ	-11.6709
▁ᎤᎾᏙᎴᎰᏒᏃ	-11.671
▁ᏓᏂᏱ	-11.6711
ᎦᏤᎵᎦ	-11.6711
▁ᏭᏯᏅᎮᏃ	-11.6711
ᎾᏓᏛᏁᏗᏱ	-11.6716
ᎩᎳᏩ	-11.6717
▁ᏓᏳᏪ	-11.6717
▁ᏄᎳ	-11.6719
▁ᏣᏣᏪᏐᎸᏍᏙᏗ	-11.6723
ᏂᏅᏫᏍᏗᏍᎩ	-11.6724
ᎸᎲᎩ	-11.6727
ᎪᏢᎭ	-11.6737
▁ᏗᏥᎸᏫᏍᏓᏁ	-11.6739
ᏥᏯᏂᏍᎬ	-11.6742
▁ᎠᏓᏍᏕᎵ	-11.6748
▁ᏥᏂᎨᎬᏁ	-11.675
▁ᎦᏥᏔᏲᏎ	-11.6751
▁ᏥᏚᎾᏚ	-11.6751
▁ᎾᏂᎥᏉᏰᏃ	-11.6752
ᏳᏍᏈᏛ	-11.6752
ᎦᎴ	-11.6754
▁ᎤᎦᎾᏬᏍᎬ	-11.6755
▁ᏫᏚᏂᏲᎯᏎ	-11.6758
ᎵᎮᎵᎩ	-11.6763
ᏣᏪ	-11.6763
ᏯᏂᏍᎪ	-11.6764
▁ᏚᎷᎬ	-11.6765
ᏄᎵᏍᏔᏁ	-11.6766
ᎸᏃᏘᎭ	-11.6768
ᎾᏓᏬ	-11.6769
ᏯᏪᎦ	-11.6769
▁ᏭᏂᏃᏁ	-11.6773
▁ᎠᏂᏆᎵᏏᏍᎩᏂ	-11.6773
ᎵᏍᏙᏗᏱ	-11.6777
▁ᏧᏓᏕᏒᏛᏃ	-11.6779
▁ᎡᏉᏗᏃ	-11.6779
▁ᎠᎫᏬᏰ	-11.6779
▁ᎠᏂᎶᏍᎬ	-11.6783
ᏌᏆᎴᎸ	-11.6786
ᏥᏏ	-11.6787
ᏕᎪᏢᎾ	-11.6788
ᏃᏄ	-11.679
ᏯᎥᎾ	-11.6795
▁ᎤᏓᏅᏘᏌᏅ	-11.6796
▁ᏓᏃᏎᎰ	-11.6799
▁ᏩᏂᎷ	-11.6801
ᏂᏪᏍᎬ	-11.6802
ᏢᎬ	-11.6806
ᏲᏍᎨᏍᏗ	-11.6807
▁ᎩᏛ	-11.6807
▁ᏓᏁᎶᏛ	-11.6807
▁ᎫᏢᏗᏃ	-11.6813
▁ᏂᎦᎵᏍᏗᏍᎬᎢ	-11.6815
ᏓᎾᏅ	-11.6818
▁ᏏᏂ	-11.6819
▁ᏳᏬᎵᏤ	-11.6819
ᎵᏙᎲᎢ	-11.682
ᏃᎮᏍᎨ	-11.6822
▁ᏗᏂᎧᎿᏩᏗᏙᎯᏍᎩᏂ	-11.6824
ᏘᎾᏫᏛᎲ	-11.6825
ᎩᏁᎸᎯ	-11.6832
ᏓᏙᎵᏍᏓᏁᎭ	-11.6834
ᎦᎵᏍᏙ	-11.6835
ᏲᎯᎲ	-11.6835
ᎵᏁᏌ	-11.6839
ᏑᏴ	-11.6841
ns	-11.6841
ᎮᎶ	-11.6842
▁ᏦᏥᏩᎾᎦᎳ	-11.6845
▁ᏧᏯᏖᎾᏃ	-11.6847
▁ᏗᎦᏥᏯ	-11.6848
ᏉᎯᏳᏗ	-11.6848
▁ᏂᏚᎩᏨᏂᏒᏃ	-11.6849
▁ᏱᎯᎦᏔᎮ	-11.6852
▁ᎤᏂᏣᏖᏃ	-11.6854
ᎳᏗᏓᏍᏗᏱ	-11.6857
▁ᏃᏥᎥ	-11.6858
ᏂᏙᎲᎢ	-11.6862
▁ᏝᏉ	-11.6865
ᎫᏓᎴ	-11.687
ᎬᏆᏛᎦᏁ	-11.6876
ᏥᏰᎸᏅ	-11.6879
ᎡᎰᎢ	-11.688
▁ᎡᎶᏛᏰᏃ	-11.6883
▁ᎬᏩᏛᏓᏍᏓᏁ	-11.6885
▁ᎤᎾᏄᎪᏨ	-11.6885
▁ᏄᎵᏍ	-11.6891
ᎦᏬᎥ	-11.6892
▁ᏕᎨᏥᏅᏩ	-11.6896
▁ᎠᏥᏌᎳᏓᏅ	-11.6904
▁ᏱᏅᏗᎦᎵᏍᏙᏗᏍᎨ	-11.6905
▁ᏚᏲᎴ	-11.6909
ᎵᏩᏛᎡᎲᎢ	-11.6909
▁ᎤᏣᏘᏅ	-11.6911
▁ᎣᏣᏓ	-11.6913
ᎦᏔᎭᏰᏃ	-11.6916
▁ᏚᎾᏗᏩᏍᎨ	-11.6917
▁ᏗᎨᏫᏃ	-11.6918
p	-11.6922
ᏥᏩᏛᏓ	-11.6923
ᎥᏃ	-11.6926
▁ᎬᏩᎪᎵᏰᏍᎬ	-11.6926
▁ᏚᏓᏓᎴᏔᏁ	-11.6927
ᏍᎧ	-11.6935
ᏍᏓᏁᎸᎯ	-11.694
ᎦᏑᏰᏛ	-11.694
▁ᏓᏂᏢ	-11.6944
ᎨᏳᏣ	-11.6947
▁ᎤᏂᏩᏛ	-11.6948
▁ᎦᎴᏂᏙᎲ	-11.6953
▁ᎤᏂᎧᎭᏲ	-11.6954
ᏒᎲᏍᏗᏱ	-11.6959
ᎵᏰᏗ	-11.6959
▁ᎣᏥᏬᏂ	-11.6963
ᎸᏫᏍᏓᏁᎸ	-11.6966
▁ᎠᏰᏙᎳᏛᏗᏃ	-11.6973
ᎵᏌᎳᏓᏅ	-11.6977
ᎾᏗᏅᏓ	-11.6977
ᎾᏄᎪᏫᏎᎭ	-11.6979
▁ᏧᏃᎯᏳᏗ	-11.698
▁ᎤᎾᏓᏙᎵᏍᏔᏁ	-11.6981
▁ᏄᏩᏁᎲ	-11.6984
▁ᏆᏂᏆᏃ	-11.6984
▁ᏧᎦᎿᏁ	-11.6985
▁ᏂᏣᏪᏎᎸ	-11.6986
▁ᏱᏗᏥᏳᎪᏓᏁ	-11.6989
ᎦᏎᏍᏕᏍᏗ	-11.6989
▁ᏱᏂᏣᏛᏁ	-11.699
ᏯᏛᎩᎭ	-11.6995
▁ᏚᎾᏓᏡᎬ	-11.6996
▁ᎠᏃᏢᏍᎬ	-11.7
ᎶᏍᎦ	-11.7
▁ᏧᎾᏦ	-11.7
▁ᎢᏳᏩᏁ	-11.7001
ᎦᏂᏱᏍᎨ	-11.7002
▁ᏳᏲᎰ	-11.701
ᎾᏡᏔᏅᎩ	-11.7014
ᎾᏗᏅ	-11.7014
▁ᏗᏓᎴᎲᏍᎨ	-11.7024
▁ᎣᎩᎦᎵᏍᏓᏗᏍ	-11.7024
▁ᎠᏥᎸᏱᏃ	-11.7028
▁ᎢᎸᎯᏢᏰᏃ	-11.7029
ᎦᏖᏅ	-11.7032
▁ᎠᎩᏁᎢᏍᏔᏅ	-11.704
ᏛᏓᏍᏓᏁᏗᏱ	-11.7043
ᎾᏰᏍᎬᎢ	-11.7044
▁ᏚᏂᎵᏦᏛ	-11.7048
ᏦᎯᏳᎲᏍᎦ	-11.7052
▁ᎣᏣᏓᏙᎵᏍᏓᏁ	-11.7052
▁ᎤᏂᏲᏃ	-11.7055
ᏚᏙᎥ	-11.7055
▁ᎧᏅᏂᏍᎩᏉ	-11.7057
ᏢᏔᎮ	-11.706
ᎾᎯᏳ	-11.7065
ᏁᏎ	-11.7066
ᏰᎸᏎᏍᏗ	-11.7067
▁ᎤᎾᏓᏅᏖᏔᏁ	-11.7069
▁ᏲᎪ	-11.707
ᎩᎪᏩᏛ	-11.7073
ᏛᏕᏍᏗ	-11.7075
ᏕᏅᎾ	-11.7078
▁ᎤᎵᏂ	-11.7079
ᎩᏲᎱ	-11.7081
ᏓᏎᎪᎩ	-11.7081
ᎧᎵᎢᏍᏔᏅ	-11.7086
ᏍᎩᎾ	-11.7087
▁ᎠᏉᎯᏳᏅ	-11.7087
ᏔᏩᏕᎩ	-11.7088
▁ᏍᎩᏂᏃᏅ	-11.7093
▁ᏚᏏᎳᏛᎢ	-11.7095
ᎩᎸᏫᏍᏓᏏ	-11.7097
▁ᏌᏉᏉᏍᎩᏂ	-11.7097
ᎬᏍᎪᎸᏅᎢ	-11.7098
ᏘᏍᏗᏍᎩ	-11.7099
▁ᎦᎸᎳ	-11.7115
ᏋᏁᎸᎩ	-11.7116
▁ᎢᏦᎯᏳᎲᏍ	-11.7117
▁ᏚᏨ	-11.7121
ᏯᏘᏃᎯᏏ	-11.7121
▁ᎨᎻᎵᏃ	-11.7122
▁ᎢᏣᏓᏑᏴ	-11.7123
ᎬᏲᏎᏗ	-11.7128
ᏘᏃᎮᎸᎩ	-11.7129
▁ᎠᏥᏂᏌᎲ	-11.7132
ᏏᎾ	-11.7133
ᏓᏂᎸᎦ	-11.7134
▁ᎢᏣᏠᏯᏍᏙᏗ	-11.7135
ᎾᏂᏢᏗᏱ	-11.714
ᏓᏥᎶ	-11.714
ᏓᏅᏅ	-11.714
ᎵᏍᏓᏁᎵᏒ	-11.7143
▁ᎤᎾᏚᎸᏅᏗ	-11.7145
▁ᏭᏚ	-11.7145
ᎩᏂᎬᎦ	-11.7146
▁ᎤᏪᎵᏎᎢ	-11.7149
ᎦᏡᏓ	-11.715
▁ᏗᏣᏓᏅᏙᎩ	-11.715
ᏲᏍᏙᏓᏁᎸᎩ	-11.7151
ᎷᏤᎢ	-11.7151
ᎾᎵᏍᏓᏴᏂ	-11.716
▁ᏘᏂ	-11.716
ᏂᏎ	-11.7162
ᏬᎯᏳᎲ	-11.7164
▁ᎨᏣᏁᎢᏍᏗ	-11.7168
ᏛᎦᏂ	-11.7171
ᎠᏁ	-11.7174
ᏳᏓᎴ	-11.7177
▁ᏧᏬᏢᏁ	-11.7179
▁ᎤᎷᏨᎢ	-11.718
ᎦᏅᎦᎸᎯ	-11.7185
ᏋᏙᏗ	-11.7186
ᎨᏫᏒ	-11.7191
ᏰᎵᏉ	-11.7192
ᎧᎵᏨᎩ	-11.7193
ᏃᏢ	-11.7201
ᏛᏓᏍᏓᏁᎴᎢ	-11.7205
ᎬᎿᏗᏍᏗ	-11.7207
▁ᎣᎯᏍ	-11.7214
ᎶᏁᎥ	-11.7214
▁ᎦᎾᎸ	-11.722
ᎾᏟ	-11.7221
▁ᏤᏙᎰ	-11.7221
▁ᎢᏥᎪᎵᏰ	-11.7223
▁ᎤᎵᏍᏈᏗᏃ	-11.7225
▁ᎢᏣᏓᏅᏓᏛ	-11.7225
▁ᎢᏨᏒᏰᏃ	-11.7225
ᎦᎾᏬᏗ	-11.7229
ᎾᎵᏍᏓ	-11.723
ᏂᏁᎦ	-11.7235
ᎨᏐᎢ	-11.7235
▁ᎤᎪᎮᏃ	-11.7238
▁ᎤᏁᎳᏗᏍᏗ	-11.7239
ᎩᎷᏤᎸ	-11.7243
ᎬᏯ	-11.7244
▁ᏥᏄᏛᏁᎴ	-11.7251
ᏒᏂᎸ	-11.7253
▁ᏣᏙᏓᏃ	-11.7256
ᎧᎵᎸᎯ	-11.726
ᏩᏍᎦ	-11.7261
▁ᏚᏘᏃᎴ	-11.7261
ᎾᏛᏁᎭ	-11.7262
ᏅᏪ	-11.7263
ᏓᏰᏅ	-11.7266
ᏰᏲᎲᏍᎩ	-11.7266
▁ᏯᏍᎦᎢᎮ	-11.7273
ᏛᎪᏗ	-11.7274
▁ᎢᏨᏲᏪᎳᏁ	-11.728
▁ᎢᏳᏅᏁ	-11.7283
▁ᎤᏂᎾᏝᎾᎥ	-11.7286
ᎭᎷᎨ	-11.7286
ᏂᎶᏌ	-11.7289
ᏫᏂᏴ	-11.7294
ᏓᏅᏘᏳ	-11.7297
ᏇᎵᏎ	-11.7298
▁ᏣᏙ	-11.73
ᏍᏓᏁᎸᎭ	-11.7301
ᏨᏁᎰ	-11.7304
ᎾᏓᏅᏛ	-11.7305
ᏬᎯᏳᎯᏳ	-11.7309
ᎪᎲᏍᏔᏅ	-11.7311
▁ᏍᎩᏅᎦᎸ	-11.7315
ᏰᏟ	-11.732
ᏣᏛᏁᎮᏍᏗ	-11.7323
ᏃᏢᎯ	-11.7323
ᏩᏥ	-11.7328
ᎵᎥᏂ	-11.7329
▁ᎣᎬᏔᏅ	-11.7337
ᏬᎡ	-11.7338
ᏣᎳ	-11.7351
ᏢᏈ	-11.7355
ᎼᏂ	-11.7356
▁ᎤᏁᏤᏃ	-11.7361
▁ᎡᏣᏛᎦᏁᎸ	-11.7365
ᎬᏒ	-11.7374
ᏌᎳᏓᏅ	-11.7374
ᏘᏍᏙᏗ	-11.7377
ᎩᏂᏆᏘᎯ	-11.7378
ᏲᎲᎢ	-11.7379
ᏥᏅᏁᏗ	-11.739
▁ᏧᏬᏢ	-11.7391
ᏍᏚᎩᏛ	-11.7397
ᏨᏉᏗ	-11.7398
▁ᏯᎩᏍᏆᎸᎡ	-11.7405
ᏂᎷᏤ	-11.7409
ᏟᎯ	-11.741
ᏯᏛᎦᏁᏗᏱ	-11.7419
ᎵᏍᏓᏁᎭ	-11.7426
ᏍᏇ	-11.7432
▁ᎤᏁᏤᎴᏃ	-11.7438
ᎦᏓᏅᏓᏗ	-11.7456
ᏩᎾᎦᎳ	-11.7458
ᎤᏅᏎ	-11.7459
ᏓᎥ	-11.7465
▁ᎢᏨᏗᏍᎪ	-11.7468
ᏥᏃᏁᎸᎩ	-11.7471
ᎴᏅᎮ	-11.7471
▁ᏳᏪ	-11.749
ᏂᎯᎯ	-11.7493
▁ᏓᏥᏯᏛ	-11.7498
▁ᎡᏉᏂᏃ	-11.7502
ᎵᏂ	-11.7504
▁ᏂᎬᏂᏏ	-11.7508
ᏄᎸᏅᏃ	-11.7517
ᎫᏴᎲᎾ	-11.7522
▁ᎤᎾᏟᎶᎥ	-11.753
ᏂᏬᏂᎭ	-11.7546
ᏁᎪ	-11.7555
ᎵᏍᏕᎸᏙ	-11.7556
ᏲᏏᏍᎨᎢ	-11.7557
ᏙᎣ	-11.756
ᏓᏂᎸᎪ	-11.7565
ᎯᏐ	-11.7566
ᎾᎵᏍᏔᏅᎩ	-11.7566
ᎫᏴᎡᎮᏍᏗ	-11.7582
ᏔᏂᏒ	-11.7587
ᏛᎮ	-11.7592
▁ᎠᏆᏓᏅᏖᎸ	-11.7597
ᏓᏁᏤᏗ	-11.7601
▁ᎬᏩᏚᏫᏛᏃ	-11.7605
▁ᎤᎵᏘᏎ	-11.7609
ᎾᏗᏅᏒᎩ	-11.7613
ᏍᏚᏟᏍᏗ	-11.7618
▁ᏱᏥᎪᏩᏘ	-11.7629
ᎪᎰᏍᎬ	-11.7631
ᏕᎮᏍᏗ	-11.7638
ᏂᎩᏌ	-11.764
ᏕᎰᎯᏍᏗ	-11.7643
▁ᎤᎷᎯᏍ	-11.7645
▁ᎬᏍᎦᏅᏤᎸ	-11.7649
▁ᎢᏨᏃᏁᎸ	-11.765
ᎵᎥᏂᎸᎩ	-11.7654
▁ᏧᏂᏁᏟᏴᏍᏗ	-11.7654
▁ᎡᏙᎰ	-11.7655
▁ᎠᏥᎪᎵᏰᎥ	-11.7659
ᏛᏒ	-11.7661
▁ᎤᏗᎴᎲ	-11.7661
ᎳᏁᎸ	-11.7667
▁ᎤᏪᎵᏒ	-11.7667
ᏥᏯᏅᎲ	-11.7674
ᏦᏱ	-11.7677
ᎾᏄᎪᏫᏎᎸᎯ	-11.768
ᏂᎪᎭ	-11.7686
ᎯᏙᎸ	-11.7688
ᏫᏯ	-11.769
ᎧᎵᏤ	-11.7693
ᎿᏬᏍᏗ	-11.7698
ᏅᏩᏁᎢ	-11.77
ᏥᎩᎵᏲᎢᏍᏗᏍᎩ	-11.7705
ᏓᏄᏴᏛ	-11.7707
ᏆᏅᏔ	-11.7708
ᎾᏗᏔᎲ	-11.7726
▁ᎪᎯᏳᏙ	-11.7727
ᎦᏄᎪᏫᏍᎦ	-11.7729
ᏣᏛᏁᎭ	-11.7731
ᏑᎵ	-11.7732
ᎬᎬ	-11.7733
ᎾᏟᏂᎩᏓ	-11.7734
ᏆᏓᏅᏘ	-11.7735
ᎵᏥᏙᏁᎸᎯ	-11.7736
ᎦᏔᏂᎴ	-11.7741
▁ᏱᏓᎩᏯ	-11.7755
ᏛᏉ	-11.7769
▁ᏧᏂᏲᎱᏒᎯᏃ	-11.7774
ᏌᏛᏅᎩ	-11.7779
ᎠᏯᏍᏉ	-11.778
▁ᏯᎩᏍᏕᎵ	-11.7785
ᎵᏍᏓᏁᏗ	-11.7789
▁ᎤᎬᎥᏍᎬ	-11.7791
ᏂᎶᏍᎨᏍᏗ	-11.7798
ᏂᏳ	-11.7798
ᏂᏅᏁᎢ	-11.7805
ᎾᏓᏴᎳᏛ	-11.7806
▁ᏚᎾᏘᏃᎸ	-11.7807
ᏥᏍᏓᏱᏕᎸ	-11.7808
▁ᎥᎩᎱᏍᏕ	-11.7811
ᏗᎪᏩᏘᎭ	-11.7812
▁ᎤᏛᎦᏅᏃ	-11.7815
ᏪᏍᏗᏱ	-11.7816
ᎩᎵᏲᎦ	-11.7821
ᏡᏗᎭ	-11.7822
▁ᏲᎨ	-11.7828
▁ᎤᏁᎷᏅ	-11.783
ᎤᏪᏅ	-11.7838
ᎼᏏ	-11.7839
▁ᎢᏨᏰ	-11.7842
ᎾᏓᏅ	-11.7843
ᏓᏛᏁᏗ	-11.7843
▁ᎤᏂᏃᏁᎴ	-11.7843
ᎷᏨᎯ	-11.7844
ᎵᏥᏙᏁᎲᎢ	-11.785
▁ᎠᎩᎷᏤᎸ	-11.7857
ᏓᏅᏓᏗᏍᏗᏱ	-11.7859
ᏂᏴᎮ	-11.786
ᎩᎡᎴᎢ	-11.7862
ᎵᏌᎳᏗ	-11.7864
▁ᏤᏈ	-11.7868
▁ᏙᏓᏓ	-11.7869
ᏕᎶᎰᏒ	-11.7871
ᏞᏤ	-11.7872
ᏥᏪᏎᎮᏍᏗ	-11.788
ᎪᎯᏗ	-11.7881
ᏌᎹ	-11.7882
ᏨᏯᎵᏥᏙᏁᎸᎩ	-11.7886
ᏔᏛᎩ	-11.7887
ᏓᏙᎵᏍᏔᏂ	-11.7889
ᎩᎦᎨᎢ	-11.7893
ᏩᏐ	-11.7896
▁ᏭᎧ	-11.7897
ᏓᎴᏂᏍᎬ	-11.7898
ᏂᎩᏒ	-11.79
ᎾᎦᏌᏯᏍᏗ	-11.7902
ᏥᏒᎲᏍᏗ	-11.7903
ᏲᎯᏎᎸᎯ	-11.7911
ᏥᏅᎦᎸᏛ	-11.7916
ᎾᎥᎾ	-11.7917
ᏅᏍᎬᎾ	-11.7917
ᏒᎮᏱᏣ	-11.7922
ᎾᏛᏁᏗᏱ	-11.7924
ᏍᏛᏗᏍᎬᎢ	-11.793
ᎾᎵᎪᎲ	-11.7934
ᏥᎧᏅ	-11.7934
ᏩᏔᎰ	-11.7936
ᏪᏤ	-11.7952
ᎵᏱᎶ	-11.7954
▁ᏓᏂᏍᎦᎢ	-11.7956
ᎦᏛᏅᎢᏍᏓᏁᎸᎯ	-11.796
ᏗᏍᎦᎳᏁ	-11.7969
ᏂᎷᎪ	-11.7975
▁ᏥᏯᏓᏙᎵᏍᏓᏁ	-11.7977
ᏓᎾᏅᏗᏱ	-11.798
▁ᏱᏨᏯ	-11.7981
ᏍᏚᎢᎡ	-11.7985
▁ᎤᏪᎲ	-11.7996
ᏥᏩ	-11.7998
▁ᏓᏂᏂᏱ	-11.8
▁ᎣᎦᎵᎪ	-11.8007
▁ᏭᎷᎯᏍᏗ	-11.8008
▁ᎦᏥᏯᎵᏥᏙᏁ	-11.8011
▁ᏳᎾᏚᎵ	-11.8013
ᎵᏥ	-11.8014
▁ᏗᎾᏓᏅᏟᏉ	-11.802
▁ᎬᏬᎯᏳᎲᏍᎨ	-11.8025
▁ᎡᏥᎷᏤᎸ	-11.8027
ᎷᏨᎩ	-11.8029
ᎪᎥᎯ	-11.8033
ᏥᎦᏖᏃᎭ	-11.8035
ᏂᏯᎥᎢ	-11.8035
▁ᎤᏍᏓᏱᏕ	-11.8045
ᎵᏍᎪᎸᏗᏍᎨᏍᏗ	-11.8048
▁ᏱᏂᎦᎵᏍ	-11.805
ᏒᎲᏍᎦ	-11.8051
ᏰᏗᏍᎬ	-11.8064
ᎩᏄᎪᏫᏒᎩ	-11.8071
ᏂᏌᏅ	-11.8077
ᏓᏂᏱ	-11.8081
ᎸᏙ	-11.8083
▁ᎦᎾᏄᎪ	-11.8092
ᏂᎸᏉᏙᏗᏱ	-11.8092
ᏘᏯ	-11.8098
ᏃᎮᎵ	-11.8103
ᏓᎴᎲᏍᎪᎢ	-11.8112
ᏥᏍᎦᎢᎭ	-11.8113
ᏲᏎᎭ	-11.8114
ᏨᏲᏎᎭ	-11.8114
ᏣᏗᏔ	-11.8119
ᏌᏔ	-11.812
▁ᏲᏎ	-11.8124
▁ᎢᎸᏍᎩᏉ	-11.813
▁ᏚᏂᎪᎲ	-11.8135
ᎵᏥᏙ	-11.8138
▁ᏚᏂᏁ	-11.8138
ᎾᏄᎪᎬ	-11.8148
ᏥᏍᎦᏅᎨᏍᏗ	-11.8166
▁ᏂᎦᏪᏍᎨ	-11.8169
ᏴᎸᎭ	-11.817
ᏣᎪ	-11.8176
▁ᏛᏂᏍᏆᏂᎪ	-11.8177
ᎧᏲᏗ	-11.8179
▁ᎢᎬᏩᎵᏍ	-11.8183
ᎵᏒᏗ	-11.8192
ᎳᎾ	-11.8196
ᏛᏁᎰᎢ	-11.8201
ᏣᎦᎸᎮ	-11.8214
ᏅᏂᏗ	-11.8227
▁ᏳᎪ	-11.823
ᎬᎨᏫ	-11.823
▁ᏂᏥᏃᎯ	-11.8231
ᏴᎳ	-11.8235
ᏍᏗᏰᏔᏁ	-11.8236
ᎩᎸᏔᏁᎢ	-11.8242
ᏠᎢ	-11.8244
▁ᏨᏗᎦ	-11.825
ᏍᎦᎩᏳ	-11.825
ᎩᏃᎮᎭ	-11.8252
ᏌᏓ	-11.8252
▁ᎤᎾᏛᏅᎢ	-11.8252
▁ᏕᏧᎪᏗᏍ	-11.8256
▁ᏚᏬᏑᎴ	-11.8272
ᏂᎬᎪ	-11.8279
▁ᏧᎾᏓᎸ	-11.828
ᏯᎷᎦ	-11.8286
▁ᏗᎦᏓᎨᏳᎯ	-11.8286
ᎦᎵᎰ	-11.829
ᎯᏳᎲᎦ	-11.829
ᏃᏢᏙᏗ	-11.8291
ᏥᎪᎵᏰᏍᎨᏍᏗ	-11.83
ᎾᏬᏙᏗᏱ	-11.8306
ᏂᎵᏓᏍᏗ	-11.8306
▁ᏓᏓᎯ	-11.8308
ᎯᏌ	-11.8309
▁ᎨᎶ	-11.8318
ᎪᏄᎶᏎᎢ	-11.832
ᏃᎸ	-11.8322
ᏃᎯᏍᏔᏂ	-11.8324
ᏨᏗᏍᎬ	-11.8328
▁ᏁᏨ	-11.8329
ᏥᏂᏐᏗᏱ	-11.8338
ᎵᏍᎦᏍᏙᏙ	-11.8339
▁ᎤᎾᏗᏍᎦᎳ	-11.834
ᎨᏳᏒᎢ	-11.8345
ᏕᏲ	-11.8346
▁ᏗᏂᎳᏫ	-11.8349
ᎵᏍᎪᎸᏓᏁᎸᎩ	-11.8349
ᎯᏰᎸᎾ	-11.836
ᏨᏁᏗᏱ	-11.836
ᏑᏯᎩᏍᏗ	-11.8362
▁ᏗᎦᏍᎩᎶ	-11.8367
▁ᏓᎪᏩᏘᏍᎨ	-11.8382
▁ᏆᏙ	-11.8383
▁ᏗᏂᏲᎵᏉ	-11.8387
ᎾᏓᏛᏁᎭ	-11.8388
ᎴᎿ	-11.8396
▁ᎨᏣᎪᏩᏛᏗ	-11.8397
ᏘᏲ	-11.8398
ᎴᎲᏍᎬᎩ	-11.8407
▁ᏧᏲᎰ	-11.8412
ᎵᏖᎸᏂᎴ	-11.8412
ᏝᏗ	-11.8418
ᏓᎪᏩᏘᎭ	-11.842
▁ᏴᎦᏰ	-11.8426
ᎾᏗᏔ	-11.8427
ᎦᎵᏍᏓᏗᏍᎩ	-11.8431
ᏯᏓᏅᏏ	-11.8431
▁ᎤᏂᏁᏎ	-11.8433
ᏍᏕᎲ	-11.8435
ᏯᏛᎾ	-11.8437
ᏫᏒᏅ	-11.8437
ᏔᏍᎬ	-11.8438
ᎶᏍᎨ	-11.8441
ᏓᏁᎸᎢ	-11.8442
▁ᎤᏂᏍᎦᎢᏍᏗ	-11.8445
ᏤᎦ	-11.8447
ᏍᏓᏩᏕ	-11.8448
ᏙᎢᏳ	-11.8448
ᎦᏱᏛ	-11.8453
ᎦᎾᏄᎪ	-11.846
ᎯᏍᏕᎸᏗ	-11.8471
ᎩᏯᎠ	-11.8472
ᎧᏌᏔ	-11.8473
ᎳᏍᏙᏗ	-11.8477
ᏲᎯᏎᎸ	-11.8478
ᏯᎢᏎ	-11.8479
ᏂᎧᎵᎴᎢ	-11.8484
▁ᏚᎵᏍᏚ	-11.8488
ᏘᏂᏙᎭ	-11.8501
▁ᎤᏂᏩ	-11.8502
ᏲᏅ	-11.8505
ᏥᏁᎢᏍᏗᏍᎬ	-11.8509
ᏣᎦᏌᏯᏍᏗᏕᎩ	-11.8511
ᏥᏃᎮᎸ	-11.8515
▁ᎬᎾᏬ	-11.8516
ᎪᎵᏰᎥᎩ	-11.8517
▁ᏂᏚᏪ	-11.8523
▁ᎦᏥᏬᏁᏗ	-11.8528
▁ᏬᎩᏂ	-11.8534
ᎾᏗᏔᏍᏗ	-11.8534
ᎷᏤᏗ	-11.8534
ᎭᏅ	-11.8536
▁Ꮆ	-11.8536
▁ᎢᏥᎨᏳ	-11.8539
▁ᎤᎵᎬᏚ	-11.854
ᏃᎮᎴᎢ	-11.8546
ᏕᎸᎩ	-11.8546
ᎨᏰᎢ	-11.8548
ᎵᎥᏂᎵ	-11.855
ᏎᎵᏛᏍᎨᏍᏗ	-11.8557
ᎩᎧᏏ	-11.8559
ᏚᏅ	-11.856
ᏏᏐ	-11.8561
ᏌᎯ	-11.8567
ᎾᏄᎪᏫ	-11.8569
ᏥᏚᎢᏍᏓᏁᎸᎯ	-11.8573
ᎾᎴᏗ	-11.8573
ᏃᏟᏍ	-11.8574
▁ᎢᏣᏪᏍᏗ	-11.8579
▁ᏧᎾᏓᎯᏍᏗ	-11.8579
ᎦᎶᏗ	-11.8582
ᎾᏓᏅᏖᎸ	-11.8588
ᏘᏃᎸᎩ	-11.8591
ᎵᏅᏟ	-11.8595
▁ᎤᏅᏩᏁ	-11.8596
ᏃᎯᎸᏍ	-11.8596
▁ᎤᏂᏩᏛᎲ	-11.8605
▁ᏓᏲᏥ	-11.8612
▁ᎠᎩᏔᏕᎩᏍᎬ	-11.8619
ᎪᏎ	-11.8619
ᏓᏁᎰᎢ	-11.862
ᎬᏲ	-11.8622
▁ᎤᎵᏍᏚᎸᎩ	-11.8639
ᏏᏙᎴ	-11.8645
▁ᏫᏚᎧᎿᏅ	-11.8645
ᏂᎪᏙ	-11.8652
▁ᏁᏨᏁ	-11.8653
ᏂᎨᎯᏙᎴᎢ	-11.8654
ᏑᎴᏗ	-11.8655
ᎵᎥᏂᎸ	-11.8657
ᏣᏓᏅᏔ	-11.8661
▁ᎤᎾᏓᏙᎵᏍᏓᏁ	-11.8663
▁ᏓᎧᎿᏩᏗ	-11.867
ᏓᏨᏯ	-11.8672
ᎩᎧᎭ	-11.8675
▁ᎣᎩᏰᎸ	-11.8676
ᎸᎥ	-11.8677
ᏛᏂᏌᏂ	-11.8682
ᎾᏕᏏ	-11.8685
ᏁᎵᏍᎬᎾ	-11.8693
ᏙᎴᎰ	-11.8701
▁ᏯᏆᏓᏅᏓᏗᏍ	-11.8702
ᏏᏁᏃ	-11.8702
ᏲᎯᏍᏗᏱ	-11.8703
ᏴᎸᎩ	-11.8705
ᎵᏌᎳᏓᏅᎩ	-11.8711
ᏳᏰᏃ	-11.8711
▁ᏕᎯᏁ	-11.8711
▁ᏥᏂᏨ	-11.8714
ᏃᎯᏴ	-11.8722
ᎪᎵᏰ	-11.8726
▁ᎤᎾᎵᏍᎪᎸᏙᏗ	-11.8733
ᎮᏍᎬᎾ	-11.8741
ᏂᎾᏫ	-11.8746
ᏂᏃᏁᎴ	-11.8749
ᎦᎶᏙᏗ	-11.8749
ᏅᏨᎯ	-11.8749
▁ᏗᏂᎳ	-11.8749
ᎩᏲᏒ	-11.8754
▁ᎠᏂᏯᎥ	-11.8754
ᎸᎡᎴ	-11.8757
ᎩᎵᏲᎢᏍᏗᏍᎬᎢ	-11.8767
ᎸᏍᏙᏗᏱ	-11.8779
ᏱᎶ	-11.878
ᏗᏅ	-11.878
ᎾᏓᏑᏴᎢ	-11.8798
ᏍᏓᏱᏕᎴ	-11.8801
ᎦᏛᎬᎦ	-11.8802
ᎨᎾᏂ	-11.8817
▁ᏂᏣᏛᏁᎰ	-11.882
ᏚᏓᎸᏙ	-11.8821
ᏆᎵᏏ	-11.8834
ᎨᎯᏒ	-11.8837
ᎾᏤᎸ	-11.8841
ᏣᏛᏂ	-11.8842
ᏣᏢ	-11.8845
ᎦᎸᏉᏗ	-11.8857
ᏁᏤᎰ	-11.8864
▁ᏗᎦᏁ	-11.8873
ᏌᏛᎥᏍ	-11.8879
ᏑᏴᏅ	-11.8884
▁ᎠᏂᎳᎨᏴ	-11.8894
ᏓᏎ	-11.8905
▁ᏴᎦᎦ	-11.8907
▁ᎤᎾᏓᏟᏌ	-11.8911
▁ᎤᏒᎴ	-11.8914
ᏍᏕᎸᎯᏙᎯ	-11.8918
ᎦᏘᏱ	-11.892
ᏓᏍᏕᏓᎵᏴᏍᎩ	-11.8939
▁ᏭᏕ	-11.894
ᏗᏍᏚ	-11.8949
ᎦᏘᎴᎦ	-11.8953
▁ᏄᎾᎵᏍᏓᏁᎲ	-11.8954
ᏁᎵᏒ	-11.8956
▁ᏚᎪᏄᎶᏎ	-11.8973
ᎵᏦᏔᏅᎯ	-11.8977
ᏂᏴᏓ	-11.8978
ᎩᎷᏥᏏ	-11.898
ᏆᏟ	-11.8989
ᎩᏂᏴᎲ	-11.8989
ᎾᏚᎵᏍᎨᏍᏗ	-11.8989
ᏕᏲᏗ	-11.899
▁ᏓᏲᏣ	-11.899
ᏄᎪᏫᏍᎦ	-11.8992
ᏴᏏ	-11.8997
ᎦᏔᎿᎢᏳ	-11.8999
▁ᎬᏩᏂᎩᎵᏲᎢᏍ	-11.9006
ᎾᏄᎪᏤ	-11.9012
ᎧᏲ	-11.9019
ᏍᏓᏱᏕᎸ	-11.9019
ᏥᏥ	-11.9023
ᎯᎦᏔᎭᏍᎪ	-11.9028
ᎡᏒᎭ	-11.9028
ᏴᎭᎦ	-11.9035
ᎩᎾᏝᎥᎾ	-11.9038
ᏅᏩᏍᏗᏗᏉ	-11.9047
ᎾᏁᎶᏗ	-11.9049
▁ᎡᏤᎵᏎ	-11.905
ᏚᏪᏎᎸᎩ	-11.9056
ᎪᏙ	-11.9056
ᏓᏅᏖᎭ	-11.9058
▁ᎢᏥᏍᏆ	-11.9062
ᏣᏛᎩᎭ	-11.9076
▁ᏧᏴᎴ	-11.9082
ᏓᏑᏴᎢ	-11.909
▁ᏅᏗᎦᎵ	-11.9093
▁ᏯᏆᏛᎦ	-11.9093
ᏯᏛᏅ	-11.9104
▁ᏂᎦᏪᏏ	-11.9106
ᏃᎮᏢ	-11.9107
ᎵᎮᎵᏤᎢ	-11.9108
▁ᎤᏭᏓᎸᏤ	-11.9109
ᏍᏆᎸᎯ	-11.9109
ᏘᎾᏫᏛᎲᎩ	-11.911
▁ᎦᎧᎲ	-11.9113
ᏃᎭᏝ	-11.9116
ᎦᏖᏃᎭ	-11.9118
▁ᏗᏆᏓ	-11.9119
ᏕᎯ	-11.9123
ᏍᏕᎸᎮᎢ	-11.913
ᏗᏅᏒᎩ	-11.9133
ᏴᏍᎪᎢ	-11.9133
ᏥᎳ	-11.9137
▁ᎰᏒ	-11.9142
ᏂᏐ	-11.9152
ᎦᎾᏩ	-11.9155
ᏁᏙᎯ	-11.9161
ᏌᏃ	-11.9163
ᏜᏏᏛᎡ	-11.9166
ᏃᏴᎦ	-11.9167
ᏁᏟᏴ	-11.9172
ᏗᏕᎬᎢ	-11.9178
ᏣᏕᎰᎯᏍᏗ	-11.9182
▁ᏞᎦᏉ	-11.9189
ᏝᏫᏍᏗ	-11.9192
ᏎᎵᏔᏅᎯ	-11.9193
ᏗᎬᏓ	-11.9197
ᏰᎵᏎ	-11.92
▁ᏲᏣ	-11.9202
ᎵᏍᏗᏍᎨᏍᏗ	-11.9217
ᎨᎫ	-11.9222
ᏔᏍ	-11.9222
ᏁᏟᏴᎡᏗ	-11.9231
ᎲᏍ	-11.9231
ᏐᏢᏗ	-11.9235
▁ᏚᏕᏲᏅ	-11.9237
ᏥᎾᏌᎢ	-11.9238
▁ᎡᏦᎢᏳ	-11.9239
ᏲᏤᎢ	-11.9241
▁ᎤᏙᏯᏅᎯᏕ	-11.9243
ᎤᏛ	-11.9248
ᏥᏍᏕᎸᏗᏱ	-11.9257
▁ᏯᏆᏓᏅᏔ	-11.9261
▁ᏄᏅ	-11.9262
ᏕᎰᏍᎨᏍᏗ	-11.9262
▁ᎤᎵᏏᎲᏎ	-11.9268
ᏩᎯᏎᎴᎢ	-11.9272
ᏝᎴ	-11.9277
▁ᏕᎨᎶ	-11.9277
▁ᏕᏨᏰ	-11.9289
ᏘᏂᏙᎯ	-11.9302
▁ᎡᏣᎫᏴᎡ	-11.9304
ᎾᏓᏁᏟᏴ	-11.9306
▁ᏳᏃᎯᏳ	-11.9333
ᎷᏤᎭ	-11.934
▁ᎤᏂᎾᏗᏅᏎ	-11.9344
ᏯᎪ	-11.9345
ᏬᏍᏙᏗ	-11.9347
ᎦᏛᎴᎯ	-11.9354
ᏝᎲ	-11.9365
▁ᎠᏆᏎᎵᏔᏅ	-11.937
ᏤᏅ	-11.9372
ᏂᏓᏛ	-11.9373
ᎪᎵᏰᏍᎨᏍᏗ	-11.9376
▁ᎤᏛᏂᏗ	-11.9387
ᏗᎦᏔᎭ	-11.9387
▁ᎤᏄᎸᏅ	-11.9394
ᏁᏌ	-11.9396
ᎪᏢ	-11.9399
▁ᏅᏓᎦ	-11.9404
▁ᎤᎬᏍᎪᎸᏁ	-11.9404
▁ᏧᎿᏬ	-11.9413
ᎦᏘᏰᏍᏗ	-11.942
ᎪᏩᏘᏍᎪᎢ	-11.9422
ᏓᏟᏌᏁ	-11.9429
▁ᏚᎾᎵᏂᎪ	-11.9431
▁ᏓᎩᎷᏫᏍᏔ	-11.9431
▁ᎢᏥᏔᏲ	-11.9448
ᏗᏥ	-11.9448
ᏓᎵᏁᎯ	-11.9457
▁ᏅᏗᎦᎵᏍ	-11.9457
ᎨᎮ	-11.9462
ᏣᏓᏱᎸ	-11.9464
▁ᎠᏂᎶᏍᎨ	-11.9464
ᏗᏯᏂ	-11.9469
▁ᎤᏁᏉᎡ	-11.9474
ᏂᏏᏍᎨᏍᏗ	-11.9474
ᏫᏍ	-11.949
ᏄᏫ	-11.9496
▁ᎢᏨᏯᎵᏥᏙᏁᎸ	-11.9514
ᏚᎸᏛ	-11.9514
ᎧᎿᏅᎩ	-11.9522
ᏓᏥᏩᏛᎯᏃ	-11.9524
ᏣᏓᏁᎮᏍᏗ	-11.9526
ᎬᏩᏘᏃᎮᎸᎩ	-11.9529
ᏕᏋᎯᏍᏗ	-11.9536
ᎩᎷᎯᏍᏗᏱ	-11.9537
ᏓᏂᎸᎨ	-11.954
ᏬᏂᏍᎩ	-11.9544
ᏆᏛᏂᏏ	-11.9544
ᎬᏩᎷᏤᎴᎢ	-11.9547
ᎩᏰᎸᎭ	-11.9548
ᏂᎾᏄᎪᏫᏒᎯ	-11.9556
▁ᏘᎧ	-11.9557
ᏗᏫᏎᎸᎯ	-11.9558
▁ᎦᏓᏅᏖᏍᎪ	-11.9563
ᎰᎯᏍᏗ	-11.9568
▁ᏙᏣ	-11.9569
▁ᏦᏣ	-11.9571
ᎾᏯ	-11.9573
▁ᏥᏚᎴ	-11.9578
ᏘᏂ	-11.9585
ᎦᏘᏗ	-11.9594
ᏏᏙ	-11.9597
ᏚᎢᏍᏓᏁᎴ	-11.9602
ᏲᎲᏍᎬ	-11.9613
▁ᏥᏩᎾᎦ	-11.9615
ᏅᏓᏗᏍᎪ	-11.9616
ᏍᏆᏂᎪᏓ	-11.9619
ᎵᏈ	-11.9621
ᏏᏙᎸ	-11.9622
ᏳᏓ	-11.9622
ᏚᎾᏛ	-11.9623
▁ᏕᎶ	-11.963
ᏣᏯᏅᏛ	-11.9633
▁ᏦᎩᎾ	-11.9635
▁ᏚᏭᏓᎴ	-11.9637
ᎢᎵᎻ	-11.9639
▁ᎠᎩᏰᎸᏒ	-11.9644
ᎾᏛᏁᎲ	-11.9647
ᏓᏙᎵᏍᏓᏁᎮᏍᏗ	-11.9651
ᎪᎾᏛᏗ	-11.9653
ᎾᏄ	-11.9665
▁ᎤᏩᏌᏆ	-11.9675
ᏍᏆᎸᎡᎸ	-11.9676
▁ᏗᏓᎾᏅ	-11.9678
ᎾᏝᎾᎥᎢ	-11.9679
▁ᎤᏍᏕᎸᎮ	-11.9701
ᏂᎩᏍᏔᏁ	-11.9708
ᎪᏓᏁᎸ	-11.9717
▁ᎥᏆ	-11.9722
▁ᎤᏃᏴ	-11.9724
ᏥᏲᎵ	-11.9733
ᏘᏁᎪᎢ	-11.9733
▁ᏳᏴ	-11.974
ᎯᏛᎭ	-11.9745
Ꮬ	-11.9746
ᎴᏒ	-11.9751
ᏟᏌᏂ	-11.9753
ᏣᏲ	-11.9754
ᏬᏯᏁᏎᎢ	-11.9761
▁ᎬᏯᏛᏁᎸ	-11.9763
ᏓᎬ	-11.9769
ᏛᏍᎪᎢ	-11.9778
ᎩᎸᏔᏁ	-11.9791
ᎦᏢᏈ	-11.98
ᏯᏅᎮᎢ	-11.98
▁ᏱᏗᏣᏓ	-11.9801
ᎬᏩᏓ	-11.9808
▁ᎤᏓᏴ	-11.981
▁ᎢᎦᏓᏅᏓᏗᏍᏗ	-11.9811
ᏛᏓᏍᏔᏂ	-11.9813
ᎹᏱ	-11.9814
ᏨᏁᎸ	-11.9819
ti	-11.9823
ᏲᎯᏎᎴᎢ	-11.9834
ᎦᏖ	-11.9839
ᏙᎨ	-11.984
▁ᎡᏗᎨᏳᎢ	-11.984
▁ᏕᎦᏁ	-11.9843
ᏌᎨ	-11.9844
ᎵᏱᎶᎸ	-11.9844
ᏌᎳᏙᏗ	-11.9851
ᎿᏕᎦ	-11.9852
ᏁᏤᎴᎢ	-11.9852
ᏕᏲᏅᎢ	-11.9862
ᏅᎭᏂ	-11.9866
ᎳᏏᏗ	-11.987
▁ᏙᏓᏲᏣ	-11.9879
▁ᎠᎩᏁᏤ	-11.9883
ᎦᏚᏓᎴᏍᏔᏅᎯ	-11.9888
ᎴᏏ	-11.9888
ᏴᎲ	-11.9889
ᏕᎰᎯ	-11.9892
ᏓᎴᏂ	-11.9894
ᏴᏔᏂ	-11.9897
ᎵᏍᏔᏴᎲᏍᎬ	-11.9897
ᏘᏃᎯᏏ	-11.9899
ᏌᏬᎢᎲ	-11.9899
ᏗᏒᏅ	-11.9899
ᏫᏎᎢ	-11.9905
ᏂᏏᏁ	-11.9906
ᏤᎵᏛ	-11.9906
▁ᏙᏓᎨ	-11.9906
ᎡᎵᏍᎨᏍᏗ	-11.9907
ᏁᎶᏙᏗ	-11.9913
ᎸᏫᏍᏓᏏ	-11.9917
ᎪᏓᏁᎯ	-11.9924
ᏯᏛᏁᎮᏍᏗ	-11.9926
ᏥᏯᏅᏛ	-11.9936
ᏟᎸ	-11.9938
ᎶᎸ	-11.9942
ᏰᎸᏁ	-11.9945
ᏖᎸᎲᏍᎦ	-11.9947
ᏒᏛ	-11.9954
ᏍᎩᏴ	-11.9964
on	-11.9964
ᏙᏢ	-11.9969
Ꮶ	-11.9982
ᎬᏬ	-11.9982
ᎾᏡᏗᏍᎩ	-11.9982
ᏯᏨ	-11.9986
ᏆᎵᏍᏓᏁᎸ	-11.9987
▁ᎢᏣᏗᏔ	-11.9988
ᏅᏅᎩ	-11.999
ᎶᏄᎲᎵ	-11.9996
▁ᎠᎪᎵᏰᏍᎪ	-11.9999
ᏰᎵᏉᏍᎪ	-11.9999
ᏓᏍᎦᎨᏍᏗ	-12.0002
ᎬᏁᏗᏱ	-12.0005
ᏓᏁᎲᎢ	-12.0014
ᎦᏒ	-12.0015
▁ᎠᏆᎵᏃᎮ	-12.0018
▁ᏂᏙᏔᏘ	-12.0028
ᏍᏚᎢᏒᏃ	-12.003
▁ᏘᏲ	-12.0033
ᏍᎦᎢᎲᎢ	-12.0038
ᎦᏯᎷᏗ	-12.0041
ᎣᎢ	-12.0051
ᎾᏦ	-12.0053
ᏦᎸᎯᏍᏗ	-12.0059
ᏡᏔᏅᎩ	-12.0065
ᏥᏴᏁᏗᏱ	-12.0065
▁ᏥᎪᏩᏘ	-12.0068
▁ᏧᎾᏁ	-12.0071
ᏍᏚᎶ	-12.0077
ᏍᏉᏟᎢ	-12.0077
ᏥᎭ	-12.008
ᏰᏍᏛ	-12.008
▁ᏱᏥᏩᏛ	-12.0085
▁ᏘᏁ	-12.0085
ᎡᎮᏍᏗ	-12.0096
ᏛᏗᏕᎬ	-12.0096
ᏏᏅᏓ	-12.0097
ᏔᏃᎯ	-12.0102
ᏄᏙᎬ	-12.0102
ᏫᏕ	-12.0107
ᎩᎷᎯᏍᏗ	-12.0111
ᏂᎧ	-12.0111
ᎵᎪᏁᎸᎩ	-12.0113
ᏗᏅᏓ	-12.0114
▁ᎡᏦ	-12.0114
ᏓᏛᏁᎲᎩ	-12.0116
ᎴᎯᏌ	-12.0116
▁ᎠᏆᏓᏅᏘ	-12.0116
ᏅᏩᏅ	-12.0119
ᏍᏓᏁᎸᎩ	-12.0127
▁ᎤᏃᏴᎳᏒ	-12.0128
ᎬᏗᏍᎨᎢ	-12.0129
ᏣᎵᏍᎪᎸᏓᏁᎸᎯ	-12.0131
▁ᎾᎾᏛᏁ	-12.0148
ᎧᏌ	-12.0152
ᏒᎵ	-12.0169
ᏂᏲᎲᎩ	-12.0171
▁ᏚᎾᏗᏩ	-12.0173
ᎨᎯᏓ	-12.0174
▁ᏚᏏᏔᏕ	-12.0175
ᏬᏎᎴᎢ	-12.0178
▁ᎤᏂᏖᎸᏅ	-12.0186
▁ᏓᎦᏢ	-12.0186
ᏍᏓᏴᏗ	-12.0188
ᏓᏛᎢ	-12.0191
▁ᏂᏨᏁ	-12.0196
ᎡᏅ	-12.0198
ᏄᏍᏕᎢ	-12.0203
ᏚᎵᏍᎬᎾ	-12.0204
ᏍᏚᎮᎢ	-12.0208
▁ᎾᏥᏪᏎ	-12.0213
ᏤᏙ	-12.0218
ᏤᏍᏙ	-12.0219
ᎵᏙᎸ	-12.0232
ᏓᏙᎵᏍᏔᏁᎢ	-12.0235
ᏖᏆᎶᎯ	-12.0238
ᎸᏤ	-12.0239
ᎦᏔᎾᎢ	-12.024
ᎩᎨᏳᏒᎢ	-12.0248
ᏕᎲᎢ	-12.0251
ᎯᏙ	-12.0254
▁ᏦᏨ	-12.0256
ᎴᏂᏙᎸᎢ	-12.0258
ᎴᏂᏓᏍᏗᏱ	-12.0267
ᏡᏓ	-12.0267
ᏬᏁᏙᏗᏱ	-12.0271
▁ᏚᎾᏚᏫᏍ	-12.0279
ᏎᎯᎲ	-12.0281
ᏬᎵᏤᎢ	-12.0284
ᎪᎵᏰᎭ	-12.0287
ᏏᏌᏅ	-12.0294
ᏏᎳ	-12.0297
▁ᏓᎦᏄᎪ	-12.0298
ᏐᏍᏙᏗ	-12.0299
ᎠᏨᏗ	-12.03
ᏍᏓᏁᎴᎢ	-12.0302
ᏘᏃᎮᎴᎢ	-12.031
ᎵᏔᏗᏅ	-12.0311
▁ᏚᏪᎧ	-12.0311
ᎵᏘᎡ	-12.0313
ᏟᏛ	-12.0336
ᎩᎸᏉᏔᏅ	-12.034
ᏪᏲᏁ	-12.0342
ᎵᏍᏓᏴᏂ	-12.0346
▁ᏣᏓᏅᏘ	-12.0352
ᎳᎨᏯᏛ	-12.0353
▁ᏗᏧᎪᏓ	-12.0354
ᏂᏩᏛᎯᏙ	-12.0355
ᏥᏃᎮᏍᎩ	-12.0357
▁ᎠᎩᏍᏆᏛ	-12.0365
ᏣᏪᏐᎸᏍ	-12.0372
ᎸᏫᏍᏓᏁ	-12.0373
ᎦᏙᎩ	-12.0374
ᏯᎦᎿᏅ	-12.0378
ᏚᎾ	-12.0386
ᎦᏔᏛ	-12.0395
▁ᏕᏥᏁ	-12.0398
ᏄᏩᎥᎢ	-12.0399
▁ᎤᏪᏣᏄ	-12.0401
ᎶᎾ	-12.041
ᎴᏫᏍᏔᏅᎩ	-12.0415
▁ᏗᏂᏲ	-12.0416
ᎾᏂᎥᎩ	-12.0416
ᎦᏃᎢ	-12.042
ᏥᏬᏂ	-12.0425
▁ᎤᏍᏆᏃᏴ	-12.0426
▁ᏣᎵᏂᎩ	-12.0429
▁ᎦᎧᎮ	-12.043
▁ᎦᏰᏣ	-12.043
ᎮᏃ	-12.0433
▁ᎤᎾᏣᏅ	-12.0435
▁ᏙᏛᏂ	-12.0435
ᏚᎢᏍᏓᏁᎸ	-12.0436
▁ᎤᏪᏙᎵ	-12.044
ᏥᏍᏓ	-12.0441
ᏰᎲ	-12.0442
▁ᎨᏥᎾᏄᎪᏫ	-12.0442
ᎻᎾ	-12.0445
ᎾᏚᎦ	-12.0449
ᎪᎰᏍ	-12.0454
▁ᏂᏚᎾᏓ	-12.0464
ᏚᎯ	-12.0466
ᎿᏍᏕᏢ	-12.0466
ᏲᏍᏔ	-12.0469
ᏯᎩᏍᎬ	-12.0472
▁ᎠᏂᎶᏏᏙ	-12.0473
▁ᎬᏩᏯᎢ	-12.048
ᎵᏓᏍᏔᏅ	-12.0492
ᏥᎾᏰᏍᎬᎢ	-12.0492
ᏣᏓᏑᏯ	-12.0496
ᎩᎵᏲᎢᏍᏙᏗᏱ	-12.0499
ᏍᏕᎸᎡᏗᏱ	-12.0501
ᎥᏍᎪᎢ	-12.0501
ᏲᎰᎢ	-12.0504
ᎪᏩᏛᎡᏗ	-12.0509
ᏱᎶᎴ	-12.0509
ᎵᎬ	-12.051
ᏩᏛᎡᏗᏱ	-12.0511
ᏪᏂ	-12.0513
▁ᏧᏓᎴᏅ	-12.0527
▁ᏏᎻ	-12.053
ᏛᎥᏍᎬ	-12.0535
ᎬᏩᏛ	-12.0535
▁ᎡᏣᎵ	-12.0535
ᏓᏬᎢ	-12.0541
ᏣᏛᏁᎲᎢ	-12.0547
ᏂᎬᏎᎲᎢ	-12.055
ᏎᏅ	-12.055
ᎾᏂᎩ	-12.0555
ᏕᏯ	-12.0557
▁ᎤᏂᎦᏯᎷ	-12.0559
ᏣᏅᎩ	-12.0563
▁ᏱᏔ	-12.0568
ᎦᏙᎨᎢ	-12.0569
▁ᏭᏁ	-12.0569
▁ᎣᎨᏅ	-12.0589
ᎩᏍᏕᎸᏗ	-12.0589
ᏴᏗᏱ	-12.0591
ᏟᏌᏅᎯ	-12.0591
▁ᏳᎾᏗᏅ	-12.0592
ᏥᏴᎩ	-12.0596
ᎩᎩᎡᎵ	-12.0597
ᎣᎸ	-12.0597
ᎵᎪᎲᏏ	-12.0599
ᎩᎦᏙᎥᎯᏍᏗᏱ	-12.0606
ᎩᏁᏟᏴᏏ	-12.0608
▁ᏥᎾᏆ	-12.0609
▁ᎤᏂᏃᎮ	-12.0624
▁ᎠᏄᏖᏍ	-12.0627
ᏕᎲᎩ	-12.0628
ᎵᎡᎵᏤᎲ	-12.0642
ᏕᏙᎲᎩ	-12.0642
▁ᏍᏆᏛᏓᏍᏓ	-12.0644
ᏣᏪᏐᎸᏍᏗ	-12.0646
ᏲᎱᏒᎩ	-12.065
ᎤᏙᎯᏳᎩ	-12.0655
▁ᎠᏇᎷ	-12.0655
▁ᏦᎦᏓ	-12.0656
ᎪᏘ	-12.0657
ᎱᏍᏕ	-12.0658
ᏍᏓᏩᏚᎦ	-12.0662
ᎲᏍᏗᏱ	-12.0664
ᏪᎧᏁᎴ	-12.0665
ᏍᏓᏩᏗᏙ	-12.0665
ᏗᏫᏎᏗ	-12.0666
ᏖᎸᏂᎸ	-12.0669
▁ᎨᏣᏕ	-12.0671
▁ᏭᏭᏓᎸ	-12.0672
▁ᏩᎫ	-12.0674
▁ᎢᏯᏛ	-12.0677
▁ᏚᎾᏁᎶ	-12.0677
▁ᎠᏓᏄᏖᏲ	-12.069
▁ᏚᎾᏄᎪᏫᏎ	-12.0692
▁ᏕᎪᏢ	-12.0692
ᎦᏠᏯᏍᏗ	-12.0696
ᏓᏙᎵᏍᏓᏁ	-12.0704
ᏓᏅᏖᏍᎬᎢ	-12.0704
ᏯᎣ	-12.0707
ᎯᏙᎲ	-12.0708
▁ᏂᏨᏪ	-12.0711
ᏓᎾᏌᎲᏍᎩ	-12.0716
ᎦᏥᏴ	-12.0716
ᏅᎦᎸᏗᏱ	-12.0719
ᏓᏛᏁᏗᏱ	-12.0719
ᎹᏅ	-12.072
ᏫᏅ	-12.0728
▁ᎠᎩᎷᏤᏗ	-12.073
▁ᏳᏕᎶᎰ	-12.0732
▁ᏓᏂᎳᏫ	-12.0734
ᏣᎦᎸᏓ	-12.0736
▁ᏕᎮ	-12.0737
ᎪᏩᏗᏍᎬ	-12.0737
ᏥᎩᎵᏲᎢᏍᏗᏍᎬ	-12.0738
ᎪᎷ	-12.0745
▁ᏍᎩᏯᏕᎶᏆ	-12.0749
▁ᎦᎵᏥᏙ	-12.0758
ᏚᎴ	-12.076
Ꮛ	-12.0766
ᏍᎪᏂᎯ	-12.077
ᎵᏃᎮᏙᏗᏱ	-12.0772
▁ᎹᏏ	-12.0774
ᏔᏲᏎᏗ	-12.0775
ᏍᎪᎯᏧᏈ	-12.0778
ᎶᏨ	-12.0779
ᏕᏍᏔ	-12.0794
ᏌᏁᎢ	-12.0799
ᏲᏂ	-12.0804
ᏗᏛᏗ	-12.0805
ᏰᎮ	-12.0807
ᎵᏖᎸᎲᏍᎬ	-12.0812
ᎮᎴᎢ	-12.0817
ᏄᏒ	-12.0819
▁ᏂᏍᏋᏁ	-12.0819
ᏴᏁᏗᏱ	-12.0819
ᏖᎳᏕ	-12.0819
▁ᎤᎾᏕᎰ	-12.082
ᎩᎦᎨ	-12.0823
ᎼᎵ	-12.0831
▁ᎢᏥᎪᏩᏛ	-12.0832
▁ᎠᎫᏬ	-12.0832
ᏘᎭ	-12.0835
ᏟᏍᏗᏍᎪᎢ	-12.0839
ᏦᏔ	-12.084
ᎨᏠᎮ	-12.0848
ᏠᏍ	-12.0853
ᏕᏥ	-12.0853
▁ᎠᏆᏚᏓ	-12.0855
▁ᎤᎵᏖᎸ	-12.0857
ᏅᎲ	-12.0859
▁ᎠᏂᎦᏖᏃ	-12.086
ᎤᏃᎴ	-12.0861
ᏯᎸᏤ	-12.0862
ᎦᎿᏩ	-12.0864
ᏓᏥᎩᏏ	-12.0866
ᏙᏁ	-12.0872
ᏃᏍᎩᏛ	-12.0878
ᏥᎨᏳᎯᏳ	-12.0883
ᎨᏲ	-12.0887
ᏠᏯᏍᏗ	-12.0889
▁ᏂᏚᏅ	-12.0889
▁ᏓᎩᎸᏫᏍᏓᏁ	-12.089
ᏂᏕᎾ	-12.0891
ᏙᏘ	-12.0896
ᏯᎸ	-12.0899
ᏅᏩᏅᎩ	-12.09
ᏚᎸᏗ	-12.09
▁ᏭᏓᏒᏍ	-12.0901
ᏌᏆᎴ	-12.0902
ᏪᏌᏆᎴ	-12.0904
▁ᏂᏓᏅᏁ	-12.0913
ᎢᏥᏈᏱᏃ	-12.0918
ᏂᏬᏂᏍᎨᏍᏗ	-12.0924
▁ᎨᎦᎵᏥᏙᏁ	-12.0925
ᎩᎸᏨ	-12.0926
▁ᏚᏭᏢ	-12.0927
ᏥᏅᏒᎩ	-12.0927
▁ᎯᎦᏍᎦᏂ	-12.0931
ᎫᏴᎡᎯ	-12.0938
ᎮᎵᏍᎬᏉ	-12.0938
ᏦᎸ	-12.094
ᏲᏎᎲᎩ	-12.0944
ᎵᏰᎢᎸᏍ	-12.0944
ᏒᎦᎴ	-12.0948
ᎯᏴᏁᎸ	-12.0948
ᏣᏓᏗ	-12.095
▁ᏄᏂᏪ	-12.0954
ᏗᎦᎴᏲ	-12.0957
▁ᏳᏝ	-12.0961
▁ᏱᏫᏨ	-12.0962
▁ᎬᏩᏍᏓᏩ	-12.0966
▁ᎠᎫᏱ	-12.0969
ᏙᎳᏅᏍᏗ	-12.0971
ᏗᏤᎾ	-12.0972
▁ᏤᎳ	-12.0979
ᏍᎩᏓᏒ	-12.0979
ᏂᎦᏛᏰᏃ	-12.0983
▁ᏣᏣ	-12.0985
ᏰᎸᏐᎢ	-12.0986
ᏄᎵᏳ	-12.0987
▁ᎤᏭᏢ	-12.099
▁ᏔᎷ	-12.0993
▁ᏅᏓᎬᏩᎾ	-12.0995
▁ᎤᎾᎴᎿᏫᏍ	-12.0997
ᏣᎧᏃᏗᏱ	-12.0998
ᏰᎳᏗᏙᎭ	-12.0999
ᎦᏘᏰ	-12.1
ᎵᏍᏔᏴᏗ	-12.1001
ᎳᏗᏍᏗᏍᎨᏍᏗ	-12.1002
▁ᏗᏣᎸᏫ	-12.1002
▁ᏂᏕᎤ	-12.1004
▁ᎤᎾᏨᏏ	-12.1004
ᏯᏅᏓᏗᏍᎪ	-12.1004
▁ᏱᏚᎾᏓ	-12.1006
ᎵᏍᏓᏴᎲᏍᎨᏍᏗ	-12.1008
ᎪᏪ	-12.1008
ᎤᏙᏓ	-12.1009
▁ᎡᏥᏄᎪ	-12.1013
▁ᎾᏂᏪ	-12.1015
▁ᏨᏓᏥ	-12.1016
ᏥᏁᏤᎸᎢ	-12.102
ᏔᏲᏎᎴ	-12.1021
ᏤᎰ	-12.1022
ᏒᎭᏂᎸ	-12.1025
ᎵᎪᏁᎭ	-12.1029
ᎦᎵᏏ	-12.103
ᏍᎦᏰᎬᏍᏓ	-12.1032
ᏓᏅᎡᎸᎩ	-12.1034
▁ᎤᏍᏢᏂᏍ	-12.1037
ᎩᏁᏤᏗᏱ	-12.1038
▁ᏓᏦ	-12.1042
ᎩᎵᏲᏤ	-12.1042
▁ᏗᏤᏅ	-12.1044
ᎬᏫᏳᏌᏕ	-12.1044
ᏛᏅᎢᏍᏔᏁ	-12.1045
ᏟᎶᎡᎸ	-12.1046
ᏓᏗᏍᏗᏱ	-12.1046
ᎿᎥ	-12.1047
ᏙᏯ	-12.1048
ᏅᏗᏍᎬ	-12.1049
ᎬᏍᎪᎸᏁ	-12.1056
ᏩᏘᏍᎬ	-12.1059
ᏂᎶᎯᏍᏗᏱ	-12.106
ᏖᎵᏙ	-12.106
ᏍᎦᏅᎢᏍᏗ	-12.106
ᎳᏑᎶ	-12.106
ᏕᎴ	-12.106
ᏄᎪᏫ	-12.1061
ᏃᎮᎴ	-12.1062
ᏕᏦ	-12.1065
ᎵᏍᏇᏚ	-12.1071
ᏚᎪᏓ	-12.1072
ᎵᏍᎦᏂᏍᏛ	-12.1072
ᏚᎸᏌᏛ	-12.1072
ᏟᏂᎬᏁᎴ	-12.1074
ᎹᏗ	-12.1074
“	-12.1075
▁ᏚᏟᎶᏍᏓᏁᎴ	-12.1076
▁ᎤᏁᎵᏤ	-12.1077
ᎢᏥᏈᏱ	-12.1077
ᏐᏗᏱ	-12.1078
ᎧᎿᏩᏗᏙ	-12.1079
ᎤᎵᎮᎵ	-12.1079
ᏬᏅ	-12.108
▁ᏧᏓᎴ	-12.108
ᏕᎭᎷᎨ	-12.1082
ᏑᎵᎪᏨᎩ	-12.1082
ᏕᏘᏴᏌᏗᏒ	-12.1083
ᏏᏔᏕ	-12.1083
ᎬᏫᏳᏌᏕᎩ	-12.1083
ᏛᏅᎢᏍᏔᏅ	-12.1084
ᏓᏙᎵᏣᏘ	-12.1084
ᏍᎫᏕᏒᎯ	-12.1085
ᏬᎯᏤ	-12.1088
ᏒᏆᎶᏍᏗ	-12.1088
ᎨᎶ	-12.1088
ᎾᏕᏒ	-12.1088
ᏏᎾᏌᏅ	-12.1092
ᏘᏯᏍᏓᏁᏗ	-12.1092
ᏍᏚᏞ	-12.1092
ᏃᏴᎬ	-12.1097
ᏇᏓᏢ	-12.1097
ᏲᎲᏍᎨᏍᏗ	-12.1098
ᏓᏅᏖᏗᏍᎨᎢ	-12.1099
▁ᎤᏃᎱ	-12.1099
ᏂᏌᏙᏴ	-12.1099
ᏃᎯᏳᎯ	-12.1099
ᏍᏓᎦᏴᎯᏓ	-12.11
ᎬᏘ	-12.1101
▁ᏦᎩᎭ	-12.1101
ᏯᏘᏃᎵ	-12.1102
ᎵᏠᏯᏍᏕᏍᏗ	-12.1102
ᏃᎸᏔᏁ	-12.1102
ᏬᏍᎩᎵ	-12.1104
ᎦᎵᏍᎪᎸᏓᏁᎸᎯ	-12.1104
ᏮᏔᏁᎢ	-12.1106
ᏗᎧᎿᏩᏛᏍᏗ	-12.1106
ᏪᎳᏅᎯ	-12.1109
ᎦᏔᎲᏒᎩ	-12.111
ᏲᎰᏒ	-12.1111
ᎬᏬᎵ	-12.1112
ᏍᎪᎸᏨ	-12.1112
ᎦᏲᎵᏳ	-12.1113
▁ᏧᏂᎦᏴᎵ	-12.1113
▁ᏣᏢ	-12.1113
ᏩᏉᎯ	-12.1113
ᏰᏙᎳᏕᏍᏗ	-12.1114
ᏄᎯᏍᏗᏍᎬ	-12.1115
ᏯᎨ	-12.1115
ᏲᏍᏗᏍᎪ	-12.1116
ᏧᏣ	-12.1117
ᎬᏩᏛᏓᏍᏓᏁᎴ	-12.1117
ᏳᏩᏅ	-12.112
▁ᏱᏂᏨ	-12.112
ᏓᏁᏣᏍᏚᎶ	-12.1121
ᏓᏙᎵᏍᏙᏗᏱ	-12.1122
ᏬᏁᏗᏍᎨ	-12.1122
▁ᎬᏩᏁ	-12.1122
ᏨᏏᏰᏗ	-12.1123
▁ᏂᏗᎬᏩᏓᎴ	-12.1123
▁ᎺᎮᎴᎵ	-12.1123
ᎬᎥᎯᏍᏗ	-12.1125
ᏓᏰᎨᏍᏗ	-12.1126
▁ᎤᏪᎵᎯᏍ	-12.1126
▁ᎤᎾᎵᏃᎯᏴᎯ	-12.1127
ᏈᎷ	-12.1127
▁ᎶᏔᏂ	-12.1127
ᏫᏌᏅ	-12.1127
ᏕᏯᏔᏁᎮ	-12.1128
▁ᎬᏩᏂᏅᏫᏍᏔᏂᏙᎯ	-12.1128
ᏍᎪᏂᏗᏢ	-12.1129
ᎾᏄᎪᏨᎩ	-12.1129
ᎦᎾᏬᏍᎬ	-12.1129
ᎬᎭᎸᏛ	-12.113
▁ᎠᏳᎾᎦ	-12.1132
ᏓᎦᎵᏍᏙᏔᏂ	-12.1132
ᏂᏙᎾᎡ	-12.1133
▁ᏓᏕᏙ	-12.1134
ᏴᏓᏆᎶᏍᎩ	-12.1134
ᏨᏒ	-12.1134
▁ᏓᏗᎶᏂ	-12.1135
▁ᏭᏭ	-12.1135
▁ᎤᏂᏄᎪᏤ	-12.1136
ᏁᏅᏍᏗᏱ	-12.1136
ᎷᎸᎥᏍ	-12.1137
ᏂᏧᏈᏍᏗ	-12.1137
ᏖᎸᏁ	-12.1138
▁ᏗᏧᎪ	-12.1138
▁ᏌᎪᏗ	-12.1139
ᏛᏛᏅᎩ	-12.1139
ᎬᏩᏟ	-12.114
ᏍᏓᏲᏒ	-12.114
ᎿᎷᏒᎩ	-12.1141
ᎠᏆᏚᎵ	-12.1141
ᏂᏴᎮᎢ	-12.1142
ᏘᏳ	-12.1142
ᏁᏅᏒᎩ	-12.1143
ᏪᎵᏎᎢ	-12.1143
ᏓᎴᎲᏍᎨ	-12.1143
▁ᏓᏘᏁᎲ	-12.1144
ᏳᏩᏁᎦ	-12.1144
ᏚᎢᏍᏔᏅᎢ	-12.1145
ᎤᎾᏣᏅ	-12.1146
ᎴᎯᏌᏅ	-12.1146
ᎩᏠᏫ	-12.1146
ᏓᏟᎶᏍᏗᏍᎬ	-12.1147
ᏍᏆᏛᎦᏍᏓ	-12.1147
▁ᏫᏓᏆᎧᎾᏅ	-12.1147
ᎤᏍᏆᏂᎩᏘ	-12.1147
ᏚᏂᎳᏫᏤ	-12.1148
▁ᎠᏓᏔᎶᎯ	-12.1148
ᏧᏁᏍᎨᎮᎢ	-12.1148
ᎫᏓᎴᏏ	-12.1148
ᏙᎯᏳᎭ	-12.1148
ᏩᏘᏍᎬᎾ	-12.1149
▁ᎨᏣᎵᎮᎵ	-12.115
ᏙᏓᎦᏥ	-12.1151
ᏣᎦᏎᏍᏕᏍᏗ	-12.1151
ᏚᏳᎪᏛ	-12.1151
ᏟᏃᎮᏙᏗ	-12.1152
ᏥᏪᏎᎸᎭ	-12.1152
▁ᎤᎾᎵᏍᏓᏴᏅᎯ	-12.1153
ᏍᎩᏓᏍᎬ	-12.1153
▁ᏥᏙᏥ	-12.1153
ᎤᏁᎢᏍᏔᏅ	-12.1153
▁ᎤᏍᎦᏅᏥᏙᎸ	-12.1154
ᏛᏓᏍᏓᏁᎮ	-12.1154
ᎦᏅᏆᎶᏏᎶᏛ	-12.1154
ᏖᏍᎬ	-12.1154
▁ᎢᏍᎪᏂᏗᏢ	-12.1154
▁ᎠᏥᏰᎸᎾᏁ	-12.1154
▁ᏕᏣᏓᏂᎸ	-12.1154
ᎬᏬᏎᎸᎩ	-12.1154
▁ᎤᏩᏇᏅᏔᏁ	-12.1155
▁ᏚᎧᎿᏩᏗᏙᎮ	-12.1155
▁ᏧᎩᏥᏍᎪ	-12.1155
▁ᏂᏚᏛᏁᎴ	-12.1155
▁ᏙᏗᎧᏂᏍᎬ	-12.1155
▁ᏱᎪᎵᎨ	-12.1155
▁ᎢᎤᎾᏨᏎ	-12.1155
▁ᏭᎩᎸᏁ	-12.1155
▁ᎠᏂᎷᎨ	-12.1155
▁ᏧᏲᏏᏍᎨ	-12.1155
▁ᎠᏂᏔᏲᎯᎮ	-12.1155
▁ᎤᏁᎢᏍᏓᏁᎸ	-12.1155
▁ᏕᏥᎧᎿᏩᏗᏒ	-12.1155
ᏚᏬᏁᏔᏁᎢ	-12.1155
▁ᎠᎾᎵᏅᏢ	-12.1155
▁ᎤᏂᏄᎪᏨ	-12.1155
ᏩᏂᎴᎢ	-12.1156
▁ᎨᏣᏡᏗᏍᎬ	-12.1156
ᏭᏲᎢᏴ	-12.1156
ᏄᏁᎩᏴ	-12.1157
ᏥᏲᎢᏳᏓᏁᎭ	-12.1157
ᎤᏁᎫ	-12.1158
ᏚᎸᏫᏍᏓᏁᎰᎢ	-12.1158
ᏕᎾᏓᎪᎲᏳ	-12.1158
ᎭᏲᎮ	-12.1158
▁ᎠᏍᏆᏂᎪᎯ	-12.1158
▁ᎪᎭᏗ	-12.1158
ᎧᏛ	-12.1159
ᏄᎸᏗ	-12.1159
ᏓᎵᏂᎪᎯᏍᏙᏗ	-12.116
ᎤᎾᏛᎪᏗᏱ	-12.116
▁ᎤᏓᏙᎵᏍᏔᏁ	-12.116
▁ᎤᏁᎳᏫᏎᎲ	-12.116
▁ᏭᏩᎦᏘᏗᏒ	-12.116
▁ᎤᏗᏔᎮ	-12.116
▁ᏥᏮᎦᏙ	-12.116
▁ᎢᏥᎾᏰᏍᎬ	-12.116
▁ᏄᎾᏛᎿᏕᎬ	-12.116
ᎦᏐ	-12.116
ᎤᏍᏓᎦᏴᎯᏓ	-12.1161
▁ᏗᎦᏲᏥ	-12.1161
▁ᏫᎬᏩᏴᏔᏁ	-12.1161
ᎤᎵᏍᎨᏓ	-12.1161
▁ᎤᏩᏓᎷ	-12.1162
▁ᎾᏯᏛᎡ	-12.1162
▁ᎠᏥᏰᎸᎾᏁᎴ	-12.1162
ᎠᏂᎪᏕᏍᎩ	-12.1162
ᎫᎫ	-12.1162
▁ᎤᏅᏓᏗᏗᏒ	-12.1163
▁ᎤᎵᏍᏛᏧᏁ	-12.1163
ᎤᎵᏍᏆᎸᏗ	-12.1163
▁ᏓᏓᏁᎳᏗᏒ	-12.1163
ᎤᎦᏃᏩ	-12.1163
▁ᎤᏛᎦᏍᏔᏁ	-12.1163
ᏣᏁᏆ	-12.1163
ᎤᎾᏄᎪᏫᏎᎢ	-12.1163
ᏦᏓᎸ	-12.1163
ᎡᎳᏆᏗ	-12.1163
ᏕᎤᏙᎥ	-12.1163
ᏚᎾᏙᎥ	-12.1163
▁ᏗᎦᏙᎨ	-12.1164
ᎢᎪᎯᏓ	-12.1164
▁ᏂᏚᏅᏁᎴ	-12.1164
▁ᏗᏆᏓᎴᏅ	-12.1164
ᏃᏈᏏ	-12.1164
▁ᎠᎾᏓᏩᏛᎯᏙ	-12.1165
ᏧᏓᎴᏅᏓ	-12.1165
ᏧᏓᎴᏁ	-12.1165
▁ᎤᏍᏆᏂᎪᏔᏁ	-12.1165
▁ᏄᎾᏛᏁ	-12.1165
▁ᏧᎾᏄᎪᏫᏎᎴ	-12.1165
▁ᏕᎦᎸᏫᏍᏓᏁᎸ	-12.1165
ᏧᎬᏩᎶᏗ	-12.1165
ᏠᎨᏏ	-12.1166
ᏟᏴᎭ	-12.1166
ᏇᏄ	-12.1166
▁ᎤᏬᏯᏁ	-12.1167
▁ᏓᏂᏬᏂᏍᎬ	-12.1167
ᏩᎶᏏ	-12.1167
ᏂᏪᏒᎩ	-12.1168
▁ᏱᏄᏅ	-12.1168
▁ᎬᏩᏕᏁᎴ	-12.1168
▁ᏙᏓᏲ	-12.1168
▁ᏕᏣᏓᏘᎾᎥ	-12.1169
ᎪᏫᏎ	-12.1169
▁ᏚᏅᏩᏅ	-12.1169
ᎱᏎᎢ	-12.117
ᏍᏙᏰᎲ	-12.117
ᎦᎿᏁ	-12.117
▁ᏓᏔᎴ	-12.1171
ᎴᏁ	-12.1171
ᏄᏂᏪᏎᎢ	-12.1171
ᏑᏴᏗ	-12.1171
▁ᏱᏅᏩ	-12.1172
▁ᏚᏠᏒᏎ	-12.1172
▁ᎤᎾᏚᎵᏍᎪ	-12.1172
▁ᎾᏥᏪᏎᎴ	-12.1172
ᎩᎵᎨᏂ	-12.1172
ᏠᎠᏎ	-12.1173
ᎵᏍᏙᏰᏗ	-12.1173
▁ᎤᎾᏁᎶᏔᏅ	-12.1174
▁ᏥᏂᏕᎬ	-12.1174
ᎤᏲᏨ	-12.1174
ᎨᏥᏍᏕᎸᏗ	-12.1174
▁ᎣᏤᎲ	-12.1175
ᏲᎰᏎ	-12.1175
ᏔᎵᏁ	-12.1175
ᏚᎳᏑᏝ	-12.1175
ᏠᏗᏱ	-12.1176
▁ᎬᏔ	-12.1176
ᎦᏔᎯᏳ	-12.1176
▁ᎤᎵᎮᎵᏤᎸ	-12.1176
ᏡᏍᏗ	-12.1176
ᏗᎧᎿᏩᏗᏙᎯ	-12.1177
ᏍᎪᎸᏙᏗ	-12.1179
▁ᏓᏂᏴᎨ	-12.1179
ᏥᏍᏕᏥ	-12.1179
ᏣᎬᏫᏳᎯ	-12.1179
ᎧᎵᎢᎭ	-12.118
ᏧᏁᎬ	-12.118
ᎢᏳᏍᏘ	-12.118
ᏎᎦᏨ	-12.1181
ᎠᎦᏴᎵ	-12.1182
ᎷᏫᏍᏓᏁᏗ	-12.1182
ᎧᏍᎨᏂ	-12.1182
▁ᎣᏥᏃᎮᏍᎬ	-12.1182
▁ᎦᎷᎨ	-12.1182
ᎤᏁᎦ	-12.1183
ᏅᏧᎵᏍᏙᏔᏅ	-12.1183
ᎧᎿᏩᏕᎩ	-12.1184
ᎬᎭᎷᏯᏍ	-12.1184
ᏓᏪᎵᎩᏍ	-12.1184
ᎩᏍᏕᎵᏍᎬᎢ	-12.1184
▁ᏨᏓᎸ	-12.1184
ᏩᏍᏉᎸ	-12.1184
ᎩᏠᏫᏍᏗ	-12.1185
ᏕᏲᏅᎯ	-12.1185
▁ᏗᏥᏲᎯ	-12.1185
▁ᎤᎦᎾᏏ	-12.1185
▁ᏚᏚᎪᏔᏅ	-12.1186
ᎢᏧᎳᎭ	-12.1186
▁ᏫᎦᎷ	-12.1186
ᎦᎸᎳᏗᏴ	-12.1187
▁ᎠᎾᏔᏍᎩ	-12.1187
ᏍᏆᎾᎳᏗᏍᏗ	-12.1187
ᏃᎯᎰ	-12.1187
ᏃᎮᎮᎴ	-12.1188
ᏅᎵᏰᎥ	-12.1188
ᎤᏁᎬ	-12.1188
ᏛᏗᏍᎬᎢ	-12.1188
▁ᎧᏁᎨ	-12.1188
▁ᎤᏂᏲᏠᎯᏎᎸ	-12.1189
▁ᏚᏪᏟᏌᏅ	-12.1189
▁ᏓᏍᏗᏰᏗᏍᎬ	-12.1189
ᎦᏰᎬᏍᏔ	-12.1189
ᎨᏨᎿᏕ	-12.1189
▁ᎾᏆᏛᎿᏕᎬ	-12.1189
ᏍᎦᏅᎬ	-12.1189
▁ᎭᎳ	-12.1189
ᎮᏂᎵ	-12.119
ᏗᏏᏴᏫᎭ	-12.119
ᎵᏏᎲᏒᎩ	-12.119
ᏍᎩᎾᎾ	-12.1191
▁ᏭᏂᏴᎴ	-12.1191
▁ᏫᏓᎧᏁ	-12.1191
ᎨᏒᎾ	-12.1192
ᏂᏨᏛ	-12.1192
ᎦᏯᎷᎥᏍᎩ	-12.1192
ᏴᎯᎲ	-12.1192
ᏃᏣᏝ	-12.1193
▁ᏚᏭᎪᏔᏁ	-12.1193
ᎦᎫᏴᏓᏁᏗ	-12.1193
ᏁᎥᎭ	-12.1193
ᏏᏙᏂ	-12.1194
ᎪᏪᎵᎯ	-12.1194
▁ᎤᏂᏍᏆᏂᎪᏒ	-12.1194
▁ᎤᏪᏙᎴ	-12.1194
▁ᎠᏆᎵᎮᎵᏨ	-12.1194
ᎰᎻ	-12.1194
▁ᎤᏕᏁᎴ	-12.1195
▁ᏄᏂᎬᏫᏳ	-12.1195
ᎦᏕᎣᏍᎦ	-12.1195
ᏏᎳᏛᎥᏍᎬ	-12.1196
ᎦᎵᏍᏓᏗᏍᏗ	-12.1196
▁ᎣᏥᏃᎮᏍ	-12.1196
▁ᎢᏳᎾᎵᏍᏓᏁ	-12.1197
ᏄᎴ	-12.1197
▁ᏂᎩᏴᏁᎸ	-12.1197
▁ᏚᏬᏢᏅ	-12.1197
ᎮᎵᎠ	-12.1198
ᎣᎾ	-12.1198
▁ᎤᏢᏨ	-12.1198
▁ᎬᏩᏓᏅᏘ	-12.1198
▁ᏧᏃᏪᎳᏅ	-12.1198
ᏍᏉᏂᎪᏗ	-12.1199
▁ᎡᏓᏓᏙᎵᏍᏓᏁ	-12.1199
ᎠᎩᏲᏏ	-12.1199
▁ᏥᏃᎪ	-12.12
▁ᎬᏯᎵᏃᎮᏙᏗ	-12.12
▁ᎬᏩᏛᎦᏁᎸ	-12.12
ᎾᏗᏒᎲᏍ	-12.12
▁ᎡᎻᏂᏓ	-12.1201
ᎦᎵᏍᏗᏍᎪᎢ	-12.1201
▁ᎤᎵᏨᏓᏆ	-12.1201
▁ᎣᎦᏚᎵᏍᎬ	-12.1201
▁ᏧᏂᎷᏫᏍᏔᏁ	-12.1201
▁ᎢᏯᎩᏪᏍᏗ	-12.1201
▁ᎢᎧᏁᏨ	-12.1202
▁ᎠᏥᎤᏍᏕᏎᎸ	-12.1202
ᏂᎸᏫᏍᏓᏁᎲᎢ	-12.1202
▁ᏧᎷᏫᏍᏔᏁ	-12.1202
▁ᏂᏚᎵᏍᏔᏅ	-12.1202
ᎾᏁᏍᎬ	-12.1202
ᏛᏅᎢᏍᏕᏍᏗ	-12.1203
▁ᏫᎨᏥᏲᎵ	-12.1203
▁ᎠᏍᎫᏕᏒ	-12.1203
▁ᎤᏓᏏᏁ	-12.1203
ᏅᎵᏰᏗ	-12.1203
▁ᎦᎵᎡᎵ	-12.1204
ᏥᏔᎳᏬ	-12.1204
▁ᎤᎾᎳᏍᏓᎡ	-12.1204
▁ᏌᎺᎵ	-12.1205
▁ᏗᏣᎵᏂᎪᎯᏍᏙᏗ	-12.1205
ᏍᎦᏅᎪᎢ	-12.1205
▁ᎢᏰᏨᏁ	-12.1205
ᎵᏍᏚᎢᏎᎢ	-12.1206
▁ᎬᏩᎪᎮ	-12.1206
ᏕᏘᏴᏛ	-12.1206
▁ᏧᏭᎪᏓᏁᏗ	-12.1206
▁ᏥᏄᎾᏍᏗ	-12.1206
ᏚᎸᏅᎥᏍᎬ	-12.1206
ᏣᎸᏫᏍᏓᏁᎮᏍᏗ	-12.1206
▁ᎨᏥᏚᎢᏍᏓᏁᎸ	-12.1207
ᏠᎲ	-12.1207
▁ᏗᎪᏑᎴᏗ	-12.1207
ᏠᎥᏔ	-12.1207
ᏅᎫᏛᎢ	-12.1207
▁ᎢᎫ	-12.1207
▁ᎢᏧᏅᏁᏗ	-12.1207
ᎦᏙᎥᎯ	-12.1207
▁ᏚᏂᏅᏁ	-12.1208
ᎦᎵᏱᏳ	-12.1208
ᏓᏤᎵᎦᏯ	-12.1208
ᏎᎮᎵᏃ	-12.1208
ᏪᎳᏅ	-12.1208
▁ᎻᏗᏂ	-12.1208
▁ᏫᎦᎶᎯ	-12.1208
▁ᎬᏆᏛᏁᏗ	-12.1208
ᎵᎶᎲᏍᎦ	-12.1208
ᎩᎩᎵᏲ	-12.1209
▁ᏧᎾᏄᎪᏫᏎᏗ	-12.1209
ᏙᎴᏆᏍ	-12.1209
▁ᎣᎦᎵᏍᏓᏴ	-12.1209
▁ᏚᏬᏏᏌᏁ	-12.1209
ᏥᏲᎯᏎᎸ	-12.1209
▁ᎤᏬᏪᎳᏅ	-12.1209
ᏍᎩᏃᎯᏏ	-12.1209
ᎵᏍᎪᎸᏓᏁᎭ	-12.121
ᎵᏍᏗᏰᏓᏁ	-12.121
▁ᎢᏥᎩᎵᏲᎢᏍᏗ	-12.121
▁ᎡᎳᏆ	-12.121
ᏏᎳᏛᏅ	-12.121
▁ᎭᏙᎴᎰ	-12.121
ᏢᏆᏍᏙᏗ	-12.1211
ᏓᏓᏅᏟ	-12.1211
▁ᎢᎯᏴᏁᏗ	-12.1211
▁ᏫᏥᎷᏨ	-12.1211
ᎦᏴᎯᏓ	-12.1211
▁ᎤᎸᏓᎸᎥᏍ	-12.1211
▁ᏕᏣᏓᏘᎾ	-12.1211
▁ᎤᎾᏄᎪᏥ	-12.1212
▁ᎬᎩᏁᏉᏤ	-12.1212
▁ᏚᏭᏓᏔ	-12.1212
▁ᏅᏓᎬᏩᏓᎴ	-12.1213
▁ᎤᎾᎦᏎᏍᏛ	-12.1213
▁ᏓᎭᏬᎢ	-12.1213
▁ᎢᏣᏓᏅᏔᏩᏕ	-12.1213
▁ᏓᏂᎶᏄᎮᏍ	-12.1213
ᎵᏓᎩᏛ	-12.1213
▁ᏂᏓᎾᏤ	-12.1213
ᏩᎯᏎᎸ	-12.1213
ᏛᏛᎲᎦ	-12.1214
ᏭᎷᏤᎢ	-12.1214
▁ᎬᏬᎳᏕᏍ	-12.1214
ᏯᏙᏤᎮᏍᏗ	-12.1214
▁ᏚᏪᎧᏁ	-12.1214
ᎾᏫᏛᎯ	-12.1214
▁ᎤᏚᏓᏕᏫᏒ	-12.1214
▁ᏚᏍᏓᏩᏛᏎ	-12.1214
ᎪᏪᎸ	-12.1215
ᎶᏄᎡ	-12.1215
ᏓᏳᏓᎴᏅᎯ	-12.1215
ston	-12.1215
hi	-12.1215
▁ᏚᏟᏂᏆ	-12.1215
ᏓᎦᎵᏍᏔᏂ	-12.1215
▁ᏧᏂᎦᏐᎠ	-12.1215
ᎾᏞᎬ	-12.1215
ᏴᏌᏗᏒ	-12.1216
ᏓᎪᎯᏥ	-12.1216
ᎪᏪᎶ	-12.1216
ape	-12.1216
▁ᏙᎳᏧᎦ	-12.1216
ᎭᎴᏫᏍᏔ	-12.1216
ᏌᏆᏞ	-12.1216
▁ᎤᎬᏍᏉᎡ	-12.1216
▁ᎤᎵᏍᎩᏃᏘᏍ	-12.1216
▁ᎤᏟᏴᏍᎩᎸᎮ	-12.1216
▁ᎭᏓᏅᏗᏍᏗᏍᎨᏍᏗ	-12.1216
▁ᏗᎦᎦᏠᏱᎯ	-12.1216
▁ᏗᏂᎳᏍᏓᎳᏩᏗᏒ	-12.1216
▁ᏙᎦᏓᏲᎵᎸ	-12.1216
▁ᏱᏅᏧᎵᏍᏙᏔᏁ	-12.1216
ersey	-12.1216
lorida	-12.1216
ᎤᎸᏕᎦ	-12.1216
ᎦᎿᏩᏗᏙᎵ	-12.1216
ᎦᏎᏍᏗᏕᎬ	-12.1216
ᎦᏰᏥᏐᏢᏔᏂ	-12.1216
ᎧᏙᏍᏓᏁᎢ	-12.1216
ᎨᎩᎩᎵᏲᎢᏍᏗᏍᎬᎩ	-12.1216
ᎬᏯᎵᎮᎵᏤᎭ	-12.1216
ᎭᏄᏭ	-12.1216
ᎯᎪᏩᏘᎭᏧ	-12.1216
ᎵᏍᎫᎭᏴ	-12.1216
ᎵᏍᏇᏔᏬ	-12.1216
ᎺᎵᎩᏌᏕᎩᏃ	-12.1216
ᎾᏓᏁᏣᏍᏚᎸᎩ	-12.1216
ᎾᏓᏡᏩᏗᏒᎢ	-12.1216
ᏂᏆᏘᎵ	-12.1216
ᏂᏔᏫᏤ	-12.1216
ᏂᏗᏥᏲᏕᏍᏗᏍᎬᎾ	-12.1216
ᏄᏓᏅᎯᏛ	-12.1216
ᏅᏔᏗᏘᏍᎬ	-12.1216
ᏓᎦᎸᎥᎦ	-12.1216
ᏓᎾᏇᏍᎬ	-12.1216
ᏓᏓᏏᎾᎲᏍᏙᏗ	-12.1216
ᏓᏡᏩᏍᏗᏕ	-12.1216
ᏓᏡᏫᏍᏕᎢ	-12.1216
ᏓᏣᏓᏅᏖᏔᏂᏗ	-12.1216
ᏕᎦᎯᏞᏫᏒ	-12.1216
ᏕᎦᎵᎩᎡᎮᎢ	-12.1216
ᏖᎡᎯᏍᏗᏍᎨᎢ	-12.1216
ᏙᏛᎪᏄᎶᏏ	-12.1216
ᏚᏯᏍᏛᎾ	-12.1216
ᏛᏳᎩᏍᏗᏳ	-12.1216
ᏜᏅᏓᏕᏗᏱ	-12.1216
ᏟᏔᏗᏍᎬ	-12.1216
ᏠᎣᏒ	-12.1216
ᏢᏲᎵᎸ	-12.1216
ᏥᏟᏏᏍᎨᏍᏗ	-12.1216
ᏥᏲᎢᏎᎸᎭ	-12.1216
ᏨᏩᏍᏔᏁᎴ	-12.1216
ᏬᏁᏔᏂ	-12.1216
▁Cooper	-12.1216
▁Po	-12.1216
▁ᎠᎦᎫᏴᏓᏁᎮᏍᏗ	-12.1216
▁ᎠᎦᏐᎠᏏᎯᎲ	-12.1216
▁ᎠᎦᏔᏔᏅᎥᏍᎩ	-12.1216
▁ᎠᎦᏔᏙᎥᏗᏍᎩ	-12.1216
▁ᎠᎦᏗᏏᏗᏢ	-12.1216
▁ᎠᎧᏖᏃᎮ	-12.1216
▁ᎠᎩᏍᏕᎸᎯᏙᎸ	-12.1216
▁ᎠᎫᎢᏍᏗᏍᎩ	-12.1216
▁ᎠᎯᏏᎹᎩ	-12.1216
▁ᎠᎾᏁᏢᏔᏂᏒᎢ	-12.1216
▁ᎠᎾᏓᏓᏍᎩᏏᏍᎨᎢ	-12.1216
▁ᎠᏂᎻᏗᏯᏂ	-12.1216
▁ᎠᏂᏃᏔᏂᏙᎯ	-12.1216
▁ᎠᏂᏅᏜᎡᎢ	-12.1216
▁ᎠᏂᏫᏄᏣ	-12.1216
▁ᎠᏃᏢᏅᎥᏍᎬᎢ	-12.1216
▁ᎠᏅᏳᎬ	-12.1216
▁ᎠᏆᏘᏂᏐ	-12.1216
▁ᎠᏓᏁᏣᏍᏕᎶᎩᎯ	-12.1216
▁ᎠᏕᎵᏙᎩᎯ	-12.1216
▁ᎠᏛᏄᏣ	-12.1216
▁ᎠᏛᏒᎥᏍᎩ	-12.1216
▁ᎠᏣᎾᏉᎯ	-12.1216
▁ᎠᏥᏍᏛᏗᏍᏗᏍᎬᎢ	-12.1216
▁ᎠᏯᏍᏜᏗᏍᎩ	-12.1216
▁ᎡᎵᎣᏈᎦ	-12.1216
▁ᎡᏙᎢᏍᏓᏁᎸᎯ	-12.1216
▁ᎡᏣᎫᏴᏓᏁᏗ	-12.1216
▁ᎢᎠᏥᏩᏛᎲᏃ	-12.1216
▁ᎢᎦᎤᏘᏍᏛ	-12.1216
▁ᎢᎨᎦᏛᏁᏗ	-12.1216
▁ᎢᎨᎬᎾᏕᎩ	-12.1216
▁ᎢᎨᏣᎵᏍᏓᏁᏗ	-12.1216
▁ᎢᎭᏛᏁᎯ	-12.1216
▁ᎢᏍᎩᏃᏁᎵᎸ	-12.1216
▁ᎢᏍᎩᏌᏛᎥᏍᎦ	-12.1216
▁ᎢᏍᏓᎵᏍᏓᏴᏔᏅᎩ	-12.1216
▁ᎢᏓᎵᏍᏓᏴᏗᏍᎬᎢ	-12.1216
▁ᎢᏣᎵᏂᎬᏁᎲ	-12.1216
▁ᎢᏣᏠᎾᏍᏛ	-12.1216
▁ᎢᏥᎾᏝᎾᎥ	-12.1216
▁ᎢᏨᏁᎵᏓᏍᏗᏱ	-12.1216
▁ᎢᏨᏰᏯᏔᏅᎢ	-12.1216
▁ᎢᏯᎩᏳᏍᏡᏛ	-12.1216
▁ᎢᏯᏕᏴᎵ	-12.1216
▁ᎢᏳᏆᏗᏅᏛ	-12.1216
▁ᎣᎩᏐᏅᎢᏍᏔᏅᎯ	-12.1216
▁ᎤᎦᏔᏙᎥᏙᏗᏱ	-12.1216
▁ᎤᎩᎳᏫᏎ	-12.1216
▁ᎤᎩᏓᏍᏕᎯ	-12.1216
▁ᎤᎫᏴᎰᎲᏍᏗ	-12.1216
▁ᎤᎵᎨᏯᏛᏅ	-12.1216
▁ᎤᎵᏍᎦᏎᏔᏁᎢ	-12.1216
▁ᎤᎵᏍᎫᏪ	-12.1216
▁ᎤᎵᏍᏔᏴᏃᏁᏍᏗ	-12.1216
▁ᎤᎾᎦᎰᏍᏔᏅ	-12.1216
▁ᎤᎾᏑᎨᎲᎯ	-12.1216
▁ᎤᏁᎿᎢᏳ	-12.1216
▁ᎤᏁᏧᏥᏛ	-12.1216
▁ᎤᏂᎦᎾᏏᏍᎩ	-12.1216
▁ᎤᏂᎪᎯᏙᎸᎯ	-12.1216
▁ᎤᏂᎪᏁᎶᎯᏌᏘ	-12.1216
▁ᎤᏂᏍᏈᏍᏓ	-12.1216
▁ᎤᏂᏍᏕᏲᏅ	-12.1216
▁ᎤᏃᎯᎵᏓᏌᏘᏳ	-12.1216
▁ᎤᏃᎱᎦᏂᎸ	-12.1216
▁ᎤᏄᏮᎢ	-12.1216
▁ᎤᏅᎪᎥᏔᏁ	-12.1216
▁ᎤᏍᏘᏰᏅᎯ	-12.1216
▁ᎤᏓᏁᎪᏳᎲ	-12.1216
▁ᎤᏓᏅᏫᏍᏔᏁ	-12.1216
▁ᎤᏓᏥᏃᎯᏍᏔᏅ	-12.1216
▁ᎤᏟᎠᏥᎸᏉᏗᏳ	-12.1216
▁ᎤᏧᏈᏍᏙᏒᎯ	-12.1216
▁ᎤᏩᏃᏫᏍᎨ	-12.1216
▁ᎥᎠᎩᎪᏩᏛᏗᏱ	-12.1216
▁ᎥᎤᏪᏅᏍᏗᏱ	-12.1216
▁ᎥᏥᏯᏓᏙᎵᏍᏓᏁᎸᎩ	-12.1216
▁ᎥᏥᏯᏛᎦᏁᎸᎩ	-12.1216
▁ᎦᏁᏄᎵ	-12.1216
▁ᎦᏁᏍᏓᎳᏗᏍᏗᏍᎩ	-12.1216
▁ᎦᏃᎯᎵᏒᎩ	-12.1216
▁ᎦᏌᏁᎾᏛᏗᏱ	-12.1216
▁ᎦᏕᎶᎥᏍᎬ	-12.1216
▁ᎦᏰᏗᎷᏤᏗ	-12.1216
▁ᎦᏰᏤᎵᏎᏗ	-12.1216
▁ᎧᏄᎦᏟ	-12.1216
▁ᎨᏤᎳᏗᏙᎭ	-12.1216
▁ᎨᏥᏐᏠᎸᎢ	-12.1216
▁ᎨᏧᎯᏍᏗᏍᎩ	-12.1216
▁ᎨᏨᎨᏫᏍᏗ	-12.1216
▁ᎫᏔᎩᏍᏙᏗ	-12.1216
▁ᎫᏢᏘᏱ	-12.1216
▁ᎫᏰᏉᏂ	-12.1216
▁ᎬᏩᏂᎾᏄᎪᏫᏎᎮᏍᏗ	-12.1216
▁ᎬᏩᏂᏲᏥᏙᎸ	-12.1216
▁ᎬᏯᏛᎦᏁᎸ	-12.1216
▁ᎭᎦᏌᏯᏍᏔᏅᎭ	-12.1216
▁ᎭᎵᎮᎵᎨᏍᏗ	-12.1216
▁ᎭᏆᏥᏂ	-12.1216
▁ᎯᏣᏚᎵᏍᎨᏍᏗ	-12.1216
▁ᎯᏯᎵᏍᎦᏍᏙ	-12.1216
▁ᎱᏌᎻᏃ	-12.1216
▁ᎺᏌᏆᏕᎻ	-12.1216
▁ᎻᎱᏤᎵ	-12.1216
▁ᎻᎵᏯᎻᏃ	-12.1216
▁ᎻᏏᎴᎻ	-12.1216
▁ᎻᏚᏎᎵ	-12.1216
▁ᎾᏆᏓᎾᏰᏍᏛᎾ	-12.1216
▁ᏁᏣᏛᏁᏍᏗᏉ	-12.1216
▁ᏂᎤᏟᏍᏕ	-12.1216
▁ᏂᎦᏅᎦᎸᎲᎾ	-12.1216
▁ᏂᎦᏥᏪᏎᎭ	-12.1216
▁ᏂᏓᎩᎸᏫᏍᏓᏁᎲᎾ	-12.1216
▁ᏂᏕᏣᏓᏛᏁᎮᏍᏗ	-12.1216
▁ᏂᏕᏥᎤᏍᏕᏎᎸᎾ	-12.1216
▁ᏂᏕᏨᏁᏍᏗ	-12.1216
▁ᏂᏗᏣᏓᏕᎵᏎᎲᎾ	-12.1216
▁ᏂᏗᏣᏢᏫᏎᎲᎾ	-12.1216
▁ᏂᏗᏥᎾᏝᎥᎾ	-12.1216
▁ᏂᏗᏥᏁᎲᎾ	-12.1216
▁ᏂᏙᏣᎵᏍᏓᏁᎭ	-12.1216
▁ᏂᏚᎸᏫᏍᏓᏁᎲᎾ	-12.1216
▁ᏂᏚᎾᏓᏂᎸᏨᎾ	-12.1216
▁ᏂᏥᏑᎵᎪᎬᎾ	-12.1216
▁ᏄᎵᏌᎶᏛᎾ	-12.1216
▁ᏄᎾᎵᎮᎵᏣᏛᎾ	-12.1216
▁ᏄᎾᏠᎾᏍᏛᎾ	-12.1216
▁ᏄᎾᏰᎯᏍᏛᎾ	-12.1216
▁ᏄᏂᎷᎶᏤᎲᎾ	-12.1216
▁ᏄᏍᎦᏎᏛ	-12.1216
▁ᏄᏍᏆᏂᎦᏛ	-12.1216
▁ᏄᏓᎵᏍᏛᎾ	-12.1216
▁ᏄᏛᎾᏕᎬ	-12.1216
▁ᏄᏟᏂᎬᎨ	-12.1216
▁ᏄᏧᏈᏍᏛ	-12.1216
▁ᏄᏪᎵᏍᏛᎾ	-12.1216
▁ᏄᏴᎳᏒᎾ	-12.1216
▁ᏅᎤᏪᏎᎸᎩ	-12.1216
▁ᏅᏋᏁᎵᏙᎸᎢ	-12.1216
▁ᏅᏓᏍᎩᏴᏁᎵ	-12.1216
▁ᏅᏓᏳᎾᎵᏍᏓᏁᎵ	-12.1216
▁ᏅᏓᏳᏍᏗᏗᏒᎩ	-12.1216
▁ᏅᏛᏂᏙᎾᎢ	-12.1216
▁ᏅᏧᏛᎿᏗᏎ	-12.1216
▁ᏆᎮᎭᎶᏛ	-12.1216
▁ᏈᏗᏂᏱ	-12.1216
▁ᏍᎩᏯᏐᎥᎦ	-12.1216
▁ᏍᏆᏂᏏᎲᏏ	-12.1216
▁ᏍᏆᏕᎲᏏ	-12.1216
▁ᏐᎵᎼᏅ	-12.1216
▁ᏑᏙᏓᏆᏛ	-12.1216
▁ᏓᎦᎳᏐᏫᏏ	-12.1216
▁ᏓᎦᏘᎴᎨᏍᏗ	-12.1216
▁ᏓᎨᎯᏛᏔᏂ	-12.1216
▁ᏓᎬᏍᏓᏩᏗᏙᎵ	-12.1216
▁ᏓᎬᏩᏍᎪᏂᎵ	-12.1216
▁ᏓᎵᏂᎪᎯᏍᏗᏍᎬᎩ	-12.1216
▁ᏓᎾᏏᏛᏂᎲ	-12.1216
▁ᏓᎾᏕᏒᎲᏍᎨᎢ	-12.1216
▁ᏓᎾᏦᎭᏱᎮ	-12.1216
▁ᏓᏂᏁᎩᎡᎲ	-12.1216
▁ᏓᏂᏥᏍᏔᎳᏍᎬ	-12.1216
▁ᏓᏍᎩᏯᏠᏥ	-12.1216
▁ᏓᏓᏘᏁᎲᎢ	-12.1216
▁ᏓᏛᏍᏆᎶᏥ	-12.1216
▁ᏓᏣᏅᏓᏗᏍᏔᏂ	-12.1216
▁ᏓᏥᎦᏃᏔᏂ	-12.1216
▁ᏓᏥᎴᏐᏂ	-12.1216
▁ᏓᏥᏍᏔᏩᏕᏏ	-12.1216
▁ᏓᏥᏔᏲᎵ	-12.1216
▁ᏓᏥᏲᏪᎶᏔᏂ	-12.1216
▁ᏓᏲᏍᏓᏁᎳᏗ	-12.1216
▁ᏓᏳᎾᏚᎩᏒ	-12.1216
▁ᏓᏳᏨᏨᎩ	-12.1216
▁ᏓᏴᏈᏛ	-12.1216
▁ᏔᎷᎩᏍᎩᎬᎾᏬᏙᏗᏱ	-12.1216
▁ᏕᎦᏄᎳᏥᏴ	-12.1216
▁ᏕᎦᏅᎿᏩᏗᏒ	-12.1216
▁ᏕᎨᎵᏍᎦᎸᎲ	-12.1216
▁ᏕᎩᎾᏓᏁᏤᎸ	-12.1216
▁ᏕᎬᏯᎫᏴᏓᏁᎮᏍᏗ	-12.1216
▁ᏕᎬᏯᏠᎢᏍᏓᏁᎸ	-12.1216
▁ᏕᎭᏅᏓᏗᏍᏗᏍᎨᏍᏗ	-12.1216
▁ᏕᎯᏯᏓᏂᎸᏨᎭ	-12.1216
▁ᏕᏍᏗᏂᏴᎮᏍᏗ	-12.1216
▁ᏕᏓᏁᎶᏛᎢ	-12.1216
▁ᏕᏓᏦᏍᎬᎢ	-12.1216
▁ᏕᏥᎦᎿᏩᏗᏒ	-12.1216
▁ᏕᏥᎧᎿᏩᏗᏎᏍᏗ	-12.1216
▁ᏗᎦᎬᎩᎧᎿᏩᏛᎡᏗ	-12.1216
▁ᏗᎦᎵᏯᏅᎯᏛ	-12.1216
▁ᏗᎦᎸᏫᏍᏔᏁᎸᎯ	-12.1216
▁ᏗᎨᏥᏅᏍᏕᏎᎸᎯ	-12.1216
▁ᏗᎨᏥᏐᏅᏅᎯ	-12.1216
▁ᏗᎩᎾᏓᏛᏙᏗ	-12.1216
▁ᏗᎫᏩᎭᏄᏫ	-12.1216
▁ᏗᎬᎦᏌᏬᎢᎯ	-12.1216
▁ᏗᎬᏩᎾᏓᏁᏟᏴᎡᏗ	-12.1216
▁ᏗᎬᏩᏁᏲᏗ	-12.1216
▁ᏗᎾᎳᏫᎩ	-12.1216
▁ᏗᏍᎩᏲᏏᏌᏏ	-12.1216
▁ᏗᏓᎪᏗᏍᎩᏱ	-12.1216
▁ᏗᏓᏙᏕᎯᎯ	-12.1216
▁ᏗᏕᎫᏍᏛᏗ	-12.1216
▁ᏗᏗᏂᏃᎩᏍᎨᎢ	-12.1216
▁ᏗᏣᎧᎾᏂᏓᏍᏗᏱ	-12.1216
▁ᏗᏴᎦᎴᏴᏓ	-12.1216
▁ᏘᏰᎵᎯᏍᏓ	-12.1216
▁ᏙᎦᏦᏒ	-12.1216
▁ᏙᎩᏲᏐᏅ	-12.1216
▁ᏙᎵᏓᏍᏆ	-12.1216
▁ᏙᏓᎦᏘᏃᎵ	-12.1216
▁ᏙᏓᎦᏥᏯᏟᎶᏍᏔᏂ	-12.1216
▁ᏙᏓᏦᎵᏍᏔᏂ	-12.1216
▁ᏙᏗᏍᎩᏯᏘᏁᏅ	-12.1216
▁ᏙᏘᏴᏔᏂᎵ	-12.1216
▁ᏙᏛᎠᎴᎯᏌᏂ	-12.1216
▁ᏙᏛᏏᏔᏗ	-12.1216
▁ᏚᎭᏄᏩᎩᏐᏅ	-12.1216
▁ᏚᎾᏁᎳᏗᏙᎴ	-12.1216
▁ᏚᎾᏁᏍᏓᏝᎰᎢ	-12.1216
▁ᏚᎾᏗᏫᏍᏗᏍᎨ	-12.1216
▁ᏚᎾᏠᎯᏍᏔᏁᎢ	-12.1216
▁ᏚᎾᏡᏕᏍᏗ	-12.1216
▁ᏚᏂᎧᎿᏩᏗᏙᎮᏍᏗ	-12.1216
▁ᏚᏂᎷᏫᏍᏔᏁᎲ	-12.1216
▁ᏚᏂᏯᏪᎨ	-12.1216
▁ᏚᏌᏬᎴ	-12.1216
▁ᏚᏗᎦᎴᏯᏍᏔᏅ	-12.1216
▁ᏚᏙᎣᏐᏅ	-12.1216
▁ᏚᏟᎶᏍᏔᏁᎴ	-12.1216
▁ᏚᏟᎷᏆᏗᏅᏎ	-12.1216
▁ᏚᏣᏯᎩᏎ	-12.1216
▁ᏚᏥᏍᏠᏨᎩ	-12.1216
▁ᏚᏩᏅᎦᏢ	-12.1216
▁ᏚᏪᏍᏔᏁᎮ	-12.1216
▁ᏚᏪᏐᏨᎩ	-12.1216
▁ᏚᏬᏢᏔᏁ	-12.1216
▁ᏚᏮᎩᎶᎥᎩ	-12.1216
▁ᏚᏯᏍᏜᏛ	-12.1216
▁ᏛᎩᏯᏅᎡᎴᏍᏗ	-12.1216
▁ᏛᎵᏰᎢᎸᏍᏓ	-12.1216
▁ᏛᎾᎵᏛᏔᏂ	-12.1216
▁ᏛᏆᎵᏍᎪᎸᏓᏁᎵ	-12.1216
▁ᏛᏋᏍᎦᎸᏂ	-12.1216
▁ᏛᏥᎵᏦᏘᏌᏂ	-12.1216
▁ᏤᎪᎾᏯ	-12.1216
▁ᏥᎦᎧᎰᎢ	-12.1216
▁ᏥᎬᎩᎾᎸᏍᏔᏅᎩ	-12.1216
▁ᏥᎬᏩᏂᏛᏔᏁ	-12.1216
▁ᏥᎾᏬᎦ	-12.1216
▁ᏥᎿᏛᏁᎭ	-12.1216
▁ᏥᏂᏓᎦᏔᎰᎢ	-12.1216
▁ᏥᏄᎦᎾᎯ	-12.1216
▁ᏥᏅᏩᏍᏙᎢ	-12.1216
▁ᏥᏍᎩᏯᏂᎩᏍᏓ	-12.1216
▁ᏥᏓᏅᎿᏗᏍᏙᏗ	-12.1216
▁ᏥᏓᏚᏫᏍᏗᎭ	-12.1216
▁ᏥᏙᏣᏠᎯ	-12.1216
▁ᏥᏨᏲᏪᎳᏁᎭ	-12.1216
▁ᏥᏫᏗᎦᎸᏌᏓᏗᏍᎪᎢ	-12.1216
▁ᏥᏯᏎᎵᏓᏁᎸ	-12.1216
▁ᏥᏯᏓᏁᏟᏴᏍᏓᏁᎸ	-12.1216
▁ᏥᏯᏚᏣᎳᏅᎭ	-12.1216
▁ᏦᏑᏩ	-12.1216
▁ᏦᏣᎵᏥᏙᏁᏗᏱ	-12.1216
▁ᏧᏂᎾᏦᏴᏍᏗ	-12.1216
▁ᏧᏃᏕᎯᎯ	-12.1216
▁ᏧᏃᏣᎶᎢᏍᏗᏱ	-12.1216
▁ᏧᏟᏴᎦᏕᏩᏓ	-12.1216
▁ᏧᏣᏬᏓ	-12.1216
▁ᏧᏥᏍᏟ	-12.1216
▁ᏧᏪᎵᏏᏯ	-12.1216
▁ᏧᏭᏓᏔᏅᎯ	-12.1216
▁ᏧᏳᏩᏂᎭ	-12.1216
▁ᏨᏆᎧᏃᏗ	-12.1216
▁ᏨᏧᎶᏎᎢ	-12.1216
▁ᏩᎾᏅᎥᎦ	-12.1216
▁ᏫᎨᏥᏯᏅᏗᏱ	-12.1216
▁ᏫᎩᏅᎥᏏ	-12.1216
▁ᏫᎬᏩᏎᏒᎮ	-12.1216
▁ᏫᎬᏩᏲᏥᏓᏍᏗ	-12.1216
▁ᏫᏂᏚᏩᏁᎴ	-12.1216
▁ᏫᏄᎾᏛᏁᎸᎩ	-12.1216
▁ᏫᏕᎦᎦᏂᏍᎬ	-12.1216
▁ᏫᏙᏓᏨᏯᏘᏃᎵ	-12.1216
▁ᏫᏙᏛᎾᎴᏔᏂ	-12.1216
▁ᏫᏙᏛᎾᏓᎡᏏ	-12.1216
▁ᏫᏙᏛᏂᏲᎯᏎᎵ	-12.1216
▁ᏫᏚᎦᏔᎲᏍᏙᏗᏱ	-12.1216
▁ᏫᏚᏯᎲᏃ	-12.1216
▁ᏭᏓᏬᎥᏍᏗ	-12.1216
▁ᏭᏗᏍᎦᏝᏁ	-12.1216
▁ᏭᏩᏯᎸᏥᎴ	-12.1216
▁ᏮᎠᎦᏔᎲᏍᏓ	-12.1216
▁ᏮᏓᏳᏎᎮᎵ	-12.1216
▁ᏮᏛᏂᎶᏏ	-12.1216
▁ᏯᎦᏎᏍᏗᏍᎨᏍᏗ	-12.1216
▁ᏯᏂᏍᏙᎰᎢ	-12.1216
▁ᏯᏃᎯᏳᎲᏍᎨ	-12.1216
▁ᏯᏉᎯᏳᎮ	-12.1216
▁ᏯᏕᏠᏆᏍᎦ	-12.1216
▁ᏱᏁᏨᎾᏕᎨᏍᏗ	-12.1216
▁ᏱᏂᎦᎵᏍᏙᏗᏍᎨᏍᏗ	-12.1216
▁ᏱᏂᎦᏪᏍᎨ	-12.1216
▁ᏱᏂᎪᎯᎸᎾ	-12.1216
▁ᏱᏄᏩᏂᏌᏅ	-12.1216
▁ᏱᏅᏛᏅᏁᎵ	-12.1216
▁ᏱᏍᎩᏲᎢᏳᏁᎢ	-12.1216
▁ᏱᏍᏆᏓᏙᎵᏍᏓᏁᎸ	-12.1216
▁ᏱᏓᏂᏍᏓᏩᎦᎦ	-12.1216
▁ᏱᏕᏥᎤᏍᏕᏎᎸ	-12.1216
▁ᏱᏚᏂᎿᏍᏕᏠᎢ	-12.1216
▁ᏱᏥᎪᏁᎶᏍᎨᏍᏗ	-12.1216
▁ᏱᏦᎯᏳᏁᏍᏗ	-12.1216
▁ᏱᏫᏙᏣᏁ	-12.1216
▁ᏲᎩᎾᏟᎳ	-12.1216
▁ᏳᏂᏬᏂᏌ	-12.1216
▁ᏳᏍᏘᏰᎦ	-12.1216
▁ᏳᏓᏍᏕᏓᎵᏴᏌ	-12.1216
▁ᏳᏛᎦᏍᏔᎾ	-12.1216
▁ᏴᎦᎬᏴᏕᎩ	-12.1216
▁ᏴᎬᎾᎴᎲᎦ	-12.1216
▁ᏴᎬᏚᏓᎴᏍᏓ	-12.1216
▁ᏴᏗᎤᏨᏎᏍᏗ	-12.1216
▁ᎠᎵᏘᏍᎪᎢ	-12.1216
▁ᎢᏍᎩᏍᎦᎦ	-12.1216
▁ᎤᏂᏲᎸᎢᏍᏔᏅ	-12.1216
▁ᎦᏟᏏᏍᎨᏍᏗ	-12.1216
▁ᏂᏥᏪᏍᎨᏍᏗ	-12.1216
▁ᏓᏨᏲᏎᎵ	-12.1216
▁ᏓᏳᏐᏅᏂ	-12.1216
▁ᏗᎩᎧᏁᏴᏗᏱ	-12.1216
▁ᏗᏣᏠᏱᎦ	-12.1216
▁ᏙᏓᎦᏥᏳᎪᏓᏁᎵ	-12.1216
▁ᏙᏗᏂᎧᏁᎢ	-12.1216
▁ᏚᎧᎿᏩᏗᏙᎲᎢ	-12.1216
▁ᏥᎿᏛᎦ	-12.1216
▁ᏥᏕᎯᎾᏄᎪᏫᏎᎸ	-12.1216
▁ᏥᏚᏱᎶᎴᎢ	-12.1216
▁ᏩᏓᏬᏣ	-12.1216
▁ᏫᏗᏍᎩᏯᏘᏅᏍᏔᏅᎩ	-12.1216
▁ᏱᎦᏅᎥᏏ	-12.1216
▁ᏱᏩᎦᏓᎢᏅ	-12.1216
▁ᏳᏙᎯᏳᎲᎾ	-12.1216
ᎪᎩᏔᏲᏎᎲᎩ	-12.1216
ᎫᎢᏍᏛᎾ	-12.1216
ᎴᎣᎯᏍᏔᏂ	-12.1216
ᏂᏒᎳᏍᎨ	-12.1216
ᏃᎯᎵᏣᏁ	-12.1216
ᏌᏙᎭᏯ	-12.1216
ᏔᎳᏬᎯᏎᎴ	-12.1216
ᏗᏍᎦᏅᎨᏍᏗ	-12.1216
ᏥᏥᏃᎯᏍᏓ	-12.1216
ᏥᏮᏗᎦᎶᏏ	-12.1216
ᏴᏍᏓᎩᏍᎩ	-12.1216
▁ᎠᎩᎷᏤᎮᏍᏗ	-12.1216
▁ᎠᎾᏁᎳᏗᏍᎪᎢ	-12.1216
▁ᎠᎾᏗᏒᎯᎲ	-12.1216
▁ᎠᏂᏌᎺᎵ	-12.1216
▁ᎠᏂᏫᏅᎨᏌᏂ	-12.1216
▁ᎠᏉᏛᎸᎯ	-12.1216
▁ᎠᏊᎢᏴ	-12.1216
▁ᎠᏒᎾᏘᎶᎥᎯ	-12.1216
▁ᎠᏢᏆᏍᏗ	-12.1216
▁ᎠᏫᏒᎥᏍᎩ	-12.1216
▁ᎡᎵᎡᏌ	-12.1216
▁ᎢᏗᎣᏈ	-12.1216
▁ᎢᏤᏅᎢᏍᏔᏅᎯ	-12.1216
▁ᎢᏥᎶᏁᏔᏅᎯ	-12.1216
▁ᎢᏥᏑᎵᎪᎢ	-12.1216
▁ᎢᏥᏙᎾᎠ	-12.1216
▁ᎢᏧᎵᏍᏔᏅᎯ	-12.1216
▁ᎢᏯᏯᏖᏅ	-12.1216
▁ᎢᏳᏅᏂᏐᏗᏱ	-12.1216
▁ᎣᎦᎵᏥᏙᏗᏱ	-12.1216
▁ᎣᏁᏏᏉᎳ	-12.1216
▁ᎣᏣᏓᏙᎵᏍᏗᏍᎪ	-12.1216
▁ᎤᎦᏎᏍᏕᎢ	-12.1216
▁ᎤᎧᏙᏍᏔᏁᎢ	-12.1216
▁ᎤᎵᏐᏯᏍᏗ	-12.1216
▁ᎤᎾᏈᏴᏗ	-12.1216
▁ᎤᎾᏙᎴᎨᏎ	-12.1216
▁ᎤᎾᏜᏍᏛ	-12.1216
▁ᎤᏁᏐᎠᎯᏍᏗ	-12.1216
▁ᎤᏂᏃᏴᏨᎩ	-12.1216
▁ᎤᏓᏠᏍᏕᎢ	-12.1216
▁ᎤᏕᎶᏆᎡ	-12.1216
▁ᎥᎬᎭᏅ	-12.1216
▁ᎦᎷᎶᎬ	-12.1216
▁ᎦᏃᎯᎵᏓᏍᏗ	-12.1216
▁ᎦᏌᎾᎳ	-12.1216
▁ᎬᏉᎯᏳᎲᏍᎩ	-12.1216
▁ᎬᏩᏔᏲᏎᎯ	-12.1216
▁ᎯᏍᏚᎶᏔᏅ	-12.1216
▁ᎻᎵᎧ	-12.1216
▁ᎾᎩᎬᏫᏳᏒ	-12.1216
▁ᎾᏙᏢᏍᎬᎾ	-12.1216
▁ᏂᎦᏥᏯᏛᏁᎸᎩ	-12.1216
▁ᏂᎨᎬᏁᎲᎢ	-12.1216
▁ᏂᎬᎩᏲᎸᎾ	-12.1216
▁ᏂᎬᏫᏍᏕ	-12.1216
▁ᏂᎻᎶᏗ	-12.1216
▁ᏃᎦᏠᎾᏍᏛᎾ	-12.1216
▁ᏄᏂᏰᎸᏒᎾ	-12.1216
▁ᏍᎩᏄᏍᏕ	-12.1216
▁ᏍᏆᏅᏓᏛᎭ	-12.1216
▁ᏑᏒᎯᏓ	-12.1216
▁ᏓᎦᎴᏔᏅᎢ	-12.1216
▁ᏓᎦᏁᏐ	-12.1216
▁ᏓᎿᏬᏍᎨ	-12.1216
▁ᏔᎧᏅᎦ	-12.1216
▁ᏕᏣᏓᏡᏩᏗᏒ	-12.1216
▁ᏗᎦᏄᎪᎪ	-12.1216
▁ᏗᏂᏁᏟᏴᏍᎩ	-12.1216
▁ᏗᏍᏓᏛᏅᎢᏍᏓ	-12.1216
▁ᏗᏔᏍᎩᏍᎩ	-12.1216
▁ᏗᏛᎯᏍᏗᏍᎩ	-12.1216
▁ᏘᎪᎸᏍᏗᏱ	-12.1216
▁ᏙᎤᏁᏅᏍᏗᏱ	-12.1216
▁ᏙᏓᎦᏥᏯᏠᎢᏍᏓᏁᎵ	-12.1216
▁ᏚᎾᏙᎠᏗᏒ	-12.1216
▁ᏚᎾᏦᎭᏱᎸ	-12.1216
▁ᏚᏂᏯᏙᎸᎩ	-12.1216
▁ᏚᏗᏔᏍᏔᏁ	-12.1216
▁ᏚᏬᎯᏳᏅ	-12.1216
▁ᏣᎦᎵᏍᏓᏴᎾᏁᏗᏱ	-12.1216
▁ᏣᎶᏅᎮᎭ	-12.1216
▁ᏤᎠᎳᎻ	-12.1216
▁ᏥᎾᎬᏁᎴ	-12.1216
▁ᏥᏚᏣᏃᏛᎩ	-12.1216
▁ᏥᏣᏣᎠ	-12.1216
▁ᏦᎩᏂᏅᏒ	-12.1216
▁ᏧᎾᏚᎩᏎ	-12.1216
▁ᏫᎣᎨᏅ	-12.1216
▁ᏫᏗᏍᏗᏃᎲᏏ	-12.1216
▁ᏫᏯᏴᎯᎮᏍᏗ	-12.1216
▁ᏭᏁᎳᏗᏓ	-12.1216
▁ᏭᏓᏬᎡ	-12.1216
▁ᏭᏩᎬᏛ	-12.1216
▁ᏭᏬᎯᎶ	-12.1216
▁ᏯᎩᎷᏤᎴᏍᏗ	-12.1216
▁ᏯᎾᏓᏅᏍᎬᎾ	-12.1216
▁ᏱᏚᎸᏫᏍᏓᏁᎮᎢ	-12.1216
▁ᏱᏣᏍᎦᏅᏤᏍᏗ	-12.1216
▁ᏱᏣᏜᏅᏓᏕ	-12.1216
▁ᏳᏂᏚᎬᎾ	-12.1216
▁ᏳᏣᎩᏒᎾ	-12.1216
ᎪᏢᎾᏁᎴᎢ	-12.1216
ᏂᏟᏏᏍᎨᏍᏗ	-12.1216
ᏄᎶᏔᏅᎯᏍᎩᏂ	-12.1216
ᏓᏁᏖᏗ	-12.1216
ᏓᏄᏖᏴᏓ	-12.1216
ᏕᎭᏓᏟᏴᎲ	-12.1216
ᏤᏲᎲᎦ	-12.1216
ᏥᏃᎯᏯᏍᎪᏃ	-12.1216
ᏯᏓᏴᎡᎵ	-12.1216
▁ᎠᏂᎫᎾᏓᎴᎩ	-12.1216
▁ᎠᏓᏩᏛᎡᎯ	-12.1216
▁ᎠᏙᏩᏗᏍᏗ	-12.1216
▁ᎠᏜᏩᏍᏗᏍᎨᏍᏗ	-12.1216
▁ᎠᏠᏄᎮᏛ	-12.1216
▁ᎠᏲᏓᏒ	-12.1216
▁ᎡᏣᏛᏓᏍᏓᏏ	-12.1216
▁ᎢᎩᏲᎱᎯᏎᎸ	-12.1216
▁ᎢᏍᏛᎨᏳᎢ	-12.1216
▁ᎢᏓᎴᏂᏙᎯ	-12.1216
▁ᎢᏳᏛᏁᏘ	-12.1216
▁ᎣᏥᏅᏍᏓᏕᎸᎩᏃ	-12.1216
▁ᎤᎾᏙᏢᏗᏱ	-12.1216
▁ᎤᏂᎾᏄᎪᏤᎸ	-12.1216
▁ᎤᏂᏁᏓᏥᏛ	-12.1216
▁ᎤᏂᏃᏍᎩᏍᏗᏱ	-12.1216
▁ᎤᏦᎢᏎᏗ	-12.1216
▁ᎤᏩᏴᏒᎯ	-12.1216
▁ᎤᏪᎳᏗᏍᏙᏗ	-12.1216
▁ᎦᏄᎳᏥ	-12.1216
▁ᎦᏓᎷᎦᏅ	-12.1216
▁ᎨᏆᏙᏏ	-12.1216
▁ᎫᎭᏟ	-12.1216
▁ᎬᏩᎵᏠᏯᏍᏗ	-12.1216
▁ᎯᏣᏅᏔ	-12.1216
▁ᎹᏱᎩᎵ	-12.1216
▁ᎾᎩᏲᎲᎾ	-12.1216
▁ᏂᎪᎯᏍᏗᏍᎨᏍᏗ	-12.1216
▁ᏂᏚᎾᏓᏁᎶᏛᎾ	-12.1216
▁ᏅᏛᏅᏁᎵ	-12.1216
▁ᏍᎩᏰᏲᎲᎦ	-12.1216
▁ᏓᎧᏁᏌᏛ	-12.1216
▁ᏓᏂᏁᎵᎬᎢ	-12.1216
▁ᏕᎯᏍᏓᏩᏗᏎᏍᏗ	-12.1216
▁ᏕᏦᏢᎯᏏᏍᎪᏰᏃ	-12.1216
▁ᏗᎦᎶᏐᎲᏍᎩ	-12.1216
▁ᏗᎬᏩᏓᏘᏍᏗ	-12.1216
▁ᏗᏗᏐᎩ	-12.1216
▁ᏙᏓᏨᏲᎯᏎᎵ	-12.1216
▁ᏙᏛᏂᏴᎳᏏ	-12.1216
▁ᏚᏍᏚᎢᎡᎴ	-12.1216
▁ᏚᏓᏴᎳᏔᏅ	-12.1216
▁ᏚᏛᏅᎢᏍᏓᏁᎸ	-12.1216
▁ᏣᎦᏨᏍᏔᏅ	-12.1216
▁ᏤᎦᏡ	-12.1216
▁ᏥᎦᎶᎨᏎᎢ	-12.1216
▁ᏥᏂᏥᏪᏍᎬᎩ	-12.1216
▁ᏥᏕᎾᏦᎯ	-12.1216
▁ᏥᏛᏦ	-12.1216
▁ᏥᏫᎦᎶᎯ	-12.1216
▁ᏦᏪᎳᏅᎩ	-12.1216
▁ᏧᎾᏓᏁᎳᏁᏗ	-12.1216
▁ᏧᎾᏕᏲᏗᏱ	-12.1216
▁ᏩᏐᏝ	-12.1216
▁ᏩᏗᏢᏍᏓ	-12.1216
▁ᏱᎦᎾᏄᎪᎦ	-12.1216
▁ᏱᏂᎦᏪᎭ	-12.1216
▁ᏳᏩᏂᏍᏔᏅ	-12.1216
ᏂᎷᏆᏗᏅ	-12.1216
ᏄᏔᎩ	-12.1216
ᏓᏓᎴᏗᏍᎨᏍᏗ	-12.1216
ᏚᏍᏗᎧᎸ	-12.1216
ᏪᎳᏗᏍᏗᎭ	-12.1216
ᏲᎢᎱᎯ	-12.1216
▁ᎠᎹᏳᎸᏗ	-12.1216
▁ᎠᏂᏲᏁᎦ	-12.1216
▁ᎠᏓᏓᏅᏓᏗᏍᏗᏍᎩ	-12.1216
▁ᎠᏥᏍᏛᏗᏍᏔᏁ	-12.1216
▁ᎢᏣᏠᏯᏍᏗᏍᎩ	-12.1216
▁ᎤᏂᎦᏘᏕᎢ	-12.1216
▁ᎤᏓᏰᎵᎸ	-12.1216
▁ᎤᏚᏓᏛᏗᏱ	-12.1216
▁ᎤᏩᎾᏖ	-12.1216
▁ᎦᎵᏣᏙᏗ	-12.1216
▁ᎦᏁᏔᏱ	-12.1216
▁ᎨᏯᏔᎯ	-12.1216
▁ᎬᎩᎸᏉᏗᏍᎬ	-12.1216
▁ᎬᏲᎵᏍᏔᏅ	-12.1216
▁ᏂᏓᎦᏛᏁᎵ	-12.1216
▁ᏂᏚᎳᏍᎬᎢ	-12.1216
▁ᏂᏛᏅᏁᎵ	-12.1216
▁ᏅᏓᏥᏅᏍᏗ	-12.1216
▁ᏆᏟᏯ	-12.1216
▁ᏐᏱᏁᎳ	-12.1216
▁ᏓᏤᏲᏂ	-12.1216
▁ᏕᎦᏃᏣᏢ	-12.1216
▁ᏕᎨᎦᏓᏂᎸᏨ	-12.1216
▁ᏕᏥᎳᏫᏦᎯᎲ	-12.1216
▁ᏗᎦᎵᏦᏙᏗ	-12.1216
▁ᏗᏅᏂᎦᎵᏍᏗ	-12.1216
▁ᏗᏍᏔᏲᏍᏙᏗ	-12.1216
▁ᏚᏂᎬᏨ	-12.1216
▁ᏚᏄᎪᏔᏁ	-12.1216
▁ᏣᏁᏉᎥᎯ	-12.1216
▁ᏣᏓᏴᎳᏔᏍᎬ	-12.1216
▁ᏣᏲᎱᏒᎯᏉ	-12.1216
▁ᏥᏦᎯᏳᏂ	-12.1216
▁ᏧᏐᏴᎭ	-12.1216
▁ᏫᎨᏙᎲ	-12.1216
▁ᏫᏚᎰᏅᎯ	-12.1216
▁ᏯᏕᎰᏍᎦ	-12.1216
▁ᎠᏌᏱᎵ	-12.1216
▁ᎡᏟᏯ	-12.1216
▁ᎬᎾᏰᏍᎬ	-12.1216
▁ᏓᏂᎾᏄᎪᏫᏍᎪᎢ	-12.1216
▁ᏭᏔᎷ	-12.1216
▁ᏳᏰᎵᏛᎾ	-12.1216
ᏁᎢᏍᏓᏁᎲᎩ	-12.1216
ᏂᏅᎦᎴᎰᏅ	-12.1216
ᏑᎨᏗᏱ	-12.1216
ᏓᎩᎧᎿᏩᏗᏙᎸ	-12.1216
ᏢᏆᏍᎪᎢ	-12.1216
ᏯᏙᎴᎣᎯ	-12.1216
▁Pri	-12.1216
▁ᎠᎾᎵᎮᎵᏤᎮ	-12.1216
▁ᎠᏑᏫᏍᏙᏗ	-12.1216
▁ᎡᏥᎧᏁᏗᏱ	-12.1216
▁ᎤᎾᎦᏔᏅᏎ	-12.1216
▁ᎤᎾᏕᎰᎯᏍᏗᏍᎩ	-12.1216
▁ᎤᏍᏆᎸᎡᎴ	-12.1216
▁ᎦᏁᏡᎩ	-12.1216
▁ᎨᎪᏎᎯ	-12.1216
▁ᎨᏥᏱᏢᏗ	-12.1216
▁ᎬᏕᏘᏱᎩ	-12.1216
▁ᎯᏍᏓᏩᏕᎨᏍᏗ	-12.1216
▁ᎹᎵᎩᏏᏕᎩ	-12.1216
▁ᎾᏲᎱᏍᎬᎾ	-12.1216
▁ᏓᏂᏂᎩᎸ	-12.1216
▁ᏓᏂᏐᏍᎬ	-12.1216
▁ᏓᏗᏍᏆᏂᎪᏔᏂ	-12.1216
▁ᏕᏧᎪᏓᏁᎮᏍᏗ	-12.1216
▁ᏗᎨᏍᎩᎲᏏ	-12.1216
▁ᏗᏂᎳᏫᏦᎯᎯ	-12.1216
▁ᏗᏂᏲᎱᏍᎩ	-12.1216
▁ᏙᏓᏣᏠᏏ	-12.1216
▁ᏙᏨᏁᏍᏗ	-12.1216
▁ᏙᏨᏅᎢ	-12.1216
▁ᏚᏂᎭᏁᎦᎸ	-12.1216
▁ᏚᏍᏆᎸᏔᏅ	-12.1216
▁ᏚᏒᎦᎸᎩ	-12.1216
▁ᏧᏂᏨᏍᏙᏗ	-12.1216
▁ᏧᏅᏏᏴ	-12.1216
▁ᏱᏪᏣᏓᎢᏅ	-12.1216
ᎪᎬᏂᏍᏓ	-12.1216
ᎴᏫᏍᏘᏍᎨ	-12.1216
ᏗᏫᏎᎸᎩ	-12.1216
ᏩᏌᏙᎭᏰ	-12.1216
▁ᎠᎵᏒᎢᏍᏙᏗ	-12.1216
▁ᎠᏂᎯᏲᎲᎢ	-12.1216
▁ᎠᏂᎱᏥ	-12.1216
▁ᎠᏍᎦᏅᏤᎮᏍᏗ	-12.1216
▁ᎠᏔᏍᎩᏍᎬ	-12.1216
▁ᎤᎷᏦᏅᎯ	-12.1216
▁ᎤᎾᎪᎲᏍᏙᏗᏱ	-12.1216
▁ᎤᏗᏍᎦᏞᎢ	-12.1216
▁ᎤᏪᏩᏒᎢᏍᏗ	-12.1216
▁ᎨᎦᏎᏍᏗᏱ	-12.1216
▁ᎬᏩᎦᏌᏯᏍᏕ	-12.1216
▁ᏌᎻᎳᏃ	-12.1216
▁ᏗᏍᏇᏲᎲᏍᎩ	-12.1216
▁ᏘᎣᎵ	-12.1216
▁ᏙᏓᎨᎦᎴᏔᏂ	-12.1216
▁ᏚᏂᏐᏈᎳᏁ	-12.1216
▁ᏤᏧᎪᏓᏁ	-12.1216
▁ᏧᎾᏓᎩᏯᏍᏗ	-12.1216
▁ᏧᏐᏱᎭ	-12.1216
▁ᏫᎬᏲᏪᎳᏁ	-12.1216
▁ᏯᎩᏍᏛᏓ	-12.1216
▁ᏱᏦᎯᏳᎭ	-12.1216
▁ᏳᎬᏫᏳᎭ	-12.1216
ᎦᏒᎳᏍᎪ	-12.1216
ᏁᎩᏰᏍᏗ	-12.1216
ᏤᎳᏍᏗᏍᎬ	-12.1216
ᏴᎧᏁᎵ	-12.1216
▁ᎠᏂᏫᏒᎥᏍᎩ	-12.1216
▁ᎠᏈᏴᏗ	-12.1216
▁ᎠᏍᏆᎵᏒᎯ	-12.1216
▁ᎢᏣᏚᎸᏗᏱ	-12.1216
▁ᎢᏤᏲᏗᏱ	-12.1216
▁ᎢᏥᏃᏔᏂᏙ	-12.1216
▁ᎤᎾᏓᏅᏓᏗᏍᏗᏍᎩ	-12.1216
▁ᎤᎾᏰᏒᎯ	-12.1216
▁ᎤᏄᎶᎸ	-12.1216
▁ᎤᏓᏰᎸᏙᏗ	-12.1216
▁ᎦᎵᏬᎦ	-12.1216
▁ᏂᏙᏓᎬᏩ	-12.1216
▁ᏏᏴᏫᎭ	-12.1216
▁ᏓᏁᏙᎲᎩ	-12.1216
▁ᏓᏂᎾᏆ	-12.1216
▁ᏓᏥᏲᎤᏏ	-12.1216
▁ᏕᏈᎬ	-12.1216
▁ᏗᎬᏅᏃᏛ	-12.1216
▁ᏚᏏᎳᏓ	-12.1216
▁ᏛᏃᎵᏥ	-12.1216
▁ᏥᎯᏃᏁᎵ	-12.1216
▁ᏥᏄᎵᏍᏔᏃ	-12.1216
▁ᏫᎧᎳ	-12.1216
▁ᏫᏥᎧᏅᎯ	-12.1216
▁ᏯᏆᏓᏅᏛᎾ	-12.1216
▁ᏱᏍᎩᏲᎢᏳᎲᏍᎦ	-12.1216
▁ᏙᏗᏫᏒᎢ	-12.1216
▁ᏩᏆᏘᏅᏍᏔᏅᎩ	-12.1216
▁ᏳᎨᏅᏛ	-12.1216
ᎦᎴᏍᏙᏗᎭ	-12.1216
ᏤᏬᏤ	-12.1216
▁ᎠᎦᏓᏓᎴᏔᏅᎯ	-12.1216
▁ᎠᎵᏍᏕᎵᏍᎩᏃ	-12.1216
▁ᎠᏂᎾᏄᎪᏫᏍᎩ	-12.1216
▁ᎠᏟᏂᎬᏁᎯ	-12.1216
▁ᎠᏢᏈᏍᎨᏍᏗ	-12.1216
▁ᎢᎾᎯᎨᏍᏗ	-12.1216
▁ᎮᏏᎶᏅ	-12.1216
▁ᏗᎦᏆᏙᏗ	-12.1216
▁ᏙᏓᏥᏃᎩᏍᏔᏂ	-12.1216
▁ᏚᏂᎳᎦᎸ	-12.1216
▁ᏣᏕᎲᏍᎪ	-12.1216
▁ᏥᏳᎧᏗ	-12.1216
▁ᏧᎾᎵᏂᎦᏂ	-12.1216
ᎢᏗᎬᏤᎵᏛ	-12.1216
ᏓᏕᏘᏴᎮᎬ	-12.1216
ᏗᏚᎳᏫᎢᏍᏗᏱ	-12.1216
ᏥᏍᎦᏅᏤᎲᎾ	-12.1216
▁ᎠᎵᏖᎸᏂᎮᎢ	-12.1216
▁ᎠᏅᏳᏤᎲ	-12.1216
▁ᎢᏲᏨᏴᏁᏗᏱ	-12.1216
▁ᎤᎪᏏᏛ	-12.1216
▁ᎬᏇᎸ	-12.1216
▁ᏂᏓᎵᏍᏗᎭ	-12.1216
▁ᏄᏲᎱᏒᎾ	-12.1216
▁ᏌᏬᏛ	-12.1216
▁ᏗᏃᏏᏏᏍᎩ	-12.1216
▁ᏗᏠᎯᏍᏔᏅᎯ	-12.1216
▁ᏯᎦᎵᏍᎨᎢ	-12.1216
▁ᏱᎨᎨᎭ	-12.1216
▁ᏳᎦᏌᏯᏍᏔᏁ	-12.1216
ᏚᎦᎴᏅᏔᏁ	-12.1216
▁ᎠᎾᎵᏍᎪᎸᏗᏍᎩ	-12.1216
▁ᎠᏓᏲᏁᎲ	-12.1216
▁ᎡᏍᏗᏍᏓᏩᏕᏒᎭ	-12.1216
▁ᎡᏥᏃᏁᎸᎭ	-12.1216
▁ᎢᏳᎵᏍᏔᏁᏗ	-12.1216
▁ᎣᎦᏕᏗᏱ	-12.1216
▁ᎣᎩᏃᎮᏗᏱ	-12.1216
▁ᎤᏃᎵᏍᏗᏱ	-12.1216
▁ᎤᏌᏃᎲ	-12.1216
▁ᎬᏩᎦᏘᏗᏍᎩ	-12.1216
▁ᏓᏓᏳᎶᏒ	-12.1216
▁ᏕᎯᎾᏄᎪᏫᏎᎸᎢ	-12.1216
▁ᏚᎦᏔᏂᎸ	-12.1216
▁ᏧᎵᏰᏁ	-12.1216
▁ᏧᏍᏚᎢᎡᎸᎯ	-12.1216
▁ᏫᎾᏴᎯ	-12.1216
▁ᏳᏜᏅᏕ	-12.1216
▁ᎠᏩᏂᎦᎳ	-12.1216
▁ᎢᏥᏙᎵᏍᏗᏱ	-12.1216
▁ᎤᎾᏄᎪᏫᏏᏕᎾ	-12.1216
▁ᎤᏓᏑᏰᎢ	-12.1216
▁ᎥᎩᏐᏅᎢᏍ	-12.1216
▁ᎦᎨᏗᏳ	-12.1216
▁ᎬᏩᏓᏡᏫᏍᏔᏁᎢ	-12.1216
▁ᏕᎭᎷᎨᏍᏛᎭ	-12.1216
▁ᏯᏍᏆᏂᎪᏗᎭ	-12.1216
▁ᏱᎦᏁᎸᏓ	-12.1216
▁ᏳᎦᏙᎥᏎᎢ	-12.1216
▁ᏳᏫᏚᎧᎾᎾ	-12.1216
▁ᎧᏁᎮᏛ	-12.1216
▁ᎧᏴᏌᏛ	-12.1216
▁ᏥᎾᎩᏪᏒᎩ	-12.1216
ᎬᏫᏳᏎᏕᎩ	-12.1216
▁ᎠᏆᏂᎩᏍᏗᏱ	-12.1216
▁ᎡᏥᎾᏰᎢᏍᏗ	-12.1216
▁ᎢᏥᏍᏛᏗᏍᎨᏍᏗ	-12.1216
▁ᎣᎦᏢᏆᏒ	-12.1216
▁ᎤᏱᎸᏒᎩ	-12.1216
▁ᎭᏇᏅᏍᏗ	-12.1216
▁ᏓᎾᎵᏃᎮᎵᏙᎲ	-12.1216
▁ᏓᏥᎵᏬᏥ	-12.1216
▁ᏥᏁᏣᏛᎩᏍᎪᎢ	-12.1216
▁ᏥᏂᏕᎯᏪᏎᎸᎩ	-12.1216
ita	-12.1216
ᎾᎳᏍᏘᏰ	-12.1216
ᏛᏳᎨᏗᏱ	-12.1216
▁ᎠᏂᏲᎯᏍᏗᏍᎪ	-12.1216
▁ᎢᎡᏥᎪᎵᏰ	-12.1216
▁ᎤᏍᏖᎸᏗ	-12.1216
▁ᎤᏪᏛᏨᎩ	-12.1216
▁ᎨᏥᏍᎦᏂ	-12.1216
▁ᎬᏩᎩᏨᏗ	-12.1216
▁ᎬᏩᏍᏓᏩᏗᏐᎯ	-12.1216
▁ᎷᏫ	-12.1216
▁ᏧᏭᏓᎴᏛ	-12.1216
ᎩᏲᎱᏏᏕᎾ	-12.1216
ᏓᎦᏥᏍᏓᏱᏕᎵ	-12.1216
▁ᎠᏑᏯᎩᏛ	-12.1216
▁ᎢᎫᏩᎾᏛᏁᏗ	-12.1216
▁ᎤᏅᏪᏓ	-12.1216
▁ᎤᏢᏲᎵ	-12.1216
▁ᎬᏩᏙᏢᏅᎯ	-12.1216
▁ᎾᏆᏓᏄᏴᏛᎾ	-12.1216
▁ᏣᏁᎫᏥᏛ	-12.1216
▁ᏥᏍᏓᏩᏕᎦ	-12.1216
▁ᏩᏍᏖᏍᏗ	-12.1216
▁ᏁᏓᏂ	-12.1216
▁ᏓᏄᎪᏗᏍᎨᏍᏗ	-12.1216
ᎯᏰᎶᎸᎭ	-12.1216
ᎳᏐᏫᏍᏗ	-12.1216
ᎸᏥᎴ	-12.1216
ᏂᏴᎡᎴ	-12.1216
ᏑᏯᎡᎸᎯ	-12.1216
ᏯᏕᎥᏏ	-12.1216
ᏳᎢᏂᏒ	-12.1216
▁ᎠᏓᏁᏤᎯ	-12.1216
▁ᎠᏥᏙᎵᏍᏗᏱ	-12.1216
▁ᎡᎦᏆ	-12.1216
▁ᎭᏓᏳᎦ	-12.1216
▁ᏂᏤᎵᏍᎬᎾ	-12.1216
▁ᏍᏔᎵᎢ	-12.1216
▁ᏒᏍᎦᏉ	-12.1216
▁ᏚᎳᏑᏞ	-12.1216
▁ᏥᏙᏛᎩᎸᏫᏍᏓᏁᎵ	-12.1216
▁ᏧᏴᏣ	-12.1216
▁ᏨᎩᏅᏒ	-12.1216
▁ᏫᏍᏗᎷᏨᎭ	-12.1216
ᎬᎾᏘᏁᎯ	-12.1216
ᏨᏓᏋ	-12.1216
▁ᎠᏕᏘᏱᏍᎬ	-12.1216
▁ᎢᎦᏚᏓᎴᏍᏙᏗᏱ	-12.1216
▁ᎢᏨᎩᎵᏲᏤᎲ	-12.1216
▁ᎧᎹᎹ	-12.1216
▁ᎾᏆᎵᏍᏓᏁᎵᏙᎲᎢ	-12.1216
▁ᎾᏞᎬᏉ	-12.1216
▁ᏃᎩᎲᎾ	-12.1216
▁ᏗᏠᏗ	-12.1216
▁ᏥᎧᎳ	-12.1216
▁ᏫᏱᏣᎧᎲᎦ	-12.1216
den	-12.1216
ᏠᏒᏒᎩ	-12.1216
▁ᎬᏇᏓᏍᏗ	-12.1216
▁ᏐᏍᏗᏂ	-12.1216
▁ᏓᎨᏥᏄᎪᏫᏒᎩ	-12.1216
▁ᏥᏂᏌᏅᎩ	-12.1216
▁ᏫᏄᎾᏛᏅ	-12.1216
▁ᏫᏗᏥᏃᎲᏏ	-12.1216
▁ᏭᏁᏙᎸᎯ	-12.1216
ᎩᏰᏲᏗ	-12.1216
ᏂᏏᎲᏍᎪ	-12.1216
▁ᎦᏃᏟᏍᏗᏍᎨᏍᏗ	-12.1216
▁ᎯᎦᏙᎨ	-12.1216
▁ᏕᎬᏩᎾᏍᏗᏍᎨᎢ	-12.1216
▁ᏕᎬᏩᏚᏫᏍ	-12.1216
▁ᏗᎦᏥᏰᏲᎲᏍᎩ	-12.1216
▁ᏚᎾᏐᏓᎸ	-12.1216
▁ᏚᏩᏇᏅᏔᏅ	-12.1216
▁ᏧᏍᏕᎸᏛ	-12.1216
▁ᏧᏙᎨᏍᎩ	-12.1216
▁ᏱᏄᎵᏍᏓᏁᎮ	-12.1216
▁ᏱᏍᎩᎦᏔᎮᎢ	-12.1216
▁ᎤᏣᏃᏛᎩ	-12.1216
▁ᏦᏌᏯ	-12.1216
ᎩᎾᏄᎪᏫᏎᏗ	-12.1216
ᏦᏪᎵᏍ	-12.1216
▁ᎠᎵᏍᏛᏧᏍᏗ	-12.1216
▁ᎢᏍᏓᎵᎢ	-12.1216
▁ᏃᏣᏛᏁᎲ	-12.1216
▁ᏄᎪᏒᎾ	-12.1216
▁ᏕᎩᎾᏓᎨᏳᏒᎢ	-12.1216
▁ᏕᎬᏒᎲᏍᎬᎢ	-12.1216
▁ᏣᏓᏅᎦᎸᎲ	-12.1216
▁ᏥᎬᏲᏎᎸᎩ	-12.1216
▁ᏥᏯᎵᏃᎮᏗᏍᎬᎢ	-12.1216
▁ᏱᎦᎲᏍᎪ	-12.1216
▁ᏱᎬᏩᏲᎱᏎ	-12.1216
▁ᏲᏍᏗᎦᏔᎭ	-12.1216
ᎦᏄᏓᏛ	-12.1216
ᎪᎢᏳᏁᎢ	-12.1216
ᏨᏏᏰᏍᎬ	-12.1216
ᏩᏒᏙᎣᏎ	-12.1216
▁ᎠᏥᏴᏔᏅᎯ	-12.1216
▁ᎭᏙᏯᏅᎯ	-12.1216
▁ᏧᏮᏗ	-12.1216
▁ᏭᎾᏌᎾᎩᏎ	-12.1216
ᎾᏙᎯᏳᎾᏁᏗ	-12.1216
ᏉᏪᎳᎾ	-12.1216
▁ᎠᏂᎵᏇ	-12.1216
▁ᎣᏣᏁᏦᎥᏍ	-12.1216
▁ᎤᎭᎨᏓ	-12.1216
▁ᎤᏓᏦᏍᏗ	-12.1216
▁ᎬᏇᏅᏍᏗ	-12.1216
▁ᏌᎨᎢᏳ	-12.1216
▁ᏗᎨᏥᏴᎩᏅᎯ	-12.1216
▁ᏗᎾᏓᏅᏫᏍᎩ	-12.1216
▁ᏫᏔᎧᏅᎦ	-12.1216
▁ᏕᎰᏢᏔᏅᎭ	-12.1216
▁ᏕᎱᏓᏔᏅᎭ	-12.1216
▁ᏗᎩᎾᏢᏗᏱ	-12.1216
▁ᏗᏑᏫᏍᏗ	-12.1216
▁ᏧᎦᏔᏘ	-12.1216
▁ᏧᏃᎸᏔᏂᏙᎰ	-12.1216
▁ᏧᏘᏲᏍᏗ	-12.1216
ᏚᎢᏍᏗᏍᎪ	-12.1216
ᏫᏍᏔᏁᎲ	-12.1216
▁ᎤᏂᎩᏌᏓ	-12.1216
▁ᎤᏂᏩᏒᎥᏍᎩ	-12.1216
▁ᎤᏍᎫᏓᏛᎢ	-12.1216
▁ᎭᏓᏯᏫᏍᎨᏍᏗ	-12.1216
▁ᏂᏥᎦᏔᎿᎥᎾ	-12.1216
▁ᏂᏥᏂᎬᏎᎲᎾ	-12.1216
▁ᏚᏔᏪᏙᏁ	-12.1216
▁ᏱᏍᎩᎧᏁᎸ	-12.1216
▁ᏳᏓᏑᏰ	-12.1216
ᏑᎴᎥᎯ	-12.1216
▁ᎠᎾᏓᏙᎵᏍᏓᏁᎲ	-12.1216
▁ᎠᏂᏗᏢᏉ	-12.1216
▁ᎠᏆᏍᎪᏒᎯ	-12.1216
▁ᎠᏓᎿᏍᏆᎶᏍᏗᏍᎩ	-12.1216
▁ᎯᏁᏥᏱ	-12.1216
▁ᏅᏗᎠᏥᏪᏎ	-12.1216
ᎩᎾᏄᎪᏥᎸᎩ	-12.1216
ᏂᎨᎯᏙᎵ	-12.1216
▁ᎠᏃᏚᎢᏍᏗᏍᎬ	-12.1216
▁ᎤᏂᏁᏉᏨᎯ	-12.1216
▁ᏗᎦᏯᎩᏍᏗ	-12.1216
▁ᏚᎾᏓᏟᏴᎲ	-12.1216
▁ᏯᎦᏍᎬᎾ	-12.1216
▁ᎤᏍᏆᏄᏤ	-12.1216
▁ᎤᏍᏆᏔ	-12.1216
▁ᎦᏝᏛ	-12.1216
▁ᏙᏓᏰᏥᏲᏏ	-12.1216
▁ᏧᎵᏯᏏ	-12.1216
▁ᏯᏆᎴᏂᏙᎸ	-12.1216
ps	-12.1216
▁ᎤᎦᏙᏍᏔᏁᎢ	-12.1216
▁ᎤᎾᎵᎮᎵᏨᎯ	-12.1216
▁ᎻᏈᏌ	-12.1216
▁ᏅᏓᎦᏪᏏ	-12.1216
▁ᏥᏂᏨᏪᏏ	-12.1216
▁ᏦᎩᏂᎸᏫᏍᏓᏁᎯ	-12.1216
ᏓᏍᏔᏴᎲᏍᎩ	-12.1216
▁ᏗᏓᎢᏒᎢ	-12.1216
▁ᏥᏄᎾᏓᎴ	-12.1216
▁ᏮᏓᏥᎷᏤᎵ	-12.1216
▁ᏱᏓᏲᎩᏍᏆᏂᎪᏔᏂ	-12.1216
ᏓᏅᎦᎸᎾ	-12.1216
▁ᎠᏂᏍᏙᏍᎨᏍᏗ	-12.1216
▁ᎣᏍᏗᏴᎩ	-12.1216
▁ᏂᎨᎬᏁᎮ	-12.1216
▁ᏂᏗᎪᏪᎸᎾ	-12.1216
▁ᏄᏍᏆᎸᎲᎾ	-12.1216
▁ᏑᏥᎶᏓ	-12.1216
▁ᏥᏓᏂᏰᎲᎩ	-12.1216
▁ᏳᏂᏗᏍᎩᏌ	-12.1216
ᏂᎭᎷᎥᏍ	-12.1216
▁ᎠᎩᎵᏴ	-12.1216
▁ᎣᎦᏅᏗᏱ	-12.1216
▁ᏄᏬᎯᏨ	-12.1216
▁ᏥᏓᏓᏬᏍᎬᎩ	-12.1216
▁ᏱᏄᎵᏍᏓᏁᎸ	-12.1216
ᎧᎾᏬᎨ	-12.1216
▁ᎢᎦᎬᏁᏗ	-12.1216
▁ᎢᏯᏟᎶᎥᎯ	-12.1216
▁ᎤᎪᏐᏅ	-12.1216
▁ᎤᎵᎩᏳᏍ	-12.1216
▁ᎤᏄᏬᎯᏍᏗᏱ	-12.1216
▁ᎯᏯᎵᏍᎪᎸᏓᏁᎮᏍᏗ	-12.1216
▁ᏕᎦᏟᎶᏍᏗᏍᎬ	-12.1216
▁ᏭᏟᏫᏛ	-12.1216
▁ᏯᎩᏲᏏᎭ	-12.1216
▁ᏯᏃᎵᎨ	-12.1216
▁ᏱᏗᏓᏓᏂᎸᎦ	-12.1216
ᏚᎾᏟᏯᏛ	-12.1216
▁ᎤᎶᏐᏂᏗ	-12.1216
▁ᏚᏓᏅᎵᏰᎥ	-12.1216
▁ᏦᎩᎸᏫᏍᏓᏁᎸᎯ	-12.1216
▁ᎢᎬᏩᎾᎵᏍᏓᏁᏗ	-12.1216
▁ᎤᏍᏚᏔᏁᎢ	-12.1216
▁ᏳᏛᎦᎾ	-12.1216
ᏋᎭᏂᏍᏔᏅ	-12.1216
ᏕᏯᏙᏔᏂ	-12.1216
▁ᎠᏆᏓᏅᏔᏩᏕᎬ	-12.1216
▁ᎠᏍᎡᏃ	-12.1216
▁ᎤᎦᎶᎬ	-12.1216
▁ᏗᏔᎸᎢ	-12.1216
▁ᏗᏦᏑᎵ	-12.1216
▁ᏥᎦᎶᏒᏍᏗᎭ	-12.1216
▁ᏫᏨᏲᎵᎦ	-12.1216
▁ᏱᏂᏙᎬᏩᏳᎪᏗ	-12.1216
ᎵᎦᎵᏴᏒ	-12.1216
ᏄᎶᎴᎢ	-12.1216
▁ᎤᏘᏍᏛᎢ	-12.1216
▁ᎥᎶᏱ	-12.1216
▁ᎭᏓᏬᏣ	-12.1216
▁ᎾᏏᎩᏯ	-12.1216
▁ᏅᏓᏣᏄᎪᏫᏒᎯ	-12.1216
▁ᏣᏓᎨᏳᏒ	-12.1216
▁ᏣᏦᏔᏍᏔᏅ	-12.1216
▁ᏥᏕᏣᏓᏂᎸᏨ	-12.1216
ᏓᏗᏍᎪᎢ	-12.1216
▁ᎤᏁᎳᏗᏙᎲ	-12.1216
ᎨᎪᏪᎶᏔᏅᎯ	-12.1216
ᎾᏘᏃᎮᎸᎭ	-12.1216
ᏔᏕᎦᏅᎩ	-12.1216
ᏟᎶᏍᏓᏁᎭ	-12.1216
▁ᎠᏆᏍᏗᎧᏂ	-12.1216
▁ᎠᏑᏰᏓ	-12.1216
▁ᎤᏰᎸᏕᏍᏗ	-12.1216
▁ᏗᏥᏃᏍᎦᎸᏛ	-12.1216
▁ᏚᏁᏲᏁ	-12.1216
▁ᏧᏃᏴᎪ	-12.1216
▁ᏧᏪᏲᏔ	-12.1216
ᏓᏅᎵᏰᎠ	-12.1216
▁ᎠᏓᏙᎵᏍᏗᏍᎨᎢ	-12.1216
▁ᎢᏓᏓᏅᏓᏓ	-12.1216
▁ᏂᏨᏯᏛᏁᎸ	-12.1216
▁ᏄᏒᎴᎢ	-12.1216
▁ᏓᏂᎩᏍᎨᎢ	-12.1216
▁ᏓᏂᎪᏩᏗᏍᎨ	-12.1216
▁ᏚᏴᏒᎩ	-12.1216
▁ᏭᏓᎩᏅᏒ	-12.1216
ᎭᎷᏁ	-12.1216
▁ᏓᎬᎾᏄᎪᏫᏎᎵ	-12.1216
▁ᏗᎬᏩᎾᏚᎪᏓᏁᏗ	-12.1216
ᏍᎩᎧᏁᎸᎩ	-12.1216
ᏚᎾᏓᏩᏛᏔᏁᎢ	-12.1216
▁ᎣᏣᎵᏍᏔᏴᎲᏍᎬ	-12.1216
▁ᏖᏲᎲᏍᎩ	-12.1216
▁ᏫᏓᏂᏅᎨᎢ	-12.1216
ᎵᎦᏲᏙᏗ	-12.1216
▁ᎤᏄᏴᏕ	-12.1216
▁ᏏᏂᎹᏂ	-12.1216
▁ᏗᎩᎷᏫᏍᏔᏁᏗ	-12.1216
▁ᏧᏏᏙᎵ	-12.1216
ᏗᏫᏍᏗᏱ	-12.1216
ᏚᏔᎲᎢ	-12.1216
ᏩᏍᎦᎳᏁ	-12.1216
▁ᎠᏂᎸᏉᏗᏍᎬ	-12.1216
▁ᎢᏥᎩᏒᎭ	-12.1216
ᎳᏑᏠ	-12.1216
▁ᎠᏗᏅᏗᏉ	-12.1216
▁ᎡᏐᏏ	-12.1216
▁ᎣᏣᎵᏥᏙᎲᏍᎬ	-12.1216
▁ᎬᏛᏍᎨᏍᏗ	-12.1216
▁ᏁᏥᎳᏫᏎᎲᎾ	-12.1216
▁ᏦᎩᏲᎱᎯᏍᏗᏱ	-12.1216
▁ᏱᏓᏆᏁ	-12.1216
ᏚᏓᏍᏔᏅᏅ	-12.1216
▁ᏗᏒᎾᏔᏅ	-12.1216
▁ᏥᏕᏥᏙᎦ	-12.1216
▁ᎤᏫᏒᏁᎢ	-12.1216
▁ᎰᎤᎬᏫᏳᎭ	-12.1216
▁ᏓᎩᏯᎬ	-12.1216
▁ᏓᏥᏔᏲᏎᎵ	-12.1216
▁ᏗᎨᏍᎩᎥᏏᏉ	-12.1216
▁ᏗᏍᏛᏗᏍᏗᏍᎩ	-12.1216
▁ᏬᏤᎶᏏ	-12.1216
▁ᎢᎬᏩᏓᏛᏁᏗ	-12.1216
▁ᎤᏛᏅᎢᏍᏕ	-12.1216
▁ᎤᏴᏜ	-12.1216
▁ᏂᏓᏰᏙᎳᏛ	-12.1216
▁ᏍᎩᏯᎵᎡᎵᏍ	-12.1216
▁ᏩᏂᎶᏒᎭ	-12.1216
▁ᏫᏰᏣᏓᎢ	-12.1216
ᏓᎦᏕᎶᎣᏏ	-12.1216
▁ᎠᏂᎫᏌ	-12.1216
▁ᏥᏫᏨᏲᏪᎳᏁ	-12.1216
ᏄᏬᎯᏍᏔᏂ	-12.1216
▁ᎤᏮᏗ	-12.1216
▁ᏣᏥᏰᎸᎾᏁᎴᎢ	-12.1216
▁ᏂᏕᎤᏍᏛᎩ	-12.1216
▁ᏛᏥᎸᏉᏔᏂ	-12.1216
▁ᏧᏍᎩᏃᎢ	-12.1216
▁ᏨᏛᏛᏔᏂ	-12.1216
ᎾᏩᎩᏍᎬ	-12.1216
▁ᏅᏗᎦᏍᏙᏗᏍᎨ	-12.1216
▁ᏕᎩᎾᏦᏒ	-12.1216
▁ᎤᎬᎭᏓ	-12.1216
▁ᏄᎾᏓᏄᏴᏛᎾ	-12.1216
▁ᏓᎦᏥᏄᎪᏫᏏ	-12.1216
▁ᏲᏢᎾᏏ	-12.1216
ᎾᏎᎵᏙᎲ	-12.1216
▁ᏗᎾᎦᎴᏅᏗᏍᎩ	-12.1216
▁ᏳᏂᎷᏤᎮ	-12.1216
ᏍᎩᎾᏛᏂᏏ	-12.1216
▁ᎤᏓᏦᎲ	-12.1216
▁ᎨᎦᎨᏅᏴ	-12.1216
▁ᏕᎬᏩᏓᏂᎸᏨᎩ	-12.1216
▁ᏕᎯᎬᏍᎪᎸᎥᏍᎨᏍᏗ	-12.1216
▁ᏳᏚᏓᎴᏍᏔᏁ	-12.1216
▁ᎠᎵᏌᎳᏛᎦ	-12.1216
▁ᎤᎦᎾᏅ	-12.1216
▁ᎦᏰᎪᏎᏗ	-12.1216
▁ᎦᏲᎩᏐᏢ	-12.1216
▁ᏕᎤᏬᎡᎢ	-12.1216
▁ᏥᏰᎸᏍᎦ	-12.1216
▁ᏧᏕᏁᎢ	-12.1216
▁ᏐᎣᏁᎳᏦᏁ	-12.1216
▁ᏓᎾᏏᏔᏗᏍ	-12.1216
▁ᏓᏓᏌᎳᏗᏍ	-12.1216
▁ᏣᎾᏛᎩᏍᎪ	-12.1216
▁ᎠᏍᎪᎵᏰᏍᎨ	-12.1216
▁ᏓᎾᎪᎲᏍᏗᏍᎨ	-12.1216
▁ᎠᏍᏚᏟᏍᎩ	-12.1216
▁ᎤᏂᏍᏓᏱᏕ	-12.1216
▁ᎹᏓᏯᏃ	-12.1216
▁ᏚᏪᏌᏍᏔᏁ	-12.1216
▁ᏥᏕᎦᎶᏄᎮ	-12.1216
▁ᏫᏗᎦᏅᎪ	-12.1216
ᎵᏍᏕᎸᏙᏔᎾ	-12.1216
▁ᎤᎩᎵᏲᏤᎢ	-12.1216
ᏃᎮᎵᏙᎲ	-12.1216
ᏣᎵᏂᎪᎯᏍᏔᏂ	-12.1216
▁ᎡᏂᎤ	-12.1216
▁ᏩᎩᏴᏏ	-12.1216
▁ᏫᎬᏩᏘᏅᏍᏔᏅᎩ	-12.1216
▁ᏱᏙᎸᏫᏍᏓᏁᎭ	-12.1216
ᎨᏲᎲᏍᎦ	-12.1216
ᏚᏂᏍᏔᏲᎳ	-12.1216
▁ᎠᎫᎷᏤᏗ	-12.1216
▁ᎤᏣᏅᏕᎢ	-12.1216
▁ᎤᎭᏲᎴ	-12.1216
▁ᎤᎾᎴᎾᏫᏍ	-12.1216
▁ᎹᎩᏈᎳ	-12.1216
▁ᏦᎦᏓᏂᎸᎢᏍᏗᏱ	-12.1216
ᎵᏰᎡ	-12.1216
▁ᎤᎾᎦᏎᏍᏕᎢ	-12.1216
▁ᎨᎶᎸᏗ	-12.1216
▁ᏅᏓᎬᏩᏪᏎᎵ	-12.1216
▁ᏒᎯᏰᏣ	-12.1216
▁ᏗᎦᎷᏫᏍᏔᏅᏗ	-12.1216
▁ᎠᏒᏨ	-12.1216
▁ᎢᏤᏙᎯᏉ	-12.1216
▁ᎣᏣᏂᎩᏍᎬ	-12.1216
ᏖᎸᎲᏍᎨ	-12.1216
▁ᏕᎩᏂᏴᏎᏍᏗ	-12.1216
▁ᏧᏔᏂᏛ	-12.1216
ᎦᎴᏅᏔᏂ	-12.1216
▁ᎬᏩᏂᏁᎢᏍᏗ	-12.1216
▁ᏓᏇᎷᎬ	-12.1216
ᏢᎬᎩ	-12.1216
ᏢᏈᏍᏙᏗ	-12.1216
ᏐᏢᎢᏍᏔᏁᎢ	-12.1216
▁ᎠᏂᏉᎵᏏ	-12.1216
▁ᎦᏲᎦᏙᎴᎰᎯᏍᏗ	-12.1216
▁ᏂᏚᏁᎶᏛᎾ	-12.1216
▁ᏗᎫᏢᏔᏅᎯ	-12.1216
▁ᏫᏗᎦᎾᏄᎪᏩ	-12.1216
ᏄᏩᏂᏌᏁ	-12.1216
ᏏᎾᏏᏳ	-12.1216
ᏰᏲᏂ	-12.1216
▁ᎤᎶᎨᏛ	-12.1216
▁ᎤᏓᎾᏛᎢ	-12.1216
▁ᎤᏬᏪᎶᏗ	-12.1216
▁ᏗᏍᏛᎬ	-12.1216
ᏲᎮᏎᏗ	-12.1216
▁ᎬᏩᏕᎰᏔᏁᎢ	-12.1216
▁ᏄᎵᏂᎬᎦ	-12.1216
▁ᏯᏆᏘᏝ	-12.1216
ᎴᏲᎡᎸ	-12.1216
ᏑᎦᎸᏙᏗ	-12.1216
▁ᎡᏥᏔᏲᏎᎮᏍᏗ	-12.1216
▁ᎢᏳᏪᏅᏍᏘ	-12.1216
▁ᎤᏃᎱᏲᎵ	-12.1217
▁ᏧᏓᎴᎾᎢ	-12.1217
▁ᎡᏣᎫᏴᏔᏅᎯ	-12.1217
▁ᎢᏰᏣᏛᏁᏗ	-12.1217
▁ᎤᏕᎯᏴ	-12.1217
▁ᏅᏛᏅᏂᏌᏂ	-12.1217
▁ᏫᎫᏩᏂᎶᎯᏍᏗ	-12.1217
ᏰᏅᎡᎵ	-12.1217
▁ᎡᎩᏁᏗᏱ	-12.1217
▁ᎨᏣᏕᏯᏙᏗᏍᎩ	-12.1217
▁ᏚᏅᏂᎦᎸᎲᎩ	-12.1217
ᏯᎶᏘ	-12.1217
▁ᎩᏯᏅᏓᏓ	-12.1217
▁ᎬᎾᏍᏔ	-12.1217
▁ᏍᎪᏂᏴ	-12.1217
▁ᏓᎬᏁᏉᎢ	-12.1217
▁ᏑᏕᏘᏴᏓ	-12.1217
▁ᏗᏍᎩᎾᏝᎢ	-12.1217
▁ᏗᏓᏚᏓᎳᎡᏗᏱ	-12.1217
▁ᏫᏥᎾᏄᎪᎢᏍᏗᏱ	-12.1217
▁ᏗᎾᏘᏂᏙᎯ	-12.1217
▁ᏚᏂᎵᏰᏗᏍᎬ	-12.1217
ᎧᏔᎾᏫᏍ	-12.1217
ᏊᎪᏓᏁᎸ	-12.1217
▁ᏏᏱᏆ	-12.1217
▁ᏤᏥᎤᏍᏕᏎᎸᎯ	-12.1217
ᏨᏇᏍᎨ	-12.1217
▁ᏓᏢᎥᏍᎬ	-12.1217
▁ᏗᏂᏅᏍᎨᏂ	-12.1217
▁ᎤᏔᎶᎩ	-12.1217
▁ᏂᏗᏍᎦᏅᎾ	-12.1217
▁ᏗᎴᏁᎯ	-12.1217
▁ᎡᏧᎢᏍᏗ	-12.1217
▁ᎢᏣᏢᏆᏍᎬ	-12.1217
▁ᏗᏥᏌᎳᏛᎦ	-12.1217
▁ᏧᏬᏚᏨ	-12.1217
▁ᎯᏁᎨᏍᏗ	-12.1217
▁ᏚᏯᏅᎡᎴᎢ	-12.1217
▁ᏧᏭᎪᏓᏁᎯ	-12.1217
▁ᏓᎬᏯᏛᏁᎵ	-12.1217
▁ᏣᎦᎨᏅ	-12.1217
▁ᏧᏛᏙᏗᏱ	-12.1217
▁ᏧᏪᏟᏐᏗᏱ	-12.1217
ᏂᎪᏁᎶᏍᎨᎢ	-12.1217
ᏣᎧᎾᏩᏗ	-12.1217
▁ᏕᏥᎦᏌᏬᎢᎲᎢ	-12.1217
▁ᏗᏛᏙᏗᏱ	-12.1217
ᎵᏂᎬᏁᎭ	-12.1217
ᎾᎯᏍᏗᎭ	-12.1217
ᏃᎮᎵᏙᎴ	-12.1217
▁ᎢᏳᏩᏓᏗ	-12.1217
▁ᎤᏧᏗᎭ	-12.1217
▁ᏃᏤᎲᎾ	-12.1217
▁ᏙᎩᎸᏫᏍᏓᏁᎸ	-12.1217
ᎵᏍᏓᏱᏗᏍᏗ	-12.1217
ᏥᎶᏄᎡᎸ	-12.1217
ᏃᎡᏔᏅ	-12.1217
▁ᎠᏨᏏᏰᏍᎨ	-12.1217
▁ᏛᏂᏍᏗᏍᎩ	-12.1217
▁ᏱᏄᎾᎵᏍᏔ	-12.1217
▁ᏰᏣᏛᏓ	-12.1217
▁ᏱᏗᏥᏬᏂᎭ	-12.1217
ᏴᏍᏔᎩᏍᏗ	-12.1217
▁ᎤᎾᏘᏰᎸᎯ	-12.1217
▁ᎤᏪᏩᏒᏤ	-12.1217
▁ᏥᏯᎵᎡᎵᏤᎰ	-12.1217
▁ᎣᎦᏚᏓᏕᏫᏒ	-12.1217
ᏅᎪᏣ	-12.1217
ᏗᏁᎸᏙᏗ	-12.1217
▁ᎠᎩᏯᎣᏅ	-12.1217
▁ᎤᏪᎾᏪ	-12.1217
▁ᎪᏱᏂᏓᏍᏗ	-12.1217
ᎫᏴᎯᏓᏍᏗ	-12.1217
▁ᎪᏚᎢᏍᏛ	-12.1217
▁ᏂᎦᏳᎪᏛᎾ	-12.1217
▁ᏴᏛᏂᎶᏐᏂ	-12.1217
▁ᎠᎾᏘᏲᎯᎲ	-12.1217
▁ᏴᎬᏓᏛᎦ	-12.1217
ᎾᎵᏍᎪᎸᏗᏍᎨᎢ	-12.1217
▁ᎤᏭᏌᎥ	-12.1217
▁ᎡᎾᎢᏓᏍᏗᏱ	-12.1217
▁ᏗᎬᏩᏕᏲᏗ	-12.1217
▁ᏚᏓᎴᏅᏔᏅ	-12.1217
ᏁᏟᏴᏍᏓ	-12.1217
▁ᏪᏥᎷᏥᏏ	-12.1217
▁ᏱᎾᏆᎵᏍᏔᏁ	-12.1217
ᏧᏘᏍᏓᏁᏗᏱ	-12.1217
▁ᎠᎾᏓᏎᎪᎩᏍᎬᎩ	-12.1217
▁ᏰᏥᎦᏔᎮ	-12.1217
ᏅᏍᏙᏍᎨᏍᏗ	-12.1217
ᏥᏢᎡᎵ	-12.1217
▁ᎠᎾᏅᎥᏍᎨᏍᏗ	-12.1217
▁ᏥᏲᎵᎩ	-12.1217
▁ᏫᏘᏯᏅ	-12.1217
▁ᎠᎾᏓᏛᏍᎬᎢ	-12.1217
▁ᎤᏲᏞᏒᎢ	-12.1217
▁ᏪᏣᏚᎦ	-12.1217
▁ᎠᎦᏠᏯᏍᏔᏅᎩ	-12.1217
▁ᎠᏔᎸᎦᏒ	-12.1217
▁ᏙᏛᏕᏯᏙᏔᏂ	-12.1217
ᎩᎦᎷᏴ	-12.1217
▁ᏧᏪᏚᏁᎯ	-12.1217
▁ᏭᎾᎦᏖ	-12.1217
▁ᏯᏅᏗᎭ	-12.1217
▁ᎤᏃᏍᎩᏒᎢ	-12.1217
▁ᎬᏩᏜᏫᏍᏗ	-12.1217
ᎾᏢᏆ	-12.1217
ᏨᎿᏗ	-12.1217
▁ᎠᏂᏒᎨ	-12.1217
▁ᏓᏤᎴᏍᏗ	-12.1217
▁ᏉᏗᏆ	-12.1217
▁ᏗᎦᏃᏣᏢ	-12.1217
▁ᎢᎬᏩᏰᎸᎭ	-12.1217
▁ᏕᏨᏯᏬᏍᏗᎭ	-12.1217
▁ᏫᎬᏯᏅᎲᎭ	-12.1217
ᏂᏉᏘ	-12.1217
ᏍᏔᏩᏗᏎ	-12.1217
ᏑᎵᎪᏥ	-12.1217
▁ᏗᏃᏯᏗ	-12.1217
▁ᏧᎵᏃᎯᏴᎯ	-12.1217
ᎩᏲᎱᏎᎵ	-12.1217
▁ᎢᏧᎵᏍᏙᏗᏱ	-12.1217
▁ᏕᏣᏓᎦᎵᏍᏓᏗᏍ	-12.1217
▁ᏣᏉᏪᎳᏅ	-12.1217
▁ᏧᏚᎪᏙᏗ	-12.1217
ᎩᏂᏴᏒ	-12.1217
▁ᏓᏂᎶᏒᎭ	-12.1217
▁ᏥᏕᏡᎦ	-12.1217
oston	-12.1217
▁ᎫᎭᏢ	-12.1217
▁ᎦᎦᎶᎢ	-12.1217
▁ᏕᎦᏓᏬᏍᏗᎭ	-12.1217
▁ᎦᏯᎪᎦ	-12.1217
ᎦᎾᏏᏅᏍᏗ	-12.1217
ᏬᏢᎾᏁᎸᎩ	-12.1217
▁ᏃᎦᎵᏍᏔᏅ	-12.1217
▁ᏗᏥᎳᏫᎢᏍᏗᏱ	-12.1217
▁ᏯᏆᎴᏫᏍᏔᎾ	-12.1217
▁ᎢᎦᏕᏗᏱ	-12.1217
▁ᏫᎦᏥᎷᏤᎸ	-12.1217
ᎳᏫᎡ	-12.1217
ᏯᏠᏍᏔᏅᎭ	-12.1217
▁ᎣᎨᎵᏒ	-12.1217
▁ᏗᎦᎷᏥᏒ	-12.1217
▁ᏦᏨᏃᏛ	-12.1217
▁ᏳᏩᎾᏔ	-12.1217
ᏩᏍᎦᎸᏁᎢ	-12.1217
▁ᏧᏪᏙᎵᏍᏗ	-12.1217
▁ᏂᏨᏪᏎᎲ	-12.1217
▁ᏗᎨᎦᎦᏅᏗ	-12.1217
▁ᏱᎦᎳᏍᏢ	-12.1217
▁ᏳᎯᏐᏓᏁ	-12.1217
▁ᎷᏏᏯ	-12.1217
▁ᎤᏉᏌᏁ	-12.1217
▁ᎪᎯᏳᎲᏍᎬ	-12.1217
▁ᎬᏩᏂᎷᏤᎸᎩ	-12.1217
▁ᏩᏂᏌᏙᏯ	-12.1217
ᏞᎦ	-12.1217
▁ᎣᎩᎦᏛᏂᏙᎯᏉ	-12.1217
▁ᎤᏓᏅᏓᏛᎢ	-12.1217
▁ᏁᏣᏁᎸᎾ	-12.1217
▁ᏳᎾᏓᏅᏔ	-12.1217
ᏃᏨᏁᎭ	-12.1217
▁ᏗᎬᏩᏂᏲᎱᎯᏎᎸᎯ	-12.1217
▁ᏗᏓᏱᎵᏓᏍᏗᏱ	-12.1217
▁ᏚᏃᎥᎩ	-12.1217
▁ᏱᏨᏃᏁᎴᎢ	-12.1217
▁ᎠᏣᏅᏙᏗ	-12.1217
▁ᏭᏭᏍᏔᏁ	-12.1217
▁ᎬᏆᏕᏯᏙᏗ	-12.1217
▁ᎠᏂᏯᏫᏍᎬ	-12.1217
[...]
