<unk>	0
<s>	0
</s>	0
,	-2.55055
.	-3.04894
▁ᎠᎴ	-3.30836
▁ᎾᏍᎩ	-3.73551
;	-3.83842
▁ᎯᎠ	-4.39727
▁Ꭴ	-4.54562
▁ᎨᏒ	-4.68611
▁Ꭰ	-4.76725
Ꮓ	-4.82185
▁ᎨᏒᎢ	-5.15045
Ꭲ	-5.18313
▁	-5.19282
▁ᎥᏝ	-5.21005
ᏍᏗ	-5.25915
▁ᎨᏎᏍᏗ	-5.28226
▁ᎤᏁᎳᏅᎯ	-5.34517
▁ᏃᎴ	-5.40252
ᏰᏃ	-5.44111
?	-5.52299
▁ᏴᏫ	-5.54426
▁Ꮎ	-5.76758
▁ᎢᏳᏍᏗ	-5.78991
▁ᎾᏍᏉ	-5.79505
▁ᎩᎶ	-5.80824
▁ᎾᏍᎩᏯ	-5.8084
⁠	-5.81665
▁ᎠᏎᏃ	-5.82336
▁ᎠᏴ	-5.85004
-	-5.85824
▁Ꮷ	-5.88504
Ꮙ	-5.88587
▁ᎾᎿ	-5.89709
▁ᏱᎩ	-5.90751
▁Ꮧ	-5.92396
▁ᏂᎯ	-5.9327
▁Ꮵ	-5.94197
▁ᏥᎩ	-5.94241
▁ᎪᎱᏍᏗ	-5.94867
Ꭹ	-5.96581
ᏍᎩ	-5.96675
▁ᎢᎦ	-5.96981
▁ᎤᎬᏫᏳᎯ	-6.00926
▁ᏂᎨᏒᎾ	-6.01046
▁ᏥᏌ	-6.01991
▁“	-6.08259
▁ᏂᎦᏛ	-6.08508
▁Ꭲ	-6.11993
▁ᏱᎰᏩ	-6.14168
▁ᎯᎠᏃ	-6.14181
ᏍᎩᏂ	-6.14961
▁ᎣᏍᏛ	-6.18791
▁ᎾᏍᎩᏃ	-6.2074
▁Ᏹ	-6.24262
▁ᎠᏂ	-6.26237
▁ᎤᏪᏥ	-6.27082
▁Ꮳ	-6.27526
▁Ꮪ	-6.28591
▁ᎢᏳᏃ	-6.29408
▁ᏧᏪᏥ	-6.35095
Ꭽ	-6.35576
▁ᎦᎶᏁᏛ	-6.36139
▁ᏄᏪᏎᎢ	-6.3931
Ꭿ	-6.41545
▁ᎡᎶᎯ	-6.41865
▁ᎿᏉ	-6.42025
▁Ꮣ	-6.43256
▁ᏞᏍᏗ	-6.43626
▁Ꭿ	-6.44562
▁ᎨᏍᏗ	-6.457
▁Ꭶ	-6.46338
Ꮧ	-6.47314
▁ᎿᏉᏃ	-6.47501
▁ᎤᏂ	-6.47604
▁ᎤᏲ	-6.49358
▁ᎤᏛᏁ	-6.52269
Ᏹ	-6.58094
▁”	-6.61848
▁ᎠᏥᎸ	-6.62257
▁ᎤᏣᏘ	-6.6364
▁ᎡᎯ	-6.65307
▁ᏂᎦᎥ	-6.65398
▁ᏫᎵᎻ	-6.66457
,”	-6.66988
Ꮎ	-6.67766
▁ᎦᎸᏉᏗᏳ	-6.69869
▁ᎬᏂᎨᏒ	-6.7017
▁ᏄᏍᏛ	-6.71122
▁ᎠᏍᎦᏯ	-6.71876
▁ᎦᏙ	-6.71993
▁ᎬᏂᏳᏉ	-6.73295
▁ᎤᏩᏒ	-6.7458
▁ᎧᏃᎮᏛ	-6.74889
ᏍᎪ	-6.76472
▁ᎾᎯᏳ	-6.76491
▁ᎠᏁᎯ	-6.76631
▁ᎦᎸᎳᏗ	-6.76982
▁ᎠᏰᎵ	-6.78078
▁ᎠᏕᎸ	-6.79878
▁ᎢᏣ	-6.80112
▁ᎨᏎᎢ	-6.81583
ᏗᏱ	-6.81588
▁ᎤᏤᎵ	-6.8403
▁ᎤᏤᎵᎦ	-6.84036
▁ᏰᎵ	-6.84741
▁ᎠᎹ	-6.84892
▁Ꮻ	-6.87022
▁ᎢᏴᏛ	-6.87517
▁ᎬᏩ	-6.89724
▁ᎠᏎ	-6.92391
▁ᎣᏏᏳ	-6.92785
▁ᏌᏉ	-6.93576
▁ᎦᏙᎯ	-6.94498
Ꭶ	-6.9488
▁Ᏻ	-6.95285
▁ᎾᏂᎥ	-6.96906
▁[	-6.97614
]	-6.98379
▁ᎪᎯ	-6.98594
▁ᏗᎧᎿᏩᏛᏍᏗ	-6.98658
▁Ꮒ	-6.99118
▁ᏔᎵ	-6.99196
▁Ꭸ	-7.00321
▁Ꮔ	-7.006
▁ᎠᏓᏅᏙ	-7.01736
▁ᎣᏍᏓ	-7.0202
▁ᎠᏂᏍᎦᏯ	-7.03504
▁ᎨᏎ	-7.0462
▁Ꭱ	-7.05486
.”	-7.05612
▁ᎤᏟ	-7.05817
▁ᎤᎾ	-7.05877
▁ᎢᏥᏈᏱ	-7.07666
▁ᎢᏏᎵ	-7.10191
▁ᏔᎵᏁ	-7.10359
▁ᎼᏏ	-7.11669
▁ᎨᏒᎩ	-7.11677
▁Ꮥ	-7.11862
▁Ꭼ	-7.12263
▁ᎠᏫ	-7.12367
Ꮣ	-7.13511
▁⁠	-7.14338
Ꮫ	-7.16427
▁Ꮽ	-7.16728
▁ᏚᏳᎪᏛ	-7.17817
▁Ꮿ	-7.19272
▁ᎠᎩ	-7.19362
!	-7.20636
▁ᎡᎳᏗ	-7.20647
▁ᎦᏙᏃ	-7.20867
Ꮒ	-7.21513
▁ᎢᏳᎵᏍᏙᏗᏱ	-7.22138
ᏍᎬ	-7.22526
:	-7.23072
▁ᎢᏗᏢ	-7.23585
▁ᏩᎦ	-7.25292
▁ᏏᏆ	-7.27062
ᏙᏗ	-7.27298
▁ᏲᎾ	-7.28152
▁ᎢᎬᏱ	-7.28508
▁ᎢᏥ	-7.28639
▁ᎠᏏ	-7.2935
Ꭰ	-7.30327
▁ᏌᎳᏓ	-7.30781
!”	-7.32343
▁ᏄᏪᏒᎩ	-7.32977
ᏍᏓ	-7.3307
Ꮅ	-7.33372
▁ᎤᏂᏣᏘ	-7.33829
?”	-7.34018
▁ᏄᏪᏎᎴᎢ	-7.34339
▁ᎢᏳ	-7.34469
▁ᏂᎦᏓ	-7.36418
▁ᎠᎨᏴ	-7.37234
ᏍᎦ	-7.38022
▁ᏧᏓᎴᏅᏛ	-7.38468
Ꮟ	-7.38558
▁ᎠᏆ	-7.3935
▁ᏥᏌᏃ	-7.39463
▁ᎾᎥ	-7.39756
▁ᏱᎨᏎᏍᏗ	-7.39987
▁ᏚᏂ	-7.40693
Ꮄ	-7.41588
▁ᎤᏙᎯᏳᎯᏯ	-7.43162
ᏍᏛ	-7.43201
▁Ꭳ	-7.43332
▁ᏅᏯ	-7.43767
▁ᏅᎩ	-7.43931
ᎨᏍᏗ	-7.44235
▁ᏧᏂ	-7.4533
▁ᎠᏂᏧᏏ	-7.45598
▁ᏂᏚᏪᏎᎴᎢ	-7.46323
▁ᏐᏈᎵ	-7.48075
▁ᏝᏍᎪ	-7.48105
▁ᎦᏚ	-7.48129
▁Ꮩ	-7.48202
▁ᏦᎢ	-7.48638
▁ᎠᏓ	-7.4892
▁ᏣᎬᏫᏳᎯ	-7.49355
▁ᎡᏆᎭᎻ	-7.49917
▁ᎤᎬᏩᎵ	-7.49982
▁ᏧᏤᎵ	-7.50496
▁ᏓᎶᏂᎨ	-7.52157
▁ᎦᎪ	-7.52623
▁ᏄᏪᏎᎸᎩ	-7.52648
▁ᎣᏂ	-7.54426
▁ᎢᏧᎳᎭ	-7.54686
▁ᏧᎾ	-7.54908
ᏁᎢ	-7.55315
▁ᎬᏗ	-7.55536
Ꮕ	-7.56244
▁ᏇᎵᏲ	-7.56605
ᏔᏅ	-7.5662
▁Ꮹ	-7.56783
▁ᏰᎵᏉ	-7.56977
ᏁᎸ	-7.58158
▁ᎦᏓ	-7.58234
▁ᏤᎦᏈ	-7.60128
Ꭸ	-7.60698
Ꮈ	-7.608
▁ᎤᏙᏓ	-7.61575
▁ᏄᏪᏎᎴ	-7.62563
Ꮢ	-7.63591
▁ᎤᏤᏍᏙ	-7.63761
▁ᏍᎩ	-7.64675
ᎲᎢ	-7.65621
▁ᎦᎵᏉᎩ	-7.65987
▁ᏂᏚᏪᏎᎸᎩ	-7.66763
▁ᎢᎩ	-7.66956
▁ᏂᎦᏗᏳ	-7.67133
▁ᎦᏚᎲ	-7.67873
▁ᏅᏗᎦᎵᏍᏙᏗᎭ	-7.6829
▁Ꭵ	-7.68445
▁ᎬᏂ	-7.68475
▁ᎠᏂᎨᏴ	-7.6906
▁ᏱᎰᏩᏃ	-7.69201
▁ᏗᎦ	-7.70367
▁ᏂᎪᎯᎸ	-7.70585
ᎸᎩ	-7.70626
▁ᎪᏪᎵ	-7.71283
▁ᏥᎷᏏᎵᎻ	-7.71504
▁ᏣᏂ	-7.72201
▁ᏧᎾᏓᎴᏅᏛ	-7.72217
▁ᏱᎨᏎ	-7.72859
▁ᎢᏯᏂᏛ	-7.73039
▁ᎡᏙᏓ	-7.7305
▁ᎬᏂᏛ	-7.73119
▁ᏉᎳ	-7.73188
▁Ꭽ	-7.73389
▁ᎢᎦᎢ	-7.74065
▁ᎾᏍᎩᏯᎢ	-7.74926
▁ᏂᎬᎾᏛ	-7.75017
ᏎᎢ	-7.76613
▁ᏦᏩ	-7.77313
ᏅᎯ	-7.78018
▁ᎬᏩᏍᏓᏩᏗᏙᎯ	-7.78156
Ꮂ	-7.78169
▁ᎠᏂᏔᎵ	-7.78695
ᎴᎢ	-7.7933
▁ᎤᏅᏒ	-7.796
▁ᏣᎵ	-7.79736
▁ᎾᎥᏂ	-7.80445
▁ᎼᏏᏃ	-7.81109
▁ᎢᏴ	-7.81234
ᏍᏗᏱ	-7.81463
▁ᏄᎵᏍᏔᏁᎢ	-7.81781
▁ᎥᏝᏰᏃ	-7.81865
▁ᏐᏉ	-7.82391
▁ᎪᎯᏳᏗ	-7.8288
▁ᎤᏁᏨ	-7.83237
ᏍᎨᏍᏗ	-7.8341
▁ᏗᎦᎳᏫᎢᏍᏗᏱ	-7.83463
▁ᏄᎬᏫᏳᏒ	-7.85253
Ꮵ	-7.85655
▁ᎢᎬᏱᏗᏢ	-7.85968
▁ᏄᏂᏪᏎᎢ	-7.85998
▁ᎠᏏᏉ	-7.86127
▁ᎠᏣᏗ	-7.86168
▁ᎤᏓᏙᎵᏍᏗ	-7.86213
▁ᎢᎨᏎᏍᏗ	-7.87835
Ꮿ	-7.88483
▁ᎤᏙᎯᏳᎯ	-7.88864
▁ᎤᏓᎵᎢ	-7.8902
ᎮᏍᏗ	-7.89739
ᏅᎩ	-7.89853
▁ᏈᏓ	-7.89995
▁ᎤᏥ	-7.90153
▁ᎤᎵᏂᎩᏛ	-7.9026
ᏙᎯ	-7.90308
▁ᏗᎦᎸᏫᏍᏓᏁᏗ	-7.90555
▁ᎡᏍᎦᏉ	-7.908
▁ᎩᎦᎨ	-7.92709
▁ᎤᏛᏅ	-7.92826
ᏒᎩ	-7.93573
▁ᏌᏌ	-7.93634
▁ᎠᎵᏍᏓᏴᏗ	-7.939
▁ᏅᏩᏓᎴ	-7.93918
▁ᎤᏓ	-7.94045
▁ᎭᏫᏂ	-7.94612
ᏒᎢ	-7.94935
▁ᎰᎻ	-7.95643
▁ᎦᎶᎯᏍᏗᏱ	-7.9572
ᏍᏙᏗ	-7.95925
▁ᎢᎾᎨ	-7.96204
▁Ꮫ	-7.97006
▁ᏍᎩᎾᎾ	-7.97657
▁ᏑᎾᎴ	-7.97726
▁ᏥᎪ	-7.97733
▁Ꭷ	-7.97955
▁ᏒᏃᏱ	-7.98726
▁ᎢᏧᎳ	-7.9893
ᎸᎯ	-7.99016
▁ᎤᏃᏕᎾ	-7.99783
▁ᎠᏧᏣ	-7.99794
▁ᎬᏩᎦᏘᏯ	-7.99809
▁ᏗᏣ	-8.00511
▁ᎤᏩᏌ	-8.01161
▁ᎠᎾᎵᏅᏟ	-8.012
ᎪᎢ	-8.0219
▁ᎦᎸᎶᎢ	-8.02207
▁ᏱᎨᏎᎢ	-8.02588
ᏉᏍᎩᏂ	-8.03075
▁ᎢᏤ	-8.03238
▁ᏚᏙᎥ	-8.03674
▁ᏧᎬᏩᎶᏗ	-8.04116
▁ᏅᏙ	-8.04602
▁ᎩᎶᏃ	-8.04949
▁ᎾᎿᏃ	-8.05543
▁ᏚᎾ	-8.0565
▁ᏔᎳᏚ	-8.06781
▁ᏅᏩᏙᎯᏯᏛ	-8.07479
▁ᎢᎬᏱᏱ	-8.07564
ᏍᎨ	-8.08022
▁ᎣᎩ	-8.08074
▁ᎩᎳ	-8.08125
Ᏻ	-8.0817
▁ᎢᎸᎯᏳ	-8.08624
▁ᎢᏓᎵᏅᏟ	-8.08632
▁ᏧᎾᏁᎶᏗ	-8.08639
▁ᎤᎾᏤᎵᎦ	-8.08671
▁ᎠᏏᏴᏫ	-8.08794
▁ᎡᎳᏂ	-8.0906
Ꮃ	-8.09697
▁ᏱᎨᏒᎾ	-8.09794
Ꭺ	-8.10207
▁ᏂᎦᏛᏃ	-8.10275
▁ᎤᏍᏆᏂᎪᏗ	-8.11066
ᏍᎬᎢ	-8.11482
▁ᎤᏚᎩ	-8.11716
Ꮑ	-8.11859
Ꮝ	-8.12215
▁ᏄᎵᏍᏔᏅ	-8.12702
▁ᎡᏆ	-8.12884
▁ᎠᏆᏤᎵ	-8.13327
▁ᎠᎬᏱ	-8.13368
▁ᎢᎪᎯᏛ	-8.13371
▁ᎭᏫᏂᏗᏢ	-8.14584
▁ᎠᏇᏥ	-8.14588
▁ᏧᏤᎵᎦ	-8.15009
▁ᏗᎧᎿᏩᏗᏙᎯ	-8.15115
▁ᏕᎦ	-8.15711
▁ᏅᏓᏳᏓᎴᏅᎯ	-8.15816
▁ᏂᏨᏪᏎᎭ	-8.15817
▁ᏄᏂᏪᏒᎩ	-8.15855
▁ᎤᏁ	-8.15947
▁ᎦᏓᎭ	-8.16192
Ꭵ	-8.16758
▁ᎩᎳᏉ	-8.16991
▁ᎤᏇᏓᎵ	-8.17027
▁ᎠᏰᎸ	-8.17214
▁ᎤᎾᏓᏅᏘ	-8.1722
▁ᎢᏳᏰᏃ	-8.18053
▁ᎢᏳᏩᏂᏌᏛ	-8.18329
ᎮᎢ	-8.18513
▁ᎤᏛᏛᏁ	-8.19071
▁ᏃᏗ	-8.20438
▁ᏤᎦᏈᏃ	-8.20913
▁ᏧᏙᎢᏛ	-8.20933
▁ᎤᏕᎵᏛ	-8.20938
▁ᎤᏁᎳᎩ	-8.21112
▁ᎠᏁᎲ	-8.21536
▁ᏄᏪᏒ	-8.21651
ᎨᎢ	-8.21778
ᏔᏅᎯ	-8.21963
▁ᎢᏯᎦᏴᎵ	-8.22226
▁ᏧᏍᏆᏴᏍᏗ	-8.22306
▁ᏃᏉ	-8.22777
Ꭼ	-8.23068
▁ᏗᎪᏢᏔᏅᎯ	-8.23575
▁ᏥᏳ	-8.2376
ᎦᏔ	-8.23909
▁ᎡᏏᎩ	-8.24197
▁ᎦᏳᎳ	-8.24462
▁ᎠᎾ	-8.24507
▁ᎦᎵᏦᏛ	-8.25861
▁ᎠᏯ	-8.25913
▁ᏄᎵᏍᏔᏁ	-8.26292
▁ᎢᏨ	-8.26864
▁ᏍᏉ	-8.26959
▁ᎠᏁᎲᎢ	-8.2705
▁ᏓᏂ	-8.27126
ᏗᎭ	-8.27197
▁ᏦᏩᏃ	-8.27438
Ꮞ	-8.2757
▁ᎠᏍᏓᏯ	-8.27724
▁ᎠᏥ	-8.27969
▁ᎦᏲᏟ	-8.28778
▁ᎢᏳᎵᏍᏙᏗ	-8.28993
ᎨᎶᎯ	-8.2901
▁ᎠᎾᏙᎴᎰᏍᎩ	-8.29086
▁ᎤᎾᏤᎵ	-8.29303
ᏁᎯ	-8.29902
▁Ꮶ	-8.30035
▁ᎤᏁᎳᏅᎯᏃ	-8.3032
ᎯᏍᏗ	-8.30355
▁ᎠᎦ	-8.31257
ᏍᎪᎢ	-8.31414
ᎬᏩ	-8.31668
▁ᎦᏁᎸ	-8.31821
▁ᎡᎳᏆᏗ	-8.3197
▁ᏧᏅᏏᏓᏍᏗ	-8.32027
ᎸᎢ	-8.32082
▁ᏄᎵᏍᏔᏅᎩ	-8.3221
▁ᏥᏳᎯ	-8.32217
▁ᏄᏓᎴᏒ	-8.3338
▁ᏠᎨᏏ	-8.33437
▁ᎠᏲᎱᎯᏍᏗ	-8.3366
Ꭾ	-8.3456
▁ᎧᏅᏂᏍᎩ	-8.34619
▁ᎢᎦᏛ	-8.34778
Ꮀ	-8.36295
▁ᎤᏂᏃᏕᎾ	-8.36438
▁ᏧᏕᏘᏴᏛ	-8.3644
Ꭴ	-8.36479
ᏁᎳ	-8.36755
▁ᎤᏁᎬ	-8.36778
▁ᎤᏪ	-8.36919
▁ᎤᏒᎯ	-8.37246
▁ᎠᏍᎪᎯᏧᏈ	-8.37251
▁ᎢᎦᏤᎵ	-8.37596
▁ᏂᎦ	-8.37791
▁ᎤᏂᎬᏫᏳᎯ	-8.3801
▁ᎤᏃᎴ	-8.3855
ᏍᎨᎢ	-8.39276
▁ᎠᏍᎦᏂ	-8.39296
▁ᎠᏙᎴᎰᏍᎩ	-8.39557
▁ᏂᎬ	-8.39569
▁ᎠᏍᎪᎵ	-8.39663
▁ᎩᎬ	-8.40444
▁ᏂᎬᏅ	-8.40584
▁Ꮨ	-8.40641
▁Ᏼ	-8.40698
ᎠᏁᎶᎯ	-8.40765
▁ᎠᏓᏁᎸ	-8.40818
▁ᏗᏂᎧᎿᏩᏗᏙᎯ	-8.41123
▁ᏣᏄᏏ	-8.41143
▁ᎠᎺᏉᎯ	-8.4198
▁ᏂᎯᏍᎩᏂ	-8.42048
▁ᏅᏩᎾᏓᎴ	-8.42236
▁ᏕᏥ	-8.424
ᎨᏒ	-8.42675
▁ᎥᏝᏃ	-8.42722
ᏗᏍᎬ	-8.42853
▁ᎾᎿᏂ	-8.43529
▁ᎢᏐ	-8.43743
▁Ꭺ	-8.4436
▁ᎢᏗ	-8.44807
ᎦᏛ	-8.44815
▁ᎥᎥ	-8.46099
▁ᏧᏂᏍᏆᏂᎪᏙᏗ	-8.46155
▁ᏔᎵᏁᏃ	-8.471
▁ᎤᏓᏅᏘ	-8.47106
ᏓᏁᏗ	-8.47107
▁Ꮴ	-8.47385
ᎵᏍᏗ	-8.47795
▁ᎡᏝᏪᎯ	-8.47812
▁ᏗᏂ	-8.47998
▁ᎠᎦᏴᎵᎨᎢ	-8.48216
ᏔᏅᎩ	-8.48578
Ꮩ	-8.49207
▁ᎪᎰᏍᏗ	-8.4946
▁ᎠᏲᎵ	-8.49931
▁ᎠᏄᏬ	-8.5041
▁ᏄᏂᎬᏫᏳᏒ	-8.50489
▁ᎦᎸᎶ	-8.50845
ᏁᏗᏱ	-8.50994
▁ᏤᏥ	-8.51229
▁ᎨᎵᎵ	-8.51262
▁ᎦᎾᏝᎢ	-8.51264
Ᏼ	-8.51322
▁ᎠᏓᎨᏳᏗ	-8.51322
▁ᎤᎵ	-8.51331
▁ᏥᎨᏒᎩ	-8.51398
ᏁᏗ	-8.51405
▁ᎨᏐᎢ	-8.51692
▁ᏥᎨᏎᎢ	-8.51703
▁Ꮕ	-8.51972
▁ᎢᏯᎩᏳᏍᏈᏛ	-8.53001
▁ᎤᎵᏏᎩ	-8.53001
▁ᎡᏥ	-8.53102
▁ᏗᏂᏲᎵ	-8.5317
ᏁᎵ	-8.53221
ᏍᏙ	-8.53306
ᏓᎵ	-8.53607
ᎬᎢ	-8.53741
▁ᎠᏂᏆᎵᏏ	-8.53847
▁ᏗᏥ	-8.53922
▁ᎤᏬᏰᏂ	-8.54088
ᎾᏓ	-8.54111
▁ᎤᏤᎵᎪᎯ	-8.54907
▁ᏨᏒ	-8.55065
▁ᎡᏣ	-8.55109
ᎦᎵ	-8.55149
▁ᎤᏅᏏᏓᏍᏗ	-8.55156
▁ᎦᏰᎪᎩ	-8.56671
▁ᎢᎪᎯᏓ	-8.56696
▁ᎠᏂᏴᏫᏯ	-8.56697
ᏍᏔ	-8.56715
▁ᎠᎦᏔᎲᎢ	-8.57029
Ꮜ	-8.57032
ᏗᏍᎩ	-8.5745
▁ᎤᏴᏍᏗ	-8.57451
▁ᎠᏛ	-8.57513
▁ᏌᏩᏂ	-8.57837
ᏁᎭ	-8.57989
▁ᎣᏓᎸ	-8.58101
▁ᏦᎢᏁ	-8.58462
▁(	-8.58556
▁ᏇᎵᏲᏃ	-8.58608
▁ᎣᎦ	-8.59038
▁ᎠᎩᎾ	-8.5913
▁ᎤᏁᎳᏅᎯᏰᏃ	-8.59659
▁Ꮟ	-8.59949
▁Ꮭ	-8.60254
▁ᏗᏆᏤᎵ	-8.60413
▁ᎠᏃᎯᏳᎲᏍᎩ	-8.60487
▁ᏓᏆᎴᎳ	-8.60487
▁ᏥᏍᏕᏥ	-8.60509
▁ᎤᎬᏫᏳᏌᏕᎩ	-8.60522
▁ᎧᏁᏌᎢ	-8.60538
▁ᏄᏍᏕᏍᏗ	-8.60777
▁Ꮸ	-8.61541
▁ᎠᎦᏴᎵᎨ	-8.61659
▁ᎤᎵᏂᎩᏗᏳ	-8.61872
▁ᏥᏚ	-8.62113
▁ᏣᏤᎵ	-8.62262
ᎰᎢ	-8.62283
▁ᎨᏐ	-8.6231
▁ᎧᏁᏍᎦ	-8.62442
▁ᎠᏂᏍᎩᎾ	-8.62466
▁ᏂᎯᏃ	-8.62499
▁ᎦᎸᏉᏗ	-8.62693
▁ᎤᏰᎸᏗ	-8.62876
▁ᎨᎳᏍᏗᏱ	-8.62933
▁ᏂᏚ	-8.63319
▁ᎢᎦᏛᏃ	-8.635
▁ᎠᏍᎩᎾ	-8.63772
▁ᎦᏚᎲᎢ	-8.63804
▁ᎢᏨᏒ	-8.6407
▁ᎠᏌᎻᏓ	-8.64441
▁ᎠᏯᏙᎸᎢ	-8.64441
▁ᏗᏂᏲᏟ	-8.64443
▁ᎠᏂᏏᏴᏫᎭ	-8.64452
▁ᏧᏁᏥ	-8.64554
▁ᎠᏗᎾ	-8.6458
▁ᎡᏆᎭᎻᏃ	-8.64636
▁ᏫᏥ	-8.6467
ᎬᎩ	-8.64921
Ꮻ	-8.65124
ᎬᎾ	-8.65335
▁Ꮁ	-8.65606
ᏙᏗᏱ	-8.65693
▁ᎨᏥ	-8.65812
▁ᎤᏲᎱᏒ	-8.65858
▁ᏱᏚ	-8.65874
▁ᎤᏰᎸᏛ	-8.66006
▁ᏄᏓᎴ	-8.66199
▁ᏗᏣᏤᎵ	-8.66429
▁ᎦᏩᏒᎩ	-8.66481
▁ᎢᏳᏕᏘᏴᏛ	-8.66485
▁ᎤᏕᏁᎴᎢ	-8.6652
▁ᎪᏢᏔᏅᎯ	-8.66521
ᏔᏂ	-8.66696
▁ᏱᏓ	-8.67077
ᏛᎢ	-8.67103
▁ᎠᏎᏉ	-8.67161
▁ᏥᎨᏒ	-8.67484
▁ᏱᎦ	-8.67599
▁ᏂᎪᎯᎸᎢ	-8.67694
▁ᏗᏃᏪᎵᏍᎩ	-8.67824
▁ᎤᏣᏔᏅᎯ	-8.67845
▁ᎤᏛᎦᏅ	-8.67918
ᏔᏁᎢ	-8.67953
▁ᏥᎨᏎ	-8.68297
▁ᏅᏓᎬᏩᏓᎴᏅᏛ	-8.68566
▁ᎢᏳᏍᎩᏂ	-8.68631
▁ᎢᏳᎾᏍᏗ	-8.68761
▁ᏣᏁᎳᏅᎯ	-8.68766
Ꮨ	-8.69149
Ꮳ	-8.69565
Ꭳ	-8.69987
ᏍᎬᎾ	-8.70034
▁ᏗᎦᏙᎵ	-8.70088
ᏗᎦᎳᏫᎢᏍᏗᏱ	-8.70107
ᏍᏔᏅ	-8.702
ᏛᎩ	-8.70209
ᏓᏁ	-8.70242
▁ᎤᎾᏓᏡᎬ	-8.70248
▁ᎪᎢ	-8.70288
ᎩᏍᏗ	-8.70342
▁ᎠᎦᏙᎥᎯᏍᏗ	-8.70482
▁-	-8.70533
▁ᏗᏓᏍᏚᏗᏱ	-8.70693
▁ᎡᏍᎦ	-8.70699
▁ᎠᏰᎳᏍᏗ	-8.70702
▁ᎦᎵ	-8.70702
▁ᏅᏲᎯ	-8.70732
ᏩᏛ	-8.70821
▁ᏓᎦ	-8.71481
▁ᎤᏩ	-8.71565
▁ᎠᏴᏃ	-8.71587
▁ᏅᏗᎦᎵᏍᏙᏗᏍᎨ	-8.71869
▁ᏱᏣ	-8.72052
▁ᏧᏂᏲᎱᏒᎯ	-8.72078
▁ᏄᏪᏎ	-8.72078
Ꮘ	-8.72213
▁ᎤᏅᏗ	-8.72406
ᏔᏁ	-8.72571
ᏓᏅ	-8.726
▁ᎨᏴ	-8.72615
▁ᎤᎾᏓ	-8.72715
ᏎᏍᏗ	-8.72831
▁ᏔᏕᏲᎲᏍᎩ	-8.72866
▁ᏗᏅᏃᏛ	-8.72872
▁ᎥᏣᏱ	-8.72891
▁ᎤᎾᏤᎵᎪᎯ	-8.72895
▁ᏗᏤᏥ	-8.72922
ᏁᎴ	-8.73147
ᎲᎾ	-8.7333
ᏍᏘ	-8.73449
▁ᏕᏫ	-8.73945
▁ᏗᎾᏓᏅᏟ	-8.74163
▁ᏗᏄᏬ	-8.74204
▁ᎭᎾ	-8.74236
▁ᎭᏂ	-8.74279
ᏅᎢ	-8.74363
▁ᎠᏍᎪᎯ	-8.745
ᎭᏩ	-8.74682
▁ᎬᏅ	-8.74699
▁ᎤᏲᎢᏳ	-8.74945
▁ᏅᏓᎦᎵᏍᏙᏗᏍᎬᎩ	-8.75117
▁ᎤᎴᏅᎮ	-8.75152
▁ᏚᏬᎡᎢ	-8.75193
▁ᎬᏘ	-8.75197
▁ᎣᏂᏃ	-8.752
▁ᎤᏅ	-8.7524
▁ᎠᎳᏂ	-8.75312
▁ᎦᎵᏦᏛᎢ	-8.75871
▁ᎦᏁᎸᎢ	-8.75896
ᏒᎾ	-8.75935
ᏁᎳᏅᎯ	-8.7606
▁ᎤᏐᏅ	-8.76131
ᎸᏉᏗ	-8.76504
▁ᎤᏠᏱ	-8.76631
▁ᎠᏂᏯᏫᏍᎩ	-8.76633
ᎲᎩ	-8.76961
▁ᎤᎧᏛ	-8.76992
▁ᎡᎺᏅ	-8.77361
▁ᎠᏂᏧᏣ	-8.77368
▁ᎩᎳᏈᏴ	-8.77368
▁ᎠᎬᏱᏣ	-8.77389
▁ᎭᏫᏂᏣ	-8.77395
▁ᎣᎯᏍᏙᏗ	-8.77413
▁ᎬᏔᏅᎯ	-8.77552
ᎪᏩᏛᏗ	-8.77886
▁ᎤᎷᏨ	-8.78336
▁ᎨᏥᏅᏏᏛ	-8.7898
▁ᏂᏚᏪᏎᎴ	-8.79229
▁ᏌᏉᏉ	-8.79241
Ꮹ	-8.79393
▁ᎤᏙᎴᎰᏒ	-8.79539
▁ᎤᏣᎴᏍᏗ	-8.79712
▁ᎬᎩ	-8.79716
▁ᎦᎸᎳᏗᏢ	-8.79861
▁Ꮓ	-8.80108
▁ᎬᏂᎨ	-8.80791
▁ᏫᏚ	-8.81108
ᎨᎳᏍᏗᏱ	-8.81454
▁ᏥᎨᏐ	-8.81622
ᏗᏍᎨᏍᏗ	-8.81728
▁ᏫᎾᏍᏛᎾ	-8.82067
▁ᏧᏒᎯᏛ	-8.82067
▁ᎤᎵᎮᎵᏍᏗ	-8.82169
▁ᎤᏓᏅᏙ	-8.82183
▁ᏤᎯ	-8.82419
▁ᎠᎵ	-8.83287
▁ᎧᏁᎬ	-8.83373
ᎾᏍᎩ	-8.83539
▁ᎬᏩᏚᏫᏛ	-8.83713
▁ᎢᏯᏂ	-8.8405
ᎦᏔᎭ	-8.84477
▁ᏖᎸᎳᏗ	-8.84506
▁ᎾᏂᏪᏍᎨᎢ	-8.84568
▁ᏔᎷᎩᏍᎩ	-8.84608
▁ᎠᏆᏤᎵᎦ	-8.84697
▁ᎬᏂᏳᏉᏃ	-8.85288
▁ᎡᎭ	-8.85371
▁ᎤᎪᎲ	-8.85485
▁ᎤᎾᏛᎦᏅ	-8.85616
▁ᎢᎸᎯᏢ	-8.85755
ᏍᏆ	-8.86073
▁ᎠᏋᏒ	-8.86182
▁ᎠᎲ	-8.86221
Ꮥ	-8.86265
Ꮷ	-8.86311
▁ᎠᏂᏐᎢ	-8.86416
▁ᏓᏳ	-8.86917
▁ᎨᎾᏂ	-8.86933
▁ᎭᏫᏯ	-8.8701
▁ᎢᏳᏟᎶᏛ	-8.8701
▁ᏃᏈᏏ	-8.87028
▁ᏂᎬᏩᏪᏎᎴᎢ	-8.87039
▁ᎤᏏᏙᎵ	-8.87051
▁ᎪᏱᏁᎢ	-8.87143
▁ᎦᏚᏏ	-8.87254
▁ᏑᏓᎵ	-8.87794
▁Ꮤ	-8.87835
▁ᎢᎾᎨᎢ	-8.88177
▁ᏤᏍᏗ	-8.88226
▁ᎦᏍᎩᎸ	-8.88352
ᏤᎵ	-8.88579
▁ᎦᎸ	-8.88872
▁ᎭᏢ	-8.8894
▁ᎠᏂᎦᏔᎲ	-8.89007
▁ᏚᏏᎳᏛ	-8.89009
▁ᎢᏯ	-8.89127
ᎯᏍᏗᏱ	-8.89409
▁ᏥᎦᏔᎭ	-8.89527
▁ᏭᏕᎵᎬ	-8.8957
▁ᏑᎾᏓᏡᎩ	-8.89574
▁ᏗᏨᏍᏙᏗ	-8.89578
▁ᏧᏂᎸᏫᏍᏓᏁᎯ	-8.8961
▁ᏱᏗ	-8.89636
▁ᏕᏣ	-8.89721
ᎯᏳ	-8.89917
▁ᏥᎨᏐᎢ	-8.90098
Ꮤ	-8.90228
▁ᏅᏗᎦᎵᏍᏙᏗᏍᎨᏍᏗ	-8.90229
ᏁᎲ	-8.90372
▁ᎨᏣ	-8.90464
▁ᏗᎬ	-8.91369
▁ᎡᏉᏂ	-8.91403
▁ᏅᎦᏍᎪᎯ	-8.91458
ᎯᎠ	-8.91498
▁ᎤᏁᎳᏅᎯᏍᎩᏂ	-8.91721
▁ᏄᎾᏍᏛ	-8.9184
▁ᏍᎩᏴ	-8.92025
▁ᎣᎭᏁ	-8.92033
▁ᎬᏃᏛ	-8.92219
▁ᎠᏥᎸᏉᏗᏳ	-8.92231
▁ᏗᎵᏍᏓᏴᏗᏱ	-8.92294
ᎦᎸ	-8.92419
ᎾᏛ	-8.92691
ᏒᎯ	-8.9277
ᏥᎸ	-8.92869
▁ᎤᏪᎵᏎ	-8.93237
▁ᏂᏣ	-8.9341
▁ᏓᏔᎴᏒ	-8.93419
ᏁᎸᎯ	-8.93473
▁ᏂᏓ	-8.93688
▁ᎺᎵ	-8.94043
▁ᎡᏆᎻ	-8.94199
▁ᏂᎦᏪᏍᎬ	-8.94232
▁ᎤᎵᏏᎬ	-8.94406
▁ᎤᏪᎷᏁ	-8.94441
▁ᏄᏛᏁᎴ	-8.94447
▁ᎠᏆᏓᏅᏙ	-8.9471
▁ᏓᎾ	-8.94744
▁ᎡᎶ	-8.94813
ᏍᏕ	-8.94844
▁ᏂᎦᏪᎭ	-8.9495
▁ᎥᏞᏍᏗ	-8.94985
▁ᎮᎾ	-8.95068
▁ᎠᏎᏉᏉ	-8.9526
ᎴᏍᏗ	-8.95307
ᎳᏗ	-8.95347
▁ᎠᏰᎸᎢ	-8.95932
▁ᏑᎾᎴᎢ	-8.96039
▁ᏄᎾ	-8.96624
▁ᎦᎵᏦᏕ	-8.96924
▁ᎩᎶᏍᎩᏂ	-8.97071
▁ᎠᏓᏅᏖᏍᎬ	-8.97249
▁ᎩᎦᎨᎢ	-8.97571
▁ᎠᎵᏍᎪᎸᏙᏗ	-8.9766
ᏉᏃ	-8.97687
▁ᏗᏂᎳᏫᎩ	-8.97693
▁ᏧᏆᎶᎦ	-8.97703
▁ᏧᎾᏤᎵᎦ	-8.97778
ᎪᏗ	-8.97981
▁ᏣᏁᎭ	-8.98013
▁ᏕᎤ	-8.98021
ᏒᏃ	-8.98104
▁ᎤᏩᏒᏉ	-8.98327
ᏰᎸ	-8.98346
Ꭱ	-8.98645
ᎦᏘ	-8.99026
▁ᏂᏥᎥ	-8.99286
▁ᎤᏁᏤᎴ	-8.99413
▁ᏈᏓᏃ	-8.99779
▁ᏍᎩᎾ	-8.9987
▁ᎾᏍᏉᏍᎩᏂ	-9.0002
▁ᏅᏗᎦᎵᏍᏙᏗᏍᎬ	-9.001
▁ᎤᏁᏤ	-9.00368
▁ᎤᏙ	-9.00397
▁ᎢᏣᎵᏍᏓᏁᏗ	-9.004
▁ᏩᎭᏯ	-9.0054
▁ᏗᎧᎸᎬ	-9.00542
▁ᏙᏱᏗᏢ	-9.0055
▁ᎠᎰᎵ	-9.00612
▁ᏣᎳᎩ	-9.00688
▁ᎡᎶᏗ	-9.00693
▁ᎤᏍᎪᎸ	-9.0084
▁ᎤᏠᏱᏉ	-9.00965
▁ᏧᏓ	-9.01159
▁ᎢᎸᏍᎩ	-9.01418
Ꮭ	-9.01461
▁ᎨᎵ	-9.01554
ᏅᏗ	-9.01833
▁ᎤᎾᏙᏓᏆᏍᎬ	-9.0227
▁ᏗᎨ	-9.0232
ᏛᎦ	-9.02376
ᏍᎩᏂᏃᏅ	-9.02531
▁ᎤᏂᎷᏤ	-9.02777
▁ᎤᏁᎦ	-9.0283
▁ᎬᏩᏍᏓᏩᏗᏙᎯᏃ	-9.02968
ᏰᎵ	-9.03007
▁ᏣᏥ	-9.03152
▁ᎤᏣᏘᏂ	-9.03223
▁ᏎᎵ	-9.03233
▁ᎢᏳᎾᎵᏍᏓᏁᏗ	-9.03353
▁ᎢᏳᎾᏛᏁᏗ	-9.03376
▁ᏂᏚᏳᎪᏛᎾ	-9.03481
▁ᎠᏂᏲᏍᎩ	-9.03482
▁ᏧᏬᏰᏂ	-9.03493
▁ᏣᏁᏢᏔᏅᎯ	-9.03506
▁ᎤᎩᎬ	-9.03508
▁ᏱᏥᎦᏔᎭ	-9.03591
▁ᎤᎵᏍᏓᏴᏗ	-9.03614
▁ᎠᏂᏅ	-9.03623
▁ᎤᏂᏙᏓ	-9.03624
▁ᎤᏍᏆᏂᎩᏗ	-9.03737
▁ᏩᏍᏛ	-9.03976
▁ᎾᎯᏳᏃ	-9.04161
▁ᏥᎻ	-9.04235
Ꮆ	-9.04292
▁ᎡᎶᏛ	-9.05071
▁ᎢᏏᎵᏃ	-9.05322
▁ᏓᏥ	-9.05574
▁ᎤᎵᏍᏆᎸᏗ	-9.05791
▁ᎤᏬᏢ	-9.06104
▁Ꭹ	-9.06341
▁ᏧᎾᏤᎵ	-9.06488
▁ᎦᎶᎯᏍᏗ	-9.06494
▁ᏱᎦᎵᏍᏙᏓ	-9.0652
ᏕᏍᏗ	-9.0654
▁ᎢᏥᏍᎦᏯ	-9.06558
Ꭷ	-9.06598
▁ᎤᎧᎵᏨᎯ	-9.06615
▁ᎤᏪᏘ	-9.067
▁ᎢᏤᎲᎢ	-9.0712
ᏛᎾ	-9.07183
▁ᎤᏙᎯᏳ	-9.07617
▁ᎤᎾᎵ	-9.07774
ᏱᎩ	-9.07828
ᏍᏔᏁᎢ	-9.08063
▁Ᏺ	-9.08077
▁ᎠᎦᏔᎲ	-9.08305
▁ᎢᏅ	-9.08552
▁ᎠᏴᏍᎩᏂ	-9.08719
▁ᏦᎠᏍᎪᎯ	-9.08857
▁ᎤᎷᏤ	-9.08878
ᏍᏔᏁ	-9.08899
▁ᏐᎢ	-9.08965
▁ᎢᏤᎲ	-9.08999
▁ᏄᏪᏎᎸ	-9.09305
▁ᎬᏩᏂ	-9.09331
▁ᎠᏗᏔᏍᏗ	-9.09342
▁ᏚᏅᏓᏒ	-9.09646
▁ᏒᎦᏔ	-9.09648
▁ᎦᎶᏇ	-9.0965
▁ᏚᎾᏙᎥ	-9.09689
▁ᎦᎸᎳᏗᏣ	-9.09789
▁ᏥᏄᏍᏗ	-9.09817
▁ᏛᎦ	-9.09825
ᏁᎮ	-9.09842
Ꮖ	-9.09988
▁ᎾᎥᏂᎨ	-9.10104
▁ᎬᏙᏗ	-9.1017
ᏩᏛᏗ	-9.10553
▁ᎣᏥ	-9.11402
ᎲᎦ	-9.11462
ᏣᏓ	-9.11865
▁ᏃᏯ	-9.1192
▁ᎫᏩ	-9.12068
▁ᎴᏆᏂ	-9.12144
▁ᏆᎴᏗ	-9.12144
▁ᏣᏙᏓ	-9.12264
ᎦᏙ	-9.12343
ᎨᏥ	-9.12459
▁ᏡᎬ	-9.12484
▁ᎡᎲ	-9.12584
▁ᎢᏯᏛᏁᏗ	-9.12731
▁ᏔᎴᎲᎦ	-9.12863
▁ᏎᏓᏂ	-9.12865
▁ᎠᏂᏳᏩᏁᎦ	-9.12871
▁ᏧᏓᏆᏙᎩ	-9.12872
▁ᎦᏚᎢᏣ	-9.12885
▁ᎢᎬᏁᎸᎯ	-9.12897
▁ᏥᎪᏪᎳ	-9.12906
▁ᎤᏲᎱᏎᎢ	-9.12955
▁ᎠᏂᏴᏫ	-9.12958
▁ᏭᎷᏤ	-9.12985
▁ᏐᎢᏃ	-9.1361
▁ᎬᏅᎢ	-9.13701
▁ᎤᏂᏣᏘᏃ	-9.13778
▁Ꮀ	-9.14517
▁ᏥᏕ	-9.14573
▁ᏥᏍᏆ	-9.1488
▁ᎦᏚᎢ	-9.15302
▁ᎤᎵᏍᏈᏗ	-9.15409
▁ᎯᏍᎦᏍᎪᎯ	-9.15414
o	-9.15554
▁ᎤᏂᏍᎦᏅᏨ	-9.15624
▁ᎤᏛᎦᏁ	-9.15828
▁ᎢᎾᏛ	-9.15853
▁ᏅᏓ	-9.16122
▁ᏧᎸᏫᏍᏓᏁᎯ	-9.16195
▁ᏔᎳᏍᎪᎯ	-9.16196
▁ᏅᏓᎦᎵᏍᏔᏂ	-9.16197
▁ᎾᏑᏴᎾ	-9.16201
▁ᎢᏣᎵᏅᏟ	-9.16203
▁ᎤᎾᏓᏤᎵᏛ	-9.16207
▁ᏧᎾᏛᏐᏅᎯ	-9.16229
▁ᏕᏧᎬ	-9.16238
▁ᎢᏣᏛᏁᏗᏱ	-9.16251
▁ᎯᏅᏏᏓᏍᏗ	-9.16285
▁ᎩᎦ	-9.16527
ᏒᎭ	-9.1679
▁ᏕᎯ	-9.16986
Ᏺ	-9.17372
▁ᏎᎦ	-9.17398
▁ᎠᎹᏱ	-9.17486
▁ᏫᏓ	-9.17542
▁ᏙᏱ	-9.1786
ᎶᎯ	-9.18324
ᎵᏍᏙᏗ	-9.18341
ᏍᎬᎩ	-9.18485
Ꮲ	-9.1865
▁Ꮑ	-9.18654
ᏗᏍᎨ	-9.18702
ᏁᎴᎢ	-9.18951
▁ᎤᏚᎵᏍᎬ	-9.19076
ᏄᏬ	-9.19129
▁ᎤᏒ	-9.19234
▁ᏂᎦᎥᏉ	-9.19292
▁ᏙᏓ	-9.19355
ᏅᏟ	-9.1937
▁ᎬᏗᏍᎬ	-9.19507
▁ᏥᏂᎬᏅ	-9.19651
▁ᎢᏯᏛᏁᎯ	-9.19656
▁ᎦᏰ	-9.19658
▁ᏂᎦᎵᏍᏗᎭ	-9.19674
▁ᎤᎴᏂᏙᎴᎢ	-9.19702
▁ᎠᏂᎨᏯ	-9.19713
▁ᎦᎸᏉᏙᏗ	-9.19733
▁ᎠᏕᎳ	-9.19773
▁ᏭᎶᏎᎢ	-9.19917
▁ᎤᎬᏫᏳ	-9.19931
▁ᎰᏩᏃ	-9.20037
▁ᎤᎷᏨᎩ	-9.20065
▁ᎡᎮᎢ	-9.2019
▁ᎢᏯᏍᏗ	-9.20426
▁ᎦᏁᎦ	-9.20447
ᏍᏙᏗᏱ	-9.21069
▁ᎤᏛᎾ	-9.2119
▁ᏂᎬᎾᏛᎢ	-9.21653
▁ᎡᎳᏂᏃ	-9.21815
▁Ꭻ	-9.2203
▁ᎤᏪᏅᏎ	-9.22074
ᏅᎾ	-9.22082
▁ᎤᎪᎮ	-9.22114
▁ᏅᏩᏓᎴᏃ	-9.2216
▁ᎴᏥᎵ	-9.22219
ᏙᏓ	-9.2231
▁ᏗᎩ	-9.22351
▁ᎤᎦᎾᏍᏛ	-9.22456
▁ᏄᎵᏍᏔᏂᏙᎸ	-9.22467
▁ᎦᏬᏂᏍᎬ	-9.22558
ᎠᏗᏔᏍᏗ	-9.22639
ᎴᏅ	-9.2289
▁ᎤᏁᏤᎸ	-9.22925
ᏢᏗ	-9.22988
ᏛᏗ	-9.23045
▁ᎤᎵᏍᏆᏗᏍᏗ	-9.23082
▁ᏧᏂᎾᏫ	-9.23134
▁ᎤᏍᎪᏍᏛ	-9.23223
▁ᏅᎬᏩᏪᏎᎸᎩ	-9.23231
▁ᏏᏓᏁᎸᎯ	-9.23259
▁ᏍᏓᏯ	-9.23297
ᎶᏗ	-9.23358
▁ᏙᏛ	-9.23372
▁ᎠᏓᏁᎯ	-9.23648
▁ᎤᎾᏫ	-9.23676
▁ᎠᏤᎯ	-9.2369
▁ᎦᏛᎦ	-9.23738
▁ᏤᎭ	-9.23763
▁ᎦᏙᎬ	-9.23793
▁ᎠᏂᎦᏔᎲᎢ	-9.2391
ᏅᏎ	-9.24031
▁ᎦᏙᎨ	-9.24294
▁ᎤᏲᎢ	-9.2442
▁ᎤᏕᏯᏙᏗ	-9.24471
▁ᎡᏏᎩᏃ	-9.25156
▁ᎾᏍᎩᏯᏉ	-9.2601
ᏁᎮᏍᏗ	-9.26058
▁ᎨᎻᎵ	-9.26107
▁ᎠᏥᏅᏏᏓᏍᏗ	-9.26212
▁ᎪᏪᎸ	-9.26264
▁ᏄᏩᏁᎴ	-9.26455
▁ᎢᏳᎵᏍᏓᏁᏗ	-9.268
▁ᏂᎦᎵᏍᏗᏍᎬ	-9.26908
▁ᏓᎿᏩ	-9.26919
▁ᎠᏠᏁᏗ	-9.26919
▁ᎧᏃᎯᏰᎩ	-9.26919
▁ᏅᏓᏳᎶᏒᎯ	-9.2692
▁ᏧᏳᎪᏗ	-9.26925
▁ᎡᏉᎯᏳ	-9.26929
▁ᎠᎦᏘᏏᏗᏢ	-9.26972
▁ᎦᎷᏨᎭ	-9.26974
▁ᎠᎹᏟ	-9.26981
▁ᏅᏃᎯ	-9.27004
▁ᏗᏰᎸᎯ	-9.27055
▁ᏥᏓ	-9.27365
▁ᎪᏪᎸᎢ	-9.27446
▁ᎠᏆᏛᏅ	-9.27495
▁ᏴᏫᏉ	-9.27744
▁ᎤᏁᏨᎩ	-9.28144
ᏁᎸᎩ	-9.28745
ᏂᎸ	-9.28955
ᏂᏏ	-9.29028
---	-9.29172
▁ᎦᏍᎩᎶ	-9.29766
▁ᎢᎦᏓ	-9.29786
▁ᎢᏥᏙᏓ	-9.29821
▁ᏄᏍᏕ	-9.2987
▁ᎠᏂᏃᎯᎵᏙᎯ	-9.29953
Ꮸ	-9.29996
▁ᏄᏛᏁᎸ	-9.30042
▁ᎤᏔᎳᏬᎯᏍᏗ	-9.30175
▁ᎠᏂᏍᎦᎾ	-9.3026
▁ᏕᎤᏙᎥ	-9.30293
▁ᎤᏕᏘᏴᏌᏗᏒ	-9.30327
▁ᎤᏐᏱ	-9.30374
▁ᏓᏳᏓᎴᏅ	-9.30458
▁ᏓᏆᎴᎷ	-9.30602
ᎦᏔᎲ	-9.30628
▁ᏗᏏᏓᎵ	-9.30765
▁ᎯᎸᎢᏴ	-9.30766
▁ᏤᎩᏏᏂ	-9.30766
▁ᎣᏣᎵᏅᏟ	-9.30766
▁ᏦᏰᏂ	-9.30768
▁ᏗᎨᎦᏁᎶᏗ	-9.30768
▁ᎤᎾᏝᎢ	-9.30776
▁ᎢᏓᏓᏅᏟ	-9.3078
▁ᏗᏇᏥ	-9.30781
▁ᎨᏥᎸᏉᏗ	-9.30798
▁ᎾᎩᏪᏎᎸᎩ	-9.30799
ᏙᎵ	-9.30831
▁ᎬᏩᏕᏁᎴᎢ	-9.30833
▁ᏕᏣᏓᏅᏛᎢ	-9.30894
▁ᏧᎬ	-9.31251
▁ᎪᏪᎵᎯ	-9.31474
▁ᎠᏂᎪᎢ	-9.31481
▁ᏱᏂ	-9.31809
▁Ꮖ	-9.32297
▁ᎪᎳ	-9.32456
▁ᏓᎩ	-9.32553
▁ᎤᏂᎪᎲ	-9.32998
ᏍᏔᏂ	-9.33015
▁ᎤᏂᏲ	-9.33029
”	-9.33277
ᎦᏘᏯ	-9.3339
▁ᏈᎵᎩ	-9.33916
▁ᎠᏂᏬᏂᏍᎬ	-9.33979
▁ᏱᏥ	-9.34007
ᏗᎦᏅᏌᏗ	-9.34139
ᏅᏒ	-9.34209
ᎣᏍᏓ	-9.34223
▁ᏓᎬ	-9.34258
▁ᏕᏣᏙᎥ	-9.34277
Ꮺ	-9.34487
▁ᎤᏟᎯᏳ	-9.34677
▁ᎠᏓᏅᏓᏗᏍᏗ	-9.34749
▁ᏘᏅᏏᏓᏍᏗ	-9.3478
▁ᎢᎳᏯ	-9.34791
▁ᏗᏘᏂᏙᎯ	-9.3481
▁ᎤᎾᎵᏍᏕᎸᏙᏗ	-9.34837
▁ᎢᏣᏤᎵ	-9.34876
▁ᎥᏓᎵ	-9.34876
▁ᏗᏣᏤᎵᎦ	-9.3495
▁ᎤᏕᏅᎯ	-9.34955
▁ᎤᏩᏒᎯᏳ	-9.34959
▁ᏎᎦᏨ	-9.35009
▁ᎤᏙᎯᏳᏒ	-9.35249
ᏕᎢ	-9.35627
ᏛᏅ	-9.35648
▁ᎣᏓᎸᎢ	-9.35784
ᎡᎯ	-9.3635
▁ᎠᏂᏓ	-9.36406
▁ᎬᏗᏍᎩ	-9.36561
Ꮠ	-9.36742
▁ᏥᎦ	-9.36794
▁ᏗᎬᏩ	-9.36885
▁ᎯᎪ	-9.37396
ᎢᏳᏍᏗ	-9.37643
▁ᏩᎶᏏ	-9.38095
▁ᏧᏓᏏ	-9.38465
▁ᎠᏍᎦᎾ	-9.38571
ᏍᏉ	-9.38606
ᎵᎪ	-9.38884
▁ᏩᏏᏓᏂ	-9.38931
▁ᏚᏬᏢᏔᏅᎩ	-9.38937
ᏙᎢᏳᏍᏗ	-9.38964
▁ᏧᏂᎸᏫᏍᏓᏁᏗᏱ	-9.38978
▁ᏄᏩᏁᎸ	-9.39022
▁ᎠᎨᏳᏣ	-9.39024
▁ᏗᏓᏅᏙ	-9.39059
▁ᏓᏏᎳᏛ	-9.39101
▁ᎠᎹᏰᎵ	-9.39114
▁Ᏸ	-9.39132
▁ᏱᏄᏍᏗ	-9.39162
▁ᏥᏁᎬᎢ	-9.392
▁ᎤᏲᎱᏒᎯ	-9.39317
ᎵᎦ	-9.39564
▁ᎤᎶᏐᏅ	-9.39577
▁ᎤᏓᏅ	-9.3962
▁ᎧᏁᎬᎢ	-9.39756
▁ᎢᏳᏍᏗᏉ	-9.39873
▁ᏂᏗ	-9.39989
▁ᏂᎨ	-9.40121
ᏓᏙᎵᏍᏗ	-9.40755
▁ᏚᏙᎥᎢ	-9.4078
ᏂᎦ	-9.4132
ᎾᏏ	-9.41383
▁ᏗᎧᎿᏩᏗᏙᎯᏃ	-9.41412
▁ᎠᏤ	-9.41938
▁ᏍᏆ	-9.42061
▁ᏚᏁᏤᎴ	-9.42075
▁ᏗᎦᎸᏉᏗ	-9.42276
▁ᎠᎦᏴᎵ	-9.42324
▁ᏄᏂᎬᏫᏳᏌᏕᎩ	-9.42401
▁ᎠᏏᏉᏃ	-9.42413
▁ᏆᏂᏆ	-9.42462
Ꮪ	-9.42586
▁ᎵᎠ	-9.4272
▁ᎠᏦᏴ	-9.42808
▁ᎢᎬ	-9.42844
ᏗᏍᎨᎢ	-9.42967
▁ᏗᎦᎫᏍᏛᏗ	-9.4315
▁ᎢᏨᎨᏳᎢ	-9.43264
▁ᏍᏈᏍᏓ	-9.43279
▁ᏚᏬᏢᏅᎩ	-9.43294
▁ᎨᏥᏅᏏᏓᏍᏗ	-9.43295
▁ᎠᏂᎳᏍᏓᎸ	-9.43297
▁ᎠᏍᏆᎨᏂ	-9.43298
▁ᎧᏂᎩᏓ	-9.433
▁ᎾᏍᎦᏅᎾ	-9.43301
ᎪᎯ	-9.43338
▁ᎤᎾᏁᎳᎩ	-9.4334
▁ᏍᏔᏯ	-9.4334
▁ᏧᏩ	-9.43345
▁ᎢᎩᏙᏓ	-9.43348
▁ᎢᎬᏱᏢ	-9.43374
▁ᎧᏃᎮᏍᎩ	-9.43377
▁ᎦᏬᏂᏍᎩ	-9.43382
▁ᎦᎶᏙᏗ	-9.43425
▁ᎤᏅᏌ	-9.43429
▁ᎠᏢᏗᏱ	-9.43529
▁ᎦᎶ	-9.43553
▁ᎠᏲᎩ	-9.43657
▁ᎤᏬᎸ	-9.43668
▁ᎶᏗ	-9.43707
▁ᎦᏅᎯᏛ	-9.43738
ᎶᎯᏍᏗ	-9.43921
ᎩᏃ	-9.44144
ᏆᎵ	-9.44533
▁ᎡᎲᎢ	-9.44612
▁ᎠᎼ	-9.44707
▁ᎣᏏ	-9.44924
ᏍᏛᎢ	-9.45653
ᎸᎭ	-9.45747
ᏛᏂ	-9.45849
ᏛᏁ	-9.46284
▁ᏱᎬ	-9.4656
▁ᎠᏰᏙᎳᏛᏗ	-9.46686
▁Ꮝ	-9.468
ᎯᏯ	-9.46959
ᎲᏏ	-9.47033
▁ᏩᏯ	-9.47073
ᏤᏍᏗ	-9.47076
▁ᎦᏅᏍᏙᏗ	-9.47101
ᏧᏏ	-9.47107
Ꮇ	-9.47152
▁ᏉᎳᏃ	-9.47222
ᏣᏗ	-9.47243
▁ᎠᏔᎴᏒ	-9.47255
▁ᏓᏓᎿᏩᏍᏛ	-9.47318
▁ᏓᏆᏙᎥ	-9.47346
▁ᎠᎩᏏ	-9.47462
▁ᎢᏥᎦᏔᎭ	-9.4757
▁ᎠᏁᏙᎯ	-9.47627
ᎠᎴ	-9.4768
▁ᏗᎧᏃᏗ	-9.47712
▁ᏧᎸᏫᏍᏓᏁᏗ	-9.47738
▁ᏩᏚᎵᏏ	-9.47826
▁ᏧᏃᏰᏂ	-9.47829
▁ᎦᎷᏯᏍᏗ	-9.47829
▁ᎯᎸᎯᏳ	-9.47836
▁ᏓᎦᎷᏥ	-9.47842
▁ᎾᏎᎵᏗ	-9.47847
▁ᏧᏂᏢᎩ	-9.47878
▁ᎪᎩ	-9.4788
▁ᏂᎦᏪᏍᎨᎢ	-9.47882
▁ᎠᎩᏅᏏᏙᎯ	-9.47899
▁ᏗᎫᎪᏙᏗᏱ	-9.47922
▁ᎤᏥᎸᎢ	-9.47963
▁ᏗᎧᏃᏗᏱ	-9.47973
▁ᏗᏂᎦᏙᎵ	-9.48046
▁ᎠᏂᎩᏏ	-9.48052
▁ᎤᏂᏥ	-9.48054
▁ᎭᎾᎾ	-9.48055
▁ᎢᎦᎦᏛ	-9.48099
ᏍᏔᏅᎯ	-9.48139
▁ᎤᏍᏆᎸᎲ	-9.48162
▁ᏫᏣ	-9.48197
ᏕᎵ	-9.48337
▁ᏭᎷᏤᎢ	-9.48544
▁ᏚᏯ	-9.48625
ᎡᎢ	-9.4872
▁ᎾᏂᎥᎢ	-9.48792
▁ᎢᎦᏘ	-9.48862
ᏍᏚ	-9.48867
ᏲᎯ	-9.48942
ᎪᎲ	-9.48966
▁ᎡᏆᎻᏃ	-9.49057
▁ᏭᏂ	-9.49077
▁ᎠᏥᎸᏱ	-9.49129
▁ᎢᏤᎾ	-9.49182
ᏛᎯ	-9.49365
▁ᎢᎬᏁᏗ	-9.49646
▁Ꮡ	-9.49804
▁ᎠᎪ	-9.49858
▁ᎠᎴᏬ	-9.49911
ᏴᏫ	-9.49987
▁ᏄᏍᏛᎢ	-9.5056
▁ᎦᏥ	-9.50584
▁ᏗᏓ	-9.50748
▁ᏕᎨ	-9.51258
▁ᏫᎦ	-9.51403
▁ᎵᏇᎩ	-9.51567
▁ᏦᎩ	-9.51629
▁ᏗᏓᎴᏂᏍᎬ	-9.51826
▁ᏗᎨᏫ	-9.51862
▁ᎾᏂᎥᏉ	-9.52047
▁ᎦᎳᎨᏴ	-9.52087
▁ᏕᎦᏚᎲ	-9.52096
▁ᏗᎩᎦᏴᎵᎨ	-9.52104
▁ᏚᎾᏓᏅᏛ	-9.52164
▁ᎦᏛᎬ	-9.52236
▁ᎤᏓᏅᏘᏳ	-9.52259
ᏍᏆᏂᎪᏙᏗ	-9.52271
▁ᎤᏍᎦᏎᏗ	-9.52424
▁ᏇᏂ	-9.5243
ᏅᏏᏛ	-9.52443
▁ᎤᏍᎦᏅᏨ	-9.5248
▁ᎢᏳᏩᎫᏗ	-9.52587
▁ᎢᏥᏡᏱ	-9.52587
▁ᎠᎵᏍᏆᏗᏍᎩ	-9.52587
▁ᎢᏳᏓᎴᎩ	-9.52587
▁ᎦᎵᏆᏍᎪᎯ	-9.52587
▁ᎢᏤᏯᏔᎮᏍᏗ	-9.52587
▁ᏄᏃᎯᏳᏒᎾ	-9.52589
▁ᏒᎧᏔ	-9.5259
▁ᎢᏌᏯ	-9.52594
▁ᏫᏥᎢᎦ	-9.52595
▁ᏅᏓᏳᎵᏍᏙᏔᏅᎩ	-9.52599
▁ᏚᏙᎡᎢ	-9.52602
▁ᏄᎬᏫᏳᏌᏕᎩ	-9.52609
▁ᏎᎷ	-9.52616
▁ᎢᏨᏲᏎᎭ	-9.52618
▁ᎠᏂᎪᏕᏍᎩ	-9.52627
▁ᏧᏙᏓᏆᏓ	-9.52648
▁ᎠᏂᏣᎳᎩ	-9.52654
▁ᎤᏗᎴᎩ	-9.52692
▁ᎠᏏᎾᏌᏂ	-9.52703
▁ᏗᏦᏢᏗ	-9.52735
▁ᏗᎦᎪᏗᏱ	-9.5274
▁ᎤᎾᎵᏍᏓᏴᏗ	-9.52743
▁ᎤᎾᏫᏱ	-9.52762
▁ᎢᏥᏈ	-9.52763
▁ᎤᎯᏐᏗ	-9.52784
▁ᎯᏯ	-9.52819
▁ᎦᎾᏰᎯᏍᏗ	-9.52875
▁ᏭᏴᎴᎢ	-9.52954
▁ᎤᎾᏄᎪᏫᏒᎯ	-9.53031
▁ᎠᎫᏴᏙᏗ	-9.53123
ᎴᏃ	-9.53198
▁ᎨᎳ	-9.53266
▁ᏧᎾᏓ	-9.5328
▁ᎢᏤᎯ	-9.53307
ᎲᏍᎩ	-9.53393
▁ᏥᏂ	-9.53471
▁ᏴᎩ	-9.53577
▁ᎤᏕᏅ	-9.53614
ᏐᎢ	-9.53661
▁ᎴᏆᏂᏃ	-9.53668
Ꮚ	-9.53829
▁ᎥᎩ	-9.53899
▁ᎠᎧᎵᎢ	-9.54551
ᏌᏛ	-9.5491
▁ᏯᎩ	-9.5494
ᏍᏗᏉ	-9.55017
▁ᏥᏣ	-9.55348
▁ᏱᏗᏥ	-9.55516
▁ᏅᏛ	-9.55692
▁ᎾᏍᎩᏴ	-9.56051
▁ᎤᏬ	-9.56513
▁ᎡᏘ	-9.56853
▁ᎤᏂᎷᏨᎩ	-9.56904
ᎾᎵ	-9.57018
▁ᏧᏪᏅᏒ	-9.57084
▁ᏅᏗᎦᎵᏍᏙᏗᏍᎪ	-9.57106
▁ᏚᎪᎮ	-9.57132
▁ᎤᏃᏴᎬ	-9.57173
▁ᎠᏂᏃᎮᏍᎬ	-9.57185
▁ᏓᏓᏁᎸ	-9.57256
▁ᎪᏍᏚ	-9.57276
▁ᏅᏛᎩᏅᏏᏛ	-9.57324
▁ᎬᏂᏗᏳ	-9.57418
▁ᎤᏂᏬᏂᎯᏍᏗ	-9.57511
▁ᎢᏳᎾᏛᎿᏕᎩ	-9.57587
▁ᏍᎦᏚᎩ	-9.57587
▁ᏎᎩᎵ	-9.57589
▁ᏗᏂᎭᏄᎸᎯ	-9.57595
▁ᎤᏂᎬᏫᏳᏌᏕᎩ	-9.57599
▁ᏌᎪᏂᎨ	-9.57602
▁ᎢᎳᎪ	-9.57603
Ꮴ	-9.57603
▁ᏂᏥᏪᎭ	-9.57606
▁ᎢᏳᏩᏂᏐᏗᏱ	-9.57609
▁ᏍᎩᏃᎲᏏ	-9.5761
▁ᎢᏳᏩᏁᏗᏱ	-9.57621
▁ᎠᎩᎵᏯ	-9.57625
▁ᎢᏳᏓᎴᏅᏛ	-9.57628
▁ᏏᏌ	-9.57631
▁ᎤᏩᏙᎯᏴᏓ	-9.57636
▁ᏙᏰ	-9.57638
▁ᎠᏦᎭᏴ	-9.57646
▁ᏒᎮᏱᏣ	-9.57652
▁ᎢᎬᏁᎯ	-9.5768
▁ᎠᎦᏗᏓ	-9.57722
▁ᎤᏬᏗᎨ	-9.57739
ᎦᎵᏍᏗ	-9.57778
▁ᎤᏍᎦᏃᎵ	-9.57784
)	-9.57819
▁ᏚᎸᏫᏍᏓᏁᎲᎢ	-9.57875
▁ᏓᏯᎢ	-9.57879
▁ᎧᎸᎢ	-9.5793
▁ᎠᏍᏓᏱᏳ	-9.57957
ᏂᎩ	-9.58068
ᏁᎸᎢ	-9.58109
▁ᏚᎾᏓᏅᏛᎢ	-9.58133
▁ᎦᎸᎳᏗᏳ	-9.58168
▁ᎤᏰᎯ	-9.58296
▁ᎨᏂ	-9.5843
▁ᎤᎾᎵᎢ	-9.5845
ᏉᏰᏃ	-9.58477
▁ᎪᎯᏓ	-9.58519
▁ᏄᏛᏁᎴᎢ	-9.58521
ᏙᎩ	-9.58608
▁ᎤᎾᏓᏡᎬᎢ	-9.58793
▁ᏧᏓᏃ	-9.5891
▁ᏣᏤᎵᎦ	-9.59183
ᏍᏕᎸᏗ	-9.59188
▁ᏗᎧᎿᏩᏛᏍᏗᏱ	-9.59231
ᎥᎢ	-9.59337
▁ᏓᏆ	-9.59463
▁ᏅᏓᏳ	-9.59471
▁ᏂᏥ	-9.59489
Ᏸ	-9.59732
e	-9.59799
▁ᎤᏓᏅᏖᏗ	-9.60057
ᎦᏅᎯᏛ	-9.60188
ᏂᏯ	-9.60334
ᏃᎴ	-9.6056
▁ᎤᏂᏁ	-9.60663
ᏍᏔᏅᎩ	-9.60761
▁ᎤᎶᎩᎸ	-9.60827
ᏯᎠ	-9.60827
ᏁᎲᎢ	-9.60831
ᎩᏎ	-9.60951
▁ᎤᏂᏣᏖ	-9.60977
ᏌᎳᏓ	-9.61007
ᏥᏌ	-9.61455
▁ᏂᏚᎩᏨᏂᏒ	-9.61534
▁ᎤᏅᏒᏉ	-9.61765
▁ᎦᏓᏅᏖᏍᎬ	-9.61833
▁ᏙᎴᏛ	-9.61971
▁ᏗᎹᏗ	-9.62007
▁ᏗᎦᏚᎲ	-9.62061
▁ᏧᏯᏖᎾ	-9.62122
ᎤᏁᎳᏅᎯ	-9.6216
▁ᎠᏓᏫ	-9.62264
▁ᎧᎳᏩᏗᏒ	-9.62327
▁ᎢᏦᎯᏳᏒ	-9.62362
▁ᎠᏤᎵᏍᏛ	-9.62365
▁ᎠᏆᏚᎵ	-9.62695
ᏤᎸ	-9.62709
▁ᏭᎶᏒ	-9.62797
▁ᎤᎪᏏᏓ	-9.6285
▁ᏨᏗᏓᎴᎲᏍᎦ	-9.62851
▁ᏱᏅᏗᎦᎵᏍᏙᏗᎭ	-9.62857
▁ᎢᏥᏏᏴᏫᎭ	-9.62857
▁ᏗᏟᎶᏍᏔᏅᎯ	-9.6286
▁ᎢᏳᎾᎵᏍᏙᏗᏱ	-9.62867
▁ᎢᏯᎾᏛᏁᎯ	-9.6287
▁ᎪᏍᏓᏱ	-9.62871
▁ᏦᏓᏂ	-9.62874
▁ᏧᏕᏘᏴᏓ	-9.62874
▁ᏗᏖᎵᏙ	-9.62876
▁ᎬᏩᏟᏍᏗ	-9.62923
▁ᎠᏍᎦᏅᎢᏍᏗ	-9.62928
▁ᎠᏋᏌ	-9.62932
▁ᎪᎯᏗᏳ	-9.62933
▁ᎤᎦᎾᏍᏓ	-9.63029
▁Ꮜ	-9.63036
▁ᎢᏣᏤᎵᎦ	-9.63037
▁ᏧᎪᎳ	-9.63037
▁ᏗᏆᏤᎵᎦ	-9.63092
▁ᎠᎵᏍᏕᎸᏙᏗ	-9.63135
▁ᎤᏚᎵᏍᎨᏍᏗ	-9.63343
▁ᎢᎦᎦᏘ	-9.63373
▁ᎢᏧ	-9.63406
ᏆᏂ	-9.63515
▁ᏂᎦᏗ	-9.63523
▁ᎦᏬᏂᎯᏍᏗ	-9.63742
▁ᎡᎵᏍᏗ	-9.6387
Ꮗ	-9.63942
▁ᎤᏓᏅᏖᎴ	-9.63945
▁ᏣᏁᎳ	-9.64043
c	-9.6405
▁ᎡᏗ	-9.64281
ᎩᎶ	-9.64356
ᎵᏰ	-9.64568
▁ᎠᏓᏁᎸᎢ	-9.64711
▁ᏄᏪᏒᎢ	-9.64823
▁ᏞᎦ	-9.64851
▁ᏄᎵᏍᏔᏅᎢ	-9.64984
ᎦᎶ	-9.64989
ᏨᎩ	-9.65095
Ꮔ	-9.65301
ᏅᏃ	-9.65436
ᎸᎾ	-9.65616
▁ᎦᏂ	-9.65676
▁ᎤᏁᏨᎢ	-9.65721
ᎦᎳ	-9.6573
▁ᎤᏣᏘᏰᏃ	-9.65997
▁ᏚᎾᏓ	-9.66207
▁ᏃᏥ	-9.66208
▁ᎠᏏᏴᏫᏃ	-9.66215
▁ᎦᏄᎸ	-9.66357
ᎬᏂ	-9.66621
Ꮋ	-9.6667
ᏯᎢ	-9.66796
▁ᏚᎴᏅ	-9.67182
ᎸᏉᏗᏳ	-9.6725
▁ᏚᏂᎸᏫᏍᏓᏁᎲ	-9.6742
▁ᎫᏢᏗ	-9.67455
▁ᎢᏳᎢ	-9.675
▁ᎡᏈᏌ	-9.67519
▁ᎤᏛ	-9.67522
▁ᎾᎾᏛᏁᎲ	-9.67563
▁ᏗᎪᏪᎵᏍᎩ	-9.67642
▁ᎠᎵᏍᏚᎶ	-9.6765
▁ᎦᏁᎲ	-9.67721
▁ᎵᏫ	-9.67764
ᎨᏒᎢ	-9.67814
▁ᎾᎥᎢ	-9.67851
▁ᎤᎨᏓᎵᏴ	-9.67883
▁ᎤᏅᏏᏴ	-9.67888
▁ᎠᎾᎢᏒ	-9.6797
▁ᎢᏗᎦᏔᎭ	-9.67974
ᏛᏃ	-9.68039
▁ᎦᏅᏅ	-9.68159
ᏁᎶ	-9.68193
▁ᏐᏓᎻ	-9.68215
▁ᏭᎷᏨ	-9.68224
▁ᎣᏁ	-9.68227
▁ᎬᏆ	-9.68231
▁ᏗᏥᎾᏫ	-9.68289
ᏗᏣ	-9.68297
ᎢᏍᏗᏱ	-9.6832
▁ᎠᏰᏙᎳᏛ	-9.68347
▁ᏚᏳᎪᏛᎢ	-9.68355
▁ᎤᏂᎷᏨ	-9.68387
▁Perry	-9.68405
▁ᏧᎦᎾᏮ	-9.68405
▁ᎤᏁᎫᏥᏛ	-9.68406
▁ᎥᏳᎩ	-9.68406
▁ᎤᎩᏨᏓ	-9.68412
▁ᏗᎴᎯᏐᏗ	-9.68416
▁ᎧᏂᎩᏛ	-9.68426
▁ᎠᎦᏘᏏ	-9.6843
▁ᏗᏕᏲᏗ	-9.68432
▁ᎤᏬᏢᏔᏅᎩ	-9.68447
▁ᏧᎾᎩᎸᏗ	-9.68448
▁ᎤᏂᎩᎬ	-9.68454
▁ᏗᏓᏘᏂᏙᎯ	-9.68459
▁ᏯᏆ	-9.68489
▁ᎠᎵᏍᏔᏴᏗ	-9.68494
▁ᏂᏗᎥ	-9.68542
▁ᏳᏚᎵᏍᎨ	-9.68559
▁ᏚᏓᏘᎾᎥᎢ	-9.68562
▁ᎤᏂᏍᏆᏂᎪᏎᎢ	-9.68567
▁ᎠᏆᏁᎳᏅᎯ	-9.68568
▁ᎤᎷᎯᏍᏗ	-9.6861
▁ᎤᏫᏯ	-9.68613
▁ᎠᏍᏚᏗ	-9.68654
▁ᎢᏳᎾᏛᏁᏗᏱ	-9.6868
▁ᏄᏛᏁᎸᎩ	-9.68747
▁ᎤᎾᏰᎯᏍᏗ	-9.68786
▁ᎤᏍᏆᏂᎪᏗᏳ	-9.68842
ᏍᏕᏍᏗ	-9.68911
▁ᎤᏂᏴᏍᏗ	-9.68942
▁ᎠᎵᏍᎪᎸᏔᏅᎯ	-9.68954
▁ᎡᎵ	-9.69127
ᏂᏗ	-9.69204
▁ᏂᏙ	-9.69275
▁ᏂᎦᏪᏍᎬᎢ	-9.69419
▁ᎢᏓ	-9.69493
ᏓᏓ	-9.69702
ᎪᏙᏗ	-9.69736
▁ᎠᏫᏅ	-9.69769
ᎧᏂ	-9.69802
▁ᎯᎸ	-9.69936
ᎵᏍᎩ	-9.70014
ᎩᏍᏗᏱ	-9.70035
▁ᎤᏁᏨᎯ	-9.70145
▁ᏱᏗᏣ	-9.70186
ᎨᏎᎢ	-9.70329
ᎵᏏ	-9.70463
ᎩᏯ	-9.70608
▁ᏦᎢᏁᏃ	-9.70619
ᏲᎵ	-9.70709
▁ᏕᏣᏓ	-9.70792
▁ᎢᏐᏃ	-9.70944
ᎾᏝᎢ	-9.71035
▁ᎤᏪᎵᎯᏍᏗ	-9.71176
▁ᎢᏳᏉ	-9.71251
ᎵᏍ	-9.71548
ᎡᎵ	-9.719
▁ᏴᎬ	-9.72604
ᏁᏥ	-9.72673
ᏗᏍᎪ	-9.72701
ᏰᎬ	-9.7271
▁ᎾᏂᎥᏃ	-9.73059
▁ᎦᏁᏌᎢ	-9.73129
▁ᎦᏃᎸᎥᏍᎬ	-9.73136
▁ᎡᏉᏗ	-9.73426
▁ᏧᏓᏕᏒᏛ	-9.73464
▁ᏌᏉᏃ	-9.73495
Ꮯ	-9.73538
▁ᎠᏓᎯ	-9.73599
▁ᎤᏕᏁᎸ	-9.73604
▁ᏱᏨ	-9.73618
▁ᎡᏙᎲ	-9.73652
▁ᏐᎳ	-9.73669
▁ᎠᏆᏛᎦᏅᎩ	-9.73704
ᏍᏕᎸᏗᏱ	-9.73766
▁ᏓᏁᏩᏗᏒ	-9.73816
▁ᏕᎨᏌᏗᏒ	-9.73829
▁ᏕᏡᎬ	-9.73836
ᏛᏁᎸ	-9.74057
▁ᏗᎫᎪᏙᏗ	-9.74182
▁ᎤᏓᏴᏍᏗ	-9.74242
▁ᏗᏂᎵᎠᏅᎯᏛ	-9.74288
▁ᎢᏈᎬᎢ	-9.74288
▁ᎠᎾᏓᏅᏟ	-9.74288
▁ᏞᎩᏳ	-9.74291
▁ᏔᎵᏧᏈ	-9.74291
▁ᎢᏳᏪᏅᏍᏗ	-9.74292
▁ᎠᎪᏄ	-9.74295
▁ᏌᎺᎵᏱ	-9.74299
▁ᎩᏟ	-9.74301
▁ᎠᏫᏄᏣ	-9.74306
▁ᏧᏍᏆᏅᎾ	-9.74306
▁ᎬᏔᏂᏓᏍᏗ	-9.74313
▁ᎤᏬᏚᎯ	-9.7432
▁ᎦᎨᏛ	-9.74334
▁ᎤᏬᏚᎯᏳ	-9.74338
▁ᏗᎦᏅᏙᏗ	-9.74356
▁ᏧᏓᎴᏅᏓ	-9.74378
▁ᎢᏨᏗᏍᎨᏍᏗ	-9.7438
ᏕᎾ	-9.74409
▁ᎠᎧᏔᎮᎢ	-9.74465
▁ᏓᏣ	-9.74489
▁ᎤᏕ	-9.74491
▁ᎠᏥᏍᏛ	-9.74529
▁ᎠᏟᎶᏍᏗ	-9.74558
▁ᎤᏂᏴᏍᏗᏱ	-9.74621
▁ᎤᎶᏒᏍᏗ	-9.74676
▁ᏤᎮᎢ	-9.74739
▁ᏚᎴᏁᎢ	-9.74758
▁ᎨᎦ	-9.74793
▁ᏰᎭ	-9.74849
▁ᎠᏎᎩ	-9.74878
▁ᎠᏁᎮᎢ	-9.74922
ᎶᏒ	-9.75028
▁ᏗᏆ	-9.75102
▁ᎠᏥᎸᏉᏗ	-9.75255
▁ᎦᏍᎩᎸᎢ	-9.7541
▁ᎦᏲᏟᏉ	-9.75445
▁ᏥᏫ	-9.75518
▁ᎤᏚᎸᏗ	-9.75536
ᏁᎬ	-9.7557
▁ᎤᏍᎪᎵ	-9.75574
▁ᎦᏥᏯ	-9.75597
▁ᎠᎨᏴᏃ	-9.75678
ᏨᎯ	-9.75769
ᎭᏗ	-9.75946
ᎩᎾ	-9.76253
▁ᎤᎸ	-9.76401
▁ᏱᏕ	-9.76442
▁ᏛᎾ	-9.76574
▁ᏕᎬᏩ	-9.76631
ᏅᏅ	-9.76741
▁ᏔᎵᎭ	-9.7684
ᏛᏁᎵ	-9.76905
▁ᎣᏏᏉ	-9.77153
ᏍᎦᎸ	-9.77418
ᎷᎦ	-9.7752
ᎳᏅᎯ	-9.77736
▁ᏙᎯᏱ	-9.78036
ᏓᎴ	-9.7815
ᏅᏏᏓᏍᏗ	-9.78159
▁ᏫᎬᏩ	-9.7829
n	-9.78321
▁ᎬᏩᎾ	-9.78375
▁Ꮼ	-9.78636
ᎵᎢ	-9.78721
ᏙᎳ	-9.78904
▁ᏚᎳᏍᎬ	-9.79045
ᏍᏗᏍᎨᏍᏗ	-9.79124
ᏂᏴ	-9.79221
▁ᏚᎴᏁ	-9.79305
▁ᎤᏁᏅᏎ	-9.79327
▁ᏴᎦ	-9.79358
▁ᎠᏜ	-9.79442
ᏅᏂ	-9.79469
▁ᏃᏊ	-9.79512
ᏔᏅᎢ	-9.79527
ᎦᏓ	-9.79597
▁ᎰᏩ	-9.79667
▁ᏗᏣᏓᏅᏙ	-9.79687
▁ᎠᏂᏙᎾᎥ	-9.79785
▁ᎠᏈᎻᎴᎩ	-9.79818
ᎬᎿᎨ	-9.79903
▁ᏂᏣᏛᏁᎸ	-9.79952
▁ᎤᏰᏤ	-9.80031
▁ᏨᏍᎩᏃ	-9.80034
▁ᎠᏆᎧᏛ	-9.8004
▁ᏱᎨ	-9.80061
▁ᎠᏁᏙᎲ	-9.80063
▁ᏓᏠᎯᏍᏛ	-9.80065
ᎠᏯ	-9.80095
▁ᏭᎶᏎ	-9.80118
▁ᏓᎾᏓ	-9.80123
▁ᏕᎭᎷᎨ	-9.8013
▁ᎠᏥᎦᏘᏗᏍᏗ	-9.80397
ᏗᏳ	-9.80432
▁ᎢᏳᏛᏁᏗ	-9.80454
▁ᏕᎦᎶᏗ	-9.80464
▁ᎾᎯᏳᏉ	-9.80475
▁ᎤᏬᎵ	-9.80506
▁ᎢᏏᎺᎵ	-9.80538
▁ᎦᎷᏯᏍᏘ	-9.80538
▁ᏑᎾᏙᏓᏆᏍᏗ	-9.80538
▁ᎤᏓᏅᏎ	-9.80538
▁ᎬᏩᏍᏓᏩᏛᏎᎢ	-9.80538
ett	-9.80538
▁ᏅᏓᏳᏂᎶᏒᎯ	-9.8054
▁ᎤᎵᏗᏨ	-9.80541
▁ᎢᏯᏅᏙ	-9.80541
▁ᏗᎬᏔᏂᏓᏍᏗ	-9.80542
▁ᏗᏦᏢᏙᏗ	-9.80542
▁ᏂᎬᏩᏪᏎᎸᎩ	-9.80546
▁ᎢᎦᏪᏍᏗ	-9.80549
▁ᏣᏓᎵᎢ	-9.80555
▁ᏕᎹᏍᎦ	-9.80558
▁ᏗᏍᏓᏓᏅᏟ	-9.80558
▁ᎭᏩᏧ	-9.80566
▁ᎠᏂᎦᏓᎭ	-9.8057
▁ᏙᏱᏨ	-9.80573
▁ᎠᏫᏒᏗᏱ	-9.80576
▁ᏌᎾᏱ	-9.80581
▁ᎪᏪᎳ	-9.80582
▁ᎤᎴᏂᏙᎸ	-9.80582
▁ᎤᏁᎵᏤᎢ	-9.80585
▁ᎯᏍᎩᏃ	-9.80593
▁ᎦᏂᎦᏔ	-9.80599
▁ᏥᏚᏙᎥ	-9.8061
▁ᎤᎾᏠᎾᏍᏗ	-9.80614
▁ᎤᏏᏩ	-9.80624
▁ᎠᏖᎵᏙ	-9.80631
▁ᎤᏬᏚᏨ	-9.80631
▁ᏱᏂᎦᎵᏍᏓ	-9.80639
▁Ꭾ	-9.80642
▁ᏗᏰᏙᎳᏛᏗ	-9.80644
▁ᎤᏕᎰᎯᏍᏗ	-9.80673
▁ᎾᏂᏪᏍᎬᎩ	-9.80677
▁ᎠᎩᏰᎸᎭ	-9.80792
▁ᎤᎾᏁᎳᏅᎯ	-9.80799
▁ᏁᎲᎾ	-9.80809
▁ᎢᎬᏓ	-9.80818
▁ᏗᏂᏅᏌᏗ	-9.80841
▁ᎤᎷᎯᏍᏗᏱ	-9.80857
▁ᎤᏂᎯᏍᏗᏱ	-9.8093
▁ᏄᎾᏛᏅᎢ	-9.80989
ᏅᏛ	-9.81005
▁ᏕᎭᎷᎨᎢ	-9.81038
▁ᏓᏁᏩᏗᏒᎢ	-9.81055
ᏤᎢ	-9.81244
▁ᎤᏓᏅᏛ	-9.81301
ᏉᎳ	-9.81381
▁ᎠᏁᎩ	-9.81438
▁ᎤᏟᏍᏓ	-9.816
ᏍᎦᎩ	-9.81642
▁ᏯᏂ	-9.81809
▁ᏔᎵᏁᎢ	-9.81905
▁ᎦᏅ	-9.81928
ᎷᎩ	-9.81937
▁ᎨᏴᎢ	-9.81983
ᏛᏗᏱ	-9.82065
ᏗᏍᎬᎢ	-9.8208
ᏫᏍᏗ	-9.82161
▁ᎠᏛᎪᏗ	-9.82247
▁ᏂᎦᎵᏍᏓ	-9.82766
ᎾᏗ	-9.82794
▁ᏗᏤ	-9.82803
ᏓᏏ	-9.83265
ᏯᏅ	-9.83281
▁ᏙᎩ	-9.83491
ᎧᏅ	-9.83708
▁ᏫᏗ	-9.83765
Ꮦ	-9.83827
,)	-9.84161
ᏍᏓᏩᏗᏙᎯ	-9.84281
▁ᏣᎾ	-9.84349
▁ᎤᏲᏨ	-9.84356
▁ᏙᎯ	-9.84357
ᎨᏎ	-9.84609
ᎨᏳ	-9.84737
▁ᏗᎾ	-9.84847
▁ᎤᏇᏓᎸ	-9.84927
ᎩᎸ	-9.85027
Ꮱ	-9.85052
▁ᎪᏢ	-9.85225
▁ᏳᎾ	-9.85444
▁ᏍᎩᏯ	-9.8546
▁ᏭᏯᏅᎮ	-9.85897
▁ᎤᏣ	-9.85916
▁ᏣᏉ	-9.85951
▁ᏕᎩ	-9.86245
▁ᎤᎾᏙᎴᎰᏒ	-9.86249
ᏣᏘ	-9.86263
▁ᎡᏏᏱ	-9.86363
▁ᎡᎮ	-9.86379
▁ᎠᏥᎾᏝᎢ	-9.86403
▁ᎤᏚᎵᏍᎨ	-9.86406
ᏕᎩ	-9.86421
▁ᎠᏆᏚᎵᏍᎬ	-9.86499
▁ᎨᎵᏍᎬ	-9.86617
▁ᏚᎸᏫᏍᏓᏁᎸ	-9.86624
▁ᎹᏏᏙᏂ	-9.86648
▁ᎠᏙᎳᏅᏍᏗ	-9.86689
▁ᏕᏥᎸᏫᏍᏓᏁᎲ	-9.86724
▁ᏄᎾᏛᏅ	-9.8675
▁ᎢᎾ	-9.86763
▁ᏅᏗᎦᎵᏍᏙᏗ	-9.86763
▁ᏭᏴᎴ	-9.8677
ᏔᏅᎭ	-9.86801
ᏎᏃ	-9.86804
▁ᏙᏓᎸ	-9.86907
a	-9.87091
▁ᎠᎾᏓᎾᏏᏂᏙᎯ	-9.87204
▁ᎦᏣᏄᎳ	-9.87204
▁ᎢᏳᏩᎬᏘ	-9.87207
▁ᎠᎵᏰᎾ	-9.87208
▁ᎠᎱᏍᏕᏍᏗ	-9.87216
▁ᎢᎬᏩᎵᏍᏙᏗ	-9.87217
▁ᎢᏣᎵᏍᏙᏗᏱ	-9.87229
▁ᏫᎦᎷᎩ	-9.87232
▁ᎤᎵᏍᎨᏛ	-9.8725
▁ᎠᏂᎩᎷᏫ	-9.87251
▁ᏥᏄᏪᏎᎢ	-9.87256
▁ᎭᏫᏂᏨ	-9.8726
▁ᎫᎫ	-9.87265
▁ᎠᏒᎬ	-9.8729
▁ᎠᏤᎷᎩ	-9.87311
▁ᎫᎴ	-9.87312
▁ᎧᏃᎮᏗ	-9.87317
▁ᏏᏲ	-9.87333
▁ᎤᏲᎱᎯᏍᏗᏱ	-9.87382
▁ᏄᎾᏓᎴᏒ	-9.87384
▁ᏭᏂᎶᏎᎢ	-9.87427
▁ᎢᏳᏍᏘ	-9.87466
▁ᎠᏆᏚᎵᎭ	-9.87473
ᎡᎭ	-9.87479
▁ᏱᎨᏐᎢ	-9.87565
▁ᏗᏁᎲ	-9.87578
▁ᏗᎩᏏ	-9.87637
▁ᏧᎳᏏᏕᏂ	-9.87642
▁ᏚᎸᏫᏍᏓᏁᎸᎢ	-9.87694
▁ᏂᎪᎯᎸᎾᏉ	-9.87696
▁ᎨᎵᎠ	-9.87735
▁ᎠᏁᏙᎲᎢ	-9.87803
▁ᎡᏙᎲᎢ	-9.87804
▁ᎢᎦᏤᎵᎦ	-9.87832
▁ᎤᏁᏢᏔᏅᏛ	-9.87846
▁ᎤᎩᏨᏛᏃ	-9.87934
ᏙᎴ	-9.88025
ᏓᏛ	-9.88056
ᏃᎯ	-9.88062
ᏁᎰ	-9.88123
▁ᏗᏁᎲᎢ	-9.88137
▁ᏂᎪᎯᎸᎾ	-9.88222
▁ᎤᎨᏳᎯ	-9.88278
ᏩᏒ	-9.88304
ᎦᏙᏃ	-9.88324
▁ᏂᏥᎥᎢ	-9.88362
▁ᏍᎩᏃ	-9.88384
▁ᏯᎾ	-9.88391
ᏂᏃ	-9.88412
▁ᎤᏂᎷᏤᎢ	-9.88477
▁ᎡᎮᏍᏗ	-9.88532
ᎬᏅ	-9.88624
▁ᏆᎴᏗᏃ	-9.88747
▁ᏓᏨ	-9.88993
ᏕᏗ	-9.8916
ᎵᏍᏔᏁ	-9.89501
ᏐᏅ	-9.89559
▁ᏌᏩᏂᏃ	-9.89859
▁ᎡᎾ	-9.89901
▁ᏗᏂᏏᏗ	-9.89963
▁ᎠᎩᎵᏲᎢᏍᏗ	-9.90044
▁ᎠᏋᏒᏉ	-9.90055
▁ᏥᏍᏚ	-9.90169
ᎩᏒ	-9.90213
▁ᏁᎰ	-9.9026
ᏳᎯ	-9.9029
ᎸᏅ	-9.9044
ᎦᏛᎦ	-9.90631
ᏔᏅᎾ	-9.90733
ᏕᏅ	-9.90744
ᎨᏳᎯ	-9.90765
ᎾᏃ	-9.90815
▁ᎤᏲᏉ	-9.90824
ᏚᎵ	-9.90826
▁ᎪᎯᏍᎩᏂ	-9.91154
ᏔᎾ	-9.91411
▁ᎪᎨ	-9.91481
ᏅᏒᎩ	-9.91531
ᎶᎢ	-9.91863
ᎪᎵᏰᏍᎩ	-9.91984
▁ᏑᎾᎴᏃ	-9.9206
▁ᎤᏓᏅᏅ	-9.92149
ᏍᎩᏯ	-9.92164
▁ᏕᎬ	-9.92352
ᏙᎢ	-9.92381
▁ᏔᎵᏃ	-9.92594
▁ᏗᏥᏲᎵ	-9.92687
▁ᎠᏂᏐ	-9.92746
ᏅᎦ	-9.92815
ᏉᏗ	-9.92833
ᏓᎶᏂᎨ	-9.93035
ᎩᏛ	-9.93045
ᏥᏯ	-9.93132
▁ᏣᏂᏃ	-9.93206
▁ᎡᎳᏪ	-9.93221
▁ᏏᎩᎻ	-9.93289
▁ᏭᎾ	-9.93345
▁ᏧᎾᏄᏬ	-9.93395
ᏂᎵ	-9.93547
▁ᎠᏂᏫᏅ	-9.93597
▁ᎤᎩᏨᏛ	-9.93629
▁ᏐᎢᏱ	-9.9381
▁ᎤᏁᎳᏅᎯᏱ	-9.93828
ᎦᏅ	-9.93908
ᎧᏁ	-9.9391
▁ᏓᏫᏒ	-9.93972
▁ᏣᏓ	-9.94009
▁ᎤᎾᏰᎯᏍᏗᏳ	-9.94041
▁ᏄᏛᏅ	-9.94045
ᏓᏂ	-9.94065
▁ᎠᏆᏛᎦᏅ	-9.94072
▁ᏗᎧᏃᎩᏍᏗ	-9.94231
▁ᎡᏝᏪ	-9.94234
y	-9.94337
▁ᎠᏂᏌᏚᏏ	-9.94347
▁ᎬᏍᎦᎢᏍᏓᎩ	-9.94347
▁ᏂᎦᏅᎯᏎᏍᏗ	-9.94347
▁ᎤᎵᎪᎲᏍᏗ	-9.94348
▁ᏄᏜᏏᏛᏒᎾ	-9.94348
▁ᏧᏃᏑᎶᏨᎯ	-9.94348
▁ᏅᎩᏧᏈ	-9.9435
▁ᏌᏯᏂ	-9.9435
▁ᏧᎾᏦᎯᏍᏗ	-9.94352
▁ᎳᏏᎳ	-9.94353
▁ᎤᎶᏒᏍᏔᏅᎯ	-9.94354
▁ᏔᎷᏣ	-9.94355
▁ᏫᏄᏒᎸ	-9.94355
▁ᎤᏴᏣ	-9.94358
▁ᎢᏳᏓᎨᏛ	-9.94359
▁ᏥᏔᎦ	-9.9436
▁ᎢᏨᏔᏲᏎᎭ	-9.9436
▁ᎦᏰᏌᏗ	-9.94371
▁ᏫᏂᎦᎵᏍᏓ	-9.94379
▁ᎢᏣᏓᏙᎵᏍᏗᏍᎨᏍᏗ	-9.94381
▁ᎢᏅᎯᏳ	-9.94382
▁ᎢᎩᏍᏕᎵᏍᎩ	-9.94385
▁ᏗᏁᎶᏙᏗ	-9.94385
▁ᎢᎦᏪᏛ	-9.94397
▁ᎤᎵᏑᏫᏓ	-9.94402
▁ᏧᎾᎳᏏᏕᏂ	-9.94407
▁ᎣᏌᏂ	-9.94409
▁ᎣᎦᏁᎳᏅᎯ	-9.94421
▁ᏧᎾᏓᎵᎢ	-9.94449
▁ᎤᎦᏃᏩ	-9.94459
▁ᎤᏚᏫᏛ	-9.94464
▁ᎾᏛᏁᎮᏍᏗ	-9.9448
▁ᎢᏳᏅᏁᏗᏱ	-9.94487
▁ᎪᎨᏱ	-9.94493
▁ᎤᏬᏢᏅᎯ	-9.94518
ᏓᏁᎸ	-9.94528
▁ᏄᎾᏛᏁᎸᎩ	-9.9454
▁ᏧᎸᏫᏍᏓᏁᏗᏱ	-9.94546
▁ᎠᏅᏗᏍᎬ	-9.94567
▁ᏚᏁᎴ	-9.94589
▁ᎾᎥᏂᏳ	-9.94602
▁ᏗᎦᎵᎠᏅᎯᏛ	-9.94613
▁ᎠᎾᏓᏅᏖᏍᎬ	-9.94631
▁ᎤᎾᏄᎪᏫᏎᎢ	-9.94641
▁ᏣᏁᎮᎢ	-9.94645
▁ᎤᏙᎯᏳᏗᏱ	-9.94656
▁ᎤᏟᏰᏃ	-9.94678
▁ᏭᎶᏒᎩ	-9.94682
▁ᎠᎵᎮᎵᏍᏗ	-9.9469
▁ᎠᏓᏅᏖᏗ	-9.9476
▁ᏓᏠᎯᏍᏛᎢ	-9.9492
▁ᎢᎬᏒ	-9.94924
▁ᏕᎨᏌᏗᏒᎢ	-9.94938
ᏰᎯ	-9.94942
▁ᎠᏥᎸᎠᏁᎶᎯ	-9.94978
▁ᏅᏩ	-9.95107
▁ᎤᏔᎷᎩᏍᎩ	-9.95127
ᏩᏂ	-9.9516
▁ᏧᎵᎢ	-9.95169
▁ᎤᏁᏤᎸᎩ	-9.95214
▁ᎪᎯᏛ	-9.95646
▁ᎾᎯᏳᏉᏃ	-9.95705
ᎳᏛ	-9.95787
▁ᎬᏗᏍᎬᎢ	-9.95823
ᏎᎸ	-9.95868
▁ᏚᏘᏅᏎ	-9.95928
▁Ꮋ	-9.95944
▁ᎠᏰᎸᏗ	-9.96016
▁ᏃᏯᏃ	-9.96022
▁ᎤᏰᎸᏛᎢ	-9.96101
ᏎᎭ	-9.96384
ᏄᏪ	-9.96407
ᎪᎸ	-9.96598
ᏛᎭ	-9.96621
▁ᎬᎪᏩᏛᏗ	-9.96753
ᏅᎭ	-9.96789
▁Ꮏ	-9.96804
ᎾᏛᎦ	-9.96879
ᎸᏉᏙᏗ	-9.96909
▁Ꮺ	-9.96918
ᏢᏙᏗ	-9.97205
▁ᏄᏍᏛᎾ	-9.97235
▁ᎯᎦᏔᎭ	-9.97334
▁---	-9.97382
▁ᎤᏂᏣᏔ	-9.9746
Ꮼ	-9.97608
ᎦᏔᎲᎾ	-9.97629
▁Ꮢ	-9.97741
ᎧᏔ	-9.9825
▁ᎤᎴᏫᏍᏔᏅ	-9.98328
▁ᏅᏃ	-9.98334
▁ᎠᏂᎦᏔᎿᎢ	-9.98379
▁ᏓᏲ	-9.98401
▁ᎠᏓᏅᏙᏍᎩᏂ	-9.9847
ᏍᏗᏍᎨᎢ	-9.98545
▁ᏓᏰ	-9.98701
ᏯᏅᎲ	-9.98765
▁ᎠᏇ	-9.98984
t	-9.99064
▁ᏥᎨᏳᎢ	-9.99097
▁ᏚᏅ	-9.99132
▁ᎠᏲᎱ	-9.99267
ᎦᎥ	-9.99331
▁ᏙᏳ	-9.99711
▁ᎤᏬᎴ	-9.99742
ᏓᏯ	-9.99895
▁ᎣᎩᏂ	-9.99972
▁ᎠᏲ	-9.99987
▁ᎤᏯ	-10.0002
▁ᏳᏂ	-10.0005
▁ᎢᏨᏯ	-10.0014
ᏗᎦ	-10.0025
▁ᎤᎶᏒ	-10.0035
▁ᏂᏙᏓᏳ	-10.0043
ᎬᏫᏳᎯ	-10.0044
▁ᏙᏓᎦ	-10.0045
ᏟᏍᏗ	-10.0052
▁ᏙᎦ	-10.006
ᎩᎵ	-10.006
▁ᎠᏆᎵ	-10.0064
ᏅᏓ	-10.0067
▁Cr	-10.0092
ᎩᏓ	-10.0095
▁ᏥᏯ	-10.0097
▁ᎠᏁᏙᎮ	-10.0102
▁ᎤᏂᎵ	-10.0102
▁ᎠᏨᏍᏙᏗ	-10.0113
▁ᎬᏩᏛᏛᏁ	-10.0114
▁ᏧᎦᏒᏍᏗ	-10.0115
▁ᏫᎬ	-10.012
ᎯᏍᏙᏗ	-10.0125
▁ᎠᏂᎨᎾᏂ	-10.0126
▁ᎮᎦ	-10.0132
▁ᏎᎳᏱ	-10.0134
▁ᎤᏩᎨᏫ	-10.0135
ᎦᎶᏁᏛ	-10.0141
▁ᎠᏒᎨ	-10.0144
ᎳᏏ	-10.0146
▁ᏎᎻ	-10.0147
▁ᎠᏂᏂ	-10.0153
▁ᏕᎨᏴ	-10.0154
▁ᎦᎾ	-10.0155
▁ᏧᏪ	-10.0155
ᏄᏬᏍᏗ	-10.0155
▁ᏚᎾᏓᏡᏩᏗᏒ	-10.0156
▁ᏥᏅᏏᏓᏍᏗ	-10.0163
ᎪᏣᎴᏛ	-10.0175
▁ᎤᏙᏓᏃ	-10.0176
▁ᏓᏅᏅ	-10.0178
▁ᎧᏃ	-10.019
an	-10.02
▁ᎠᎩᎾᏫ	-10.0204
▁ᎢᏳᏓᏅᎯᏓ	-10.0204
▁ᏀᎾ	-10.0204
▁ᏍᏏᏉᏯ	-10.0204
▁ᏑᏓᎴᎩ	-10.0204
▁ᎤᏙᎴᎰᏎ	-10.0204
▁ᏗᎦᏙᏌᏗᏍᏗᏱ	-10.0204
▁ᏗᎪᏒᏔᏅ	-10.0204
▁ᏅᏬᏘ	-10.0204
▁ᏄᏍᏗᏓᏅ	-10.0204
▁ᏌᏙᏂ	-10.0204
▁ᏧᎾᏦᏴᏍᏗ	-10.0204
▁ᏗᏂᎨᏫ	-10.0205
▁ᎤᎧᏲᏛᎯ	-10.0205
▁ᏗᎦᏘᏍᏙᏗ	-10.0205
▁ᎦᏃᏍᎩᏍᎩ	-10.0205
▁ᎦᎶᏄᎮᏛ	-10.0205
ᎠᏎᏃ	-10.0205
▁ᎨᏣᏍᎦᎩ	-10.0205
▁ᏚᏑᎬ	-10.0205
▁ᎬᎩᏍᎦᎩ	-10.0206
▁ᏍᏗᏫ	-10.0206
▁ᎦᏚᎢᏗᏢ	-10.0206
▁ᏩᏛᎬᎦ	-10.0206
▁ᏁᏂᏏ	-10.0207
▁ᎠᏂᎦᏔᎾᎢ	-10.0207
▁ᏗᏍᏆᎾᎳᏗᏍᏗ	-10.0208
▁ᏗᎳᏑᎶ	-10.0208
▁ᎢᏥᏯᏫᏍᎨᏍᏗ	-10.0208
▁ᏗᏂᎰᎵ	-10.0208
▁ᏇᏍᏓ	-10.0209
▁ᎤᏕᎶᎰᏎ	-10.0209
▁ᏚᎦᏒᏍᏛ	-10.021
▁ᎠᏓᏅᏖᏍᎨ	-10.021
▁ᎠᏂᎦᏔᎯ	-10.0211
▁ᎤᏪᎷᏅᎩ	-10.0211
▁ᎣᎭᏂ	-10.0211
▁ᎠᏂᎩᏏᏙᎯ	-10.0213
▁ᏄᏕᏘᏴᎮᎢ	-10.0214
▁ᏗᏥᎶᏍᏔᏅ	-10.0214
▁ᎣᏥᎦᏔᎭ	-10.0219
▁ᎢᏥᏅᏟ	-10.022
▁ᎤᏛᏐᏅᎯ	-10.022
▁ᏥᎮᎾ	-10.0221
▁ᏕᎦᎶᏗᎯ	-10.0221
▁ᎤᏪᏙᎸ	-10.0222
▁ᎤᏁᎷᏁᎢ	-10.0223
▁ᎠᏍᎦᏰᎬᏍᏔ	-10.0224
▁ᎢᏥᏍᎦᏅᏨᎢ	-10.0224
▁ᎪᏢᏅᎯ	-10.0224
ᎾᎥ	-10.0226
▁ᎬᏩᎷᏤᎸᎩ	-10.0226
▁ᎤᏓᏅᏒᎩ	-10.0229
▁ᎡᎳᏗᏣ	-10.023
▁ᎤᏓᏔᏅᎯ	-10.0232
▁ᏫᎶᎯ	-10.0232
▁ᎤᏪᏅᏍᏗ	-10.0237
▁ᎮᏗ	-10.0237
▁ᎤᏲᎱᎯᏍᏗ	-10.0239
▁ᎤᏂᏍᎦᏅᏨᎯ	-10.0242
▁ᎪᏢᏒᎢ	-10.0243
▁ᏓᎧᏅᎢ	-10.0243
▁ᎨᎾᏂᏱ	-10.0244
▁ᏥᎪᎨ	-10.0248
▁ᏚᎾᏓᏡᏩᏗᏒᎢ	-10.0255
▁ᎤᎨᏳᎯᏳ	-10.0257
▁ᎤᎵᏍᏕᎸᏙᏗ	-10.0258
▁ᎪᏣᎴᏛ	-10.026
ᏓᏅᏛᎢ	-10.0266
▁ᏓᏳᎶᏒ	-10.027
▁ᏚᏂᎸᏫᏍᏓᏁᎲᎢ	-10.0275
▁ᏂᎦᏪᏍᎬᎩ	-10.0275
▁ᎣᏂᏱ	-10.0276
▁ᎠᎾᎵ	-10.0277
▁ᎠᏥᎸᎨᎶᎯ	-10.0281
▁ᏱᎦᎩ	-10.0281
▁ᎡᎵᏍᎨ	-10.0288
▁ᎤᎿᏥ	-10.0289
▁ᎠᏔᎴᏒᎢ	-10.0292
▁ᏓᎬᎾ	-10.0298
▁ᏂᎦᏚ	-10.0309
▁ᏱᎰ	-10.0312
▁C	-10.0317
▁ᏡᎬᎢ	-10.0324
ᏃᎮᎭ	-10.0333
ᏍᎪᏃ	-10.0338
▁ᎤᎪᎮᎢ	-10.0346
▁ᎤᏓᏅᏖᎸ	-10.0346
▁ᏤᏣ	-10.036
▁ᎴᏥᎵᏃ	-10.0367
▁ᎾᎥᏃ	-10.0372
▁ᎢᎨ	-10.0382
▁ᎤᏲᎱᏒᎢ	-10.0392
ᎩᏏ	-10.041
ᎾᎩ	-10.0412
ᏚᎩ	-10.0413
▁ᏥᎬ	-10.0454
ᏗᏍ	-10.0464
ᏁᏤᎸ	-10.047
▁ᏅᏗ	-10.0474
▁ᏗᏤᎲ	-10.0495
▁ᎭᎵ	-10.0499
ᎷᏤᏗᏱ	-10.0504
ᎭᏂ	-10.0522
ᎪᎳ	-10.0526
▁ᎠᏍᏚᎲ	-10.0527
ᏴᏍᏗ	-10.0537
ᎥᎩ	-10.0543
▁ᎤᏍᏘᏰᎬ	-10.0544
ᏅᏁ	-10.0556
;)	-10.0556
ᏓᎴᏅᏛ	-10.0573
ᎴᏂ	-10.0574
▁ᏗᏓᏁᎸ	-10.0593
ᏍᏛᎩ	-10.0601
ᏎᎸᎩ	-10.0607
▁ᎣᎦᏤᎵ	-10.0644
▁ᎤᏤ	-10.0648
ᏥᏁᎸ	-10.0661
▁ᎤᏁᎳ	-10.0674
▁ᎤᏓᏅᏖ	-10.0679
▁ᎤᎫᏴᏗ	-10.068
ᏁᏍᎨ	-10.0693
▁ᎡᏓ	-10.0705
ᏎᎸᎯ	-10.0707
▁ᎤᎵᏂᎬᎬ	-10.0709
ᎬᏓ	-10.0734
ᏌᏂ	-10.0751
ᎫᏴᏙᏗ	-10.0756
▁ᏤᎩ	-10.0784
▁ᏤᏆ	-10.0785
▁ᎣᏍ	-10.0799
ᏴᏓ	-10.0832
▁ᏄᎬᏫᏳᏒᏃ	-10.0843
ᏍᏕᎸ	-10.0866
ᎦᏚ	-10.0874
▁ᏥᎨ	-10.0877
▁ᎠᏍᎪᎯᏁ	-10.0905
ᏂᏒ	-10.0911
▁ᎠᏰᎲ	-10.0911
ᏓᎴᏅᎯ	-10.0916
▁ᏭᏂᎷᏨ	-10.0927
▁ᎤᎾᏛᏁᎢ	-10.0939
▁ᏂᎪᎯᎸᏃ	-10.0941
▁ᎤᏂᏁᏨ	-10.0948
▁ᏚᏪ	-10.0955
▁ᎢᏓᎵ	-10.0955
ᎾᏂ	-10.0957
▁ᏏᎻᏯᏂ	-10.096
▁ᏗᏯᏖᎾ	-10.0962
▁ᏚᎸᏫᏍᏓᏁᎲ	-10.0965
▁ᏈᎳ	-10.0967
▁ᎦᎵᏉᎩᏁ	-10.097
▁ᎧᏃᎮᏍᎬ	-10.0973
▁ᏄᎾᏛᏁᎸ	-10.0975
▁ᎤᎵᏁᏨ	-10.0975
▁ᎤᏂᏣᏛᎩ	-10.0976
▁ᎦᎵᏉᎩᏃ	-10.0978
ᎡᏗ	-10.0981
▁ᎪᏱᏁ	-10.0991
▁ᏫᏚᏯᏅᎮ	-10.0992
▁ᎤᏜᏅᏛ	-10.0999
▁ᏗᏂᏰᎸ	-10.0999
▁ᏗᎨᏥ	-10.1
▁ᏚᎸᏌᏛ	-10.1
▁ᎡᎳᏂᎬ	-10.1005
▁ᎠᏁᎵᏍᎨ	-10.1008
▁ᎤᏂᎩᏎ	-10.1016
ᎴᏗ	-10.1017
▁ᎤᎾᏚᎵᏍᎬ	-10.1018
▁ᏂᏚᏩᏁᎸ	-10.102
▁ᎠᏂᏁᎬ	-10.1022
ᏅᏍᏗᏱ	-10.1022
▁ᎤᏪᏅᏒ	-10.1023
▁ᎤᎾᎳᏅᎯ	-10.1025
▁ᎢᏯᏆᏛᏁᏗ	-10.1025
▁ᏱᏥᎦᏔ	-10.1033
▁ᎠᏗᏆᎸᏕᏲ	-10.1033
▁ᎤᏂᏣᏛ	-10.1033
▁ᎠᏴᏫᏯ	-10.1034
▁ᏁᎳᎩ	-10.1035
▁ᎠᏇᎵᏒ	-10.1036
▁ᎠᏂᏩᏥᏂ	-10.1037
▁ᎦᎳᎱᏂ	-10.1037
▁ᏧᏓᎿᏩᏛ	-10.1037
▁ᎢᎬᏩᏛᏁᏗ	-10.1037
▁ᎾᎪᏔᏅᎾ	-10.1037
▁ᎠᏛᏳᎨᏗ	-10.1037
▁ᏏᏌᎵᏱ	-10.1037
▁ᏅᏓᎦᎵᏍᏙᏓ	-10.1037
▁ᏗᎨᏥᎤᏍᏕᏎᎸᎯ	-10.1037
▁ᏚᏃᏢᏔᏅᎩ	-10.1038
▁ᏄᏓᎵᏓᏍᏛᎾ	-10.1038
▁ᏍᎪᏯ	-10.1038
▁ᎢᏧᏩᏁᏗᏱ	-10.1038
▁ᏂᎦᎵᏍᏔᏂᏙᎲ	-10.1038
▁ᏣᏔᎦ	-10.1038
▁ᏗᏓᏬᏍᎩ	-10.1038
▁ᎤᏬᏑᎶᏨᎯ	-10.1038
▁ᎥᎩᏅᏏᏛ	-10.1039
▁ᏧᏆᎶᎬ	-10.1039
▁ᎾᎵᏍᏆᏗᏍᎬᎾ	-10.1039
▁ᎢᏳᏕᏘᏴᏓ	-10.1039
▁ᎠᏥᎤᏍᏕᏎᎸᎯ	-10.1039
▁ᎢᏥᏰᎸᏎᏍᏗ	-10.1039
▁ᏂᎬᏪᏎᎭ	-10.1039
▁ᎢᏧᎳᏗᏢ	-10.1039
▁ᏂᏚᎾᏓᏪᏎᎴᎢ	-10.104
▁ᎢᏥᎦᏔᎮᏍᏗ	-10.104
▁ᏂᏣᏛᏁᎮᏍᏗ	-10.104
▁ᎦᏂᏓᏛ	-10.104
▁ᏅᏓᎦᎵᏍᏙᏔᏂ	-10.104
▁ᎣᏂᏗᏢ	-10.104
▁ᎢᏣᏅᏖᏍᏗ	-10.1041
▁ᏗᎦᎪᏗ	-10.1041
▁ᎢᏥᎦᏙᎥᎯᏍᏗᏱ	-10.1041
▁ᎪᎯᏳᎲᏍᎩ	-10.1041
▁ᎠᏌᏅᏙᏗ	-10.1042
▁ᎠᏂᏃᏍᎩᏍᎩ	-10.1042
▁ᏧᎾᎵᏂᎩᏛ	-10.1043
▁ᎢᏯᏍᏘ	-10.1043
▁ᎤᏙᎴᎰᎯᏍᏗᏱ	-10.1043
▁ᏗᏑᏢᏛ	-10.1044
▁ᏂᎦᎵᏍᏔᏅᎭ	-10.1044
▁ᎯᏍᎦᏯ	-10.1044
▁ᎠᏓᏰᏍᎩ	-10.1045
▁ᏅᏧᎵᏍᏙᏔᏅ	-10.1045
▁ᎢᏕᎯ	-10.1045
▁ᏗᏂᏬᏂᏍᎩ	-10.1047
▁ᎢᏳᎵᏍᏔᏅᎯ	-10.1047
▁ᏍᎩᏙᎵᎩ	-10.1048
▁ᎤᏣᏖ	-10.1049
▁ᎢᏯᏆᏛᏁᏗᏱ	-10.105
▁ᏚᏠᏱᎴᎢ	-10.1051
▁ᎠᎦᏯᎷᏗ	-10.1052
▁ᎤᏁᏓᏍᏗ	-10.1052
▁ᏧᏂᎳᏫᎢᏍᏗᏱ	-10.1054
▁ᏄᏂᏪᏒ	-10.1056
▁ᎡᏂᏗ	-10.1057
▁ᏧᏍᎪᎵ	-10.1057
▁ᎦᎾᏍᏓ	-10.1057
▁ᎹᏗ	-10.106
▁ᏂᏨᏁᎸ	-10.106
▁ᎤᎵᏬᏨ	-10.106
▁ᏂᏚᏩᏁᎸᎩ	-10.106
▁ᎠᏨᏯ	-10.1064
▁ᎠᎵᏥᏙᎲᏍᎩ	-10.1067
▁ᎤᏂᎩᏒᎩ	-10.1068
▁ᏧᏂᎾᏫᏱ	-10.1069
▁ᏘᎵ	-10.1069
▁ᎨᎥᎢ	-10.107
▁ᎤᏕᎵᏒ	-10.1071
▁ᏓᏓᏏ	-10.1072
ᏁᏃ	-10.1073
▁ᎤᏠᎾᏍᏗ	-10.1075
▁ᎤᏟᏂᎩᏓ	-10.1075
▁ᎢᏕᎾ	-10.1075
▁ᎨᏂᏗ	-10.1082
▁ᏥᏁᎬ	-10.1083
▁ᏭᏂᎷᏤᎢ	-10.1085
▁ᏧᎵ	-10.1101
▁ᎤᏍᏆᏛ	-10.1103
▁ᏧᏓᏅᏛᎢ	-10.1114
▁ᏂᏫ	-10.1114
ᎩᎳ	-10.1118
▁ᎦᏛᎬᎢ	-10.1125
▁ᏦᎢᏃ	-10.1127
▁ᎭᏓᏅᏖᏍᎬ	-10.1132
▁ᎡᏘᏴ	-10.1137
▁ᎤᎪᎲᎯ	-10.1138
▁ᏄᏛᏁᎸᎢ	-10.1148
▁ᏣᏓᏅᏙ	-10.115
ᎪᎵᏰᏗ	-10.1163
▁ᏥᏥ	-10.1176
ᏂᎨ	-10.1183
▁ᏤᎮ	-10.1194
ᏏᏆ	-10.1199
▁ᎠᏂᏁ	-10.1203
▁ᎥᏝᏍᎩᏂᏃᏅ	-10.1209
ᎠᏯᏗ	-10.1224
▁ᎠᏆᎵᏏ	-10.1232
ᏄᎪ	-10.1272
▁ᎪᎯᏳᏗᏍᎩ	-10.13
ᎨᏳᏗ	-10.1303
▁ᎡᎳ	-10.1313
▁ᎤᏛᏅᎩ	-10.1316
▁ᏥᏓᏂ	-10.1317
ᏥᏅᏏᏛ	-10.1324
▁ᏗᎪ	-10.1354
▁ᏭᏂᎷᏤ	-10.1358
▁ᏗᎬᏙᏗ	-10.137
▁ᎠᎩᎭ	-10.1374
ᏁᏍᏗ	-10.1375
▁ᎠᏙ	-10.1382
▁ᏧᏪᏘ	-10.1388
▁ᎨᏙᎲ	-10.139
ᏍᏓᏴ	-10.1407
ᏂᎳ	-10.1424
Ꮁ	-10.1425
▁ᎣᏣ	-10.1429
▁ᎦᏛ	-10.1441
ᏂᎯ	-10.1449
▁ᎤᏪᏅ	-10.1452
ᎦᎾ	-10.1453
ᎾᏕ	-10.1459
▁ᏥᏙ	-10.1462
ᎵᏓᏍᏗ	-10.1481
▁ᏂᏕ	-10.1486
▁Ꮾ	-10.1486
▁ᎤᎾᎵᏍ	-10.1498
▁ᏂᏣᏛᏅᎢ	-10.1504
ᏯᎥᎢ	-10.1533
ᎾᏉ	-10.1545
▁ᏂᎦᏗᏳᏰᏃ	-10.1548
▁ᎤᏂᎲ	-10.157
ᏩᏗ	-10.159
ᏍᏕᎵᏍᎩ	-10.1596
ᏎᎴ	-10.1597
▁ᏥᎪᏃ	-10.1664
ᏓᎸ	-10.1666
▁ᏗᎬᏩᏂ	-10.1677
▁ᎤᏩᏅ	-10.1685
ᏅᏎᎢ	-10.17
ᏪᎭ	-10.1702
▁ᎤᏂᏴ	-10.1722
▁ᏱᏚᏂ	-10.1739
▁Ꮉ	-10.1744
ᏂᏴᏗ	-10.179
ᎤᏙᎯᏳ	-10.182
▁ᎤᏓᏂᎵᎨ	-10.1839
▁ᎠᎦᏔᎿᎢ	-10.1847
ᏅᏏᏙᎯ	-10.1848
ᏎᎯ	-10.185
▁ᎠᏉᏰᏂ	-10.1856
▁ᏄᏪ	-10.186
ᎨᎳᏍᏗ	-10.1864
▁ᎤᎾᎴᏅᎮ	-10.1866
ᎵᏍᏓ	-10.1867
▁ᎤᏂᏃᎮᎸ	-10.1867
▁ᎾᏆᏛᏁᎸ	-10.1873
ᏰᎸᏗ	-10.1875
▁ᎠᎩᎪᎲᎩ	-10.1876
▁ᏚᎪᎲ	-10.1885
▁ᏚᎧᎾᏁ	-10.1886
▁ᏫᎦᏅᏅ	-10.1888
▁ᏕᎦᏅᏅ	-10.1893
▁ᎥᏓᎸ	-10.1894
▁ᎤᏃᏁᎴ	-10.1895
ᎢᏳᎾᏍᏗ	-10.1898
▁ᏣᎧᏛ	-10.19
▁ᎦᏰᏌᏛ	-10.1902
▁ᎠᏂᏨᏯ	-10.1903
▁ᏂᏣᏛᏅ	-10.1907
▁ᎢᏣᏓ	-10.1916
▁ᎤᏰᎸᏁ	-10.1917
▁ᎤᎿᎥ	-10.1919
▁ᎨᎦᏑᏰᏛ	-10.1922
▁ᏯᏆᏚᎵ	-10.1924
▁ᎠᏁ	-10.193
▁ᎢᎬᏩᏁᏗ	-10.1932
▁ᎠᏥᎢᏍᏗ	-10.1934
▁ᏗᏄᎪᏗᏍᎩ	-10.1934
ᏙᏢᏅ	-10.1941
ᏯᎩ	-10.1946
▁ᎠᎹᏳᎸᏓ	-10.1946
▁ᎡᎩᎵᏈ	-10.1946
▁ᎢᏗᏍᏓᏓᎳ	-10.1946
▁ᎾᏥᎾᏝᎥᎾ	-10.1946
▁ᏂᏓᎪᏔᏅᎾ	-10.1946
▁ᏚᎧᏔᏍᏔᏁᎢ	-10.1946
▁ᏣᎦᏟᎶᏍᏔᏅᎯ	-10.1946
▁Chap	-10.1946
▁ᎢᏳᏛᏁᎸᎯ	-10.1946
▁ᎠᏂᏈᎵᏍᏗ	-10.1946
▁ᎠᏰᎳᏍᏘ	-10.1946
▁ᎢᏯᎬᏁᎸᎯ	-10.1946
▁ᏌᏱᎳ	-10.1947
▁ᎢᏆᎻ	-10.1947
▁ᏅᏓᎦᏥᏴᏁᎵ	-10.1947
▁ᏗᎬᏩᎸᏌᏛ	-10.1947
▁ᎤᏲᏍᏛᏉ	-10.1947
▁ᎦᎫᏍᏛᏗ	-10.1947
▁ᎠᏗᏒᏍᏗ	-10.1947
▁ᏗᎦᏅᏍᎨᏂ	-10.1948
ᏞᏍᏗ	-10.1948
▁ᏏᎵᏱ	-10.1948
▁ᏗᏥᎦᏙᎵ	-10.1949
▁ᎧᏁᏍᎪ	-10.1949
▁ᏤᏈᏗ	-10.1949
▁ᎤᏪᎿᎢᏳ	-10.1949
▁ᎬᎵᏍᏆᏗᏍᎩ	-10.1949
▁ᏱᏥᏍᎦᎢᎮᏍᏗ	-10.1949
▁ᎢᏳᏪᏛ	-10.195
▁ᎢᏳᏪᏨᎯ	-10.195
▁ᏗᎨᏥᎾᏌᎢ	-10.195
▁ᏥᏂᏣᏛᏅ	-10.195
▁ᎢᏣᏠᎾᏍᏗ	-10.195
▁ᏓᎬᏔᏂ	-10.1951
▁ᎢᏳᏩᏁᎯ	-10.1951
ᎸᏗ	-10.1951
▁ᎠᏕᏒᎲᏍᎩ	-10.1951
▁ᎦᏐᎯ	-10.1951
▁ᏦᎯᏍᏙᏗ	-10.1952
▁ᏧᎾᏓᏅᏙ	-10.1952
▁ᏚᏃᎡᎢ	-10.1952
▁ᏭᎷᏣ	-10.1952
▁ᎬᏂᎨᏒᎢᏳ	-10.1953
▁ᏣᏤᎵᎪᎯ	-10.1953
▁ᎤᎩᏓᏟᏅᏯ	-10.1953
▁ᎤᎳᎨᏯᏛᏤᎢ	-10.1953
▁ᎤᎵᏰᎢᎶᎯᏍᏗ	-10.1953
▁ᎤᏣᏔ	-10.1954
▁ᎤᎵᏍᎨᏓ	-10.1955
▁ᏳᏩᏁᎦ	-10.1955
▁ᏥᏲᏎᎸ	-10.1956
▁ᎠᎩᎬᏫᏳᎯ	-10.1956
ᏗᎦᏘᏯ	-10.1956
ᏁᏤᏗ	-10.1956
▁ᎠᏃᏍᏛ	-10.1957
▁ᎬᏩᏍᏓᏩᏛᏒᎩ	-10.1957
▁ᏓᎨᏏ	-10.1958
▁ᏭᎶᎯᏍᏗᏱ	-10.1958
▁ᎣᎩᏙᏓ	-10.1958
▁ᏂᎦᏅᎯᏒᎩ	-10.196
▁ᎪᏪᎳᏅᎯ	-10.196
▁ᎦᏅᎯᏓ	-10.196
▁ᎤᏂᏁᎫᏥᏛ	-10.1961
▁ᏥᏂᎦᏪᎭ	-10.1962
▁ᎠᎦᏔᎾᎢ	-10.1963
▁ᎤᎾᏗᏍᎦᎶᏗ	-10.1964
▁ᎰᏍᏛ	-10.1964
▁ᏦᎳᏂ	-10.1966
▁ᎠᏥᏃᎮᏍᎬᎢ	-10.1966
▁ᎡᎳᏗᏢ	-10.1966
▁ᎠᏂᏃᎮᏍᎩ	-10.1966
▁ᎡᏉᏗᏱ	-10.1967
▁ᎤᏓᏅᏖᎸᎯ	-10.1967
▁ᏥᏥᎦᏔᎭ	-10.1968
▁ᏧᏓᏕᏍᏗᏱ	-10.197
▁ᎬᏩᎷᏤᎸ	-10.197
▁ᎤᏬᏢᏅᎩ	-10.197
▁ᎢᏳᏍᎩᏂᏃᏅ	-10.197
▁ᎤᏕᏁᎸᎯ	-10.1976
▁ᏯᎦᏔᎭ	-10.1977
▁ᎠᎵᏍᎪᎸᏓᏁᏗ	-10.1979
ᏂᎩᏛ	-10.1987
▁ᎾᎨ	-10.1991
▁ᎠᎢᏒᎢ	-10.1995
▁ᏓᏂᏁᎸᎢ	-10.1997
▁ᎤᏁᏢᏔᏅᎯ	-10.1999
ᎥᏍᎬ	-10.2003
▁ᏦᎳ	-10.2003
▁ᏧᏁᎬ	-10.2006
▁ᎦᏍᎩᎶᎩ	-10.2006
▁ᎠᏚᏓᎴᏍᏙᏗ	-10.2007
ᏤᎵᎦ	-10.2008
ᎪᏩᏛ	-10.2008
ᏃᎮᏗ	-10.201
▁ᏤᏙᎲ	-10.2015
▁ᎤᏍᎦᏅᏨᎯ	-10.2018
▁ᏕᏡᎬᎢ	-10.2026
▁ᎠᏆᏓᏅᏙᎩ	-10.2026
▁ᎤᎾᏛᎦᏅᎯ	-10.2029
▁ᎤᏢᎩ	-10.2037
▁ᏗᏥᏰᎸ	-10.2051
▁ᏂᏚᏍᏛ	-10.2054
▁ᏧᏂᎦᏴᎵᎨ	-10.2059
ᏥᎪᏩᏛ	-10.2076
ᎪᎩ	-10.2077
▁ᎦᏙᎬᎩ	-10.2077
▁ᏥᏙᎬ	-10.2079
▁ᏙᎢᏳᏍᏗ	-10.2085
ᏒᏅ	-10.2088
▁ᎨᎳᏍᏗ	-10.2094
▁ᎤᏰ	-10.2095
▁ᎢᎦᏛᎯ	-10.2095
▁ᎬᏂᏳ	-10.2096
▁ᎤᏂᏍᎦᏅᏨᎢ	-10.2096
▁ᎤᎿᎥᎢ	-10.21
▁ᎶᏗᏃ	-10.2104
▁ᏅᏗᎦᎵᏍᏙᏗᏍᎬᎢ	-10.2111
ᏓᏡᎬ	-10.2111
▁ᎤᎷᏤᎢ	-10.2115
▁ᏦᎯᏳᏒ	-10.2132
id	-10.2134
ᎨᏯ	-10.215
▁ᎤᎩᏨᏅ	-10.2155
▁ᏝᏰᏃ	-10.2167
ᏁᎮᎢ	-10.2169
ᏍᏆᏂᎪᏗ	-10.2172
ᏓᏍᏗ	-10.2179
ᏛᏓ	-10.2183
ᏍᎦᏅᏨ	-10.2185
ᏣᏛ	-10.2191
ᏍᏆᏓ	-10.2197
▁ᎠᏂᏅᎢ	-10.22
▁ᎭᏩ	-10.2204
▁ᏱᏓᎩ	-10.2206
▁ᎤᏅᏏᏙᎯ	-10.2209
ᎥᎦ	-10.2222
ᎨᏣ	-10.2234
▁ᏛᏂ	-10.2239
▁ᎤᏍᏚᎢᏒ	-10.224
▁ᎾᏛᏁᎲ	-10.2242
▁ᏕᎦᏛ	-10.2246
ᎪᏅ	-10.2254
▁ᏥᏂᎦᏪ	-10.2266
ᏪᎳ	-10.23
▁ᎣᏓᏅᏛ	-10.2311
ᏲᎱᏒ	-10.2325
▁ᏕᎭ	-10.2329
▁ᎢᏏᎵᏱ	-10.2333
ᏂᏍᎩ	-10.2337
ᏍᏔᏅᎢ	-10.2344
ᎵᏍᎪᎸᏔᏅᎯ	-10.2345
ᎦᏔᎯ	-10.2348
▁ᏂᎬᏩ	-10.235
ᎶᏍᎬ	-10.2398
ᏲᎱ	-10.2409
▁ᏫᏚᎧᎿ	-10.2425
ᎥᏏ	-10.2431
▁ᎠᏆᏓ	-10.2442
ᏓᎴᏒ	-10.2478
▁ᎤᏴ	-10.2485
▁ᏦᎦ	-10.249
ᏩᏛᎲ	-10.2498
ᏏᏗᏒ	-10.2498
ᏍᏔᏅᎭ	-10.2501
▁ᏱᎾ	-10.2515
▁ᏌᏚ	-10.2522
ᎵᏦᏛ	-10.2531
▁ᏄᏓ	-10.2531
ᏕᎭ	-10.2534
ᎵᏍᎪ	-10.2544
ᏲᏏ	-10.2554
ᏴᎩ	-10.2567
▁ᎠᏁᎵᏍᎬ	-10.257
▁ᎢᏒ	-10.2581
ᎦᏃ	-10.2592
ᏗᏃ	-10.2624
ᏲᎭ	-10.2631
ᏂᎬ	-10.2632
ᏲᏍᏙᏗ	-10.2669
ᏍᏙᎢ	-10.2683
▁ᏄᏂ	-10.2693
▁ᏕᏂ	-10.2711
ᎵᎭ	-10.2745
ᎾᏫ	-10.2752
ᏰᏥ	-10.2756
ᏍᏚᏅ	-10.2756
▁ᏎᎳ	-10.2802
ᎩᏍᎨᏍᏗ	-10.2819
ᏄᎦ	-10.2822
ᎦᏙᎵ	-10.2827
▁ᎠᎢᏒ	-10.2832
ᏓᎾ	-10.2833
ᏃᏁᎸᎩ	-10.284
▁ᎯᎦᏘᏏ	-10.2854
▁ᏗᏂᏍᎪᎵ	-10.2857
▁ᏚᎾᎴᏁ	-10.286
▁ᎡᏈᎵ	-10.2866
▁ᏚᎾᎧᏛ	-10.2866
▁ᎭᎻ	-10.2869
▁ᎷᏈᏂ	-10.2871
ᎵᏍᏔᏅ	-10.2874
▁ᏱᏂᎬ	-10.2884
ᎠᏆ	-10.289
ᎾᏄᎪᏫᏎᎸ	-10.2891
▁ᎠᏔᎴᎦᏒ	-10.2892
▁ᏂᎦᏪ	-10.2892
▁ᏕᎦᏚᏩᏗᏒ	-10.2894
ᎪᎱᏍᏗ	-10.2895
▁ᏧᏩᎫᏔᏅᏒ	-10.2896
▁ᏯᎦᏔᎮ	-10.2901
▁ᎠᏚᎢᏍᏛ	-10.2901
ᏗᏍᎦᎶᏗ	-10.2905
▁ᏚᏬᎡ	-10.2906
▁ᏱᎨᏐ	-10.2907
▁ᏙᏓᎬ	-10.2916
▁ᎤᏛᏐᏅ	-10.2934
▁ᏓᏂᏁᎸ	-10.2938
▁ᎣᎵᏩ	-10.2941
▁ᎦᏌᏆᎸ	-10.2946
▁ᏑᏓᎳᏍᎪᎯ	-10.2946
▁ᏗᎫᏓᎸᏗᏱ	-10.2946
▁ᎡᎹᏂᏓ	-10.2946
▁ᎦᏌᎾᎵ	-10.2946
▁ᏧᏯᏖᏃᎯ	-10.2946
▁ᎥᏘᎣᎩ	-10.2946
▁ᏧᏙᏓᏋᏓ	-10.2946
▁ᎢᏍᎦᎳᏗ	-10.2946
▁ᎦᎶᎯᏍᏗᏳᎶᏗ	-10.2946
▁ᎢᏤᎳᏗᏙᎮᏍᏗ	-10.2946
▁ᏁᎳᏍᎪᎯ	-10.2946
▁ᏧᏒᎯᏓ	-10.2946
▁ᏑᎾᏓᎴᎩ	-10.2947
▁ᏑᏕᏘᏴᏛ	-10.2947
▁ᎬᏉᏎᎰ	-10.2947
▁ᎤᏯᏖᏃᎯ	-10.2947
▁ᎻᎾᏌ	-10.2947
▁ᏕᎨᏥᏰᎸᏔᏅᎩ	-10.2947
▁ᏱᏅᎦᎵᏍᏓ	-10.2947
▁ᎤᎾᏢᏉᏗ	-10.2947
▁ᎢᏳᏩᏂᏌᏅᎯ	-10.2947
▁ᏂᏣᏪᏒ	-10.2947
▁ᎤᏪᎿᎢ	-10.2947
▁ᎠᎦᏗᏛ	-10.2947
▁ᏄᎵᏍᏔᎾ	-10.2948
▁ᏗᏍᏆᎨᏂ	-10.2948
▁ᎤᏂᏁᎫ	-10.2948
▁ᏅᏓᏳᎵᏍᏙᏗᏱ	-10.2948
▁ᏗᎧᎾᏩᏛᏍᏗ	-10.2948
▁ᏅᏓᎬᏁᎵ	-10.2948
▁ᎨᏣᏍᏓᏩᏗᏙᎯ	-10.2948
▁ᎡᎵᏆ	-10.2948
▁ᎢᏲᏍᏛ	-10.2949
▁ᎢᎧᏁᏨᎯ	-10.2949
▁ᎠᎦᎵᏍᎬ	-10.2949
▁ᏧᎾᎴᎯᏐᏗ	-10.2949
▁ᎡᏥᎸᏉᏓ	-10.2949
▁ᎢᏳᏛᎿᏕᎩ	-10.2949
▁ᎠᏂᏈᎷ	-10.295
▁ᏫᏨᎷᏤᏗᏱ	-10.295
▁ᎾᏂᎦᏔᎲᎾ	-10.295
▁ᏓᏓᎶᏂ	-10.295
▁ᏍᎩᏄᏍᏛ	-10.295
▁ᏗᏓᎴᎲᏍᎦ	-10.295
▁ᎢᏳᏩᏂᎸ	-10.2951
▁ᏛᏍᏆᎸᎯ	-10.2951
ᎯᏫ	-10.2951
▁ᎢᏳᏩᏁᎸᎯ	-10.2951
▁ᏌᏉᎤᏅ	-10.2952
▁ᎤᏁᎷᏅᎩ	-10.2953
▁ᎢᏣᏛᎦᏅᎯ	-10.2953
▁ᎤᏂᎷᎯᏍᏗᏱ	-10.2954
▁ᎤᎭᎨᏛ	-10.2954
▁ᎤᏁᏍᏓᎳ	-10.2954
▁ᎠᏂᏦᎢ	-10.2954
▁ᎤᏓᏙᎵᏍᏓᏁᎴᎢ	-10.2954
▁ᎢᏣᎵᏍᏕᎸᏙᏗ	-10.2954
▁ᏭᏂᎶᎯᏍᏗᏱ	-10.2954
▁ᎾᎩᏪᏒᎩ	-10.2955
▁ᏙᏓᏳ	-10.2955
▁ᏗᏓᏂᏐᏗᏱ	-10.2956
▁ᎤᏛᎪᏗᏱ	-10.2956
▁ᏥᏍᏆᏯ	-10.2957
▁ᎤᎷᏤᎴ	-10.2958
▁ᎤᏂᏇᏓᎸᎢ	-10.2959
▁ᎢᏣᏓᏡᎬ	-10.296
▁ᎤᏰᎸᏅ	-10.296
▁ᏗᎦᎴᏂ	-10.2961
▁ᎤᎾᎵᎪᎯ	-10.2962
▁ᎠᎬᎥᎯᏍᏗ	-10.2962
▁ᎤᎾᏕᏅᎯ	-10.2962
▁ᎯᎨᏴ	-10.2963
▁ᏦᏢᏗ	-10.2964
▁ᏫᏚᏯᏅᎲᎩ	-10.2965
▁ᏗᎦᏓᎭ	-10.2965
▁ᎤᎵᏠᏯᏍᏕᏍᏗ	-10.2966
▁ᎠᎩᏅᏏᏛ	-10.2966
▁ᎤᎵᏍᏔᏴᏗ	-10.2967
▁ᏦᏓᎸ	-10.2968
▁ᎦᎴᏂ	-10.2969
▁ᎤᏂᏃᎮᎸᎯ	-10.297
▁ᏚᏁᏤᎸᎩ	-10.2971
▁ᎠᏙᎴᎰᎯᏍᏙᏗ	-10.2972
▁ᎢᏳᏛᏁᏗᏱ	-10.2973
ᏄᏪᏒ	-10.2973
▁ᏂᎬᏁᎭ	-10.2973
▁ᎤᏪᏅᏍᏗᏱ	-10.2973
▁ᏙᏧᎾᏓᏅᏛᎢ	-10.2975
▁ᏓᏕᏲᎲᏍᎬᎢ	-10.2975
▁ᎤᏪᏙᎸᎩ	-10.2975
▁ᎹᎩ	-10.2978
Ꮮ	-10.2978
▁ᎤᏓᏙᎵᏣᏘᏳ	-10.2979
▁ᎤᎵᏬᏨᎯ	-10.298
ᏂᎬᎦ	-10.2981
▁ᏄᎾᏛᏁᎴᎢ	-10.2981
ᏗᏒ	-10.2982
ᏘᏅ	-10.2982
▁ᏤᎲᎩ	-10.2983
▁ᎠᏎᏍᎩᏂᏃᏅ	-10.2983
▁ᏕᎨᏥ	-10.2986
▁ᎤᏰᎸᎮ	-10.2987
▁ᏕᎪᏪᎸ	-10.2987
▁ᎤᎾᎵᏍᏓᏴᏗᏱ	-10.2988
▁ᎾᏂᏪᏍᎬᎢ	-10.2991
▁ᎤᏪᎵᏍᏗ	-10.2991
▁ᎾᎦᏔᎲᎾ	-10.2992
▁ᎠᎦᏍᎬ	-10.2997
▁ᏂᎦᎵᏍᏗᏍᎨᏍᏗ	-10.2999
▁ᎠᏨᏯᎢ	-10.301
▁ᏗᎦᎶᏗ	-10.3012
▁ᎠᏥᎸᎨᎳᏍᏗᏱ	-10.3014
▁ᎤᏂᎩᏍᏗ	-10.3015
▁ᎦᏰᎯ	-10.3015
▁ᎤᏓᏑᏯ	-10.3015
▁ᎤᏄᎪᏨᎩ	-10.3019
▁ᎧᏅᏑᎸ	-10.3028
ᎧᎵ	-10.303
ᎴᏅᎯ	-10.304
▁ᎠᏤᎵᏍᏛᎢ	-10.3042
▁ᎤᎶᎩᎸᎢ	-10.3042
ᎵᏍᎪᎸᏓᏁᎸᎯ	-10.3044
▁ᎦᎵᏉᎩᏁᏃ	-10.3044
▁ᎤᏰᎸᏁᎢ	-10.3045
▁ᏚᎧᎿᏅ	-10.3049
▁ᎤᎴᏁ	-10.305
▁ᏗᎦᏅ	-10.3063
▁ᏚᏌᎳᏓᏁ	-10.3065
▁ᎣᎬᏒ	-10.3067
▁ᎠᏈᎻᎴᎩᏃ	-10.3068
▁ᏃᏊᏃ	-10.3068
▁ᎠᏂᏁᎵ	-10.3069
▁ᎾᏆ	-10.3086
▁ᎭᎾᏉ	-10.3088
▁ᏄᏩᏁᎴᎢ	-10.3088
▁ᎦᏬᏂᏍᎬᎢ	-10.3092
▁ᏗᎦᏅᏌᏗ	-10.3093
▁ᏭᏴᎸ	-10.3099
▁ᎤᏰᎸᎯ	-10.3105
▁ᎤᏃᎮᎸ	-10.3114
▁ᎵᎠᏃ	-10.3123
▁ᏚᏂᏅᏎ	-10.3124
ᎾᎢ	-10.3135
ᏕᎦ	-10.3137
▁ᏴᎨᏥ	-10.3146
▁ᎤᏪᏙᎵᏍᏗ	-10.3152
▁ᎧᎪ	-10.3154
▁ᏂᎪ	-10.3164
ᏁᏤᎸᎯ	-10.3167
ᎸᏛ	-10.3177
▁ᎤᎧᏛᎢ	-10.318
ᏛᏁᏗ	-10.3182
ᏯᏛ	-10.3189
▁Ꮄ	-10.3194
ᏁᎩ	-10.3195
ᏢᏅ	-10.3195
ᎶᏎ	-10.3209
ᏂᏴᏛ	-10.3239
▁ᏄᎾᎵᏍᏔᏁ	-10.3241
ᏆᏛ	-10.3241
▁Ꮞ	-10.3254
▁ᎠᏂᏐᎢᏃ	-10.3257
ᏰᎭ	-10.3264
▁ᎢᎬᏁ	-10.3268
ᏑᏰᏛ	-10.3276
ᏂᏲ	-10.3284
Ꮡ	-10.329
▁ᎠᏍᎪᎯᏃ	-10.3295
ᏰᏗ	-10.3317
▁ᏩᎩ	-10.3343
ᏙᎬ	-10.3348
ᏚᎵᎭ	-10.3372
▁Ꮗ	-10.3373
▁ᎠᏂᏆᎵᏏᏃ	-10.3376
ᎦᏯ	-10.3399
ᏃᎯᏎᎸ	-10.3408
ᏲᎦ	-10.3429
▁ᎤᎦᏔᎲᏒ	-10.3429
▁ᎤᏬᏂᏒ	-10.3448
ᎦᏨ	-10.3453
▁ᎬᏩᎪᎲ	-10.3473
▁ᎠᏋ	-10.348
▁ᏕᎪ	-10.3483
ᏍᏛᏗᏍᏗ	-10.3494
▁ᎠᎩᎪᎲ	-10.3498
▁ᎤᏬᏚ	-10.3507
ᏎᎴᎢ	-10.3534
▁ᏗᏨ	-10.3535
ro	-10.3536
ᏤᎯ	-10.3548
▁ᏩᏁ	-10.3549
▁ᏧᏁ	-10.3574
▁ᎤᏂᏰᎸᏁ	-10.3575
▁ᏱᏏ	-10.3589
ᏩᏔ	-10.3614
ᏁᎸᎭ	-10.3615
▁ᎤᎧ	-10.3631
ᎥᎾ	-10.3644
ᎴᏴ	-10.3646
ᎷᏤᎸ	-10.3654
▁ᎠᎧ	-10.3655
ᎪᎯᏳ	-10.3656
▁ᎤᎾᏛᎦᏁ	-10.3657
▁ᎢᎪᎯ	-10.3669
▁ᎩᎳᏃ	-10.3695
▁ᎤᏲᎴ	-10.3711
▁ᏱᏙᎦ	-10.3715
ᏅᏙᏗ	-10.3723
▁ᎤᎿ	-10.3731
▁ᎤᏰᎸᏎ	-10.3732
▁ᏄᎵᏍᏔᏁᎮ	-10.3749
▁ᎠᎩᏰᎸ	-10.3752
▁ᎾᏋᏁᎸ	-10.3753
▁ᏰᎵᏍᎨ	-10.3754
ᎴᏅᏛ	-10.3769
▁ᎠᏓᏅᏖᎵᏙ	-10.378
ᏅᏏ	-10.378
ᏩᏛᎮ	-10.3797
ᏃᎮ	-10.3797
ᏣᏁ	-10.3799
ᎲᏍᎦ	-10.3812
ᏨᎢ	-10.3814
▁ᎢᏣᎵ	-10.3819
ᎿᎥᎢ	-10.3821
ᏁᎶᏗ	-10.3842
ᏆᏓ	-10.3847
ᏲᎯᏍᏗ	-10.3858
▁ᎢᎤ	-10.3866
ᏁᎰᎢ	-10.3871
ᏚᎬ	-10.3892
ᎯᏃ	-10.39
▁ᎦᏅᎬ	-10.3903
▁ᎩᎳᎯ	-10.3904
ᎡᏍᏗ	-10.3912
l	-10.3918
▁ᎬᏩᎷᏤᎴ	-10.3922
ᏓᏲ	-10.3925
ᎦᏗ	-10.3945
ᏥᎯᏍᏗ	-10.3945
▁ᏂᎦᎵᏍᏗᏍᎨ	-10.3953
ᎡᎸᎩ	-10.396
▁ᏐᎣᏁᎳ	-10.3966
▁ᏥᏍᎪᏴ	-10.3967
▁ᏇᏕᎵ	-10.3971
▁ᎠᎩᏁᏨ	-10.3972
▁ᏌᏊ	-10.3979
▁ᎤᏦ	-10.398
▁ᏦᏈ	-10.3981
▁ᎾᎬᏁᎸ	-10.3985
ᏑᏰ	-10.3991
▁ᎪᏢᏒ	-10.3994
ᏗᏂᏅᏌᏗ	-10.3996
ᎦᎵᏴ	-10.3996
▁ᎾᏂᏪᏍᎬ	-10.3997
ᎭᏕᏬ	-10.4
▁ᎤᏄᎪᏤ	-10.4001
ᎠᏕᎸ	-10.4011
▁ᎡᏙᎮ	-10.4015
▁ᎬᏯ	-10.402
▁ᎤᏂᏠᏱ	-10.4021
▁ᏲᎩ	-10.4023
▁ᏕᎤᎴᏔᏅ	-10.4029
ᎠᎩᎾ	-10.403
▁ᏚᏂᎸᏫᏍᏓᏁᎸ	-10.403
ᎨᎵᎠ	-10.4032
▁ᏧᏓᏅᏛ	-10.4035
▁ᏌᏬᏚ	-10.4037
▁ᎤᏚ	-10.4039
▁ᏗᎪᏪᎵ	-10.404
▁ᎠᏂᏃᎯᎵᏙ	-10.404
▁ᏧᏂᎳᏫᎢᏍᏗ	-10.4044
▁ᏅᏲ	-10.4048
▁ᏱᏙ	-10.4048
▁ᎢᏙᎻ	-10.4049
▁ᏚᏳᎪᏗ	-10.4053
ᏛᏁᎲ	-10.4053
ᏓᏱᎵ	-10.4056
▁ᏓᏓ	-10.4056
rs	-10.4057
▁ᏆᎳᏆ	-10.4057
▁Philadelphia	-10.4057
▁ᎢᏧᎾᏓᎳ	-10.4057
▁ᎤᏓᏑᏱ	-10.4057
▁ᏇᏚᎡᎵ	-10.4057
▁ᏐᎵᎹᏅ	-10.4057
▁ᏕᏦᎯᏳᏎᏍᏗ	-10.4057
▁ᏗᎦᏒᏍᏔᏅ	-10.4057
▁ᎠᏓᏪᎳᎩᏍᎩ	-10.4058
▁ᎤᎵᏏᏂᏗ	-10.4058
▁ᏣᎵᏍᏙᏂ	-10.4058
▁ᏱᎪᎵᎦ	-10.4058
▁ᏗᎾᏕᏲᎲᏍᎩ	-10.4058
▁ᎠᎾᏛᎩᏍᎩ	-10.4058
▁ᏕᎪᏪᎵᏍᎬ	-10.4058
▁ᏱᏄᎵᏍᏔᎾ	-10.4058
▁ᎢᏳᏓᎵᎭ	-10.4058
▁ᏥᎣᎵ	-10.4058
▁ᏢᏓᏥ	-10.4058
▁ᏚᎷᏫᏍᏔᏁᎲ	-10.4058
▁ᏐᎣᏁᎳᏍᎪᎯ	-10.4058
▁ᎨᏅᎢᏍᏗ	-10.4058
▁ᎢᏦᎯᏳᎯ	-10.4058
▁ᏚᎧᎿᏁ	-10.4058
▁ᎤᏓᏅᎵᏰᎥ	-10.4058
▁ᏗᎦᎸᏫᏍᏓᏁᎸᎯ	-10.4058
▁ᎡᏅᏍᏗ	-10.4058
▁ᏱᏣᏓᏅᏖᏗᏍᎨᏍᏗ	-10.4058
▁ᏚᏍᏆᎸᏔᏁ	-10.4058
▁ᎤᏒᎯᏰᏱ	-10.4058
ᎭᏄᎸᎯ	-10.4058
▁ᏧᎴᎯᏌᏅᎯ	-10.4058
▁ᏗᎨᏥᎾᏝᎢ	-10.4058
▁ᎠᏥᏍᏕᎸᏗ	-10.4059
▁ᎤᏣᎴᏓ	-10.4059
▁ᎤᏍᏗᎧᏂ	-10.4059
▁ᏓᏳᏂᎶᏒ	-10.4059
▁ᏧᏓᎴᏅᎲ	-10.4059
▁ᏄᏚᎵᏍᎬᎾ	-10.4059
▁ᏗᏛᏓᏅᎯ	-10.4059
▁ᎬᏩᏠᏯᏍᏗ	-10.4059
▁ᏚᏃᏢᏅᎩ	-10.406
▁ᏔᎸᏗ	-10.406
▁ᎤᎾᎵᏗᎩᏛ	-10.406
▁ᎤᏂᏇᏓᎵ	-10.406
▁ᎧᏴᏐᎵ	-10.406
▁ᏧᎴᏔᏅᎯ	-10.406
▁ᎢᏗᏅᏁ	-10.4061
▁ᎦᏓᎷᏯᏛ	-10.4061
▁ᎬᏆᏛᏁᏗᏱ	-10.4061
▁ᏗᏥᎸᏫᏍᏓᏁᏗᏱ	-10.4061
▁ᎤᏬᏪᎳᏅᎯ	-10.4061
▁ᎡᏣᏂᎵ	-10.4061
▁ᏀᎢᏳ	-10.4061
▁ᎢᏧᏕᏘᏴᏛ	-10.4061
▁ᎢᏥᏆᎵᏏ	-10.4061
▁ᎤᏬᏓᎸ	-10.4062
▁ᎠᎩᎷᏥᎸ	-10.4062
▁ᎤᎾᏕᏅ	-10.4063
▁ᎥᏥᎪᎥᎩ	-10.4064
▁ᎠᏂᎴᏴᏍᎩ	-10.4064
▁ᎠᏍᏆᏚᎸ	-10.4064
▁ᎬᏩᏲᎱᎯᏍᏗ	-10.4064
ᏴᏍᏗᏱ	-10.4064
▁ᎠᏂᏫᎾ	-10.4064
▁ᏂᏣᏛᎦ	-10.4065
▁ᎤᎾᏓᏓᏍᎬ	-10.4066
▁ᎤᏓᎴᏨ	-10.4066
▁ᏗᏇᏅᏒ	-10.4066
▁ᎤᏂᎪᎮ	-10.4066
▁ᏗᎬᎪᏩᏛᏗ	-10.4067
▁ᎠᏓᏍᏓᏩᏗᏙᎯ	-10.4067
▁ᎾᏯᏛᎡᏍᏗ	-10.4068
▁ᏍᎩᎾᏝᎢ	-10.4068
▁ᏧᏴᏢ	-10.4069
▁ᏭᏂᏴᎴᎢ	-10.4069
▁ᎠᎹᎴᎩ	-10.4069
▁ᏏᏓᏁᎸ	-10.407
▁ᏭᏂᎶᏒᎩ	-10.407
▁ᎠᎩᏰᎸᎲ	-10.407
▁ᎤᏪᎧᏅᎩ	-10.407
▁ᎧᎸ	-10.407
▁ᏏᏅᏓ	-10.407
▁ᎾᏍᎦᎢᎲᎾ	-10.4071
▁ᎤᎧᎭᏛ	-10.4071
▁ᏗᏦᏗ	-10.4072
▁ᏣᎾᏫ	-10.4072
▁ᏧᏴᏨ	-10.4073
ᏃᏗ	-10.4073
▁ᎢᎩᏅᏟ	-10.4073
▁ᎤᏕᏁᎢ	-10.4074
▁ᎤᏂᏰᎸᏒᎩ	-10.4075
ᏙᎵᎩ	-10.4075
▁ᏄᏂᏪᏎᎸᎩ	-10.4075
▁ᎤᏅᏙᏗᏱ	-10.4075
▁ᎥᎩᏙᏉ	-10.4076
▁ᎨᏥᏁᎸᎯ	-10.4076
▁ᎡᏙᎭ	-10.4076
▁ᏗᎦᎵᏍᏙᏗᎭ	-10.4076
▁ᏧᎾᏄᏩᎢ	-10.4077
ᎪᎵᏯ	-10.4078
▁ᎾᏂᎡᎢ	-10.4079
▁ᏂᎦᎵᏍᏙᏗᎭ	-10.4079
▁ᎠᏚᎸᏗ	-10.4082
▁ᎤᏕᏗᏱ	-10.4082
▁ᎤᎴᏫᏍᏔᏁ	-10.4082
▁ᏓᏳᏓᎴᏅᏓ	-10.4083
▁ᎤᏗᏔᎲ	-10.4084
▁ᎾᏁᎲᎾ	-10.4084
▁ᏧᏁᏢᏔᏅᏛ	-10.4085
▁ᎠᏟᏍᏛᎢ	-10.4086
▁ᏗᎦᏓᏁ	-10.4088
▁ᎦᏅᏙᏗ	-10.4088
▁ᏗᏂᎦᏘᏯ	-10.4089
▁ᏚᏓ	-10.4089
ᏙᎥ	-10.4094
▁ᎢᎩᏁᎸᎯ	-10.4096
▁ᏐᏓᎻᏱ	-10.4097
▁ᏚᏬ	-10.4097
▁ᎭᎾᏂ	-10.4099
▁ᏏᎠ	-10.41
▁ᏯᎩᎭ	-10.4102
▁ᏭᎷᏨᎩ	-10.4105
▁ᏚᏂᎸᏫᏍᏓᏁᎸᎢ	-10.4107
▁ᎤᎾᏗᏅᏗ	-10.4107
▁ᏩᎩᎷᏨ	-10.4109
▁ᎡᏙᎮᎢ	-10.411
▁ᎤᏨᏉᏗ	-10.411
▁ᏂᎦᎵᏍᏙᏗᏍᎨ	-10.4112
▁ᎬᏩᎪᏩᏛᏗ	-10.4114
▁ᎦᏁᏌᎢᎯ	-10.4115
▁ᎠᏓᎨᏗ	-10.4119
▁ᏗᏟᏍᏗ	-10.412
▁ᎤᏪᏁᎢ	-10.4121
▁ᎤᏂᎷᏤᏗ	-10.4122
▁ᎤᎾᏛᎦᏁᎢ	-10.4125
▁ᏗᎬᏗ	-10.4134
▁ᎤᏓᏅᏖᎸᎢ	-10.4141
▁ᏅᎩᏁᏃ	-10.4142
▁ᏕᏥᎸᏫᏍᏓᏁᎲᎢ	-10.4143
▁ᎠᎧᎵᏬᎯ	-10.4144
▁ᎤᏩᏛᎮᎢ	-10.4146
▁ᎤᏯᏅᎯ	-10.4149
▁ᎬᏙᏗᏱ	-10.4159
▁ᎾᎾᏛᏁᎲᎢ	-10.416
▁ᎤᏓᏅᏎᎢ	-10.4165
▁ᏲᏥ	-10.4168
ᏤᏗ	-10.4169
ᏗᏍᎪᏂᎯ	-10.417
▁ᏥᏴ	-10.417
▁ᎦᏓᏅᏖᏍᎬᎢ	-10.4171
▁ᎢᏦᎯᏳᏒᎢ	-10.4171
▁ᏫᏚᏂ	-10.418
ᏍᏓᏩᏗᏒ	-10.4189
▁ᎠᏍᎦᎾᎢ	-10.4193
▁ᏚᏁᏤᎴᎢ	-10.4193
▁ᎡᎲᎩ	-10.4198
▁ᎥᎵ	-10.4199
▁ᎠᎵᏥᏙᎲᏍᎨ	-10.4204
ᏙᎴᎰᎯᏍᏗ	-10.4204
▁ᎤᎪᎲᎩ	-10.4206
ᏯᏫ	-10.421
▁ᏗᏐᎢ	-10.4211
▁ᏚᏁᎴᎢ	-10.4212
ᏂᏓᏍᏗᏱ	-10.422
ᏰᎸᎯ	-10.4222
▁ᏂᎬᏁ	-10.4224
ᎸᎮ	-10.4232
▁ᎧᏁᎢᏍᏗ	-10.4233
ᎵᏍᎬ	-10.4236
▁ᏚᏃᎸ	-10.4237
▁ᎤᏪᏅᏎᎢ	-10.4238
▁ᎵᏇᎩᏃ	-10.4239
▁ᏗᏣᏓ	-10.4243
ᎩᎸᏗ	-10.4247
▁ᏧᏬᎸ	-10.4249
▁ᎤᎾᏙᏓᏆᏍᎬᎢ	-10.4252
▁ᎵᏏ	-10.4259
ᏓᏬ	-10.426
ᏌᏘ	-10.4263
ᎯᏛ	-10.4264
▁ᏧᏓᏏᏃ	-10.4267
▁ᎤᏪᎷᏁᎢ	-10.4271
▁ᎢᏯᏂᎢ	-10.4291
▁ᎦᏚᏱ	-10.4294
▁ᎾᏂ	-10.4295
▁ᏅᎩᏁ	-10.4297
▁ᎠᏓᏅᏖᏍᎬᎢ	-10.4299
ᎵᏓ	-10.431
▁Ꮮ	-10.4316
▁ᎢᎾᏛᏃ	-10.4316
▁ᏧᏬ	-10.4319
ᏍᏊ	-10.4328
▁ᏅᏗᎦᎵᏍᏙᏗᏍᎨᎢ	-10.4333
ᏗᏔ	-10.4334
ᎬᎭ	-10.4346
▁ᏥᏄ	-10.4351
ᏔᏲ	-10.4357
ᎳᏅ	-10.4359
ᏲᎪ	-10.4359
▁ᎤᏄᎪᎢᏍᏗ	-10.436
ᏯᎡᏍᏗ	-10.4364
ᏓᎩᏍᎨ	-10.4365
ᏂᏍᎬ	-10.4368
ᎲᏍᎨᏍᏗ	-10.437
▁ᏅᏓᏳᎾᎵᏍᎪᎸᏔ	-10.4381
▁ᎦᏅᎨ	-10.4383
ᏛᏁᎢ	-10.4398
▁ᎢᎳ	-10.4405
▁ᎬᏗᎭ	-10.4437
ᏁᎲᎩ	-10.4447
▁ᏗᏂᏩᎾᎦᎳ	-10.445
▁ᏑᏓᎵᏁ	-10.445
ᏄᎪᏫᏎ	-10.4453
ᏄᎪᏩ	-10.4458
▁ᏣᏚ	-10.4477
ᎨᏳᎭ	-10.4477
ᎲᏍᎬ	-10.4484
ᎨᏴ	-10.4489
ᏯᏅᏛ	-10.4492
▁ᎠᎦᏕ	-10.45
ᎯᎭ	-10.4507
ᎷᏣ	-10.4535
ᎪᏗᏱ	-10.4547
ᏗᏔᏍᏗ	-10.4548
▁ᏄᏂᎬᏫᏳᏒᏃ	-10.4557
ᎫᏴ	-10.4558
ᏙᎸ	-10.4561
▁ᎨᏥᏁᏗ	-10.4562
▁ᏗᎾᏓ	-10.4572
ᏏᏱ	-10.458
ᏅᎦᎸ	-10.4584
▁ᎠᏰ	-10.4604
▁ᏨᏗ	-10.4605
▁ᎠᏆᏓᏅᏖᏗ	-10.4607
ᏍᎦᏅᏨᎢ	-10.4614
ᏥᏴ	-10.4619
▁ᎤᏃᎮᎴ	-10.4622
ᎨᏍᏗᏗ	-10.4639
▁ᎥᏣ	-10.4643
ᏇᎵ	-10.4649
ᏍᏆᏂᎪᏙᏗᏱ	-10.4656
▁ᏳᏩ	-10.4659
ᏙᎠ	-10.4666
ᏥᏁᎸᎯ	-10.4666
ᏂᎴ	-10.4673
ᏎᏗ	-10.4678
ᏍᏕᎵᎭ	-10.4689
ᎡᏗᏱ	-10.4701
ᏒᏗ	-10.4717
▁ᎠᎫ	-10.4732
ᏃᎮᏍᎬᎢ	-10.4737
ᏦᎯ	-10.4739
ᏪᏎᎸ	-10.4739
▁ᎦᏨ	-10.4742
ᏥᎩ	-10.4747
▁ᎠᏯᎥ	-10.4775
ᎷᏥ	-10.4783
▁ᏧᎴ	-10.4786
ᏂᎭ	-10.4806
ᎩᏴ	-10.4816
ᏣᏅ	-10.4827
▁ᎢᎬᏱᏱᏃ	-10.4836
▁ᎤᏩᏛᎲ	-10.484
ᏙᎲ	-10.4845
ᏗᏍᎪᎢ	-10.4845
▁ᎡᎳᏪᏱ	-10.4854
ᏍᏙᏓ	-10.4857
ᎸᏃ	-10.4857
ᏑᏰᏒ	-10.4858
ᏃᎮᏍᎬ	-10.486
ᎵᎨ	-10.4869
ᏲᏒᎩ	-10.4873
ᎳᏁᎢ	-10.489
▁ᏤᎲ	-10.4894
▁ᏱᏙᎨ	-10.4902
ᎯᏉ	-10.4902
ᏯᎥ	-10.4903
▁ᏗᎩᎦ	-10.4905
ᎳᏍᏓ	-10.4906
ᏦᏅ	-10.4919
▁ᏧᏙ	-10.4929
▁ᏓᎶᏂᎨᎢ	-10.494
▁ᏗᎪᏢ	-10.4953
▁ᎠᎵᎮᎵᎬ	-10.4954
ᏛᏙᏗ	-10.4955
Ꮾ	-10.4964
ᏫᏒ	-10.4966
ᎠᏂ	-10.4966
▁ᏧᏅ	-10.4977
ᏴᎭ	-10.4985
ᏲᎯᏎᎸᎩ	-10.4985
ᎵᏦ	-10.4993
ᏨᎾ	-10.4998
ᏤᎭ	-10.5004
▁ᏫᏚᎾ	-10.5014
ᎸᏉᏗᎭ	-10.5015
ᏡᏗᏍᎩ	-10.5029
ᏢᎩ	-10.5034
ᏱᏃ	-10.5042
▁ᎠᏂᏍᎦ	-10.5048
▁ᎤᎾᏓᏅ	-10.506
ᎵᏍᏓᏴᏗ	-10.5075
ᏙᎮᏍᏗ	-10.5089
ᎡᎴᎢ	-10.5091
ᏯᏅᎮ	-10.5093
▁ᏄᏬ	-10.5093
ᎪᏛ	-10.5096
ᎩᏂ	-10.5096
ᎥᏝ	-10.5096
ᎠᎩ	-10.5096
ᏯᏅᏗ	-10.5109
ᎢᏍᏙᏗ	-10.5113
ᏲᎰ	-10.5117
d	-10.5123
h	-10.5125
ᏁᏢᏔᏅᏛ	-10.5131
ᏲᏟ	-10.5132
ᎵᎻ	-10.5133
▁ᎤᏭ	-10.5151
ᏛᏅᎩ	-10.5151
ᏁᎦᎸ	-10.517
ᏍᏓᏁ	-10.5172
ᎯᏓ	-10.5185
ᏓᎳ	-10.5189
▁ᏫᏚᏯᏅᎲ	-10.5205
ᎯᎯ	-10.5209
ᎧᎵᏬᎯ	-10.521
ᏍᏓᏱᏳ	-10.5216
▁ᎠᎦᏍᎦᏂ	-10.5216
▁ᏤᎦᎳᏯ	-10.5216
▁ᎤᏂᏃᎮᎴ	-10.5221
ᏛᏁᎭ	-10.5222
▁ᎮᎼ	-10.5224
▁ᎢᏆᎶᏂ	-10.5228
ᎠᏎ	-10.523
▁ᏂᏚᏪᏎᎸ	-10.5237
▁ᏓᎵᏍᏗᎳᏁᎬ	-10.5247
▁ᎧᎸᎬ	-10.525
▁ᏯᏃᎩᏳ	-10.5251
▁ᏚᏅᏎ	-10.5252
▁ᎤᏁᎵᏎ	-10.5254
▁ᎬᏩᏔᏲᏎᎴ	-10.5254
ᎤᏍᏆᏂᎩᏗ	-10.5255
▁ᏕᎦᎳᏫᎥ	-10.5255
▁ᏗᏥᎦᏴᎵᎨ	-10.5257
▁ᎤᏍᏓᎦᎸ	-10.5258
▁ᎤᏗᏛᎮ	-10.5258
▁ᏓᏟᎶᏍᏛ	-10.5259
▁ᏚᎴᎯᏌᏅ	-10.5259
ᏓᏗ	-10.526
ᏍᎪᎸ	-10.526
▁ᎤᏬᏎᎴ	-10.5265
▁ᎤᏪᏅᏒᎩ	-10.5265
▁ᎢᎩᏍᎦᏅᏨ	-10.5266
.)	-10.5268
ᎤᏙᎯᏳᎯ	-10.5274
ᏍᏓᏩᏛᏒᎩ	-10.5276
▁ᎠᏂᏙᎾᎡ	-10.5276
▁ᎧᏃᎮᏓ	-10.5285
ᏪᏎᎸᎩ	-10.5286
ᏲᎾ	-10.5293
▁ᎤᏪᎧᏁᎴ	-10.5294
▁ᏗᎪᏪᎶᏗ	-10.5294
▁ᎪᎹᎵ	-10.5296
▁ᎢᏳᏅᏁᏗ	-10.5301
▁ᎤᏂᎸᏉᏗ	-10.5302
▁ᎣᎩᎾ	-10.5304
ᏢᏛ	-10.5305
▁ᏫᎦᎶᎯᏍᏗ	-10.5307
ᏔᎷᎩᏍᎩ	-10.5307
▁ᏧᏬᏚᎯ	-10.5307
▁ᎡᏉᏄᎶᏗ	-10.5307
▁ᎢᏰᏆ	-10.5307
▁ᎤᎭᎸᏂᎯ	-10.5307
▁ᎤᏂᏚᏯᏍᏗ	-10.5307
▁ᎤᏓᏏᏂᏕᎾ	-10.5307
▁ᎤᏪᏲᏓᏛ	-10.5307
▁ᎦᏣᏄᎸ	-10.5307
▁ᎯᏍᎩᏧᏈ	-10.5307
▁ᎰᏪᎸᎦ	-10.5307
▁ᏂᏚᏅᏏᏴ	-10.5307
▁ᏄᏠᎾᏍᏛᎾ	-10.5307
▁ᏅᏓᎬᏴᏁᎵ	-10.5307
▁ᏆᎻᏆᏂ	-10.5307
▁ᏈᏯᏏᏆ	-10.5307
▁ᏦᎩᎸᏫᏍᏓᏁᎯ	-10.5307
▁ᏫᏂᎦᎵᏍᏙᏓ	-10.5307
▁ᎠᏓᏎᎪᎩᏍᎨᏍᏗ	-10.5307
▁ᏚᏩᏂᎦᏢ	-10.5307
▁ᏧᎦᏃᏮ	-10.5307
▁ᎩᎾᎵᎢ	-10.5308
▁ᏗᏉᏰᏂ	-10.5308
▁ᎤᏯᏅᏒᎯ	-10.5308
▁ᎠᎦᏴᎵᎨᏍᏛᏱ	-10.5308
▁ᎠᏂᏙᎾᎢ	-10.5308
▁ᏂᏚᎾᏓᏪᏎᎸᎩ	-10.5308
▁ᎤᏘᏴᎯ	-10.5308
▁ᏗᏦᏰᏂ	-10.5308
▁ᏗᎾᏓᏂᏱᏍᎩ	-10.5308
▁ᎤᏗᏗᏢ	-10.5308
▁ᎯᎸᎯᏨ	-10.5308
▁ᎢᏗᎦᏪᏍᏗ	-10.5308
▁ᏭᎬᏫᏳᏒ	-10.5308
▁ᎭᎴᏉ	-10.5308
▁ᏌᎵᏂ	-10.5308
▁ᏄᏬᎯᏳᏒᎾ	-10.5308
▁ᏅᏓᎪᎯᏥ	-10.5308
▁ᏕᏥᏲᎵᎸᎭ	-10.5308
▁ᏗᎦᏃᏣᏟ	-10.5308
▁ᏅᏃᎱᎶᏗ	-10.5308
▁ᏧᏙᏓᏆᏛ	-10.5308
▁ᏌᎶᎵ	-10.5308
▁ᎯᏍᎩᎦᏚ	-10.5308
▁ᎲᏗᏍᎨᏍᏗ	-10.5308
▁ᎬᏩᏕᏁᎸᎯ	-10.5308
▁ᏗᏆᎳᏏᏕᏂ	-10.5308
▁ᎦᎵᏦᏙᏙᏗ	-10.5308
▁ᎢᏨᏍᏗᏰᏗᎭ	-10.5308
▁ᎠᎹᏳᎶᏗ	-10.5308
▁ᎦᏯᎴᏍᏗ	-10.5309
▁ᎤᏬᏞ	-10.5309
▁ᏧᏃᏩ	-10.5309
▁ᎤᏂᎬᎥᏍᎩ	-10.5309
▁ᎠᎾᏓᏙᎵᏍᏓᏁᎯ	-10.5309
▁ᎯᎳᎪ	-10.5309
▁ᎢᏯᎧᎵᎢ	-10.5309
▁ᎤᏍᏗᎩᏛ	-10.5309
▁ᏗᎬᏩᏓᏂᎸᎢᏍᏗ	-10.5309
▁ᏅᏓᏳᏓᎴᏅᏛ	-10.5309
▁ᏧᏩᏂᎦᏝᏅ	-10.5309
▁ᎪᏒᏔᏅ	-10.5309
▁ᎤᎴᏅᎩ	-10.5309
▁ᏗᏨᏂᏗᏳ	-10.531
▁ᎯᎧᏅᎭ	-10.531
▁ᏧᏓᏘᎾᎢ	-10.531
▁ᏧᏙᎢᏓ	-10.531
▁ᏄᏂᎲᎾ	-10.531
▁ᏚᎦᏌᏛ	-10.531
▁ᎠᏣᏪᏐᎸᏍᏙᏗᏱ	-10.531
▁ᏱᏄᎵᏍᏔᏅ	-10.531
▁ᎥᎩᏅᏟ	-10.531
▁ᏕᎨᎦᏨᏍᏗᏍᎬ	-10.5311
▁ᎢᏥᏪᏍᏗᏱ	-10.5311
▁ᏫᎨᏥᏲᎵᎭ	-10.5311
▁ᎧᏃᎩᏍᏗ	-10.5311
▁ᏙᏗᏣᏓᏅᏛᎢ	-10.5311
▁ᏗᎩᏅᏒ	-10.5311
▁ᏓᎭᏃᏫ	-10.5311
▁ᎠᏂᎾᏁᏍᎬ	-10.5312
▁ᎦᏆᏘ	-10.5312
▁ᏚᏦᎯᏍᏛ	-10.5312
▁ᏕᎪᏢᏩᏗᏒ	-10.5312
▁ᎡᏣᎸᏉᏗᏳ	-10.5312
ᏙᎴᎰᏏ	-10.5313
▁ᎤᏂᏍᏆᏂᎪᏒᎩ	-10.5313
▁ᏗᎧᏁᎢᏍᏗ	-10.5313
▁ᎦᎵᎡᎵᎦ	-10.5314
▁ᎢᏥᏍᏆᏂᎪᏙᏗ	-10.5314
▁ᎠᏆᏓᎵᎢ	-10.5314
▁ᎡᏃᏱ	-10.5315
▁ᎬᏩᏓᏍᏕᎸᏗ	-10.5315
▁ᎠᏓᏍᏓᏴᏗ	-10.5315
▁ᏥᏅᏗᎦᎵᏍᏙᏗᎭ	-10.5316
▁ᎠᏂᎯᏗ	-10.5316
▁ᏌᏈ	-10.5316
▁ᎤᎾᏛᏁᎸᏗ	-10.5317
▁ᎤᏂᏑᎸᏓ	-10.5317
▁ᎤᎵᎬᎭᎷᏴᎯ	-10.5317
▁ᎤᏢᏉᏗ	-10.5317
ᏂᏙᎲ	-10.5317
ᏬᏂᎯᏍᏗ	-10.5318
▁ᏮᏛ	-10.5318
▁ᏗᎦᏅᎯᏓ	-10.5318
ᎪᎲᏍᏙᏗ	-10.5319
▁ᎭᏂᏣ	-10.5319
▁ᎤᏂᎵᏦᏩᏛ	-10.5319
▁ᎤᏃᎯᏳᏗᏱ	-10.532
▁ᎤᏪᏚᎲ	-10.532
▁ᎮᏂᎵ	-10.532
▁ᎠᏲᏙᏗ	-10.5321
▁ᏚᏁᏤᎸ	-10.5321
▁ᎢᎩᎨᏳᎯᏳ	-10.5321
▁ᎠᏓᏪᎳᎩᏍᎬ	-10.5322
▁ᎤᏓᎵᏓᏍᏗ	-10.5325
▁ᎠᎦᎸᏓ	-10.5325
▁ᎤᎾᏕᏗᏱ	-10.5326
▁ᎢᏥᏁᏍᏗ	-10.5326
▁ᎤᏃᏍᏛ	-10.5326
▁ᏱᏍᎦᎢᎮᏍᏗ	-10.5326
▁ᎠᏋᎭ	-10.5327
▁ᏬᎩᎷᏨᎩ	-10.5327
ᏁᎸᎾ	-10.5327
▁ᎤᏂᏩᏛᎮ	-10.5327
▁ᎠᎬᎭᎸᏛ	-10.5328
▁ᎤᏓᏅᏖᏛ	-10.5328
▁ᏓᎬᏁᎵ	-10.5329
▁ᎧᏫ	-10.533
▁ᎯᎦᏙᎵ	-10.533
▁ᎤᏂᎸᏉᏔᏁ	-10.533
▁ᎤᎾᎦᏙᏍᏕᎢ	-10.5331
ᎸᏁ	-10.5331
▁ᎠᏓᎴᏂᏍᎬ	-10.5332
▁ᎤᏔᏲᏎᎴ	-10.5333
▁ᎠᏓᏰᎨᏍᏗ	-10.5334
▁ᎠᎪᏔᏅᎯ	-10.5335
▁ᎠᎬᏗᏍᎬᎢ	-10.5337
▁ᏗᏓᏬᏍᏗ	-10.5337
▁ᏗᏥᎾᏫᏱ	-10.5337
▁ᏥᏍᎪᎵ	-10.5338
▁ᏧᎾᏄᎪᏫᏒᎯ	-10.5338
▁ᎤᏂᏍᏆᏂᎪᏙᏗ	-10.5339
▁ᎠᎪᏎᎮᏍᏗ	-10.5341
▁ᎤᏅᏓᏕ	-10.5343
▁ᏗᎵᏍᎪᎸᏓᏁᎸᎯ	-10.5343
▁ᎡᏍᎦᏂ	-10.5344
▁ᎤᏂᏁᏨᎩ	-10.5346
▁ᎪᏢᏗ	-10.535
▁ᎤᏌᎯᎸᎢ	-10.535
▁ᎤᎾᏅᏗ	-10.5351
▁ᎠᏴᏤᏂ	-10.5354
▁ᎠᏂᎩᏍᎬ	-10.5355
ᏏᏳ	-10.5355
▁ᎬᏁᏍᏗ	-10.5355
▁ᏧᏁᏤᎢ	-10.5356
ᎷᏨ	-10.5356
ᎳᏏᏕᏂ	-10.5358
▁ᏎᏉ	-10.5358
▁ᏓᏂᎧᏅ	-10.5359
▁ᎤᏂᎩᏍᏗᏱ	-10.5361
▁ᎢᎩᏍᎦᏅᏨᎢ	-10.5363
▁ᎡᎮᎾ	-10.5363
▁ᎠᏂᏯᎢ	-10.5363
▁ᎯᏬᏂᏍᎬ	-10.5365
▁ᎠᏁᏢᏔᏅᎯ	-10.5366
▁ᎦᏟᎮ	-10.5367
▁ᏓᏍᏛᎢ	-10.5367
▁ᎦᏲᎵ	-10.5367
▁ᎠᏥᎳ	-10.5368
▁ᎤᏓᏛᏛᏁ	-10.5372
▁ᎤᎬᏫᏳᎭ	-10.5374
ᎾᏄᎪᎢᏍᏗ	-10.5374
▁ᎤᏪᏅᎩ	-10.5375
▁ᎠᏇᏅᏍᏗ	-10.5378
ᏃᎮᏍᎩ	-10.538
▁ᏗᎲ	-10.538
▁ᏕᎬᏗᏍᎬ	-10.5382
▁ᎠᎵᎮᎵᎨ	-10.5388
▁ᏯᏗᎭ	-10.539
▁ᎪᏪᎸᎩ	-10.539
ᎶᎯᏍᏗᏱ	-10.5394
▁ᎤᏂᎪᎲᎯ	-10.5394
▁ᎤᏰᎸᎭ	-10.5395
ᏗᏍᎬᎩ	-10.5395
▁ᎦᏓᏍᎬᎢ	-10.5397
▁ᎾᏆᏍᏛ	-10.5399
▁ᏄᏛᏅᎢ	-10.5401
▁ᏄᏓᎴᎯ	-10.5403
▁ᏗᏣᏙᏗ	-10.5404
▁ᎤᏩᏛᎮ	-10.5404
ᎫᏩ	-10.5405
▁ᎮᏓ	-10.5407
▁ᎤᏂᎩᏎᎢ	-10.5408
ᏗᎩ	-10.5412
ᏂᏙ	-10.5412
▁ᏅᎵᏌᎵᏉ	-10.5414
▁ᏈᎬ	-10.5415
ᎾᏓᏤᎵ	-10.5418
ᏪᎸ	-10.5419
▁ᎤᏂᏁᎬ	-10.5432
▁ᏕᏨ	-10.5436
ᏎᏗᏱ	-10.5436
▁ᎦᏅᏅᎢ	-10.5442
ᏈᎵ	-10.545
▁ᎤᏍᎦᎴ	-10.5457
▁ᎤᏬᎸᎢ	-10.5461
ᎵᏍᏚ	-10.5462
▁ᎠᎪᎵᏰᏗ	-10.5469
ᏍᏖ	-10.547
▁ᏐᎳᏃ	-10.5473
▁ᎤᏂᎩᏒ	-10.5476
▁ᎠᏂᏍᎦᎾᎢ	-10.5476
ᏲᏍᏗᏍᎬ	-10.5478
▁ᏄᎵᏍᏔᏂᏙᎸᎢ	-10.5489
▁ᎤᎶᎩᎸᏃ	-10.5495
▁ᏄᏍᏕᎢ	-10.5498
▁ᏄᎾᎵᏍᏓᏁᎸ	-10.5507
▁ᎤᏁᏤᎸᎢ	-10.5514
▁ᎹᎾ	-10.5524
ᎵᏍᏓᏏ	-10.5526
▁ᏱᏄ	-10.553
▁ᎨᎦᎫᏴᎡ	-10.5531
▁ᏙᏧ	-10.5532
▁ᎦᏅᏍᏙᏗᏃ	-10.5536
▁ᏁᎵᏍᎬ	-10.5538
▁ᏕᏥᏁᎸ	-10.5539
ᎵᎹ	-10.5541
▁ᎤᎾᏛᎦᏅᎩ	-10.5544
ᏨᏯ	-10.5546
▁ᏧᎵᏏ	-10.5549
▁ᏥᎦᏔᎭᏰᏃ	-10.5553
ᏲᏍᏓ	-10.5555
ᏏᎳᏛᏗ	-10.5562
▁ᎾᏂᎳᏍᏓᎸ	-10.5563
▁ᎢᏕᎲ	-10.5564
▁ᎠᏂᏔᎵᎭ	-10.5566
▁ᏣᎨ	-10.5568
ᏆᎶ	-10.5574
▁ᏚᏙ	-10.5576
▁ᏗᏁᏙᎲ	-10.5577
▁ᎤᏪᏅᏎᏃ	-10.5586
ᏥᎪ	-10.559
▁ᏣᏚᎵᏍᎬ	-10.5593
▁ᎤᏄᎪᏨ	-10.5593
▁ᏏᎳ	-10.56
ᎢᎦ	-10.5607
ᎷᏥᏏ	-10.5613
▁ᎤᏍᏆᎸ	-10.5619
ᏂᏙᎸ	-10.562
▁ᎤᏬᎯᏳ	-10.5625
▁ᎠᏆᏓᏅᏛ	-10.563
ᎦᏰ	-10.5638
▁ᏎᎵᏃ	-10.5643
▁ᏴᏓ	-10.5645
▁ᎦᏬᏂ	-10.5656
▁ᎤᏛᏅᎢᏍᏔᏁ	-10.5657
▁ᏅᏩᏍᏛ	-10.5664
▁ᏲᎦ	-10.5671
▁ᏦᏥ	-10.5672
ᏍᏆᎵ	-10.5676
ᏫᏒᎯ	-10.5677
ᏍᎪᎯ	-10.5686
▁ᎩᎵ	-10.5692
▁ᎤᎾᎵᎮᎵᏤ	-10.5693
▁ᏥᏁ	-10.5711
▁ᎦᏄᎸᏒ	-10.5715
▁ᏓᏥᏯ	-10.5716
▁ᎤᎪᎲᏃ	-10.5728
▁ᏓᏤᎸ	-10.5728
ᏴᎦ	-10.5733
▁ᏙᏘ	-10.5733
ᏢᏔ	-10.5734
ᏣᎳᎩ	-10.5736
▁ᏳᏚᎵ	-10.5743
▁ᎦᏁᏟᏴᏍᏗ	-10.5743
▁ᏙᏥ	-10.5751
▁ᎤᎾᏓᏅᏎ	-10.5759
ᏴᎵ	-10.576
▁ᏚᎦ	-10.5768
▁ᏓᏂᎸ	-10.5783
▁ᏚᏩᏛᎮ	-10.5801
ᎦᏘᏓ	-10.5803
ᎨᎾ	-10.5808
▁ᏂᎦᏛᏁᎲ	-10.5812
ᏩᏛᏗᏱ	-10.5831
ᏣᎵ	-10.5832
ᏓᏅᏙ	-10.5834
ᏃᎲᏏ	-10.5856
▁ᏗᎨᎦ	-10.5864
ᎵᏍᏙ	-10.5866
▁ᎮᎯ	-10.587
▁ᏱᏓᏂ	-10.5873
ᏕᏂ	-10.5877
▁ᎠᎦᏘᏰ	-10.5879
ᏏᏅ	-10.5887
▁ᏙᎩᎾ	-10.5888
ᏍᏓᏁᎯ	-10.5889
▁ᎢᏥᎲ	-10.5893
▁ᎤᏄᏢ	-10.5898
ᎧᏏ	-10.5905
▁ᏙᏉ	-10.5923
ᏕᎸ	-10.5925
ᏅᏩ	-10.5935
▁ᎤᏍᏉᏟ	-10.5945
▁ᎬᏩᏛᏗ	-10.595
▁ᏚᏭ	-10.5956
ᎧᎲ	-10.5963
ᎧᏁᎸ	-10.5968
▁ᏗᎫ	-10.5979
▁ᏂᏨ	-10.5981
▁ᏚᏁ	-10.5982
ᎩᎡᎸ	-10.5983
▁ᏗᏰ	-10.5989
ᏫᏛ	-10.5993
ᏝᏅ	-10.5996
▁ᎤᏍᏆᏂᎪᏎ	-10.6012
ᎩᏍᎨ	-10.6028
▁ᎧᏃᎮ	-10.6069
ᏓᏂᏴ	-10.6093
ᏚᎢᏍᏓᏁᎸᎯ	-10.6097
▁ᏧᎳ	-10.6102
ᏙᎵᏍᏗ	-10.6115
▁ᏱᎬᎩ	-10.6119
ᏓᏁᎯ	-10.6128
▁ᎣᏒ	-10.6131
ᏗᎨ	-10.6135
ᏍᏆᏂᎪ	-10.6136
ᏂᏫ	-10.6137
ᎦᏛᏅ	-10.6137
▁ᎤᏂᎷᏤᎸ	-10.6146
▁ᏚᎵ	-10.6154
▁ᎠᏗᏔ	-10.6156
ᏓᏥ	-10.6159
ᎵᏛ	-10.6163
▁ᎦᏂᏏ	-10.6173
▁ᎤᎾᏓᏑᏴ	-10.6187
▁ᎠᏂᎶ	-10.6199
ᏪᏎᎢ	-10.6202
▁ᏗᎧ	-10.6206
ᎾᎡ	-10.6207
ᏍᏓᏁᎸ	-10.6215
ᎲᏍᎨ	-10.6234
▁ᎠᎾᎵᏅᏟᏃ	-10.6237
ᏯᏗ	-10.6244
▁ᏓᏆᎧᎾᏅ	-10.6255
▁ᎯᏍᎩᎦ	-10.6275
▁ᎧᎵ	-10.6275
▁ᏓᏳᏂ	-10.6277
ᎧᎵᎢ	-10.6289
ᏰᎸᏒᎩ	-10.6295
▁ᎩᏯ	-10.6301
▁ᏙᏯ	-10.6304
ᏯᎦ	-10.6317
▁ᏗᎦᏓ	-10.6329
ᎦᏴᎵᎨ	-10.6358
▁ᎭᏗ	-10.6393
ᏫᏎᎴᎢ	-10.6401
ᏥᎦᏔᎭ	-10.6404
ᏥᏅ	-10.6415
ᏁᏓ	-10.6425
ᎸᏓ	-10.6437
ᏢᎾ	-10.6456
▁ᎪᎦ	-10.6461
ᎮᎾ	-10.647
▁ᏦᏏ	-10.6473
▁ᎾᏍ	-10.6475
▁ᏈᎵ	-10.6482
ᏤᏪ	-10.6495
ᎪᎦ	-10.6505
▁ᏑᎾᎴᏉ	-10.6507
ᏗᏢ	-10.651
ᏇᏅ	-10.6517
ᎪᏩᏛᏗᏱ	-10.6523
ᏄᎪᏫᏏ	-10.6535
ᎡᎵᏍᏗ	-10.6539
▁ᏦᏒ	-10.6543
▁ᎠᏆᎵᏍᏓᏴᏗ	-10.6545
ᏔᏲᏎᎭ	-10.6547
▁ᏥᎷᏏᎵᎻᏃ	-10.6559
ᏎᎵ	-10.6564
ᏚᏓᎴ	-10.6575
ᏁᎲᎾ	-10.6577
ᎳᏂ	-10.6581
ᏂᎦᏓ	-10.6586
ᏲᏍᏔᏅ	-10.6588
▁ᎤᏲᎯᏍᏔᏁ	-10.659
ᎦᏔᎮ	-10.6595
ᏩᏗᏒᎢ	-10.6599
ᎵᏂᎩᏗᏳ	-10.66
▁ᏂᎦᏗᏳᏃ	-10.6611
ᏧᎬ	-10.6627
▁Ꮠ	-10.6628
ᏚᏓᎴᏍᏙᏗ	-10.6631
ᏗᏏ	-10.6632
▁ᏗᎩᏲᎯ	-10.6636
r	-10.6637
ᎾᏄᎪᏨᎯ	-10.6638
▁ᎧᏂᎵᏯ	-10.6645
▁ᏗᎪᏑᎴᏗᏱ	-10.6648
ᏐᏉ	-10.6652
▁ᎡᏂᎾᏯ	-10.6653
▁ᎠᏍ	-10.6658
▁ᏱᎨᏣ	-10.6659
▁ᏂᎬᏁᎲ	-10.6659
ᎠᎹ	-10.6661
ᏰᏛ	-10.6661
ᎦᏘᏴ	-10.6666
ᏍᏈᏯ	-10.6667
ᏛᎩᎭ	-10.6668
ᎵᏍᏓᏴᏗᏱ	-10.6672
ᏁᎦ	-10.6673
▁ᏂᏣᏛᏁᎲ	-10.6675
ᏕᎰ	-10.6676
▁ᏚᎾᏄᎪᏫᏎᎴ	-10.6677
▁ᎤᎵᎮᎵᏨ	-10.6678
ᎦᎵᎷᎨᏍᏗ	-10.668
▁ᎠᏍᏆᎵᏍᎬ	-10.6681
▁ᏙᏓᏆᏍᎬ	-10.6681
▁ᏓᏂᏙᎨ	-10.6681
▁ᏕᎦᎶᎨᏒ	-10.6683
▁ᎤᏦᏱᎴ	-10.6687
ᏂᏌ	-10.6688
ᏗᎦᎵᎠᏅᎯᏛ	-10.6688
▁ᎮᎵᎠ	-10.6689
▁ᎤᎾᏄᎪᏫᏎᎴ	-10.669
▁ᎧᏁᏌ	-10.6691
ᏂᏙᎯ	-10.6692
▁ᏭᏂᎶᏎ	-10.6692
▁ᏕᏣᏓᏅᏛ	-10.6692
▁ᎤᏩᏔᏅ	-10.6694
ᏑᎾᎴ	-10.6695
▁ᏄᎾᏛᏁᎴ	-10.6696
ᎦᏔᎰ	-10.6697
▁ᎤᏌᎯᎸ	-10.6697
▁ᏚᏩᏂᎦᎸ	-10.6699
▁ᎠᎾᎵᎮᎵᎨ	-10.6699
▁ᎤᎾᏄᎪᏫᏒ	-10.6702
▁ᎤᏪᏴ	-10.6703
▁ᏓᏕᏲᎲᏍᎨ	-10.6704
ᏢᏂ	-10.6712
▁ᏬᎩᎷᏨ	-10.6714
▁ᎡᎵᏍᎬ	-10.6715
▁ᏂᎦᏅᎯᏒ	-10.6715
ᏧᏈᏍᏗ	-10.6715
▁ᎤᎬᏫᏳᏎᏍᏗ	-10.6716
▁ᏕᎦᎧᎲ	-10.6717
▁ᎠᎩᏁ	-10.672
▁ᎢᏣᏚᎵ	-10.6721
▁ᎢᎨᎬᏁᏗ	-10.6722
ᏙᎵᏨ	-10.6722
▁ᎤᎾᎩᎸ	-10.6723
ᎰᎵ	-10.6724
▁ᏧᏭᎪᏙᏗ	-10.6725
ᎶᏁ	-10.6725
▁ᎤᏁᏝᏅ	-10.6725
▁ᎯᏍᎩᏁ	-10.6727
▁ᎪᏌᏂ	-10.6727
▁ᏧᏂᎸᏫᏍᏓᏁᏗ	-10.6727
ᎦᏘᏕᎯ	-10.6729
ᏄᏓᎴ	-10.673
▁ᎤᏥᎸᏒ	-10.6734
▁ᎠᎯᏗ	-10.6735
▁ᎠᎵᏏᎾᎯᏍᏔᏅᎯ	-10.6736
▁ᎠᎾᏓᏍᎦᎶᎩ	-10.6736
▁ᎠᏂᏰᎪᎩ	-10.6736
▁ᎠᏐᎥᏍᏙᏗ	-10.6736
▁ᎠᏲᏓᏌᎲ	-10.6736
▁ᎢᏣᎵᎮᎵᎨᏍᏗ	-10.6736
▁ᎤᎵᏏᏂᏕᏅ	-10.6736
▁ᎤᎾᏗᏍᎦᏟ	-10.6736
▁ᎤᏩᎭᏂᎴ	-10.6736
▁ᏁᎳᏧᏈ	-10.6736
▁ᏄᎾᏓᎡᏍᏗ	-10.6736
▁ᏅᏧᏓᎴᏅᎲᎾ	-10.6736
▁ᏕᏥᎧᎿᏩᏗᏙᎮᏍᏗ	-10.6736
▁ᏚᏯᏪᎨ	-10.6736
▁ᏣᏓᏲᏁᎸᎩ	-10.6736
▁ᏱᏤᎵᎯᏍᎨᏍᏗ	-10.6736
▁ᎠᎪᏕᏍᎩ	-10.6736
▁ᎠᏓᏲᏁᎮᏍᏗ	-10.6736
▁ᎪᎰᏍᏘ	-10.6736
▁ᏗᏦᏪᎵᏍᎩ	-10.6736
▁ᎢᏧᎴᎭ	-10.6736
▁ᎨᎴᏏᏱ	-10.6736
▁ᎦᏅᏃᏩ	-10.6736
▁ᏐᎣᏁᎳᏧᏈ	-10.6736
▁ᎠᏦᎳᏅ	-10.6736
▁ᏅᏛᏆᏓᎴᏅᎯ	-10.6736
▁ᎮᏯᏔᎮᏍᏗ	-10.6736
▁ᏧᏣᏲᏍᏗ	-10.6736
▁ᎠᎾᏓᏍᏓᏩᏗᏙᎯ	-10.6736
▁ᏅᏥᏪᏎᎸᎩ	-10.6736
▁ᎤᏪᏐᏅᏴ	-10.6736
▁ᏚᏍᏓᎦᎸ	-10.6736
▁ᎤᏛᎴᎮ	-10.6736
▁ᏧᏁᎿᎢ	-10.6736
▁ᎢᏳᏪᏎᎸᎯ	-10.6736
▁ᏇᎵᏥᏆ	-10.6736
▁ᎾᎨᎢᏴ	-10.6736
▁ᎠᏯᏖᏅ	-10.6736
▁ᎢᎧᏁᎢᏍᏗᏍᎨᏍᏗ	-10.6736
▁ᎤᎦᏔᏔᏅᎯ	-10.6736
▁ᏗᎧᏃᎩᏍᏙᏗ	-10.6736
▁ᎤᎵᏲᏗ	-10.6736
▁ᏏᎵᏏᏱ	-10.6737
▁ᏦᎢᏧᏈ	-10.6737
▁ᏂᎩᏪᏏ	-10.6737
▁ᏓᏲᏤᏏ	-10.6737
▁ᎤᏭᏢᏔᏅᎩ	-10.6737
▁ᏕᏥᏃᎩᏍᎨᏍᏗ	-10.6737
▁ᎤᎶᏗᏢ	-10.6737
▁ᎲᏓ	-10.6737
▁ᏓᎭᏏ	-10.6737
▁ᏰᏙᎭ	-10.6737
▁ᎠᏍᎩᏗᏍᎨᎢ	-10.6737
▁ᏧᎾᎬᏩᎶᏗ	-10.6737
▁ᏫᏨᏲᏪᎳᏏ	-10.6737
▁ᎢᏦᎯᏳᏗᏱ	-10.6737
▁ᎢᎬᏛᏁᏗ	-10.6737
▁ᏍᎩᏍᏓᏩᏚᎦ	-10.6737
▁ᏔᏘᏄᎦ	-10.6737
▁ᏍᎪᎯᏍᏆ	-10.6738
▁ᎢᏯᏥᎸᏉᏗ	-10.6738
▁ᎤᏬᏂᏎ	-10.6738
▁ᎦᏂᎩᎸ	-10.6738
▁ᏑᏓᎵᏍᎪᎯ	-10.6738
▁ᏚᎷᏫᏍᏔᏁᎮ	-10.6738
▁ᏥᎦᏘᏏ	-10.6738
▁ᏂᎩᏪᏎᎸᎭ	-10.6738
▁ᏗᎦᎶᏔᏅ	-10.6738
▁ᏃᎩᏪᏎᎸ	-10.6738
▁ᏓᏱᎾ	-10.6738
▁ᎬᏬᎯᏳᏅᎩ	-10.6739
▁ᏗᎫᎪᏗᏍᎩ	-10.6739
▁ᏧᏂᎶᎸᏗ	-10.6739
▁ᎿᏛᎦ	-10.6739
▁ᏥᏚᏳᎪᏗ	-10.6739
▁ᏫᏗᎶᎯ	-10.6739
▁ᏱᏂᎬᏁᎭ	-10.6739
▁ᏄᏪᎲᎾ	-10.6739
▁ᎠᎾᎵᏍᏕᎵᏍᎩ	-10.6739
▁ᏂᏴᏁᎸ	-10.674
▁ᎪᏪᎴ	-10.674
▁ᏍᎩᎨᏳᎢᏳ	-10.674
▁ᏓᎦᏛᏁᎵ	-10.674
▁ᎣᎦᏚᎵᎭ	-10.674
▁ᏂᏣᏛᎿᏕᎬᎢ	-10.674
▁ᎠᏂᎪᎲᎭ	-10.6741
▁ᏚᎨᏓᎵᏴ	-10.6741
▁ᏫᏥᎷᏨᎭ	-10.6741
▁ᎤᏣᏛᎩ	-10.6741
▁ᏍᏈᏍᏔ	-10.6741
▁ᏗᏣᎧᏅᎦ	-10.6741
▁ᏗᎩᎸᏫᏍᏓᏁᏗᏱ	-10.6741
▁ᎠᏓᏪᎯ	-10.6741
▁ᏕᎪᏪᎴᏍᏗ	-10.6741
▁ᏗᎦᏬᏂᎯᏍᏗ	-10.6741
▁ᎡᏥᏯᏅᏛ	-10.6741
▁ᏧᎾᏄᎪᏫᏎᏗᏱ	-10.6741
▁ᏗᎾᎢᏒ	-10.6741
▁ᎠᏂᎦᏲᏟ	-10.6742
▁ᎪᎯᎢᏴ	-10.6742
▁ᎠᏓᏁᏣᏍᏚᎶᎩᎯ	-10.6742
▁ᎨᏥᏅᏒᎯ	-10.6742
▁ᎢᏣᏚᎵᏍᎨᏍᏗ	-10.6742
▁ᎨᏥᏍᏕᎸᏗ	-10.6742
▁ᏧᎷᏫᏍᏔᏁᏗ	-10.6742
▁ᎦᏃᏙᏗᏱ	-10.6742
▁ᎤᎾᏓᏙᎵᏍᏓᏁᎸᎩ	-10.6742
▁ᎡᏥᏅᏏᏓᏍᏗ	-10.6742
▁ᎯᎸᏉᏓ	-10.6743
▁ᎠᏓᏅᏖᏍᎪ	-10.6743
▁ᎠᏥᎸᏳᎵ	-10.6743
▁ᎭᏓᏅᎾ	-10.6743
▁ᏧᏂᏬᏂᎯᏍᏗ	-10.6744
▁ᏧᏓᎵᎢ	-10.6744
▁ᏥᏧᏣ	-10.6744
▁ᎢᏣᏓᏅᏘ	-10.6744
▁ᏇᏗᏂᏱ	-10.6744
▁ᎢᏣᏛᏓᏍᏓ	-10.6744
▁ᎠᎫᏩᏌ	-10.6744
▁ᏗᏣᏓᎴᏅᏛ	-10.6745
▁ᎢᏥᏠᏱ	-10.6745
▁ᎠᏍᏕᏯᏓ	-10.6745
▁ᎢᏥᏯᎡᏍᏗ	-10.6746
▁ᏥᏰᎸᎢ	-10.6746
▁ᎤᏁᏉᏨᎯ	-10.6746
▁ᎢᎦᎵᏍᏙᏗᏱ	-10.6746
▁ᏥᏣᏛᎩᎭ	-10.6746
▁ᎤᏁᏍᎩᎸ	-10.6746
▁ᎤᏍᎦᎣᏅ	-10.6747
▁ᎤᎵᏍᏚᎢᏛ	-10.6747
▁ᎤᎬᎥᏍᎩ	-10.6747
▁ᎤᎴᏴᏒ	-10.6747
▁ᎤᏓᏙᎵᏣᏛ	-10.6747
▁ᎦᏁ	-10.6747
▁ᎤᎾᏛᏅᎩ	-10.6748
▁ᎠᎯᏗᏳ	-10.6748
▁ᎤᏃᎯᏳᏅᎯ	-10.6748
▁ᎡᏥᏁᏗ	-10.6748
▁ᏚᎭᏄᏮ	-10.6748
ᎤᏲ	-10.6749
▁ᏣᏙᎳᏅᏍᏗ	-10.6749
▁ᎤᏂᎩᎵᏲᎢᏍᏗ	-10.675
▁ᎾᏯᏛᎥᎩ	-10.675
▁ᎢᎪᏪᎳ	-10.675
▁ᎤᏛᏒᎯ	-10.6751
▁ᏂᏨᎦ	-10.6752
ᏘᏃᎸ	-10.6752
▁ᎤᎾᏂᎩᏒᎩ	-10.6752
▁ᎤᏃᎯᏳᏅᎩ	-10.6753
▁ᎡᎵᏍᎨᎢ	-10.6753
▁ᏥᏳᎪᏗ	-10.6754
ᎾᏄᎪᏫᏒᎯ	-10.6756
▁ᏗᏘᏲᎯ	-10.6756
▁ᎤᏔᏂᏓ	-10.6756
ᏓᏓᏍᎬ	-10.6756
▁ᎢᏍᏕᎾ	-10.6757
▁ᎤᏙᎯᏳᎯᏍᎩᏂᏃᏅ	-10.6758
▁ᎹᎦ	-10.6758
▁ᎠᏠᏗᏱ	-10.6759
▁ᎤᎾᏛᎪᏗᏱ	-10.6761
▁ᎤᏲᎢᏴ	-10.6762
▁ᎠᎩᎵᎨᏂ	-10.6762
▁ᎩᎳᎯᏳ	-10.6762
▁ᎤᏂᎪᏩᏛᏗᏱ	-10.6763
▁ᏫᏥᎦᏛᎢ	-10.6763
▁ᎤᏪᏍᎩᎸᎢ	-10.6763
▁ᎠᎦᏔᎯᏳ	-10.6764
▁ᏔᏯ	-10.6764
▁ᏓᏨᏁᎵ	-10.6764
▁ᏂᏚᏩᏁᎴᎢ	-10.6765
▁ᏯᏂᎦᏔᎮ	-10.6765
▁ᎤᎿᎷᏒᎩ	-10.6766
▁ᏥᏙᎦ	-10.6766
▁ᎤᏓᏴᏎᎢ	-10.6767
▁ᏧᎳᏍᎩ	-10.6767
▁ᎤᏂᏠᏱᎭ	-10.6767
ᏍᏚᎢᏒ	-10.6768
▁ᎠᏩᎾᎦᎳ	-10.6769
▁ᏓᎾᏕᏲᎲᏍᎬ	-10.6771
▁ᏗᎾᏓᎪᎾᏗᏍᎬᎢ	-10.6771
▁ᎤᏩᏔᏅᎩ	-10.6771
▁ᎪᎵᏍᏗ	-10.6771
▁ᎠᏂᏴᎩ	-10.6772
▁ᎦᏓᏙᎵᏍᏗᏍᎬᎢ	-10.6773
▁ᏝᎨ	-10.6774
▁ᎤᏪᎧᏁᎢ	-10.6775
▁ᎠᎾᏓᎪᎾᏗᏍᎬᎢ	-10.6776
▁ᎠᎢᏒᎩ	-10.6776
▁ᏭᏂᎷᏨᎩ	-10.6776
▁ᎦᎵᏉᎩᏁᏍᎩᏂ	-10.6777
▁ᎠᏂᏃᎮᎭ	-10.6779
▁ᎯᎾᎩ	-10.6779
▁ᎤᏕᎶᎰᏒ	-10.678
▁ᏥᏁᎦ	-10.6782
ᏍᏕᏓᎵᏴ	-10.6782
▁ᎢᏳᏒᎯ	-10.6782
▁ᎤᎾᏂᎩᏎᎢ	-10.6783
▁ᎤᏓᏙᎵᏍᏔᏁᎢ	-10.6784
▁ᎤᏚᏓᎴᏛ	-10.6784
▁ᎠᏨᏍᏛ	-10.6784
▁ᎶᎻ	-10.6785
ᏑᎴ	-10.6785
▁ᎤᏦᏱᎴᎢ	-10.6786
ᎷᎬ	-10.6786
▁ᎠᎲᏛ	-10.6787
▁ᏇᎵᎩ	-10.6789
▁ᎦᎢᏒ	-10.6789
▁ᏚᏩᏂᎦᎸᎢ	-10.6791
▁ᎤᎩᏒᎩ	-10.6796
▁ᏫᎦᎷᎬ	-10.6801
ᏞᎢ	-10.6802
▁ᎠᎩᏁᏨᎢ	-10.6802
▁ᎤᎾᏕᏗ	-10.6803
▁ᎠᏚᏓᎴᏍᏗ	-10.6803
▁ᎤᏗᏛᎮᎢ	-10.6804
▁ᎤᏇᏓᎵᏉ	-10.6805
▁ᎤᏰᏨ	-10.6805
▁ᏍᎪᎯ	-10.6807
▁ᎤᎩᏎᎢ	-10.6808
▁ᏫᏓᏂ	-10.6808
▁ᏍᎪᏁ	-10.6813
ᎲᏍᎬᎾ	-10.6817
▁ᎤᏄᎪᏤᎢ	-10.6817
▁ᏄᏩᏁᎸᎩ	-10.682
▁ᏦᎾ	-10.682
▁ᎢᎦᎦᏓ	-10.6823
▁ᏫᏚᏯᏅᎮᎢ	-10.6825
▁ᎢᎦᎵᎢ	-10.6827
▁ᎤᎵᏍᏆᏛ	-10.683
▁ᎫᎦ	-10.6837
▁ᎡᏓᏍᏗ	-10.6841
▁ᎷᏈᏂᏃ	-10.6848
▁ᎤᏓᏅᏙᎩ	-10.6855
▁ᎡᏙ	-10.6857
▁ᎠᏓᎯᎯ	-10.6858
▁ᎤᎾᏄᎪᎢᏍᏗ	-10.6861
▁ᎡᎾᎢ	-10.6864
▁ᎢᏨᏃᎮᎮᎸ	-10.6868
▁ᎤᎾᏓᏅᏖᎴ	-10.6873
▁ᏂᏚᎩᏨᏂᏒᎢ	-10.6879
▁ᏩᎾ	-10.6881
▁ᎤᎪᏩᏛᏗᏱ	-10.6885
ᏠᎯ	-10.6889
▁ᏗᎩᎦᏴᎵᎨᎢ	-10.6894
ᏓᏁᎮ	-10.6896
▁ᏓᎧ	-10.6898
▁ᏧᏄᏬ	-10.6901
ᏪᏎ	-10.6902
▁ᎤᏍᎪᏒ	-10.6904
▁ᎠᏦᏴᎢ	-10.6909
▁ᏂᏕᎬᏁᎲ	-10.691
▁ᎤᏁᏅᏎᏃ	-10.6924
▁ᏕᏣᏙᎥᎢ	-10.6925
▁ᎤᎷᏤᎴᎢ	-10.6932
▁ᎤᏂᎪᎲᎩ	-10.6936
▁ᏚᎴᏅᏃ	-10.6942
ᏅᏅᎢ	-10.6949
ᎡᎸᎯ	-10.695
▁ᎤᏂᏣᏖᏍᏗ	-10.6953
▁ᎠᏰᏟ	-10.6954
▁ᏦᎠ	-10.6954
▁ᎤᏂᏰᎸᏎ	-10.6956
▁ᎠᏓᏫᏃ	-10.6956
ᏩᏛᎯ	-10.6959
▁ᏗᎪᏢᏅᎯ	-10.6966
ᎲᏒ	-10.6969
▁ᎨᏍᏗᏗ	-10.6971
▁ᏥᏕᏣ	-10.6979
ᏗᎹ	-10.698
ᏥᏲ	-10.6985
▁ᏣᏗᎭ	-10.6987
▁ᏥᏄᏍᏕ	-10.6989
ᏍᎩᎸ	-10.6994
▁ᏄᏪᏎᎸᎢ	-10.6999
ᏄᏍᏛ	-10.6999
▁ᎤᏂᏴᎮ	-10.6999
s	-10.7001
▁ᏚᏁᏤᎴᏃ	-10.7003
ᏓᎨ	-10.7003
▁ᎲᎦ	-10.7005
ᏄᎪᏫᏒᎩ	-10.7015
▁ᏓᏔᎴᏒᎢ	-10.7021
▁ᎠᏰᎵᏒ	-10.7024
▁ᏚᏲᏎ	-10.7024
▁ᎠᏣ	-10.7029
▁ᎤᎾᏝᎢᏃ	-10.7032
▁ᎻᎳ	-10.7039
ᏂᏴᎲ	-10.7042
ᎬᏩᏂ	-10.7043
ᏒᏂ	-10.7053
ᎡᎲ	-10.7062
▁ᎤᎾᏓᏅᏖᎸ	-10.7065
▁ᎢᏳᎾ	-10.7065
▁ᎤᏁᏤᎢ	-10.7069
▁ᎤᏁᏤᎴᎢ	-10.7074
▁ᏫᏄ	-10.7076
▁ᎤᏍᎦᏅᏨᎢ	-10.7087
ᏯᎡ	-10.7087
▁ᎤᏩᏔᏁ	-10.7092
▁ᎠᎦᏴᎵᎨᏰᏃ	-10.7098
▁ᎤᎵᏍᏆᏕ	-10.7105
ᎬᏂᎨ	-10.7113
▁ᏧᏁᏤᎴ	-10.7115
▁ᎤᎵᏍᏆᎸᏗᏃ	-10.7117
ᏅᏤ	-10.7118
▁ᎠᏐᏴ	-10.7122
▁ᎡᎶᏛᏃ	-10.7124
▁ᎤᎾᏙᏓᏆᏍᎬᏃ	-10.713
ᏴᏙᏗ	-10.7134
▁ᎢᎸᏍᎩᏃ	-10.7137
ᏓᏱ	-10.7141
▁ᏓᎩᎸᏫᏍᏓᏁᎲ	-10.7142
ᏗᏍᏗᏱ	-10.7147
ᏅᏓᏗᏍᏙᏗ	-10.7154
▁ᎠᎹᏂ	-10.7161
▁ᎦᏯ	-10.7162
▁ᎤᏛᎦᏍᏕ	-10.7164
▁ᎺᎵᏃ	-10.7165
▁ᏓᏔᎴᏒᏃ	-10.7166
▁ᏅᎦᏍᎪᎯᏃ	-10.7176
▁ᏄᏩᏁᎰ	-10.7179
▁ᏱᏅᎦ	-10.718
ᎾᏄᎪᏫᏏ	-10.7181
▁ᎠᏍᎫᏕᏍᏗᏱ	-10.7182
ᎵᏍᏓᏴ	-10.7188
▁ᎢᏣᏓᏅᏖᏍᎬ	-10.7191
ᏓᏴᎳᏛ	-10.7192
▁ᏑᏓᎵᏃ	-10.7195
▁ᎢᏨᏗᏍᎬ	-10.7198
ᏴᏗ	-10.7219
ᏏᏁ	-10.722
ᎵᏍᏓᏴᎲᏍᎦ	-10.7234
▁ᎨᏥᏅᏏᏛᏃ	-10.7234
ᏩᏘ	-10.724
▁ᏗᏐᏴ	-10.7256
▁ᏓᎧᏅ	-10.7257
ᏅᏓᏛ	-10.7258
▁ᎤᏚᎵ	-10.7264
▁ᏰᎵᎦ	-10.7264
ᎪᎲᏍᎬ	-10.7267
ᏗᏍᎬᎾ	-10.7267
ᏯᏓ	-10.7273
ᏂᏓᏍᏗ	-10.7277
ᏍᏆᎸ	-10.7279
▁ᏂᎪᎯᎸᏉ	-10.7282
ᏌᏁ	-10.7282
ᏒᏉ	-10.7293
▁ᏗᏃᏪᎵᏍᎩᏃ	-10.7293
ᎦᏅᎦ	-10.7301
▁ᏍᎩᏍᏕᎸ	-10.7314
al	-10.7315
ᏌᎲ	-10.7323
ᎦᏌ	-10.7328
ᎲᏍᎬᎢ	-10.7331
▁ᎤᏓᏅᏒ	-10.7335
ᏚᏥ	-10.734
ᎥᏍᎨᏍᏗ	-10.7348
▁ᏥᎳ	-10.7353
▁ᏫᏗᎦ	-10.7354
ᏓᏅᏖᎴ	-10.7355
ᎵᏎᎲ	-10.7369
ᏅᏔ	-10.7371
ᏬᏂᏍᎬ	-10.7377
ᏑᎶ	-10.7381
ᏏᏗ	-10.7391
ᏍᏓᏁᎮ	-10.7398
ᎶᏃ	-10.7402
ᏗᎦᎵᏍᏙᏗ	-10.7413
ᏩᏁ	-10.7425
ᏏᏃ	-10.7426
ᎹᏂ	-10.743
ᎡᎸ	-10.743
ᏕᎨᏍᏗ	-10.7454
▁ᏕᎫ	-10.7456
ᎬᏙᏗ	-10.7471
ᏫᎾ	-10.7476
ᏙᎡᏍᏗ	-10.7477
ᎪᏒ	-10.7485
ᏘᏃᎦ	-10.7487
ᏓᎦ	-10.7495
ᏓᏙᎵᏍᏗᏍᎬ	-10.7496
ᏰᎸᎾ	-10.752
▁ᎤᏙᎯᏳᎭ	-10.7521
ᏛᏁᏗᏱ	-10.7547
ᏕᎨ	-10.7551
ᎾᏄᎪᏫᏍᏗᏱ	-10.7553
ᏲᎰᏎᎸ	-10.7558
▁ᏣᏁ	-10.7559
▁ᎯᏆ	-10.756
ᏥᏁᏗᏱ	-10.7569
ᏗᎾ	-10.757
ᎷᏥᎸ	-10.7571
▁ᎢᎬᏱᏱᏉ	-10.7577
ᏣᏛᏂᏏ	-10.758
ᎵᏍᎦᏍᏙᏗ	-10.7581
ᏍᏆᏛ	-10.7586
ᏰᎴ	-10.7598
ᎵᏍᏕᎸ	-10.76
▁ᏧᏁᎦ	-10.76
▁ᎣᎬ	-10.7604
ᏓᏂᎸᏨᎯ	-10.7606
▁ᏳᏫ	-10.7636
▁ᎠᏆᏓᏅ	-10.7637
ᏆᏏ	-10.7642
▁ᎢᏥᏰᎸ	-10.7643
▁ᏂᎬᏁᎸ	-10.7644
▁ᏗᏦ	-10.7646
▁ᎤᏍᏆᎸᎯᏗ	-10.7648
ᏯᏅᎯ	-10.7653
ᎳᎩᏒ	-10.766
ᏍᎪᎵ	-10.766
ᏗᏉ	-10.7664
ᏖᏍᏗ	-10.7664
▁ᏣᏆ	-10.7664
ᏁᎨ	-10.7671
▁ᎪᎯᏳ	-10.768
▁ᏛᎩ	-10.7686
ᎵᏂᎩᏛ	-10.769
ᏠᏱ	-10.7704
▁ᎢᎩᏁᎸ	-10.7723
▁ᏕᎬᏩᏂ	-10.7755
ᎵᏍᏔ	-10.7759
ᎦᏎ	-10.7762
ᏂᏍᎨᏍᏗ	-10.7783
▁Ꮘ	-10.7786
ᎪᎵᏰᎥᎯ	-10.7801
ᏓᎨᏳᏗ	-10.7802
ᎸᏒ	-10.7825
ᎲᏍᎪᎢ	-10.7836
ᏚᎦ	-10.7836
▁ᎢᏧᎳᏃ	-10.7843
ᏛᏔᏂ	-10.7865
▁ᎤᎪᎵᏰᎥ	-10.7866
ᏯᏫᏍᎩ	-10.7868
▁ᏱᏅ	-10.7877
ᏡᎬ	-10.7894
ᎩᏌ	-10.7899
ᏓᏑᏯ	-10.7907
ᏃᎮᎸ	-10.791
▁ᏃᏳ	-10.7914
▁ᎨᏍ	-10.7914
ᎵᎠ	-10.7926
▁ᎢᏥᏁᏗ	-10.7935
▁ᏧᏂᎵ	-10.7936
ᏍᏓᏲ	-10.7945
▁ᎤᏓᎵᎢᏃ	-10.796
▁ᏱᏣᏓ	-10.7964
ᏴᏔᏁᎢ	-10.7968
ᏬᏁᏔᏅ	-10.7977
ᏙᏛ	-10.7978
▁ᏗᎨᏣ	-10.7987
ᏛᎬᎦ	-10.7988
ᏩᏎ	-10.8
ᏗᎦᏛᎯ	-10.8005
ᏍᏓᏱ	-10.8006
▁ᏓᎬᎩ	-10.8024
ᏴᎮᎢ	-10.8029
ᏃᏍᎩᏒ	-10.8031
▁ᏄᏂᏪᏎ	-10.8048
ᏂᎲ	-10.8056
ᏛᏛᏅ	-10.8067
▁ᎤᏅᏒᏃ	-10.8083
ᏏᎳᏛ	-10.8083
▁ᎯᎦᏔᎲ	-10.8086
▁ᎤᎾᎵᎪ	-10.8098
ᏅᏓᏗᏍᏗ	-10.8099
▁ᎤᏂᎾᏫ	-10.8103
ᎸᏂ	-10.8108
ᎧᎯᏯᏍᏗ	-10.8115
ᏤᏥ	-10.8115
ᏓᏬᏍᏗ	-10.8118
▁ᏁᏣ	-10.8126
ᏢᏗᏱ	-10.813
ᏪᏒ	-10.8134
▁ᏓᏘ	-10.8149
▁ᏃᎦ	-10.815
▁ᏕᏅ	-10.815
ᏂᏥ	-10.8163
ᎧᎭ	-10.8179
ᏙᎩᏯ	-10.8181
ᏕᏘᏴ	-10.8184
▁ᎠᎾᏗᏍᎨ	-10.8188
ᎪᎵ	-10.8188
▁ᎤᎾᏄᎪᏫᏎ	-10.8191
ᎵᏍᏓᏴᎲᏍᎬᎢ	-10.8194
ᎶᏛ	-10.8198
▁ᎤᏙᎯᏳᏁ	-10.8198
▁ᎠᎫᏴᏗ	-10.8199
ᏅᏕ	-10.8206
▁ᏂᎦᎵᏍᏙᏗ	-10.823
ᏔᎵ	-10.8235
ᏯᏖᎾ	-10.8242
ᏚᏂ	-10.8242
ᎤᎷᏨ	-10.8251
ᏁᎸᏗ	-10.8253
▁ᏣᎫ	-10.8262
ᏏᎸ	-10.8275
▁ᏧᎳᏑᎶ	-10.8276
▁ᎤᏂᏍᏆᏂᎪᏎ	-10.8279
ᎪᏩᏘᏍᎬ	-10.8283
ᏂᏟ	-10.8285
ᏫᏍᎩ	-10.8295
▁ᏓᏂᎳᏫᎥ	-10.8299
ᏂᏏᏅ	-10.83
▁ᏚᏂᏲ	-10.8309
▁ᎮᎳᏂ	-10.831
▁ᎢᎬᏪᏅᏛ	-10.8312
ᏂᎶᏒ	-10.832
ᎳᏍ	-10.8322
▁ᎠᏓᏁᏣᏍᏚᎶ	-10.8322
▁ᎤᎵᏍᏗᏳ	-10.8327
ᎶᎻ	-10.8328
ᏧᏍᏆᏴᏍᏗ	-10.8328
▁ᎤᏁᎷᎬ	-10.833
▁ᏓᏕᏲᎲᏍᎬ	-10.8332
▁ᎠᏓᏠᏍᏗ	-10.8338
▁ᏕᎦᎳᏅᏛ	-10.8345
▁ᎠᏓᏪᎵᎩᏍᎬ	-10.8348
▁ᎤᏬᏢᏅ	-10.835
▁ᎠᎩᏇᏓᎸ	-10.8351
▁ᎢᏣᎵᎮᎵᎬ	-10.8352
ᏫᎵᎻ	-10.8352
▁ᎤᎵᏰᏔᏁ	-10.8352
▁ᏙᏧᎾᏓᏅᏛ	-10.8354
▁ᏕᎦᏍᎩᎸ	-10.8354
ᏔᏲᏎᎸ	-10.8354
▁ᏱᏥᎦᏔᎮ	-10.8355
▁ᏂᎦᎵᏍᏗᏍᎪ	-10.8356
▁ᎤᏬᎯᏳᏒ	-10.8356
▁ᏧᏁᏨ	-10.8358
ᏍᎫ	-10.8359
▁ᎠᏂᎦᏴᎵᎨ	-10.836
▁ᎢᏣᏓᏙᎵᏍᏗᏍᎬ	-10.8362
ᏴᏐᎵ	-10.8363
▁ᏄᏂᏪᏎᎴ	-10.8363
▁ᏯᏛᏅ	-10.8363
▁Ꮊ	-10.8364
▁ᏚᏓᏘᎾᎥ	-10.8365
▁ᎣᎦᏛᎦᏅ	-10.8367
ᏅᏤᎢ	-10.837
ᎳᏏᏕᎾ	-10.8371
ᎮᎵ	-10.8371
▁ᎥᎩᏙ	-10.8372
ᎵᏦᏩᏛ	-10.8373
▁ᎤᎾᏓᏑᏰᏛ	-10.8374
ᎩᎵᏲᎢᏍᏗ	-10.8377
▁ᏱᏄᏍᏕ	-10.8381
▁ᎤᏁᎢᏍᏔᏅ	-10.8383
▁ᎤᎾᏂᎩᏎ	-10.8384
▁ᎤᏬᎯᏳᏅ	-10.8385
▁ᏇᏓᏁᎳᎻ	-10.8388
▁ᎠᏇᏓᏍᏗ	-10.8388
▁ᎢᏯᎬᏁᏗ	-10.8389
▁ᏧᏂᎧᎿᏩᏛᏍᏗ	-10.839
▁ᏭᎷᏤᎴ	-10.8391
▁ᏕᎦᏬᏁᏗᏍᎬ	-10.8393
▁ᏗᎨᎫᎪᏓᏁᏗ	-10.8393
▁ᏤᏅᏍᏗ	-10.8395
▁ᏄᏅᏁᎸ	-10.8395
ᏍᎩᏓᏍᎬᎢ	-10.8395
▁ᏗᎫᏍᏙᏍᏗ	-10.8395
▁ᏭᏯᏅᎲ	-10.8396
▁ᎠᏓᏙᎵᏍᏙᏗ	-10.8398
▁ᎠᏥᏛᏙᏗ	-10.8399
ᏫᏂᏗᏢ	-10.8399
▁ᎠᏂᏥᏊᏏ	-10.8403
▁ᎢᎬᏆᏛᏁᏗ	-10.8403
▁ᎢᎵᎡᏌ	-10.8403
▁ᎢᏯᏓᏛᏁᎯ	-10.8403
▁ᎢᏯᏛᏁᎵᏓᏍᏗ	-10.8403
▁ᎥᏆᎸᎢᏛ	-10.8403
▁ᎫᏫᏍᎫᏫ	-10.8403
▁ᎰᏢᏔᏅᎭ	-10.8403
▁ᎴᎣᏗᏏᏯ	-10.8403
▁ᎾᏥᎤᏍᏕᏎᎸᎾ	-10.8403
▁ᏂᏦᎵᎬᎾ	-10.8403
▁ᏗᎬᏩᎩᏨᏗ	-10.8403
▁ᏗᏓᎴᏅᏗᏍᎩ	-10.8403
▁ᏗᏯᏖᏅ	-10.8403
▁ᏥᏈᎣᏂ	-10.8403
▁ᏧᎾᎪᏅᏍᏓᎵ	-10.8403
▁ᎠᎵᏏᎾᎯᏍᏙᏗ	-10.8403
▁ᎠᏂᎱᏣ	-10.8403
▁ᎤᎵᏦᎯᏛ	-10.8403
▁ᎤᏖᎸᎳᏛ	-10.8403
▁ᎦᏃᎱᎩᏍᎬ	-10.8403
▁ᏗᎾᏙᎴᏆᏍᎩ	-10.8403
▁ᏗᏣᎳᏏᏗᏱ	-10.8403
▁ᏧᏂᏦᏯᏍᏗ	-10.8403
▁ᏭᏕᎵᏤ	-10.8403
▁ᎢᎬᎾᏕᏅ	-10.8403
▁ᎤᏍᏔᏲᏒ	-10.8403
▁ᎪᎵᏂᏗᏱ	-10.8403
▁ᏓᎳᏚ	-10.8403
▁ᏧᎬᏩᎳᏅᎯ	-10.8403
▁ᏓᏓᏂᎸᎨᏍᏗ	-10.8403
▁ᏧᎾᏗᎩᏓ	-10.8403
▁ᎤᎦᏃᏮ	-10.8403
▁ᏓᏂᏴᎬᎢ	-10.8403
▁ᏦᎨᏏ	-10.8403
▁ᎠᎪᎲᏍᏔᏅᎯ	-10.8403
▁ᎠᏂᎪᏗᏳ	-10.8403
▁ᏄᏓᏑᏴᎾ	-10.8403
▁ᎾᏃᎯᏳᎲᏍᎬᎾ	-10.8403
▁ᏂᏕᎤᏩᏂᎦᎸ	-10.8403
▁ᏓᏇᎪᏔᏅ	-10.8403
▁ᎠᏄᎦᎸᎯ	-10.8403
▁ᎾᏂᏍᎦᏅᎾ	-10.8403
▁ᏥᏂᏨᏪᏎᎸᎩ	-10.8403
▁ᏦᏍᏓᏓᏅᏟ	-10.8403
▁ᎠᎾᎵᏖᎸᎲᏍᎩ	-10.8403
▁ᎤᏦᎠᏎᏗ	-10.8403
▁ᏆᏏᎹ	-10.8403
▁ᏑᏓᎵᏧᏈ	-10.8403
▁ᎢᏳᏩᎬᏗ	-10.8403
▁ᎤᏂᎵᏅᏨᎯ	-10.8403
▁ᏗᎨᏘᏂᏓᏍᏗ	-10.8403
▁ᎢᎨᎬᏁᎸᎯ	-10.8403
oss	-10.8403
▁ᎾᏂᏍᎦᎢᎲᎾ	-10.8403
▁ᎠᏁᎸᏗᏍᎨᎢ	-10.8403
▁ᎹᎺᎵ	-10.8403
▁ᏗᎧᏂᎨᏂ	-10.8403
▁ᏥᎦᏚᎭ	-10.8403
▁ᏭᏕᎵᏨ	-10.8403
ᏛᏛᎲᏍᎦ	-10.8403
▁ᏱᏂᎦᎩ	-10.8403
▁ᎢᏳᎾᏓᎳ	-10.8403
▁ᎢᎪᏂᏯ	-10.8403
▁ᏱᏥᎪᎵᏰᎣ	-10.8403
▁ᏩᎩᎷᏣ	-10.8403
▁ᏣᎦᏑᎲᎢ	-10.8403
▁ᏕᎦᏅᏙᎬ	-10.8403
▁ᏔᎷᏣᎩᎯ	-10.8403
▁ᎡᏥᏲᎵᎸᎭ	-10.8403
▁ᏅᏓᏳᎾᏓᎴᏅᎯ	-10.8403
▁ᎱᏂᎷᏤ	-10.8403
▁ᏕᏥᏂᏴᏎᏍᏗ	-10.8403
▁ᏓᏲᏣᏛᏁᎵ	-10.8404
▁ᎢᏥᏇᏓᎸ	-10.8404
▁ᎬᏩᏕᏱᏛ	-10.8404
▁ᎶᏩᏂ	-10.8404
▁ᎢᏥᏁᎫ	-10.8404
▁ᏗᎬᏩᏂᏰᎯ	-10.8404
▁ᎦᎶᎯᏍᏗᏳᎳ	-10.8404
▁ᏁᏆᎸ	-10.8404
▁ᎤᎵᏃᎯᏴᎯ	-10.8404
▁ᏄᎾᏛᏁᎵᏙᎸ	-10.8404
▁ᎢᏯᏆᎵᏍᏙᏗᏱ	-10.8404
▁ᎪᎯᏳᎲᏍᎨᏍᏗ	-10.8404
▁ᎠᏙᎴᎰᏒᎯ	-10.8404
▁ᏚᏭᏢᏔᏅᎩ	-10.8404
▁ᏓᏓᏛᏂ	-10.8404
▁ᏫᏥᏲᎵᎦ	-10.8404
▁ᎠᏂᎡᎼᎵ	-10.8404
▁ᎤᎦᏛᎾᏨᎯ	-10.8404
▁ᏚᏪᎧᏅᎩ	-10.8404
▁ᎤᏂᏍᎦᏎᏗ	-10.8404
▁ᏐᎢᏗᏢ	-10.8404
▁ᏓᎦᏥᏁᎵ	-10.8404
▁ᏅᏩᏙᎯᏍᏛ	-10.8404
▁ᎦᏗᎨᏂ	-10.8405
▁ᏗᏟᏍᏙᏗ	-10.8405
▁ᎪᎢᏳᎲᏍᎦ	-10.8405
▁ᏧᏬᏢᏅᎯ	-10.8405
▁ᏯᏂᎦᏔᎲᎾ	-10.8405
▁ᎬᏬᎯᏳᎲᏍᎩ	-10.8405
▁ᏚᏄᏌᏛ	-10.8405
▁ᎠᏂᎾᏰᏍᎩ	-10.8405
▁ᎢᏧᏖ	-10.8405
▁ᎱᎷᏣ	-10.8405
▁ᎠᎾᏛᎩᏍᎨ	-10.8405
▁ᎧᏁᏍᎬ	-10.8406
▁ᏕᎦᏰᏌᏛ	-10.8406
▁ᏗᏣᎴᎲᎦ	-10.8406
▁ᏅᏓᏳᏅᏏᏛ	-10.8406
▁ᎢᏨᏲᏪᎳᏏ	-10.8406
▁ᎤᏛᎦᎾ	-10.8406
▁ᎭᏛᏓᏍᏓ	-10.8406
▁ᏗᏥᎨᏫ	-10.8406
▁ᏧᏈᏯ	-10.8406
▁ᏐᏁᎳ	-10.8406
▁ᏧᎵᎬᏩᏟ	-10.8406
▁ᎦᎶᏣᏗ	-10.8406
▁ᎤᏬᏒᏅ	-10.8406
▁ᏗᏂᏃᎨᏂ	-10.8406
▁ᏧᎸᏫᏍᏓᏁᎸᎯ	-10.8406
▁ᏗᎦᎾᏌᎢ	-10.8406
▁ᏕᏅᏙᎥ	-10.8406
▁ᎢᏥᏍᏆᏂᎪᏕᏍᏗ	-10.8407
▁ᏓᎩᏯᏪᎦ	-10.8407
▁ᏅᏁᎸᎭ	-10.8407
▁ᏗᎩᏴᏫ	-10.8407
▁ᎤᎾᏙᎴᎰᎯᏍᏙᏗ	-10.8407
▁ᎤᏪᏓᏍᏗ	-10.8407
▁ᎬᏲᏎᎭ	-10.8407
▁ᎠᎵᏥᏙᏗ	-10.8408
▁ᏘᎦᏙᎵ	-10.8408
▁ᏗᏣᎳᏏᏕᏂ	-10.8408
▁ᎦᏥᏯᏁᎳᏅᎯ	-10.8408
▁ᎤᏪᏯᎸᏤᎢ	-10.8408
▁ᏓᏂᏄᏙᎬᎢ	-10.8408
▁ᏚᏚᏓᏛᎢ	-10.8408
▁ᎠᏆᏓᏅᏖᏛ	-10.8408
▁ᏫᏄᏪᏎᎢ	-10.8408
▁ᎠᎩᏍᎦᏅᏨᎯ	-10.8408
▁ᎠᏂᏍᎦᏰᎬᏍᏓ	-10.8408
▁ᏣᎬᏫᏳᏌᏕᎩ	-10.8409
▁ᏗᏥᎸᏫᏍᏓᏁᎯ	-10.8409
▁ᎠᏥᏰᎯ	-10.8409
▁ᎪᏒᏅ	-10.841
▁ᎡᏈᎳ	-10.841
▁ᎠᏂᏃᎮᏍᎨ	-10.841
▁ᎢᏨᏲᏪᎳᏁᎭ	-10.841
▁ᎢᏯᏓᏅᏖᏗ	-10.841
▁ᏐᏉᎯᎭ	-10.841
▁ᎢᏤᎵᎭ	-10.841
▁ᎤᎾᏚᎵᏍᎩ	-10.8411
▁ᎤᎵᏨᏓᏆᏓ	-10.8411
▁ᏅᏛᏛᏁᎵ	-10.8411
ᏪᏏ	-10.8411
▁ᎠᏆᏛᏅᎢᏍᏗ	-10.8411
▁ᎢᏤᏅᏍᏗᏱ	-10.8411
▁ᏚᏬᏁᏔᏅᎩ	-10.8411
▁ᎤᏲᎱᏎᎮᏍᏗ	-10.8411
▁ᏫᏂᏪᏏ	-10.8412
▁ᏭᎳᎩᏒ	-10.8412
▁ᎠᏂᏏᎾᏌᏂ	-10.8412
▁ᎠᎬᏓᎨᏂ	-10.8412
▁ᎤᏆᏛᎩ	-10.8413
▁ᎢᏣᏛᏁᏗ	-10.8413
▁ᎠᏆᏗᏔᏍᏗ	-10.8413
▁ᏂᏥᏪᏍᎬ	-10.8413
▁ᎠᎾᏓᎭᏲᎯ	-10.8413
▁ᏳᏓᏑᏯ	-10.8413
▁ᏗᏥᎧᎿᏩᏛᏍᏗᏱ	-10.8413
▁ᎦᏁᏥᏱ	-10.8413
▁ᎠᏰᎢᎵᏓᏍᏗ	-10.8414
▁ᎤᏬᏨᏗ	-10.8414
▁ᎠᏂᎧᏔᎮᎢ	-10.8414
▁ᏚᏘᏃᎮᎴᎢ	-10.8414
▁ᎠᏆᏕᎶᎰᏒ	-10.8414
▁ᏧᏂᏲᎯᏍᏗᏱ	-10.8414
▁ᏤᎵᎪ	-10.8414
▁ᏅᏓᏍᏆ	-10.8414
▁ᎠᏄᏬᎩᎯ	-10.8415
▁ᎤᏁᎢᏍᏗᏱ	-10.8415
▁ᎢᏳᏪᏍᏗ	-10.8415
▁ᎢᏥᏁᏨ	-10.8415
▁ᎠᏍᎫᏕᏍᏗ	-10.8415
▁ᎢᏣᏛᎬᎦ	-10.8415
ᏩᏕᎬ	-10.8415
▁ᏓᏥᏁᎵ	-10.8415
▁ᎢᏥᎨᏴ	-10.8415
▁ᎣᎩᏅᏏᏛ	-10.8415
▁ᏣᏓᎸᎩ	-10.8415
▁ᎬᏔᏲᏎᎭ	-10.8416
ᏥᎶᏏ	-10.8416
ᏩᏛᎲᏍᏗᏱ	-10.8416
▁ᎤᏂᏃᎮᏗᏱ	-10.8416
▁ᏗᎫᏍᏙᏍᏗᏱ	-10.8416
▁ᏣᏔᎳᏬᎯᏍᏗ	-10.8416
▁ᎤᏪᏙᎴᎢ	-10.8417
▁ᎤᏍᏆᏂᎪᏔᏁᎢ	-10.8417
▁ᎤᏂᏍᎦᎴᎢ	-10.8417
▁ᏇᎵᏏ	-10.8417
▁ᎢᏨᎨᏳᎢᏳ	-10.8417
▁ᎤᏂᏰ	-10.8418
▁ᏧᏬᏪᎳᏅ	-10.8418
▁ᏭᏓᎪᎾᏛᏛ	-10.8418
ᏍᎦᏨᎯ	-10.8418
▁ᎤᏴᎵᎴ	-10.8418
▁ᏓᏂᏴᎨᏍᏗ	-10.8419
▁ᏍᎪᏂᏗᏢ	-10.8419
▁ᏦᎨᏥ	-10.8419
▁ᎠᏋᏔᏅᎯ	-10.842
▁ᎤᏂᎦᏙᎥᏒᎯ	-10.842
▁ᏚᏏᏔᏛ	-10.842
▁ᏧᏲᎯᏍᏗᏱ	-10.8421
▁ᎤᏓᏑᏰᏛ	-10.8421
▁ᎤᎾᏅᏗᏱ	-10.8421
▁ᎤᎾᏛᎪᏗ	-10.8421
▁ᎤᏁᏝᏅᎯ	-10.8421
▁ᎤᎦᏔᎲᏎ	-10.8422
▁ᎢᏥᏯᏅᏛ	-10.8422
▁ᎡᏍᎦᏂᏳ	-10.8422
▁ᏚᏪᏴ	-10.8423
▁ᎤᎧᎵᎸ	-10.8423
▁ᏳᏲᎱᏒ	-10.8423
ᏃᏛ	-10.8423
ᎾᏰᎯᏍᏗ	-10.8423
▁ᏣᎾᏫᏱ	-10.8423
▁ᏕᎦᏄᎪᎬ	-10.8424
▁ᎾᏥᏪᏎᎴᎢ	-10.8425
▁ᎠᎩᎪᏩᏛᏗᏱ	-10.8425
ᏅᏁᏗᏱ	-10.8425
▁ᎠᏆᏛᏁᏗᏱ	-10.8425
▁ᎤᏬᏪᎳᏅᎩ	-10.8425
ᏍᎦᏅᏤᎸᎯ	-10.8426
▁ᏅᏓᏰ	-10.8427
▁ᎯᏍᎪᎵ	-10.8427
▁ᎠᎩᎷᏤᎸᎩ	-10.8427
▁ᏕᎯᎧᏅ	-10.8428
▁ᎤᏂᏚᎲᎢ	-10.8428
-“	-10.8428
▁ᏗᎭᎾᏬ	-10.8428
▁ᎢᏨᏙᏗᏱ	-10.8429
▁ᎠᏯᏖᎾ	-10.843
▁ᏍᎦᏰᎬᏍᏔ	-10.843
▁ᎠᏈᎷ	-10.8431
▁ᎢᏣᎵᏍᏓᏴᏗᏱ	-10.8431
▁ᏕᎦᎧᎲᎩ	-10.8432
▁ᎠᏁᏙᎭ	-10.8432
▁ᏳᏪᎭ	-10.8432
▁ᎤᏬᎳ	-10.8433
▁ᎦᏲᏟᎨ	-10.8433
▁ᎤᎦᎹ	-10.8434
▁ᎤᎾᏄᎪᏥᎸ	-10.8434
▁ᎠᏌᎳᏙᏗ	-10.8434
▁ᎬᏩᏍᎦᎩ	-10.8434
▁ᎤᎸᏉᏔᏁ	-10.8435
▁ᎠᏫᏌᏅ	-10.8435
▁ᎤᏛᏅᏗᎦᎳᏫᎢᏍᏗᏱ	-10.8436
ᎵᏒ	-10.8437
▁ᎥᏃᏥ	-10.8437
▁ᎤᏩᏂᎦᎸᎢ	-10.8438
▁ᎢᏨᏁᏗ	-10.8439
▁ᎡᏥᏁᎸᎯ	-10.844
▁ᏗᎦᏁᎲ	-10.8441
▁ᏧᎾᏛᎾ	-10.8442
▁ᎦᏁᎮᎢ	-10.8442
▁ᎯᏄᎪᎢ	-10.8442
▁ᏕᎪᏪᎸᎩ	-10.8444
▁ᎤᏂᎾᎥ	-10.8445
▁ᎤᏂᏰᎸᎯ	-10.8445
▁ᏧᏓᎴᏁᎢ	-10.8446
▁ᎤᏔᏪᏙᏁᎢ	-10.8448
▁ᏛᏆ	-10.8448
▁ᎠᏤᏍᏙᎩᎯ	-10.8448
▁ᏙᏓᏆᏓ	-10.8449
ᏙᎲᎩ	-10.8449
▁ᏭᏴᎸᎩ	-10.8449
▁ᎠᏇᎵᏒᎩ	-10.845
▁ᎤᎶᎨᏒ	-10.8451
▁ᎤᎴᏅᎲᎩ	-10.8452
▁ᎧᏃᎮᏍᎬᎩ	-10.8452
▁ᎤᎵᏰᏔᏁᎢ	-10.8453
▁ᎤᎴᏅᎲ	-10.8455
▁ᏗᎦᎫᏍᏛᏗᏱ	-10.8457
▁ᎤᏂᏧᏈᏍᏗ	-10.8457
▁ᏓᏥᏂ	-10.8457
ᏁᏏ	-10.8458
▁ᎢᏳᎵᏍᏔᏅ	-10.8458
▁ᏭᎩᎶᏫᏎ	-10.8459
ᏦᏛ	-10.8459
▁ᎠᎳᏑᎶ	-10.846
ᏁᏨ	-10.8461
▁ᎤᏬᏢᏅᎢ	-10.8461
▁ᏚᏕᏲᏁ	-10.8463
▁ᎤᎾᏙᎴᎰᏒᎩ	-10.8463
▁ᏣᏓᏅᏛᎢ	-10.8463
▁ᎦᎪᎵᏍᏗ	-10.8463
▁ᎤᏁᏅᏒᎩ	-10.8463
▁ᎠᏆᏟᏂᎬᏁᎸ	-10.8466
▁ᏱᏙᎬ	-10.8466
ᏯᏂ	-10.8467
▁ᏂᏣᏛᏁᎲᎢ	-10.8468
ᏬᎥ	-10.847
▁ᎤᏍᏓᎦᎸᎢ	-10.8472
▁ᏓᏟᎶᏍᏛᎢ	-10.8472
▁ᎦᎵᎷᎨᏍᏗ	-10.8472
▁ᎤᏕᏔᏅᎯ	-10.8473
▁ᏥᏅᎵ	-10.8476
▁ᎤᏴᎸᎩ	-10.8476
▁ᏩᎦᏛᎢ	-10.8478
▁ᎤᎵᏍᏗᏳᏃ	-10.848
ᏅᏁᎸ	-10.8481
▁ᏧᏪᏥᏛᎯ	-10.8483
▁ᎡᏙᎲᎩ	-10.8484
▁ᎤᏬᏢᏁᎢ	-10.8485
▁ᎤᏂᏩᏛᏗ	-10.8486
▁ᏭᎷᏤᎴᎢ	-10.8488
ᏂᏌᏁ	-10.8489
▁ᎤᏦᏍᏗ	-10.8489
ᏔᏲᏎᎸᎩ	-10.8489
▁ᏧᏩᎫᏔᏅᏒᎢ	-10.849
▁ᏣᏍᏆ	-10.8491
▁ᎭᏕᏬ	-10.8493
▁ᎩᎦᎭ	-10.8493
▁ᏕᎳ	-10.8495
▁ᏭᏓᏒᏍᏔᏁ	-10.8496
▁ᏙᎯᏉ	-10.8496
▁ᎤᏡᏗᏍᎩ	-10.8499
▁ᎾᏆᏛᏁᎸᎢ	-10.8499
▁ᎤᏙᎳᏅᏍᏗ	-10.8501
▁ᏣᎧᏛᎢ	-10.8502
ᎳᏅᎩ	-10.8502
▁ᏂᏕᎦᏪᏎᎲ	-10.8502
▁ᎤᏓᏅᎦᎸᏛ	-10.8505
▁ᏤᏣᎧᏃᏗ	-10.8507
▁ᎨᏙᎲᎢ	-10.8507
▁ᎬᏩᎷᏤᎴᎢ	-10.8515
▁ᎠᎩᏩᏛᎲ	-10.8515
ᏘᏄᎦ	-10.8521
ᏅᎢᏍᏗᏱ	-10.8522
▁ᎠᏂᏁᎬᎢ	-10.8523
▁ᎤᎶᎨᏒᎢ	-10.8524
▁ᎾᏛᏁᎲᎢ	-10.8526
▁ᎢᏢ	-10.8528
▁ᎡᎵᎩ	-10.8529
▁ᎤᏓᏅᏖᎢ	-10.8529
▁ᎤᏬᏎᎴᎢ	-10.8533
▁ᎤᏂᏴᎮᎢ	-10.8535
▁ᏓᏫᏒᎢ	-10.8535
ᏁᏦ	-10.854
▁ᎡᎳᏂᎬᎢ	-10.8546
▁ᏂᏣᏛᏁᎸᎢ	-10.8546
ᏄᏍᏗ	-10.8546
▁ᎤᎾᏄᎪᏫᏍᏗᏱ	-10.855
▁ᎤᏓᏂᎵᎨᏃ	-10.855
▁ᎠᏂᎪᏩᏘᏍᎬ	-10.8551
▁ᏙᏓᎸᎢ	-10.8554
▁ᎤᏂᏁᏉᏤ	-10.8555
ᏅᎵ	-10.856
▁ᎪᏛ	-10.8562
ᏟᎶᏍᏙᏗ	-10.8562
▁ᎠᎾᎢᏒᎢ	-10.8564
▁ᎬᎿᎨ	-10.8567
▁ᎤᎷᏨᎯ	-10.8574
▁ᎩᏂ	-10.8574
▁ᎢᏥᎦᏔᎭᏰᏃ	-10.8589
▁ᎣᏂᏱᏃ	-10.859
▁ᎦᎳᎨᏴᎢ	-10.8591
▁ᏕᎦᏚᎲᎢ	-10.8592
ᏴᏔᏂᎸ	-10.8595
▁ᏓᏓᏁᎸᎢ	-10.8597
▁ᏓᏆᏙᎥᎢ	-10.8601
▁ᎭᏗᏔ	-10.8601
▁ᏂᎨᏥᏪᏎᎸ	-10.8601
ᏖᎸᏗ	-10.8604
ᎵᏍᏙᏔᏅ	-10.8609
▁ᏓᏌ	-10.8621
ᏂᎨᏂ	-10.8621
ᏙᎭ	-10.8622
▁ᏂᏨᏁᎲ	-10.8625
▁ᏏᏆᏏ	-10.8625
ᏍᏕᎾ	-10.863
▁ᎢᎨᏣᏛᏁᏗ	-10.863
ᏇᏓ	-10.8632
▁ᎠᏂᏬᏂᏍᎬᎢ	-10.8633
▁ᎣᎨᏅᏒ	-10.8636
ᏥᏃ	-10.8642
▁ᏗᎪᏩᏛᏗ	-10.8649
ha	-10.8652
▁ᎢᏥᎲᎢ	-10.8657
▁ᎤᏅᏙᏗ	-10.8669
ᏈᏱ	-10.8669
▁ᎤᏛᎦᏁᎢ	-10.8674
ᏲᎯᏏ	-10.8676
ᎴᎩ	-10.8682
ᏄᎵᏍᏔᏁ	-10.8682
ᏁᏤᏗᏱ	-10.8684
▁ᎠᏂᎩᎦᎨ	-10.8686
ᏟᏂᎬᎬ	-10.8698
▁ᏗᎩᏲᎱᏒᎯ	-10.8708
ᎩᏗ	-10.8712
ᏩᏛᏛ	-10.8717
ᏥᏫ	-10.8728
ᏆᏗ	-10.8728
▁ᏚᏳ	-10.8729
▁ᎪᏙ	-10.8738
▁ᎢᏥᏁᎬ	-10.8746
▁ᎤᎵᏍᏆ	-10.8746
ᏓᏂᎸᏤᎢ	-10.8747
ᏓᏂᎸᎢᏍᏗ	-10.875
▁ᏓᎾᏠᏱᎲ	-10.8755
ᏢᎢ	-10.8773
▁ᎠᏥᏅᏏᏓᏍᏗᏃ	-10.8774
ᏥᏁᏗ	-10.8774
ᎧᎿ	-10.8777
▁ᏕᏫᏰᏃ	-10.8786
▁ᎬᏒ	-10.8788
▁ᎦᎵᏦᏙᏗ	-10.8792
ᏛᏁᎲᎢ	-10.8794
▁ᎡᏌ	-10.8795
▁ᏂᏥᏪᏎᎸ	-10.88
▁ᎦᏰᏥ	-10.88
ᎸᏌᏛ	-10.8803
ᏥᎾᏄᎪᏫᏏ	-10.8807
ᏒᏓ	-10.8808
ᎪᏎᎭ	-10.8812
▁ᎤᎾᎴᏅᎲ	-10.8813
▁ᎤᎾᏓᏟᏌᏅ	-10.8814
▁ᏥᏍᏆᏃ	-10.8818
ᏓᏁᎵ	-10.8825
ᏬᎢ	-10.8826
ᏲᎯᏎᏗᏱ	-10.8829
▁ᏚᏃᏁᎴ	-10.883
ᏅᏁᎢ	-10.8833
▁ᏥᎦᏔ	-10.8833
ᎾᎲ	-10.8835
▁ᎠᎩᏃᎮᎸ	-10.885
ᏴᎸ	-10.8851
▁ᏴᎨ	-10.8854
ᏥᏲᏏ	-10.8873
▁ᎤᎵᎮᎵᏤ	-10.8879
▁ᏅᏓᎬᏩ	-10.8881
ᎾᏔ	-10.8888
ᏢᏔᏂ	-10.889
▁ᎪᎯᏳᏗᏍᎩᏂ	-10.8893
ᏩᏓ	-10.8894
ᎦᏅᏓᏗᏍᏙᏗ	-10.8903
ᏆᎴ	-10.8906
ᏰᎸᏅ	-10.8908
▁ᏂᏣᏍᏛ	-10.8916
ᎨᏳᎯᏳ	-10.8918
▁ᎤᏙᏳ	-10.8926
ᎧᎾ	-10.8926
ᏍᎦᎢᎮᏍᏗ	-10.8934
▁ᏧᎾᏗᏔᏍᏗ	-10.8948
ᎭᏲᎲ	-10.8956
ᏤᎷᎯ	-10.8956
▁ᎢᎸᎯᏢᏃ	-10.8959
ᏓᏗᏍᏗ	-10.896
▁ᎬᎨᏳᎢ	-10.8966
▁ᎦᎳ	-10.8966
ᏔᏂᏓᏍᏗ	-10.8968
ᎦᏙᎥ	-10.8969
▁ᎧᏁᎬᏃ	-10.897
ᏥᏪᏏ	-10.8972
▁ᎢᏗᎦᏘ	-10.8973
▁ᎤᏓᏅᏁ	-10.8988
▁ᎢᏥᎭ	-10.8989
ᎲᏍᎨᎢ	-10.8995
ᏥᎦᏔ	-10.8995
▁ᎢᏌ	-10.8996
ᏍᎦᎢᎮ	-10.9008
ᏲᎩ	-10.9011
ᏓᏅᏛ	-10.9023
ᏎᎮ	-10.903
▁ᎦᏳᎳᏰᏃ	-10.9036
ᎷᏤ	-10.9048
ᎵᏃᎮᏔᏅᎩ	-10.9054
▁ᎢᏳᏍᎩᏂᏃ	-10.9065
ᏛᎯᏍᏙᏗ	-10.9077
ᏲᎢᏳ	-10.9086
ᏁᎾ	-10.9089
Ꭻ	-10.9095
ᎵᏱᎶᎯᏍᏗ	-10.9099
ᏴᎴᎢ	-10.9103
ᎲᎯ	-10.9105
ᏰᏣ	-10.9115
ᏄᎪᏤ	-10.9116
▁ᏤᏏ	-10.9119
▁ᎠᎾᏗᏍᎬ	-10.9135
ᏍᏕᎢ	-10.9139
▁ᎦᏓᏉ	-10.9141
▁ᏣᏁᎩ	-10.9151
ᎵᏍᏓᏴᏙᏗ	-10.9151
▁ᎤᏚᎸᎲ	-10.9152
▁ᏩᎩᎦ	-10.9154
ᏅᏬᏗᏱ	-10.916
▁ᎤᏍᏆᏂᎪᏛ	-10.9163
ᎩᏐᏅ	-10.9166
ᎦᏘᏲ	-10.9178
ᎦᏙᎥᎯᏍᏗᏱ	-10.9183
ᏪᏒᎩ	-10.9187
ᏓᏑᏴ	-10.9188
▁ᎤᏃᏢ	-10.9202
▁ᎤᏓᏑᏴ	-10.9203
ᎵᎮ	-10.921
ᎪᎲᎯ	-10.9221
ᎪᎯᏳᏗ	-10.9238
ᏍᏗᏰ	-10.9245
▁ᎤᎶ	-10.9247
ᏴᎮ	-10.9253
ᎠᎩᏏᏙᎯ	-10.926
▁ᏣᏍᎦᏅᏨ	-10.9264
▁ᎯᎠᏍᎩᏂᏃᏅ	-10.9272
ᎣᏏ	-10.9275
▁ᎩᎬᏃ	-10.9282
ᎦᎷ	-10.9282
▁ᏥᏍᎦᎢᎲ	-10.9287
▁ᎤᎵᏂᎩᏛᏰᏃ	-10.9297
ᎵᏬ	-10.9302
ᎾᏄᎪᏩ	-10.9313
ᏁᏤᎸᎭ	-10.9315
ᏛᏎᎢ	-10.9329
ᎬᏃ	-10.9361
▁ᏥᏕᎦ	-10.9371
ᏗᏂ	-10.9373
ᎪᎵᏰᏗᏱ	-10.9387
ᏥᎵ	-10.939
▁ᏚᏩ	-10.9404
ᏝᎡ	-10.9412
ᏰᏌᏛ	-10.9415
▁ᏣᎵᏍᎪᎸᏙᏗ	-10.9418
ᏲᎯᏎᎴ	-10.9425
▁ᏱᏤ	-10.9427
▁ᏥᏩ	-10.9431
▁ᏆᎾ	-10.9432
ᏓᏍᏕᎸᏗ	-10.9434
▁ᎢᏨᏴ	-10.944
ᏚᎲ	-10.9445
ᏁᎳᎩ	-10.945
ᏅᏁᎮᏍᏗ	-10.9458
ᏅᎬ	-10.946
▁ᏧᏁᏤ	-10.9466
ᏲᎴ	-10.9466
ᏍᏔᎾ	-10.9469
▁ᎢᏣᏓᏅᏛ	-10.9475
ᎳᏕ	-10.9478
ᏅᏬ	-10.9484
▁ᎥᎩᎸᏉ	-10.9487
ᎶᏒᎩ	-10.951
ᏁᏒ	-10.9514
ᏲᎮᏗ	-10.9518
▁ᎠᏟᎶᎥ	-10.952
ᎴᎯ	-10.953
ᏳᎳ	-10.9534
▁ᎤᎾᏂᎩ	-10.9536
▁ᏄᏛᏁ	-10.9537
▁ᏥᏍᎦᎾ	-10.9539
ᏘᏅᏒᎩ	-10.9543
▁ᏕᎯᏁᎸ	-10.9552
ᏙᏱ	-10.9577
ᎦᏅᎩ	-10.9582
▁ᏩᎾᎢ	-10.9594
▁ᏛᏣ	-10.9625
▁ᏔᎳᏚᏃ	-10.9628
ᏡᏗᏍᎬᎢ	-10.9645
ᎱᏍᏗ	-10.9646
ᏴᎢ	-10.9646
ᏍᎪᏒ	-10.9655
ᏪᏎᎴᎢ	-10.966
ᏍᎦᎳᏁᎸ	-10.9664
▁ᏕᏥᎧ	-10.9665
▁ᏥᏕᏥ	-10.9668
▁ᏗᏂᏅ	-10.9668
▁ᏅᏙᏃ	-10.9673
ᎪᏂ	-10.9679
▁ᎤᏪᎵ	-10.9679
ᏯᏅᏓ	-10.9694
ᎯᏢᎾ	-10.9694
ᏙᏅ	-10.9703
ᏕᎪ	-10.9727
ᏨᏗ	-10.973
ᏨᎭ	-10.9748
ᏘᏃᎯᏍᏗᏱ	-10.9763
ᏍᏆᏗ	-10.9767
ᏓᏁᎴ	-10.9774
ᏂᏓ	-10.9777
ᎳᎻ	-10.9781
ᎾᏍ	-10.9792
ᏌᎭ	-10.9794
▁ᎤᎾᏄᎪᏫ	-10.9801
▁ᎤᏂᏲᎴ	-10.9802
▁ᎤᏃᏪᎳᏅ	-10.9803
ᏓᏅᎡᎮᏍᏗ	-10.9805
ᎦᏛᏁ	-10.9815
ᏢᏅᎯ	-10.9817
ᏯᏅᎲᎩ	-10.9818
ᎪᏩᏗ	-10.9819
ᎦᎵᏍᏓ	-10.9852
ᎦᏌᏯᏍᏗᏕᎩ	-10.9853
ᏪᏎᎵ	-10.9856
Ꮌ	-10.9856
ᎦᏥᎪᎥ	-10.9857
▁ᏦᏢ	-10.986
ᏟᎶᏍᏗ	-10.9864
ᏁᏅ	-10.9869
ᏲᎢ	-10.9889
▁ᏱᏓᎾ	-10.9889
ᏙᎲᎢ	-10.9893
ᏓᎴᏂ	-10.9908
ᏍᏓᏁᎴ	-10.9912
▁ᎯᏌ	-10.9914
▁ᏴᎦᏥ	-10.9916
▁ᏱᏘ	-10.9919
▁ᎢᏲ	-10.9934
▁ᎤᏁᎳᏅ	-10.9935
ᏘᏏ	-10.9948
▁ᏃᏒ	-10.995
ᏓᏅᏏ	-10.9951
▁ᎬᏩᏛᏛ	-10.9966
ᎠᏈ	-10.9966
▁ᏓᎦᏥᏯ	-10.9966
ᏣᎢᏒ	-10.9973
▁ᎤᏂᏏᏗ	-10.9975
▁ᎹᏓ	-10.9982
▁ᎦᎸᏉ	-10.9987
ᏥᎶ	-10.9988
▁ᎾᎩᏪᏎᎸ	-10.9992
▁ᏚᏄ	-11.001
ᏴᏨ	-11.0014
ᎤᏅ	-11.0016
▁ᎤᎵᏘ	-11.0024
▁ᎤᏔ	-11.0031
ᏍᏓᏩᏕᎩ	-11.0033
ᏙᎲᎾ	-11.0036
ᎦᏁ	-11.0045
ᏍᏆᏂᎪᏔᏅ	-11.0048
ᎢᏎ	-11.0049
ᎬᎦ	-11.0055
ᎡᎪᎢ	-11.0069
ᎷᎸ	-11.0072
ᎶᎨᏒ	-11.0076
▁ᏗᏍᏆᏂᎪᏙᏗ	-11.0078
ᎳᏓ	-11.008
ᎪᏩᏘᏍᎬᎾ	-11.0085
ᎪᏃ	-11.0096
ᏫᏒᎾ	-11.0102
ᏙᎥᎯᏍᏗ	-11.0116
ᏲᎱᎯᏎᎸᎯ	-11.0122
▁ᏕᏥᏯ	-11.0125
▁ᏥᎩᎵᏲᎬ	-11.013
▁ᎢᏥᎷᏤᎸ	-11.0131
ᏕᎶᎰᎯᏍᏗ	-11.0147
ᎪᏩᏘᎭ	-11.0162
ᏍᏓᏱᏗ	-11.0165
ᏲᏨ	-11.0172
ᎴᎲ	-11.0172
▁Ꮅ	-11.0174
ᏩᏛᎲᎩ	-11.0176
▁ᎤᎧᎵ	-11.0177
ᏂᏐᏗ	-11.0179
ᏲᎱᎯᏍᏗ	-11.018
▁ᎤᎾᏓᏅᏖ	-11.0183
▁ᎢᎫᏩ	-11.0189
ᏢᏅᎩ	-11.0198
ᏓᏅᏖᎸ	-11.0207
ᏚᏓᎴᏍᏗ	-11.021
ᏛᏅᎢᏍᏗ	-11.0211
▁ᎤᎾᏣᎢ	-11.0217
ᎵᏍᎪᎸᏙᏗ	-11.0217
ᎬᏫᏳ	-11.0218
ᏂᏁᏟᏴᏍᏗᏱ	-11.022
ᏂᎬᎬ	-11.0225
ᎵᎪᎯ	-11.0229
ᎵᏬᏨ	-11.0234
▁ᏥᎶ	-11.0235
▁ᎦᎸᎳᏗᎨ	-11.0245
ᎷᎯᏍᏗ	-11.0248
ᏥᏄᎪᏫᏍᏗ	-11.0252
▁ᏅᎦ	-11.0253
ᏰᎵᏒ	-11.0255
ᏄᎪᏨᎩ	-11.0255
ᏪᏎᏗ	-11.0262
▁ᎤᏂᏆᏘᏍᏗ	-11.0265
ᎬᏁᎵ	-11.0265
▁ᏗᎦᏅᏬ	-11.0271
▁ᎠᏂᎸᏉᏗᏍᎨ	-11.0272
▁ᎦᏬᏂᏍᎨ	-11.0276
ᏘᏎᎢ	-11.0287
▁ᎤᏛᏛ	-11.0287
▁ᎠᏂᏍᎦᎢᎮ	-11.0288
ᏚᏓᎳ	-11.029
ᎦᏔᎮᎢ	-11.029
ᏍᏓᏩᏗᏎ	-11.0291
ᏂᏆᏘᎯ	-11.0291
ᏆᎸ	-11.0291
ᎾᏰ	-11.0293
ᎭᎾᏬ	-11.0298
▁ᎥᏞ	-11.0304
▁ᏧᎦᏴᎵᎨ	-11.0311
▁ᎢᎳᎩᏳ	-11.0311
▁ᏤᏆᎳᏂ	-11.0312
▁ᎤᏁᏙᎸ	-11.0314
▁ᏤᏈᏛ	-11.0314
ᏏᏔᏛ	-11.0315
▁ᎤᎾᏕ	-11.0319
ᏘᏁᏒᎭ	-11.0319
ᏄᎪᏫᏒᎯ	-11.0319
▁ᏈᎵᏏ	-11.0321
ᎨᏳᎢᏳ	-11.0323
▁ᏗᏦᎸ	-11.0326
▁ᎠᏙᎴᎰ	-11.033
ᏗᏂᏍᎪᏂᎯ	-11.0333
ᏓᏁᏗᏱ	-11.0335
ᏏᏂ	-11.0335
ᏔᏲᏏ	-11.0338
ᏌᏛᎥᏍᎩ	-11.0339
ᏝᏁ	-11.034
▁ᏫᏚᎧᎾᏁ	-11.0342
▁ᎠᎾᏛᎩᏍᎬ	-11.0342
▁ᏙᎩᎸᏫᏍᏓᏁᎲ	-11.0342
ᎶᏅ	-11.0344
▁ᎠᏥᏃᏁᎴ	-11.0344
ᏙᎤᏍᏗ	-11.0344
▁ᎠᏇᏅᏒ	-11.0346
▁ᎦᏍᎩᏓᏍᎬ	-11.0349
▁ᏂᏓᏕᏘᏴᎯᏒ	-11.035
ᎰᏩ	-11.035
▁ᎢᏛᏗᏍᎬ	-11.0351
ᎡᏝᏪᎯ	-11.0352
▁ᏗᎾᏓᎪᎾᏗᏍᎬ	-11.0353
▁ᎪᎱ	-11.0353
▁ᎤᏒᏂᎴ	-11.0354
▁ᎠᏂᎧᎸ	-11.0355
▁ᎠᎾᎵᎮᎵᎬ	-11.0356
▁ᎤᏁᎷᏁ	-11.0357
ᎠᏍᎦᏯ	-11.0357
ᎦᎸᎳᏗ	-11.0358
ᎤᏟ	-11.0358
▁ᎠᏂᎩᎵᏲᎬ	-11.0359
ᏍᏚᏗ	-11.036
▁ᎠᎾᏓᎪᎾᏗᏍᎬ	-11.036
ᏢᏁ	-11.0362
ᎠᎳᏂ	-11.0362
ᎪᏍᎬ	-11.0363
▁ᏣᏤᏍᏙ	-11.0366
▁ᎠᎬᏗᏍᎬ	-11.0368
▁ᎤᏚᎢᏍᏔᏅ	-11.0372
ᎾᏌ	-11.0373
ᎸᏉᏙ	-11.0374
▁ᎠᎾᏕᎲᏍᎬ	-11.0375
▁ᎾᏆᎵᏍᏔᏅ	-11.0376
▁ᏧᏓᎴᏁ	-11.0377
ᏌᎳᏗ	-11.0378
▁ᎤᏃᎯᏳᏒ	-11.0378
ᎤᏁᏨ	-11.0379
ᏅᏍᏓᏕᎸᎩ	-11.038
ᎵᏍᏔᏁᎢ	-11.0381
ᏆᎳ	-11.0382
▁ᎦᎵᏆᏚ	-11.0383
▁ᏕᎤᎷᎬ	-11.0383
▁ᎠᏉᏪᎳᏅ	-11.0385
▁ᎤᎩᎵᏲᏨ	-11.0387
▁ᎦᏓᏙᎵᏍᏗᏍᎬ	-11.0387
▁ᎠᎩᏍᏛᏗᏍᎬ	-11.0387
▁ᎢᏳᎵᏍᏔᏂᏓᏍᏗ	-11.0388
▁ᏧᎾᏛᏐᏅ	-11.0389
▁ᏗᎩᎾᏫ	-11.039
ᎢᏏᎵ	-11.039
▁ᏂᎦᎵᏍᏔᏅ	-11.0392
▁ᏭᏴ	-11.0392
▁ᎢᏯᏅᏁ	-11.0392
▁ᏩᏥᎳ	-11.0393
es	-11.0393
▁ᎨᏥᏛᏙᏗ	-11.0394
▁ᏭᏂᎶᎯᏍᏗ	-11.0394
ᎤᏁᏅ	-11.0394
▁ᏭᏂᎶᏒ	-11.0395
▁ᏗᎪᏪᎳᏅ	-11.0395
▁ᎤᏍᏗᏰᏔᏁ	-11.0395
▁ᏗᏣᎸᏫᏍᏓᏁᏗ	-11.0395
▁ᏅᏓᎦᎵᏍᏙᏗᏍᎬ	-11.0395
ᎤᏪ	-11.0396
▁ᎤᏪᎧᏅ	-11.0396
▁ᏗᏥᎧᎿᏩᏛᏍᏗ	-11.0396
▁ᎦᏰᏥᏐᏢ	-11.0397
▁ᎤᏂᏰᎸᏅ	-11.0398
▁ᎤᏁᏉᏨ	-11.0399
▁ᎤᎵᏂᎩᏗ	-11.0399
▁ᏅᏗᎦᎵᏍᏙ	-11.0399
ᎵᏍᏓᏴᎲᏍᎩ	-11.0403
dinot	-11.0403
▁ᎠᎵᏍᎦᏁᏛ	-11.0403
▁ᎢᏣᏛᏅᎢᏍᏙᎢ	-11.0403
▁ᎢᏯᏔᏬᏍᏔᏅ	-11.0403
▁ᎤᎧᏖᏃᎴ	-11.0403
▁ᎤᏂᏍᏇᏚᎩ	-11.0403
▁ᎤᏓᏩᏗᏍᏙᏛ	-11.0403
▁ᎤᏔᎳᏬᏎᎢ	-11.0403
▁ᎤᏢᏓᎸᏛ	-11.0403
▁ᎧᎵᏎᏥ	-11.0403
▁ᎭᏟᏂᎬᏁᎸᎭ	-11.0403
▁ᎰᏢᏅᎭ	-11.0403
▁ᏂᏣᏛᎿᏕᎨᏍᏗ	-11.0403
▁ᏅᏓᎬᏯᏛᏁᎵ	-11.0403
▁ᏓᏥᏍᏓᏱᏕᎵ	-11.0403
▁ᏕᏏᎶᏂᎦ	-11.0403
▁ᏗᎦᏌᏆᎸ	-11.0403
▁ᏦᎪᏰᏂ	-11.0403
▁ᏧᏩᏗᏔᏯ	-11.0403
▁ᎠᎩᏍᏓᏩᏕᎨᏍᏗ	-11.0403
▁ᎱᏁᏅᏎ	-11.0403
▁ᏄᎾᏓᏅᏛᎾ	-11.0403
▁ᏅᏧᎵᏍᏙᏔᏁ	-11.0403
▁ᏍᎩᏲᎮᏍᏗ	-11.0403
▁ᏗᎦᏃᏣᏝᏍᎩ	-11.0403
▁ᏗᏙᎴᏆᏍᏗ	-11.0403
▁ᏫᏂᏨᎦ	-11.0403
▁ᏱᏂᎦᏛᏁᎭ	-11.0403
▁ᎠᎾᏛᏁᎵᏍᎩ	-11.0403
▁ᎢᏳᏩᎿᏕᎩ	-11.0403
▁ᎤᏂᎾᏰᏎᎢ	-11.0403
▁ᎷᎡᎵ	-11.0403
▁ᎾᏅᏛᏁᎰ	-11.0403
▁ᏕᏥᏙᎨᏍᏗ	-11.0403
▁ᏧᏂᎳᎾᎢ	-11.0403
▁ᏱᏕᏍᎬᏏ	-11.0403
▁ᎾᎵᏍᏓᏴᎲᏍᎬᎾ	-11.0403
▁ᏗᎦᏟᏓ	-11.0403
▁ᏗᏍᎩᎧᏁᎸᎯ	-11.0403
▁ᏗᏔᎳᏗᏍᏗᏱ	-11.0403
▁ᏂᏥᎪᎸᎾ	-11.0403
▁ᏍᎩᏁᎲᏏ	-11.0403
▁ᏄᏛᏛᎾ	-11.0403
▁ᏗᎦᏩᏒᎩ	-11.0403
▁ᎣᏍᏓᏓᏤᎵ	-11.0403
▁ᏗᎪᏏᏏᏍᎩ	-11.0403
▁ᏣᏃᏍᎩᏒᎩ	-11.0403
▁ᎤᏁᎳᏫᏎᎸ	-11.0403
▁ᎯᏍᎩᏍᎪᎯ	-11.0403
▁ᏗᏑᏱ	-11.0403
▁ᎤᏩᏯᎨᎢ	-11.0403
ᏤᏬᎩ	-11.0403
▁ᏈᏏᎳ	-11.0403
▁ᏂᎪᎯᏳᎲᏍᎬᎾ	-11.0403
▁ᎠᎵᏰᎢᎶᎸᎭ	-11.0403
▁ᎤᎦᏃᏫ	-11.0403
▁ᏂᏥᏪᎠ	-11.0403
▁ᏗᏠᏍᎩ	-11.0403
▁ᎤᏄᏬᏍᏕᏍᏗ	-11.0403
▁ᏄᎾᏛᎾᏕᎬ	-11.0403
▁ᏗᎫᎪᏓᏁᎯ	-11.0403
▁ᏫᏄᏕᏘᏴᎲ	-11.0403
▁ᎤᏌᎳᏓᏁ	-11.0403
▁ᏙᏓᎫᎪᏓᏁᎵ	-11.0403
▁ᎠᎰᎵᏆᎹ	-11.0403
▁ᏥᏕᏣᎪᎲᎩ	-11.0403
▁ᎾᏅᏁᎲ	-11.0403
▁ᎥᎨᏒᎩ	-11.0403
▁ᏂᏕᎤᏍᏕᏍᏗ	-11.0403
▁ᏬᎩᎶᏒᎩ	-11.0403
▁ᏲᏨᏗᏍᎨ	-11.0403
▁ᏅᏓᏥᏴᏁᎵ	-11.0403
▁ᏥᏨᏰᎳᏗᏙᎲᎩ	-11.0403
▁ᏂᎬᏠᏍᎬᎾ	-11.0403
▁ᏅᏓᏣᏓᎴᏅᎯ	-11.0403
▁ᎢᎦᏪᏍᎩ	-11.0403
▁ᏕᎭᏓᏅᎡᎮᏍᏗ	-11.0403
▁ᏂᏗᎾᏰᏍᎬᎾ	-11.0403
▁ᏗᏥᏲᎱᏒᎯ	-11.0403
▁ᏂᏥᏍᎦᎢᎲᎾ	-11.0403
▁ᎧᏱᏆ	-11.0403
▁ᎠᎵᏰᎢᎵᏒ	-11.0403
▁ᎥᏓᎷᎶᏗ	-11.0403
▁ᎭᏰᎳᏍᏗ	-11.0403
▁ᎤᎵᏘᎾᎥ	-11.0403
ᏣᎵᎮᎵᎦ	-11.0403
▁ᎦᎵᏉᎩᏧᏈ	-11.0403
▁ᏕᎪᏢᏎᏍᏗ	-11.0403
▁ᎰᏌᎾ	-11.0403
▁ᏇᎳᎻ	-11.0403
▁ᏧᎾᎴᏐᏛ	-11.0403
▁ᎤᏍᏗᎩᏳ	-11.0403
▁ᏴᎦᏥᏛᏓ	-11.0403
▁ᏔᏘᏂᏙᎯ	-11.0403
▁ᏕᎯᏁᏤᎮᏍᏗ	-11.0403
▁ᎭᏓᏅᏓᏓ	-11.0404
▁ᏗᏂᎧᎿᏩᏕᎩ	-11.0404
▁ᎢᏳᏟᎶᏓ	-11.0404
▁ᏍᎨᏫ	-11.0404
▁ᏥᏚᎸᏫᏍᏓᏁᎭ	-11.0404
▁ᎨᎵᏌᏕ	-11.0404
▁ᏂᎬᏩᎦᏔᎲᎾ	-11.0404
▁ᎠᎵᏍᏚᎶᎩᎯ	-11.0404
▁ᏄᏍᎦᏅᏨᎾ	-11.0404
▁ᏙᏛᏛᏔᏂ	-11.0404
▁ᎢᏰᏨᏁᎸᎯ	-11.0404
▁ᏍᎦᏥ	-11.0404
▁ᏂᏪᏍᎬᎢ	-11.0404
▁ᏂᏣᏓᏅᏛᎾ	-11.0404
ans	-11.0404
▁ᏂᎦᎾᏰᏍᎬᎾ	-11.0404
▁ᏂᏤᎲᎾ	-11.0404
▁ᏅᏓᏨᏁᎵ	-11.0404
▁ᏤᎿᎠ	-11.0404
▁ᎢᏳᏩᎦᏘ	-11.0404
▁ᎢᏣᎦᏌᏯᏍᏓ	-11.0404
▁ᎤᎦᎵᏍᏗᏉ	-11.0404
▁ᎤᏂᏃᏁᏗᏱ	-11.0404
▁ᏂᏑᏪᏎᎴᎢ	-11.0404
ay	-11.0404
▁ᏗᏂᏲᎤᎵ	-11.0404
▁ᏣᎦᏁᎶᏗ	-11.0405
▁ᏗᏣᏘᏂᏙᎯ	-11.0405
▁ᎤᏓᏅᎯᏓ	-11.0405
▁ᏗᏣᏓᎵᎢ	-11.0405
▁ᎤᎶᏘ	-11.0405
▁ᎢᏓᏙᎴᎰᎯᏍᏗᎭ	-11.0405
▁ᏩᎵᏰᎢᎶᎯᎭ	-11.0405
▁ᎠᎾᏁᎸᏗᏍᎬ	-11.0405
▁ᎯᏌᎳᏛᎦ	-11.0405
▁ᏧᏂᏲᎰᏒ	-11.0405
▁ᎤᏮᏙᏗᏱ	-11.0405
▁ᎦᏣᏃᏍᏓ	-11.0405
▁ᎡᏥᎾᏰᏍᎨᏍᏗ	-11.0405
▁ᏣᏂᎧᎳ	-11.0405
▁ᏓᎩᎸᏫᏍᏓᏁᎸ	-11.0406
▁ᏧᎾᏘᏂᏙᎯ	-11.0406
▁ᎢᎬᏩᎾᏛᏁᏗ	-11.0406
▁ᏚᏌᎯᎸ	-11.0406
▁ᎠᎱᎵ	-11.0406
▁ᎠᏥᏍᎦᏨᎯ	-11.0406
▁ᎤᏃᏢᏔᏅᎩ	-11.0406
▁ᏄᎾᏓᏡᎬ	-11.0406
▁ᏧᎾᏍᏕᏥ	-11.0406
▁ᎫᏓᎴᏅᏛ	-11.0406
▁ᏗᏣᏓᎨᏳᎯᏳ	-11.0406
▁ᎤᎾᏕᏘᏴᏛ	-11.0406
▁ᏛᏓᎴᎲᏍᎬᎩ	-11.0406
▁ᎤᎾᎵᏍᏔᏴᏗ	-11.0406
▁ᎢᏨᏃᏁᎭ	-11.0406
▁ᏗᎾᏂᏏᎲᏍᎩ	-11.0406
▁ᏗᎾᏓᎾᏌᎲᏍᎩ	-11.0406
▁ᏥᏂᏥᏪᎭ	-11.0407
▁ᏂᏍᎦᏅᎾ	-11.0407
▁ᎨᎦᎫᏴᏓᏁᏗ	-11.0407
▁ᏧᏔᎾᎶ	-11.0407
▁ᏧᎳᏏᏕᏅ	-11.0407
▁ᏥᏄᎵᏍᏔᏅ	-11.0407
ᏓᏬᏅᏛ	-11.0407
▁ᏗᏕᏲᎲᏍᎩ	-11.0407
▁ᏕᏥᎨᏳᏎᏍᏗ	-11.0407
▁ᎢᏥᎪᏩᏘᏍᎨᏍᏗ	-11.0407
▁ᏲᏥᎦᏔᎭ	-11.0408
▁ᏧᏂᏴᏍᏕᏍᎩ	-11.0408
▁ᎠᎩᏬᏂᎯᏍᏗᏱ	-11.0408
▁ᎦᏲ	-11.0408
▁ᏂᎦᏪᏍᎪᎢ	-11.0408
▁ᏂᏕᏨᏁᎸ	-11.0408
▁ᏗᎧᏃᎨᏂ	-11.0408
▁ᏧᎴᎯᏐᏗ	-11.0408
▁ᎬᎩᏁᏉᏤᏗᏱ	-11.0408
▁ᏪᏙᎮ	-11.0409
▁ᏳᏓᏬᎠ	-11.0409
▁ᎤᏗᏌᏓᏛ	-11.0409
▁ᎠᏑᏱ	-11.0409
▁ᏄᎵᏂᎬᎬ	-11.0409
▁ᎢᏣᏓᏅᏟ	-11.0409
▁ᎨᎦᎵᏍᎪᎸᏓᏁᎸᎯ	-11.0409
▁ᏄᏕᏘᏴᎲ	-11.0409
▁ᎭᏛᎬᎦ	-11.0409
▁ᏗᏂᎴᏂ	-11.0409
▁ᎤᎵᏃᎮᏔᏅᎢ	-11.0409
▁ᎤᏓᏴᏛ	-11.041
▁ᎦᏟᎲ	-11.041
▁ᎡᏣᏅᏏᏓᏍᏗ	-11.041
ᏁᏉᏣᏖᏍᏗ	-11.041
▁ᎪᏱᏅᏍᏗ	-11.041
▁ᏂᏨᏴᏁᎭ	-11.041
▁ᏫᎨᏥᏯᏅᏛ	-11.041
▁ᏓᏦᎯᏍᏛ	-11.041
▁ᏭᏂᎷᏣ	-11.041
▁ᏓᎪᏄᎸ	-11.041
▁ᎬᏩᎾᎦᏌᏯᏍᏗᏕᎩ	-11.041
▁ᎡᏣᎫᏴᎡᏗ	-11.041
▁ᎠᏉᏢ	-11.041
▁ᏚᏕᏘᏴᏌᏗᏒ	-11.041
▁ᎠᎾᏛᎬᎦ	-11.041
▁ᏚᏃᏴᎬ	-11.041
▁ᎯᏍᎩᏉ	-11.041
▁ᎠᏰᎳᏍᏗᎦᏅᎯᏛ	-11.041
▁ᎤᎾᎵᏏᎾᎯᏍᏗ	-11.041
▁ᎠᏂᎦᏲᎵᏳ	-11.041
▁ᏗᎦᎳᏫᎩ	-11.041
▁ᎨᏥᏍᎦᎩ	-11.0411
▁ᏧᏏᏩ	-11.0411
▁ᎢᏣᏤᎵᎪᎯ	-11.0411
▁ᏗᎩᏲᎯᏍᏗᏱ	-11.0411
▁ᎢᏣᎵᎮᎵᎩ	-11.0411
▁ᎡᎿᎢ	-11.0411
▁ᏔᎾᏏ	-11.0411
▁ᏯᏆᏚᎵᏍᎨ	-11.0411
▁ᏗᏨᏲᎯᏎᏗᏱ	-11.0411
▁ᎤᎾᏙᎴᎰᎯᏍᏗᏱ	-11.0412
▁ᏚᎿᏍᏕᏢ	-11.0412
▁ᏂᎦᏥᏴᏁᎸᎭ	-11.0412
▁ᎢᏗᏏᏴᏫᎭ	-11.0412
▁ᎤᏂᎧᎵᏨᎯ	-11.0412
▁ᎤᏩᏃᏪ	-11.0412
▁ᎬᏩᏁᏤᎴ	-11.0412
▁ᏏᏐᎢ	-11.0412
▁ᎡᏤᎾ	-11.0413
▁ᏧᏬᎳ	-11.0413
▁ᎨᏥᏯᏅᏛ	-11.0413
▁ᏓᎬᎩᎵ	-11.0413
▁ᏂᎨᏳᏎᏍᏗ	-11.0413
▁ᎠᎩᏍᎦᏅᏥᏙᎸᎢ	-11.0413
▁ᏧᏂᏲᎱᎯᏍᏗᏱ	-11.0413
▁ᏗᏂᏢᏗᏱ	-11.0413
▁ᏗᎧᎿᏩᏕᎩ	-11.0413
▁ᏧᏕᏲᏅᎯ	-11.0413
▁ᏗᎵᏒᏍᏗ	-11.0414
▁ᏣᏃᏎᎰᎢ	-11.0414
▁ᏅᎩᏦᏁ	-11.0414
ᎾᏁᎸᏔᏅ	-11.0414
▁ᎤᏲᎱᏎᏗ	-11.0414
▁ᎠᎺ	-11.0414
▁ᏍᎩᎥᏏ	-11.0414
▁ᎢᏨᏰᎳᏗᏙᎭ	-11.0414
▁ᎠᎩᏰᎸᎰ	-11.0414
▁ᏧᏯᏍᎦ	-11.0414
▁ᎢᏥᏩᏛᏗᏱ	-11.0414
ᏯᏪᏣ	-11.0414
▁ᎨᎦᏁᎳᏅᎯ	-11.0414
▁ᎠᏛᏂᏗᏍᏙᏗ	-11.0414
▁ᎦᏁᏥ	-11.0414
▁ᎯᏁᏟᏴᎾ	-11.0414
▁ᏭᏴᎮ	-11.0414
ᏖᎸᏅ	-11.0415
▁ᎦᎶᏐᏅᎭ	-11.0415
▁ᎯᎸᏉᏕᏍᏗ	-11.0415
▁ᏤᏌᏂ	-11.0415
▁ᎠᎾᏗᏍᎪ	-11.0415
▁ᎠᏓᏪᎵᎩᏍᎩ	-11.0415
▁ᏚᏅᏍᏓᏕᎴ	-11.0415
▁ᎡᏣᏅᏟ	-11.0416
▁ᏄᏩᏅ	-11.0416
▁ᏗᏣᏁᎶᏗ	-11.0416
▁ᎬᏁᏤᎭ	-11.0416
▁ᏣᏓᏅᏖᏍᏗ	-11.0417
▁ᏚᎵᏍᏚᎢᏎᎢ	-11.0417
▁ᎤᎿᏛ	-11.0417
▁ᏥᏂᎦᎵᏍᏗᎭ	-11.0417
▁ᏣᎢᏎᏍᏗ	-11.0417
▁ᏓᎾᏤᎸ	-11.0417
▁ᎢᏯᏅᏁᎯ	-11.0418
▁ᏫᏥᎦᏘ	-11.0418
▁ᏂᏣᏛᏁᎭ	-11.0419
▁ᎠᏁᎵᏍᎪ	-11.0419
▁ᎤᏔᏂᏗᎨ	-11.0419
▁ᏗᎬᏩᏛᏗ	-11.0419
▁ᎬᏩᏔᏲᏎᎸᎩ	-11.0419
▁ᏣᏃᎮᎸᎩ	-11.042
▁ᎤᏁᎾᎢ	-11.042
▁ᎤᏬᏯᏁᏒ	-11.042
▁ᎠᏓᎪᎵᏰᏍᎩ	-11.042
▁ᎤᏁᏙᎸᎯ	-11.042
▁ᏚᎾᎴᏅᎩ	-11.0421
▁ᏍᎩᎷᏥᏏ	-11.0421
▁ᎬᏩᏃᎮᏍᎩ	-11.0421
▁ᎤᏁᏅᏍᏗ	-11.0421
▁ᏓᏘᏁᎲᎢ	-11.0421
▁ᎤᎵᏖᎸᏅᎩ	-11.0421
▁ᎢᏣᏛᏁᎯ	-11.0422
▁ᎾᏅᏁᎭ	-11.0422
▁ᏍᎩᏅᏏᏓᏍᏗ	-11.0422
▁ᏭᏂᏴᎸᎩ	-11.0422
▁ᏭᏃᏁᎸᎩ	-11.0422
▁ᎠᎩᏍᏕᎵᏍᎩ	-11.0422
▁ᏱᏂᎪᎢ	-11.0423
▁ᏕᎾᏓᎪᎲᏳ	-11.0423
▁ᎤᏦᏩᏛ	-11.0423
▁ᎠᏓᎬᎿᎨ	-11.0423
ᏌᎨ	-11.0424
▁ᏚᏂᎸᏫᏍᏓᏁᎮ	-11.0424
▁ᎡᏥᏍᏕᎸᏗᏱ	-11.0424
▁ᎠᎩᏃᎮᏍᎩ	-11.0425
▁ᎠᏥᎸᎨᎳᏍᏗ	-11.0425
▁ᎡᏚᏥ	-11.0425
▁ᎤᏂᏂᏴᏗᏱ	-11.0425
▁ᎪᎵᏍᏗᏱ	-11.0425
▁ᎤᎾᏓᏙᎵᏍᏔᏅ	-11.0425
▁ᏚᏘᏅᏒᎩ	-11.0426
▁ᎤᏅᎪᏤ	-11.0426
▁ᎬᎥᏏ	-11.0426
▁ᏯᏃᏉ	-11.0426
▁ᏣᎾᎥᎢ	-11.0426
ᏱᏙ	-11.0427
▁ᏚᏳᎪᏗᏍᎪ	-11.0427
▁ᏅᏔ	-11.0427
▁ᎤᏂᏄᎪᏨᎩ	-11.0427
▁ᏂᎨᎵᏍᎬ	-11.0428
▁ᏂᎦᎡᏍᏗ	-11.0429
ᎾᏄᎪᏫᏎ	-11.0429
▁ᎠᏂᏍᏓᏩᏕᎩ	-11.0429
▁ᎤᏂᏰᎸᎭ	-11.0429
ᎬᏗ	-11.0429
▁ᎡᎭᎦᏔ	-11.0429
▁ᎬᏩᎪᎮᎢ	-11.0429
▁ᎢᏥᎪᏩᏘᎭ	-11.0429
▁ᎤᏂᏃᎮᏗ	-11.043
▁ᏕᎦᏅᏌᏛ	-11.043
ᏨᏁᏗ	-11.043
▁ᏗᏆᎵᎢ	-11.043
▁ᎠᏂᏍᏆᏂᎪᏗᏍᎩ	-11.043
▁ᎦᎸᏉᎩ	-11.043
▁ᏭᏅᏥᎴ	-11.043
▁ᏕᎦᏬᏁᏗᏍᎬᎩ	-11.0431
▁ᏗᎦᏘᎴᎩ	-11.0431
▁ᎤᎾᏓᏅᏒᎩ	-11.0431
▁ᎤᏂᏄᎪᏨᏃ	-11.0431
▁ᏕᏣᎸᏫᏍᏓᏁᎲᎢ	-11.0431
▁ᏓᎩᏏᎳᏛᎢ	-11.0432
▁ᏓᏰᏏ	-11.0432
▁ᏅᏩᏍᏕ	-11.0432
▁ᎯᎰᎵ	-11.0432
▁ᎤᎾᏅᏅᎩ	-11.0433
ᏎᎵᏙᏗ	-11.0433
▁ᎠᎩᎾᏝᎢ	-11.0433
▁ᏓᏰᏂ	-11.0433
▁ᎤᏁᎷᎬᎩ	-11.0434
▁ᎢᏥᎷᏤᏗᏱ	-11.0434
▁ᏚᏬᏢᏁᎢ	-11.0434
▁ᎢᎨᏨᏁᏗ	-11.0435
▁ᎠᎾᏓᏙᎵᏍᏗᏍᎬ	-11.0435
▁ᏭᎶᎯᏍᏗ	-11.0435
▁ᏰᎵᎦᏯ	-11.0435
ᎦᏘᎴᏅ	-11.0437
▁ᏚᏂᎧᏁᎢ	-11.0437
▁ᏭᎩᏨᏅ	-11.0437
ᏎᎪᎩᏍᏗ	-11.0437
▁ᎠᏴᏓᏆᎶᏍᎩ	-11.0437
▁ᏣᏚᎵᏍᎪ	-11.0437
▁ᎢᎦᎵᏍᏕᎸᏙᏗ	-11.0438
▁ᎤᏬᎯᏳᏅᎩ	-11.0438
▁ᏚᎸᏫᏍᏓᏁᎮᏍᏗ	-11.0438
▁ᎠᏍᎦᏰᎬᏍᏓ	-11.0438
▁ᏂᏚᏂᏪᏎᎴᎢ	-11.0439
▁ᎣᏤᎯ	-11.0439
ᏓᏅᏖᏙᏗ	-11.0439
▁ᎠᏂᎶᎻ	-11.044
▁ᎤᏁᏓᏍᏗᏱ	-11.044
ᏲᏢᎾᏁ	-11.0441
▁ᎤᎵᏁᏨᎯ	-11.0441
▁ᎤᎬᏩᎳ	-11.0442
▁ᎦᎸᏉᏗᏍᎨ	-11.0443
ᏙᎯᏳ	-11.0443
▁ᎲᏅᎢ	-11.0443
▁ᏕᎤᎸᏫᏍᏓᏁᎲᎢ	-11.0444
▁ᏂᏣᏛᏁᎸᎾ	-11.0444
▁ᏄᎵᏍᏓᏁᎸᎢ	-11.0444
▁ᏦᎴᏍᏗ	-11.0445
▁ᏗᎬᏔᏅᎯ	-11.0445
▁ᏚᏓᏘᎿᎥᎢ	-11.0446
▁ᎤᏓᏅᎡᎴᎢ	-11.0446
ᏓᏘ	-11.0446
▁ᏣᎵᏍᎦᏍᏙᏗ	-11.0446
▁ᎤᏌᎳᏓᏅᎩ	-11.0447
ᎩᎵᏲᎬᎢ	-11.0448
▁ᏗᏥᏁᏟᏴ	-11.0449
▁ᎢᏥᎷᎩ	-11.0449
▁ᏓᎾᎵᏍᏓᏴᎲᏍᎬᎢ	-11.045
▁ᎦᏓᎥ	-11.045
▁ᎤᎬᏩᎴ	-11.045
▁ᎠᏁᎵᏍᎬᎩ	-11.045
▁ᎾᏂᏪᏍᎨᏍᏗ	-11.0451
▁ᎤᏰᎸᏅᎩ	-11.0451
▁ᎡᎶᏗᏏ	-11.0453
▁ᎠᏛᎩᏍᎨᏍᏗ	-11.0454
▁ᎦᏁᏥᎢ	-11.0454
▁ᏕᏣᏓᏂᎸᏨ	-11.0455
▁ᏔᎵᏚ	-11.0456
▁ᎤᎾᎵᏎᎢ	-11.0456
▁ᎠᏅᏗᏍᎨᏍᏗ	-11.0457
▁ᏧᏁᎶᏗ	-11.0457
▁ᎨᎳᏍᏙᏗ	-11.0457
▁ᎠᏂᏍᎦᎢᎮᎢ	-11.0457
▁ᏂᎦᏚᏏᏁ	-11.0457
ᎪᎵᏰᏍᎨᎢ	-11.0457
▁ᏠᎠᏏ	-11.0459
▁ᎿᏛᏁᎲ	-11.0459
▁ᏕᎤᏙᏍᏛ	-11.046
▁ᏥᏤᎭ	-11.046
▁ᏩᏍᏘ	-11.0461
▁ᎪᎵᎬ	-11.0462
▁ᏅᏓᏳᏓᎴ	-11.0462
▁ᎠᎩᏰᎸᏅ	-11.0464
▁ᎤᏃᎯᏳᏅ	-11.0464
ᎾᎦ	-11.0464
▁ᎯᎷᎦ	-11.0465
▁ᏓᎪ	-11.0465
▁ᎠᎾᏗᏍᎬᎢ	-11.0465
▁ᏧᏑᏰᏛ	-11.0466
▁ᏓᏂᎳᏫᎥᎢ	-11.0466
▁ᎤᏍᏓᎦᏴᎯᏓ	-11.0466
▁ᎤᎵᎮᎵᏨᎯ	-11.0467
▁ᎠᏩᎾᎦᎳᎯᏳ	-11.0468
▁ᎤᏁᏅᏍᏗᏱ	-11.047
▁ᏗᏲᏍᏙᏗ	-11.047
ᎶᏐᏅ	-11.0471
▁ᏄᏛᏁᎸᎾ	-11.0472
▁ᏣᏰᎯ	-11.0472
▁ᎠᏂᎷᎩ	-11.0473
ᎵᏍᏆᏙᎾ	-11.0474
ᏣᏘᏃᎵ	-11.0475
▁ᎤᏂᎬᎥᏍᎬ	-11.0476
▁ᎤᏥᎸᏒᎢ	-11.0476
ᎠᏁᎯ	-11.0477
▁ᎤᏒᏂᎴᎢ	-11.0477
ᏟᏴ	-11.0479
▁ᎠᏇᏅᏒᎩ	-11.0479
ᏂᏛ	-11.0479
ᏍᏓᏁᎵ	-11.048
▁ᎤᏪᏴᎢ	-11.048
▁ᏓᎻ	-11.0481
▁ᎤᎾᎵᏃᎮᎴ	-11.0481
▁ᎢᏣᏕᎶᏆ	-11.0483
ᏄᏪᏎᎴᎢ	-11.0484
▁ᎤᎾᏄᎪᏫᏎᎴᎢ	-11.0484
▁ᏁᎳᎩᏉ	-11.0485
▁ᎠᏓᏙᎵᏍᏓᏁᎯ	-11.0485
▁ᎤᏛᎪᏗ	-11.0487
▁ᏓᏂᎧᏅᎢ	-11.0487
▁ᎡᎵᏍᎬᎢ	-11.0488
▁ᏣᏍᏆᏂᎪᏙᏗ	-11.0488
▁ᎠᏂᏙᎾᎡᎢ	-11.0488
▁ᏂᏚᏪᏎᎸᎢ	-11.0489
▁ᏥᎪᎥᎩ	-11.0489
▁ᎤᎷᏤᎸᎩ	-11.049
▁ᎠᎵᏛᏓ	-11.0491
▁ᏅᎩᎦᎵ	-11.0491
▁ᎡᏈ	-11.0492
▁ᏚᎴᏅᎩ	-11.0493
▁ᏄᎾᎵᏍᏔᏅ	-11.0493
▁ᏇᎵ	-11.0495
ᏈᏂ	-11.0496
▁ᏣᏉᎩ	-11.0496
ᎸᏉᏛᎾ	-11.0496
▁ᎠᏂᏙᎾᎥᎩ	-11.0496
▁ᎡᏦᎢᏳᏒ	-11.0496
▁ᏏᏛ	-11.0497
▁ᏄᎵᏍᏔᏁᎴ	-11.0499
ᏐᏂ	-11.0499
▁ᏧᏬᎸᎢ	-11.0501
▁ᎮᎵᏍᎬ	-11.0501
▁ᏱᏙᎨᏥ	-11.0502
▁ᎤᏍᏉᎵᏱ	-11.0503
ᎦᏔᎮᏍᏗ	-11.0503
ᏍᏕᏓᎵᏴᏍᏗ	-11.0504
▁ᎢᏳᏩ	-11.0507
▁ᎦᏅᎬᎢ	-11.0508
▁ᏗᏣᏄᏬ	-11.0509
▁ᎤᏛᏒ	-11.0511
▁ᎤᏓᏔᏅ	-11.0513
▁ᏱᏗᏗ	-11.0513
ᏲᏒ	-11.0513
▁ᏥᏯᎥᎢ	-11.0516
ᏃᎯᏎᎲ	-11.0517
▁ᏮᏓᏲ	-11.052
▁ᏯᎦᏔᎮᎢ	-11.052
▁ᏑᏟᎶᏛᏉ	-11.0522
▁ᏗᎦᏚᎲᏍᎩ	-11.0522
ᏁᎩᏎᎢ	-11.0524
▁ᎠᏚᎢᏍᏛᎢ	-11.0524
▁ᏪᎯ	-11.0525
ᎴᏅᎭ	-11.0527
▁ᎦᏁᎲᎩ	-11.0529
▁ᎤᏂᏲᎭ	-11.0531
ᏥᏲᎵᏍᏗᏱ	-11.0535
▁ᏮᏓ	-11.0536
▁ᏄᎾᏛᏁᎸᎢ	-11.0536
▁ᎤᏂᏣᏔᏰᏃ	-11.0541
ᏍᏆᏗᏍᏗ	-11.0542
▁ᏑᏓᎵᏁᏃ	-11.0545
▁ᎧᏃᎮᏍᎬᎢ	-11.0546
▁ᎦᏬᏂᏍᎬᎩ	-11.0546
▁ᎢᏳᎾᏃ	-11.0547
▁ᏥᏴᎩ	-11.0549
▁ᎤᏚᎵᏍᎬᎩ	-11.055
▁ᎢᏓᎵᎮᎵ	-11.0551
▁ᏗᏣᎦᏴᎵᎨ	-11.0551
ᏥᎷ	-11.0551
ᏍᏛᎾ	-11.0551
▁ᏥᏅᏗᎦᎵᏍᏙᏗ	-11.0552
▁ᎬᏩᎷᏤᎮ	-11.0553
ᏣᎾᏄᎪᏫᏎᎸ	-11.0555
▁ᏚᏅᏎᎢ	-11.0557
▁ᏅᏓᎬ	-11.0558
▁ᎤᏓᏙᎵᏍᏔᏅ	-11.0559
▁ᏚᎧᎿᏅᏃ	-11.0563
ᎦᏟ	-11.0565
▁ᎤᏐᏱᏉ	-11.0568
ᎵᏍᏆ	-11.057
▁ᎠᎢᏒᏃ	-11.0571
ᎳᏅᏛ	-11.0572
▁ᏁᏨᏁᎸ	-11.0574
ᎾᎥᎢ	-11.0579
▁ᏨᏍᎩᏃᎢ	-11.058
▁ᎠᏆᎧᏛᎢ	-11.0581
ᏄᏪᏒᎩ	-11.0584
▁ᏥᏕᎭ	-11.0584
▁ᏙᎩᏂ	-11.0586
ᎵᏍᏕᎸᏙᏗ	-11.0594
▁ᎤᏰᏤᎢ	-11.0597
ᏲᎮᎢ	-11.06
▁ᎤᏂᏣᏖᏰᏃ	-11.0601
▁ᎦᏓᏍᎬ	-11.0602
▁ᎤᏂᏁᏨᏃ	-11.0603
▁ᏏᎻᏯᏂᏃ	-11.0603
ᏙᎮ	-11.0604
▁ᏗᏆᏓᏅᏛ	-11.0605
▁ᎠᏰᏙᎳᏛᎢ	-11.0606
▁ᏚᏂᏍᏘᏰᎬ	-11.0607
ᏅᏓᏗᏍᎬ	-11.0612
▁ᏱᏂᏣ	-11.062
▁ᎠᏇᎷᏅ	-11.062
ᏄᎵᏍᏔᏁᎢ	-11.0622
▁ᏧᏪᏅᏒᎢ	-11.0626
ᎶᏁᏛ	-11.0626
▁ᎤᏃᏴᎬᎢ	-11.0626
ᎸᏉᏔᏅᎯ	-11.0627
▁ᎤᏁᏅᏎᎢ	-11.0631
ᏓᏑᏲ	-11.0633
▁ᏗᏓᎴᏂᏍᎬᎢ	-11.0638
▁ᎠᏂᏫᏅᏃ	-11.0638
▁ᎤᏕᏅᎢ	-11.0638
▁ᏚᎾᏄᎪᏫᏎᎸ	-11.0642
▁ᎠᎦᏔᎯ	-11.0647
ᎪᎾ	-11.0653
▁ᏣᎩᏍᏗ	-11.0653
▁ᎠᏰᎸᏒᎩ	-11.0656
▁ᏌᎾ	-11.0657
ᏓᏕ	-11.0665
▁ᎡᎳᏪᏉ	-11.0668
▁ᏕᎨᎦᎸ	-11.0681
ᏥᎶᏍᏔᏅ	-11.0681
ᎨᏳᏎᏍᏗ	-11.0682
ᏲᎸ	-11.0682
ᏓᏍᏗᏱ	-11.0684
▁ᎤᏔᎴᎦᏒ	-11.069
ᏗᏔᏍᏗᏱ	-11.0691
▁ᎤᏕᏘᏴᏌᏗᏒᎢ	-11.0694
▁ᏕᎤᏙᎥᎢ	-11.0695
ᏛᏎ	-11.0698
▁ᎤᏲᎱᏒᎩ	-11.0699
ᎩᎯ	-11.07
Ꮰ	-11.0701
▁ᎵᏫᏃ	-11.0708
▁ᏍᏋ	-11.0709
▁ᏗᎦᎸᏫᏍᏓᏁᏗᏱ	-11.0712
▁ᎢᎩᏴᏁᏗ	-11.0724
▁ᎢᏨᏒᏉ	-11.0725
▁ᎭᏂᏉ	-11.0726
ᎸᏁᎢ	-11.0742
▁Ꮲ	-11.0743
ᏍᏆᏂᎪᏗᏍᎩ	-11.0747
▁ᏧᏂᏅ	-11.075
▁ᎢᎦᏛᏍᎩᏂ	-11.075
ᎶᏎᎢ	-11.0755
▁ᏭᏂᏴᎮ	-11.0758
ᏓᏅᏓᏗ	-11.0761
ᎳᎩ	-11.0762
ᏃᏁᎸᎯ	-11.0763
ᏩᎾ	-11.0763
▁ᎤᏄᏩᎥ	-11.0765
ᏣᎢ	-11.0767
▁ᏄᏂᏪᏎᎸ	-11.0769
▁ᏥᎪᏩᏘᏍᎬ	-11.0772
ᏙᏢᎾ	-11.0781
ᎪᎰ	-11.0783
▁ᏕᏨᏅ	-11.0793
ᏘᏍ	-11.0795
▁ᏭᎪᎮ	-11.0797
▁ᎤᏍᏓᏲᏒ	-11.0801
▁ᎤᏁᏤᎸᎯ	-11.0801
ᏯᏠ	-11.0809
▁ᏚᏲᎯᏎᎴ	-11.0809
▁ᎢᏳᎾᏛᏁ	-11.0818
▁ᏘᏅ	-11.0819
▁ᎤᎵᏏᎬᎢ	-11.082
ᏕᎪᎢ	-11.0822
ᏥᏯᏅᏗ	-11.0827
▁ᏣᎪᏩᏘᏍᎪ	-11.083
▁ᏈᎵᎩᏃ	-11.0833
ᏴᎯᎮᏍᏗ	-11.0833
▁ᏂᏓᏛᏁᎲ	-11.0836
ᎾᎵᏍᏓᏴᏗ	-11.0837
▁ᏄᏓᎴᏒᏉ	-11.084
ᏂᎩᏓ	-11.084
ᎦᏘᎴᎩ	-11.085
▁ᏚᏙᏍᏛ	-11.0855
ᏌᏙ	-11.0875
▁ᏥᏃᎮᏍᎬ	-11.0879
▁ᎦᏙᎨᏃ	-11.0879
ᏍᏔᏅᎾ	-11.0889
ᏅᏨ	-11.089
▁ᏓᏯ	-11.0892
▁ᎤᏂᏂᏴᎮ	-11.0894
ᎪᎮ	-11.0897
▁ᎦᏟ	-11.0897
ᎩᏍᏙ	-11.0905
▁ᎤᎪᎲᎢ	-11.0911
▁ᎪᏢᏅ	-11.0918
▁ᏱᏙᎩ	-11.0921
ᏥᏩᏛᎲ	-11.0922
ᏚᏓᎸ	-11.0922
ᏰᎸᏎ	-11.0925
ᎭᏯᎸ	-11.0926
ᎾᏰᏍᎨᏍᏗ	-11.0933
ᎵᏍᏓᏴᎲᏍᎬ	-11.0936
▁ᏚᏓᏂᎸᏨ	-11.0941
▁ᎤᏩᎨᏫᏎ	-11.0955
▁ᎣᎩᎾᎵ	-11.096
▁ᎤᏂᏅᏅ	-11.0964
ᎵᏎᏗ	-11.0965
ᎱᏁ	-11.0972
▁ᏚᎾᎵ	-11.0974
ᎬᏎ	-11.0978
ᏛᏁᎮᏍᏗ	-11.098
ᏂᎦᎥ	-11.0982
▁ᎤᏕᎵ	-11.0985
ᎾᏄᎪᏫ	-11.0999
ᏰᎢ	-11.1002
Ꮉ	-11.1005
▁ᎤᏅᏒᏍᎩᏂ	-11.1011
▁ᏧᏲᎯᏎᏗ	-11.1018
▁ᎦᎵᏦᏕᏃ	-11.1022
ᏍᏓᏩᏗᏒᎩ	-11.1023
ᏓᎩ	-11.1025
ᏥᎾ	-11.1027
▁ᏚᏂᏏᏂᏙᎸ	-11.1031
ᎴᎾ	-11.1037
ᏐᎸ	-11.1038
▁ᏄᎾᏓᎴ	-11.1038
ᏖᎢ	-11.1039
ᎦᏔᎲᎢ	-11.1039
ᎶᏂ	-11.104
▁ᏍᎩᏴᏃ	-11.1055
▁ᏨᏌ	-11.1056
ᎦᏖᏃᎲ	-11.107
▁ᎢᏦ	-11.1071
ᏓᏅᏛᎵ	-11.1071
ᎶᏙᏗ	-11.1073
ᏲᎦᏛᏅ	-11.108
ᏠᎠᎯ	-11.108
▁ᏗᎬᏩᎾ	-11.1083
▁ᎤᏂᏴᎸ	-11.1085
ᏕᏯᏙᏔᏅᎩ	-11.1092
ᏩᎩ	-11.1101
▁ᎤᎾᏛᎦᏅᏃ	-11.1103
ᏓᎡ	-11.1107
ᏥᎪᎥᎩ	-11.1107
ᏍᏓᏁᏗ	-11.1108
▁ᏅᏩᎾᏓᎴᎢ	-11.1108
ᎶᎩ	-11.1109
ᏙᎾ	-11.111
▁ᎬᏩᏃᏁᎴ	-11.1114
ᏍᏕᎸᎲ	-11.113
ᎦᏲ	-11.1134
ᎦᏌᏯᏍᏗ	-11.1138
ᏥᎸᏉᏔᏅ	-11.1142
ᎨᏛ	-11.1146
ᎨᏩ	-11.1149
ᎩᏍᏆᏂᎪᏔᏅ	-11.1152
ᏛᎦᏁᎰᎢ	-11.1153
ᏰᎸᎲ	-11.1154
as	-11.1156
ᎢᏣ	-11.1162
▁ᎠᏂᏯᏫᏍᎩᏃ	-11.1162
▁ᎤᎷᏨᏃ	-11.1164
ᎸᏉ	-11.1174
ᏓᏉ	-11.1187
ᎫᏴᏗᏱ	-11.1192
ᏓᏩᏗ	-11.1195
ᎬᏔᏅ	-11.1195
ᎨᏂ	-11.1195
ᏖᎵ	-11.12
ᏓᏁᎸᎩ	-11.1203
ᏙᎭᏴ	-11.1204
ᏔᏪᏙ	-11.1206
▁ᎢᏥᏍᎦᏅᏨ	-11.1208
ᏂᏪᏏ	-11.1213
ᏰᎩ	-11.1231
ᏕᎬ	-11.1237
ᏢᏈᏍᏗᏱ	-11.1244
ᎩᎬ	-11.1246
ᏥᏍᎦᏯ	-11.1253
ᏙᎸᎯ	-11.1255
ᏙᏓᏆᏓ	-11.1256
ᏴᏛ	-11.126
▁ᎠᏍᎩᎾᏃ	-11.1261
▁ᎦᎬᏩᏐᏢ	-11.1263
ᎶᏏ	-11.1274
▁ᏪᏣ	-11.1275
ᏅᏓᏓ	-11.1286
ᏂᏅ	-11.1287
ᎤᏨ	-11.1294
▁ᏝᏃ	-11.1297
ᏢᏔᏅᎯ	-11.1305
ᎵᏍᎪᎸᏓᏁᏗᏱ	-11.131
ᎩᏅ	-11.1312
ᏍᏕᎵᏍᎬ	-11.1316
ᏤᎴ	-11.1321
ᏥᏍᏕᎸ	-11.1325
ᏔᏃ	-11.1329
ᎩᏳ	-11.1334
ᏰᎸᏎᎢ	-11.134
ᎵᏍᎦᏍᏙᏛ	-11.1347
▁ᏚᏭᎪ	-11.1348
ᎪᏩᏘᏍᎨᎢ	-11.1352
ᏄᎪᎨᏍᏗ	-11.1355
ᏍᏕᎸᎲᎩ	-11.136
▁ᏙᎯᏱᏉ	-11.1373
ᏠᎠᏏ	-11.1375
▁ᎢᏥᏍᎦᎾ	-11.1376
▁ᏩᎾᎢᏒ	-11.1379
ᏐᏴᎢ	-11.1388
ᏃᎮᏛ	-11.1415
ᏁᏤ	-11.1422
ᏲᏒᎯ	-11.1425
▁ᏓᎨ	-11.1428
▁ᏳᏂᏰᎸ	-11.1431
ᎵᏃᎮ	-11.1439
ᏗᏎ	-11.1439
ᎾᏧ	-11.1453
ᏩᎯ	-11.1458
ᏁᎵᏍᎬ	-11.1459
ᏁᎢᏍᏗᏍᎬ	-11.1465
ᎦᏛᎩ	-11.1468
ᏩᏂᎦᎸ	-11.1486
▁ᎤᎾᏚᎵᏍᎨ	-11.149
ᏔᏗ	-11.1493
ᏴᏔᏁ	-11.1501
ᏓᏅᎦᎸᏛ	-11.1502
ᏕᏯᏙᏗᎭ	-11.1505
▁ᏚᎸ	-11.1509
▁ᏤᎳᏗ	-11.1512
ᏪᎯ	-11.1515
ᏨᏍᏛ	-11.152
ᎾᏌᎢ	-11.1524
▁ᎠᏍᎪᎯᏧᏈᏃ	-11.1529
▁ᏩᏆ	-11.1541
ᎦᎸᎲᎩ	-11.1544
▁ᎠᏓᏅᏖ	-11.1575
ᏯᏙ	-11.1579
ᏓᎶ	-11.1582
ᏂᏃᏁᎴ	-11.1586
ᏰᎸᎭ	-11.1601
▁ᏚᏜᏅᏛ	-11.1607
ᏚᏓᎴᏍᏗᏱ	-11.1626
ᎾᎵᏖᎸᏂ	-11.1645
ᏫᏎᎢ	-11.1655
ᎭᏄᏮ	-11.1662
▁ᎢᏗᎬᏁ	-11.1683
ᎨᎳᏗ	-11.1688
ᏂᏰᎸ	-11.1699
▁ᏱᏚᎾ	-11.1719
ᏫᏏ	-11.1721
▁ᎤᏩᏙ	-11.1723
ᎳᏍᏗᏱ	-11.1727
ᎵᏍᏕ	-11.1728
ᏂᎥ	-11.1732
▁ᏱᏭ	-11.1734
▁ᎢᏣᏓᏙᎵᏍᏗ	-11.1748
ᏅᏒᎾ	-11.1752
▁ᏕᎧᏁᏤ	-11.1752
ᏓᏅᏖ	-11.1754
▁ᏚᏂᎸ	-11.1758
ᎥᏍᎬᎢ	-11.1764
ᏂᏪᏎ	-11.1768
ᏌᏛᏗ	-11.177
▁ᏓᏥᏩᏛᎯ	-11.1771
ᏍᎦᏯ	-11.1781
▁ᎾᏛᏁᎰ	-11.1781
▁ᎤᏂᎷᏤᎴ	-11.1786
ᏅᎦᎸᏛ	-11.1791
▁ᏕᏣᎧ	-11.1793
ᏂᎦᏛ	-11.1832
▁ᎬᏩᎾᏕ	-11.1841
▁ᏄᏩᏁ	-11.1841
ᏟᏌ	-11.1842
▁ᎤᎫᏴᎡᏗ	-11.1843
▁ᏳᎳ	-11.1846
ᏟᎶ	-11.1852
ᏦᎣ	-11.1873
▁ᎦᏯᎸ	-11.1882
ᏴᏙᏗᏱ	-11.1892
ᏍᏓᏯ	-11.1899
ᎦᏔᎲᏍᎬ	-11.1906
ᏎᎵᏔᏅᎢ	-11.1908
▁ᎤᏂᎿᎸ	-11.1917
▁ᎠᏇᏲᏅ	-11.1934
ᏓᎳᎩ	-11.1936
▁ᎣᏤ	-11.1942
ᏁᏛ	-11.195
ᎷᏤᎴᎢ	-11.1957
ᏰᏨ	-11.196
▁ᏭᏂᏴ	-11.1972
Ꮏ	-11.1983
ᎲᏎ	-11.1991
ᏗᏅᏎ	-11.1996
▁ᏂᏣᎵᏍᏓᏁ	-11.2
ᏂᏍᏆᏂᎪ	-11.2002
▁ᎦᏘ	-11.2005
▁ᏕᎦᏁᎲ	-11.2008
ᏤᎾ	-11.2008
ᏬᏣ	-11.201
ᏐᎾ	-11.2013
ᏁᎢᏍᏓᏁᏗ	-11.2017
▁ᏕᎦᏅ	-11.2023
▁ᎤᎾᏤ	-11.2024
ᎾᏛᏁᎰᎢ	-11.203
▁ᏬᎩ	-11.2048
ᎩᎡᏗ	-11.2057
▁ᎠᏢ	-11.2063
▁ᎫᏓ	-11.2063
▁ᎤᏐᏅᎢ	-11.2068
ᏓᎸᏉᏙᏗ	-11.2074
▁ᏚᏒ	-11.2074
ᏘᎨ	-11.2083
▁ᎬᏩᏍᏓᏩᏗ	-11.2095
▁ᎤᏙᏢᏒ	-11.2098
ᎵᏛᏓ	-11.2098
ᎷᎯᏍᏓᏁ	-11.2102
ᎦᏔᏛ	-11.2105
ᎯᎮ	-11.2107
ᏥᏅᎵ	-11.2107
ᎫᏏ	-11.2114
ᏪᎢ	-11.2122
▁ᏙᏓᏣ	-11.2123
▁ᏭᏩ	-11.2125
▁ᎨᏨ	-11.2128
ᏥᎷᎩ	-11.213
ᏥᏰ	-11.2132
ᏴᎴ	-11.214
ᎡᏥ	-11.2143
▁ᏓᏂᏁ	-11.2172
ᏰᎸᏒ	-11.2186
ᏔᏕᎩ	-11.2195
▁ᎢᏥᏍᎦᏅ	-11.2205
▁ᏯᏓᏅᏖ	-11.2205
ᏲᎱᎯ	-11.2207
▁ᏓᎨᏣ	-11.2207
ᏛᏓᏍᏓ	-11.2208
ᏥᏅᏏ	-11.221
ᏴᎯ	-11.2218
ᎩᏰ	-11.222
ᎵᏦᏛᎢ	-11.2222
ᏦᏩ	-11.2225
ᏆᏙ	-11.2225
ᏓᏴᏎ	-11.223
ᎦᎵᏍᏙᏗ	-11.2231
ᏃᎯᏎᎴ	-11.2236
▁ᏧᏲ	-11.2256
ᏴᏅ	-11.2257
ᏙᏔ	-11.2257
▁ᎯᏴ	-11.2269
▁ᎤᏁᎷ	-11.2272
▁ᎤᏰᎸᏒ	-11.2275
▁ᎠᏆᏛᎦ	-11.2275
▁ᏫᏯᏅ	-11.229
ᏚᎵᏍᎬᎢ	-11.2303
ᏱᎸ	-11.2309
ᏟᎶᏍᏔᏅ	-11.2312
▁ᎠᏂᏤ	-11.2313
ᏰᎮᏍᏗ	-11.2318
ᏥᎪᏗ	-11.2323
ᏂᏱ	-11.234
▁ᏚᏛᏛᏁ	-11.2346
ᏘᏰ	-11.2351
ᎳᏑ	-11.2355
ᏁᎶᏕᏍᏗ	-11.2366
ᎯᏍᏔᏅ	-11.2367
▁ᎨᏥᏁᏤᎸ	-11.2368
ᏏᏍᎨ	-11.2371
ᏲᎯᏍᏔᏅ	-11.2376
ᎸᎦ	-11.2377
ᎦᏴᎵᎨᎢ	-11.2383
▁ᏯᏇ	-11.2386
ᎸᏨ	-11.2395
▁ᎦᏄ	-11.24
▁ᎤᎾᎵᏍᏓᏴ	-11.2404
ᎷᏤᎵ	-11.2411
▁ᎤᎧᎵᏨ	-11.2417
▁ᎠᏂᎪᏩᏘᏍᎨ	-11.242
▁ᎤᎾᏓᏅᏖᏗ	-11.2421
▁ᏓᏟᎶᏍᏗ	-11.2423
▁ᎯᏁᎩ	-11.2439
ᎴᏛ	-11.2459
▁ᎢᏆ	-11.2464
ᏅᏍᏓᏕ	-11.2465
▁ᎤᎾᏕᏯᏙᏗ	-11.2466
ᎩᏨ	-11.2466
▁ᏥᏨ	-11.2466
ᏰᎵᏎᎭ	-11.2494
ᎤᏍᏗ	-11.2494
ᎤᎦ	-11.2498
▁ᎬᏭᎯᏍᏗ	-11.2506
ᏄᏓ	-11.2507
ᏐᏢ	-11.2507
ᏲᎲᏍᎩ	-11.2508
ᏙᏂᏍᎩ	-11.2513
ᏒᏍᏗᏱ	-11.2515
▁ᏧᏭ	-11.2518
ᏑᏯᎩ	-11.2519
ᏎᎲ	-11.2526
▁ᏥᎪᏩᏛ	-11.2532
ᎷᏨᎭ	-11.2533
ᎩᏳᏍᏈᏛ	-11.254
ᏂᏏᏗᏱ	-11.2544
ᏩᏘᏍᎪ	-11.2551
ᏖᎳᏗ	-11.2556
ᏁᏟᏴᏛ	-11.2561
ᎪᎵᏰᎡ	-11.2563
ᎵᏂᏆᏅ	-11.2569
ᏍᏚᏟ	-11.2571
ᎤᎪ	-11.2587
▁ᏚᎾᎵᎪ	-11.2604
ᎿᎢ	-11.2607
ᏍᏚᎩ	-11.2609
ᏥᏪᏎᎸ	-11.261
ᏍᏚᎢ	-11.2611
ᎳᏁ	-11.2612
▁ᏩᏚ	-11.2623
▁ᎣᎪᎯᏳ	-11.2624
ᏠᎯᏍᏓ	-11.2625
ᎢᏍᏔᏅ	-11.2627
▁ᎤᏂᏍᏆ	-11.2635
▁ᎤᏍᏕᎸᎲ	-11.264
ᏄᎳ	-11.2641
▁ᏥᏍ	-11.2642
▁ᎭᏓᏅᏖ	-11.2643
ᏢᏁᎢ	-11.2644
ᏙᎳᏅᏍᏗ	-11.2649
ᏢᎯ	-11.2651
▁ᎠᎾᏓᏅᏖ	-11.2653
ᏐᏁ	-11.2653
ᏌᎥ	-11.2654
ᏁᏢᏔᏅᎯ	-11.2658
ᏙᎵᎦ	-11.2668
ᏣᏛᏁᎯ	-11.2669
▁ᎨᎥ	-11.2671
▁ᎤᏂᎬᏫᏳ	-11.2673
ᏠᎾᏍᏗ	-11.2673
ᏍᏆᏙᏅ	-11.2677
ᎴᏫᏍᏙᏗ	-11.2679
▁ᏅᎵᏌᎵ	-11.268
ᎳᏁᎸᎯ	-11.2684
ᏲᎲ	-11.2689
▁ᏨᏛ	-11.2698
ᏔᎴᏒ	-11.2699
ᏎᎰ	-11.2701
▁ᏂᏕᎬᏁ	-11.2702
ᏍᏓᏩᏕᏏ	-11.2708
▁ᎠᎩᎨᏳᎯ	-11.2711
▁ᏱᏙᏥ	-11.2713
ᎸᎥᏍᎬ	-11.2714
ᏁᏤᎴ	-11.2729
▁ᏴᏫᏯ	-11.2732
ᏍᏆᏂᎪᏛᎢ	-11.2734
ᎬᏆ	-11.2735
▁ᎭᏓ	-11.2739
ᎵᏏᎾᎯᏍᏗ	-11.2743
ᏙᎴᏋ	-11.2745
ᏍᏓᏩᏛᏎ	-11.2745
ᏚᎵᏍᎨ	-11.2747
▁ᏱᏚᏓ	-11.275
ᎪᎵᏰᏍᎬ	-11.2752
▁ᏑᏟᎶᏛ	-11.2753
ᏍᏉᎵᏱ	-11.2757
ᏔᎳᏬᎯᏍᏗ	-11.2761
▁ᏁᎳᏚ	-11.2771
ᏍᎩᏓᏎᎢ	-11.2773
ᏚᎢᏍᏔᏅᎯ	-11.2773
ᏦᎢ	-11.2777
ᏍᎦᏃᎵ	-11.278
ᎡᎾ	-11.2785
ᎥᏍᎨᎢ	-11.2787
ᏍᏆᏙᎾ	-11.2788
ᏥᏃᎮᎭ	-11.279
▁ᏂᏥᎦᏔᎲᎾ	-11.2791
ᎵᏍᎪᎸᏓᏁᏗ	-11.2794
ᏍᏆᏂᎪᏗᏳ	-11.2796
▁ᎤᏃᏢᏗ	-11.2801
ᏓᏙᎵᏍᏓᏁᎯ	-11.2804
ᎧᏁᏗ	-11.2805
▁ᎠᏂᏍᎦᎢᎲ	-11.2805
ᏓᏘᏂᏙᎯ	-11.2808
▁ᏂᎬᏁᎮ	-11.2809
ᏴᏤᏂ	-11.281
▁ᎻᏚᏏᎳ	-11.2811
▁ᏇᏣᎵᎵ	-11.2811
▁ᏖᎹ	-11.2811
▁ᎢᏥᎦᏔᎲ	-11.2818
▁ᏁᏩᏔᎵ	-11.2819
▁ᏏᎵᏆ	-11.2819
▁ᏕᎪᏢᏒ	-11.282
▁ᎴᎻᎩ	-11.2821
▁ᏦᏑᏫ	-11.2821
ᏚᎵᏍᎬ	-11.2822
▁ᎾᏂᏪᏍᎨ	-11.2823
▁ᏎᏘ	-11.2824
▁ᏗᎦᏥ	-11.2825
▁ᎤᏕᏯᏔᏁᎴ	-11.2827
▁ᏗᎾᏙᏂᏍᎩ	-11.2827
▁ᎦᏲᎦ	-11.2828
▁Ꮃ	-11.2834
ᏍᎬᎾᏉ	-11.2834
▁ᏧᏁᎵᏁ	-11.2836
ᏃᎮᏍᎨᏍᏗ	-11.2837
▁ᏓᎬᏩᎵ	-11.2842
▁ᎢᏣᎴᏂᏙᎲ	-11.2842
▁ᎾᎬᏁᎴ	-11.2843
▁ᏂᏓᏙᏓᏈᏒ	-11.2843
▁ᏗᏂᏐᎯ	-11.2843
▁ᏂᏕᎦᏪᏎ	-11.2843
ᏇᎵᏥ	-11.2843
ᎢᏗᎦᏘ	-11.2845
ᎣᏍᏓᏗ	-11.2846
▁ᎦᎵᎡᎵᎬ	-11.2847
▁ᏚᏄᎪᏔᏅ	-11.2848
ᎤᏂᎷᏤᎢ	-11.2848
▁ᏕᏣᎸᏫᏍᏓᏁᎸ	-11.2849
ᎤᏨᏉᏗ	-11.2849
ᎠᎬᏱ	-11.285
ᏍᏔᏴ	-11.285
▁ᎤᏃᎯᏳᏁ	-11.285
ᎢᏤ	-11.2851
▁ᎤᎵᏖᎸᏁ	-11.2851
▁ᏚᏂᏲᎱᏒ	-11.2851
▁ᏚᏓᏘᎿᎥ	-11.2852
ᏁᎵᏎᎢ	-11.2852
▁ᏂᏣᏓᎨᏳᏒ	-11.2852
▁ᏄᎵᏍᏓᏁᎸ	-11.2852
▁ᎲᏅ	-11.2852
▁ᎤᏔᏪᏙᏁ	-11.2852
▁ᏕᎤᎸᏫᏍᏓᏁᎲ	-11.2852
▁ᏚᏂᏢᎬ	-11.2853
▁ᏚᏍᎫᏓᏛ	-11.2853
▁ᎤᎴᏂᏙᎴ	-11.2856
▁ᎾᏂᎡ	-11.2857
▁ᏂᏚᏩᏁᎴ	-11.2858
▁ᎤᏪᏍᎩᎸ	-11.2858
ᎧᏃᎮᏛ	-11.2858
▁ᎠᏛᎩᏍᎨ	-11.2859
ᏥᏁᎢᏍᏗᎭ	-11.2859
▁ᏚᏭᎪᏔᏅ	-11.2859
ᏂᏚᏪᏎᎴᎢ	-11.2859
▁ᎤᏁᎳᎩᏉ	-11.2862
ᏍᏕᎵᏍᎪ	-11.2862
ᎠᏤ	-11.2863
▁ᏂᏚᏍᏕ	-11.2863
▁ᎾᎩᏪᏒ	-11.2864
▁ᎦᏅᎪᎢ	-11.2864
ᏔᏲᎯᎰ	-11.2865
▁ᏧᏂᏒᏍᏗ	-11.2869
▁ᎨᏥᏅ	-11.287
ᏞᎩ	-11.2871
ᏍᎦᏃᎳ	-11.2871
▁ᏓᏅᏗᏍᎬ	-11.2871
▁ᎢᏣᏚᎵᏍᎬ	-11.2871
▁ᎤᏓᏅᎡᎴ	-11.2873
▁ᎡᎩᏍᏕᎸᏗ	-11.2873
▁ᏎᎳᎩ	-11.2876
▁ᎢᏣᏓᏅᏖ	-11.2878
ᏧᏔᏅ	-11.2879
ᏚᎸᏅᏗ	-11.288
▁ᎤᏮᏔᏅ	-11.2881
▁ᏓᎾᎵᏍᏓᏴᎲᏍᎬ	-11.2881
ᏓᏅᏖᏍᎨ	-11.2881
▁ᏪᏥ	-11.2882
▁ᎤᎾᏓᏓᏍᎩ	-11.2885
ᏍᏓᏩᏕᏅ	-11.2885
ᎩᎷᏫ	-11.2885
▁ᏂᎦᎵᏍᏔᏂ	-11.2888
▁ᎦᏪ	-11.2889
▁ᏫᏥᎦᏛ	-11.2889
ᎵᏓᏍᏗᏱ	-11.289
▁ᎢᏳᏩᏂᏐᏗ	-11.2891
ᏏᏔᏗᏍᏗ	-11.2891
▁ᏦᎩᎾᏫ	-11.2892
▁ᏣᏁᏨ	-11.2892
ᎤᏅᏗ	-11.2894
ᏚᎪᏓᏁᏗ	-11.2895
▁ᏗᏘᏂᏙ	-11.2895
▁ᎣᎦᏣᏅ	-11.2895
ᎵᏍᏓᏁᎸᎩ	-11.2895
▁ᎤᏑᎵᎪᏨ	-11.2896
▁ᏥᏬᏂᏍᎬ	-11.2896
▁ᎢᏣᏓᏅᎦᎸ	-11.2897
ᎾᎷᏒ	-11.2897
ᎡᎲᎢ	-11.2898
▁ᏗᎧᏃᎨ	-11.2899
ᎦᏙᎥᏒᎯ	-11.2899
▁ᎣᎵᏩᏲ	-11.29
▁ᎤᏢᎬ	-11.29
ᏓᏙᎵᏍᏓᏏ	-11.29
▁ᎠᏆᏣ	-11.2901
ᏲᎤᎵ	-11.2901
▁ᏂᎦᎵᏍᏗ	-11.2902
▁ᎤᏲᎱᏎ	-11.2902
▁ᏱᎡᏦᎢᏳ	-11.2903
▁ᎠᏂᎢᏏᎺᎵ	-11.2903
▁ᎠᏍᏕᏱᏛ	-11.2903
▁ᎠᏬᎭᎵ	-11.2903
▁ᎢᏳᎾᏙᏓᏆᏍᏗ	-11.2903
▁ᎤᎾᏓᎪᎾᏙᏗ	-11.2903
▁ᎤᎾᏗᏍᎦᏢ	-11.2903
▁ᎤᏁᏍᏔᎶᏨ	-11.2903
▁ᎤᏓᏥᎾᏍᏛᎯ	-11.2903
▁ᎤᏩᎬᏘᎶᏓ	-11.2903
▁ᎥᏖᎣᎩ	-11.2903
▁ᎦᎵᏒᏍᏗᏍᎬ	-11.2903
▁ᎯᏥᏧᏣ	-11.2903
▁ᏁᏍᏗᏪᏎᎸᎭ	-11.2903
▁ᏂᏓᏁᏢᏛᎾ	-11.2903
▁ᏂᏗᎨᏥᎤᏍᏕᏎᎸᎾ	-11.2903
▁ᏂᏗᎨᏥᎾᏝᎥᎾ	-11.2903
▁ᏂᏚᎵᏏᏂᏒ	-11.2903
▁ᏂᏚᎾᏁᎶᏛᎾ	-11.2903
▁ᏂᏛᏓᎴᏂᏍᎬ	-11.2903
▁ᏂᏦᎯᏳᎲᏍᎬᎾ	-11.2903
▁ᏂᏦᎯᏳᏒᎾ	-11.2903
▁ᏂᏧᏪᏎ	-11.2903
▁ᏄᏃᎯᏳᏅᎾ	-11.2903
▁ᏄᏍᏆᏂᎩᏛ	-11.2903
▁ᏆᎻᏈᎵᏱ	-11.2903
▁ᏌᏆᏯ	-11.2903
▁ᏒᏗᏩᏟ	-11.2903
▁ᏓᎾᏦᎭᏱᎲ	-11.2903
▁ᏓᏂᎳᏍᏓᎳᏩᏗᏒᎢ	-11.2903
▁ᏓᏂᎵᎷᎬ	-11.2903
▁ᏓᏆᏓᏂᎸᎨᏍᏗ	-11.2903
▁ᏓᏊᎪᏔᏅ	-11.2903
▁ᏗᎾᎵᏦᎯᏛ	-11.2903
▁ᏙᏓᎧᏁᏤᎵ	-11.2903
▁ᏙᏗᎦᎶᎨᏒ	-11.2903
▁ᏙᏛᎾᏓᏡᏔᏂ	-11.2903
▁ᏥᏂᏥᏪᎠ	-11.2903
▁ᏥᏕᎭᏘᏁᎭ	-11.2903
▁ᏫᏄᎾᎵᏍᏓᏏ	-11.2903
▁ᏮᏘᎶᏏ	-11.2903
▁ᏮᏘᏯᏅᎯ	-11.2903
▁ᏯᏙᎴᎰᏍᎦ	-11.2903
▁ᏱᏓᎴᏂᏙᎭ	-11.2903
▁ᏱᏫᏣᏴᎸ	-11.2903
ᏓᎾᏕᏒᎲᏍᎪᎢ	-11.2903
ᏓᏫᏍᎦᎨ	-11.2903
▁ᎠᎧᎭᏲᏔᏅ	-11.2903
▁ᎾᏍᏆᎵᏍᎬᎾ	-11.2903
▁ᏓᎦᎫᏴᎯ	-11.2903
▁ᏗᎦᎨᏗᏳ	-11.2903
▁ᏗᎬᏩᎸᏌᏓ	-11.2903
▁ᏘᏰᎸᏂ	-11.2903
▁ᏚᏅᏏᏴ	-11.2903
▁ᏣᎦᏨᏍᏙᏗᏱ	-11.2903
▁ᏥᏓᎩᎸᏫᏍᏓᏁᎭ	-11.2903
▁ᏧᏬᏘᏓ	-11.2903
▁ᏧᏭᏓᎴᏍᏗᏱ	-11.2903
▁ᏯᏎᎦᎩ	-11.2903
▁ᏱᎦᏬᏂᎭ	-11.2903
ᎦᎭᎾᏅ	-11.2903
▁ᎠᎨᏲᏅᎯ	-11.2903
▁ᎠᏁᏯᏔᎯ	-11.2903
▁ᎠᏥᏅᏩᏅᎯ	-11.2903
▁ᎡᎻᎳ	-11.2903
▁ᎢᏯᏆᏕᏘᏴᏓ	-11.2903
▁ᎤᎬᏍᏕᎵ	-11.2903
▁ᎬᏩᎦᏗᏯ	-11.2903
▁ᏄᏛᎿᏕᎬ	-11.2903
▁ᏕᎦᎧᎮᏍᏗ	-11.2903
▁ᏕᎷᎨ	-11.2903
▁ᏗᎦᎶᎩᏍᎩ	-11.2903
▁ᏗᏝᏗᏍᏗᏱ	-11.2903
▁ᏙᎳᏧᎦᏣᏁᏆ	-11.2903
▁ᏧᏄᏩᎢ	-11.2903
▁ᏯᏂᎷᎬᎾ	-11.2903
▁ᏯᏓᏅᏍᎬᎾ	-11.2903
▁ᏱᏣᏁᎢᏍᏔᏁᏍᏗ	-11.2903
▁ᎹᎻᎵ	-11.2903
▁ᎾᏆᏛᏁᎵᏙᎸ	-11.2903
▁ᏁᏓᏈ	-11.2903
▁ᏗᎨᎦᏛᏅᎯ	-11.2903
▁ᏧᎾᏙᎴᏆᏍᏗ	-11.2903
▁ᏯᎵᏖᎸᎮᏍᎬᎾ	-11.2903
▁ᎬᏩᎾᏰᏍᎩ	-11.2903
▁ᏙᏓᏥᏲᎱᏏ	-11.2903
▁ᎠᎾᏛᎩᏍᎪ	-11.2903
▁ᎢᏳᎾᏓᏡᎩ	-11.2903
▁ᎦᏄᎾᏓᎴᎩ	-11.2903
▁ᎴᎹᎩ	-11.2903
▁ᏚᏂᎧᎮᏍᏗ	-11.2903
▁ᎦᏌᎴᏅ	-11.2903
▁ᏄᎾᏓᏛᎩ	-11.2903
▁ᏙᏛᎾᎴᏂ	-11.2903
▁ᏧᏓᎴᎿᎢ	-11.2903
ᏍᎩᏰᎵᏎᎮᏍᏗ	-11.2903
▁ᏚᏪᏐᏤ	-11.2903
ᏲᏍᏙᏓᏏ	-11.2903
▁ᎠᏲᏓᏝᎲᎢ	-11.2903
▁ᎢᎬᏂᎮᏍᏗ	-11.2903
▁ᎢᎸᏢ	-11.2903
▁ᎤᎧᎭᏲᏛ	-11.2903
▁ᎬᏩᏴᎸᎯ	-11.2903
▁ᏫᎬᏲᏪᎳᏏ	-11.2903
▁ᏬᎩᏅᏍᏔᏅᎩ	-11.2903
▁ᎢᎦᏗᏍᎦᎶᏗᏱ	-11.2903
▁ᏕᎰᏢᏅᎭ	-11.2903
▁ᏛᏂᎾᏄᎪᏥ	-11.2903
▁ᎠᏛᎯᏍᏗᏍᎩ	-11.2903
▁ᎤᎾᏓᏛᏅᎯ	-11.2903
▁ᏗᏍᎩᏲᎯᏏ	-11.2903
▁ᎤᏗᏢᏍᏙᏗ	-11.2903
▁ᏂᏨᏴᏁᎸ	-11.2903
▁ᎢᎬᏩᏍᏗᎭ	-11.2903
▁ᏄᏩᏅᏓᎩᏎ	-11.2903
▁ᎢᏳᎾᏛᎾᏕᎩ	-11.2903
▁ᎤᎾᏛᏓᏍᏛ	-11.2903
▁ᏗᏲᏙᏗ	-11.2903
▁ᏨᏉᏍᏙᏗ	-11.2903
▁ᎠᏣᏉᎯ	-11.2903
▁ᏧᎵᎦᎸᏓ	-11.2903
ᎯᏣᏛᎦᏍᏓ	-11.2903
▁ᎣᎨᏙᎸ	-11.2903
▁ᏣᏔᎳᏬᏍᎬ	-11.2903
▁ᏍᎩᏯᏛᎦᏁᎸᎯ	-11.2903
▁ᏥᏕᏣᎸᏫᏍᏓᏁᎭ	-11.2903
▁ᎤᎦᎵᏍᏗᏳ	-11.2903
▁ᎤᏑᎸᏓ	-11.2903
▁ᏓᏓᏂᏌᎲ	-11.2903
▁ᎢᏣᏛᏁᎸᎯ	-11.2903
▁ᎤᏓᏅᏓᏕᎢ	-11.2903
▁ᏓᏥᏯᏓᏙᎵᏍᏓᏁᎵ	-11.2903
▁ᏚᏟᏂᏆᏅᏁ	-11.2903
▁ᏙᎩᎾᏦᏒ	-11.2903
▁ᎢᏣᏄᏬᏍᏕᏍᏗ	-11.2903
ᏧᎪᏓᏏ	-11.2903
▁ᎤᏕᏒᏂᎸᎯ	-11.2903
▁ᎩᏓᎴᎣᎹ	-11.2903
▁ᏂᎦᏗᎹᏏ	-11.2903
▁ᎤᏅᏂᏍᏗᏱ	-11.2903
▁ᏂᏕᏣᏛᏁᎮᏍᏗ	-11.2903
▁ᏗᎨᏥᏲᎯᏎᎸᎯ	-11.2903
ᎩᏪᏎᎲᎩ	-11.2903
▁ᎤᏣᏪᏐᎸᏍᏕ	-11.2903
▁ᎤᏩᏂᎦᏢ	-11.2903
▁ᎠᏌᏅᏗ	-11.2903
▁ᎤᏁᎢᎸᏗ	-11.2903
▁ᎬᏍᎦᎵ	-11.2903
▁ᎤᏩᏂᎸᎩ	-11.2903
▁ᏧᏬᏪᎳᏁ	-11.2903
▁ᎤᎵᏌᎵᏓᏁ	-11.2903
▁ᎤᏎᎦᏨᎯ	-11.2903
▁ᏗᏂᎬᏓᎨᏂ	-11.2903
▁ᏛᎾᏛᎦᏂ	-11.2903
ᏑᎵᎪᎬ	-11.2903
▁ᏚᏲᎵᎸ	-11.2903
▁ᏓᏑᏫᏍᎬ	-11.2903
▁ᏨᏓᏯᎢ	-11.2903
▁ᏗᎾᏓᏲᏁᎯ	-11.2903
ᎦᏟᏏᏍᎪ	-11.2903
▁ᎠᏍᎦᏲᎯ	-11.2903
▁ᏱᏂᏓᎦᎵᏍᏔᏂ	-11.2903
▁ᎤᏪᏯᎸᏅᎩ	-11.2903
▁ᎡᏗᎸᏉᏓ	-11.2903
▁ᎫᎾᏓᎴᎩ	-11.2903
▁ᏗᎦᏃᏙᏗᏱ	-11.2903
ran	-11.2903
▁ᏁᎨᏒᎾ	-11.2903
▁ᏗᏓᏂᏱᏍᎩ	-11.2903
▁ᎠᏍᎦᎢᎮᏰᏃ	-11.2903
▁ᎢᎬᏩᏛᏛᏁ	-11.2903
▁ᏗᎾᏓᏙᎵᏍᏓᏁᎯ	-11.2903
▁ᎩᏅᎪᎢ	-11.2903
ᏕᏗᏴᏛ	-11.2903
▁ᏱᏗᏣᏰᎸᏁᎢ	-11.2903
▁ᏱᏨᏰᎵᏎᎭ	-11.2903
▁ᎪᏢᏅᎥᏍᎩ	-11.2903
▁ᎠᏃᎵᎩ	-11.2903
▁ᏕᏣᏓᎨᏳᏎᏍᏗ	-11.2904
▁ᎨᏥᎦᏘᏗᏍᏗ	-11.2904
▁ᎭᎦᏌᏯᏍᏓ	-11.2904
▁ᏚᏃᎩᏎ	-11.2904
▁ᏥᏍᎦᏅᎩ	-11.2904
ᎦᏚᎩᏱ	-11.2904
▁ᎡᏣᎫᏴᏏ	-11.2904
▁ᏅᏛᏂᏪᏏ	-11.2904
▁ᏙᏗᎾᎵᏍᏓᏴᎲᏍᎬ	-11.2904
▁ᎢᏳᎾᏓᏁᏟᏴᏛ	-11.2904
▁ᏁᏥᏪᏎᎸᎭ	-11.2904
▁ᏫᏓᏯᏂᏍᎪ	-11.2904
▁ᎤᏕᎳᏓ	-11.2904
▁ᏗᎫᏓᏙᏗ	-11.2904
▁ᏧᎾᏓᏂᎸᎢᏍᏗᏱ	-11.2904
▁ᏚᏂᏬᏁᏔᏁ	-11.2904
▁ᎬᏬᎳᏕᏍᎬ	-11.2904
▁ᎡᏗᏂᏱ	-11.2904
▁ᎢᏳᎾᎵᏍᏔᏅᎯ	-11.2904
▁ᎤᏓᏴᎳᏔᏅ	-11.2904
▁ᎤᎾᏓᏃᏴᎵᏍᏛ	-11.2904
▁ᏓᏂᏂᏓᏛ	-11.2904
▁ᎢᏥᎦᏛᏂᏙᎯᏉ	-11.2904
▁ᎦᏰᏥᏙᎵᏍᏗ	-11.2904
▁ᏓᏤᎵᏍᏛ	-11.2904
▁ᏧᏂᎸᏫᏍᏓᏁᎸᎯ	-11.2904
▁ᎾᎩᎲᎾ	-11.2904
▁ᏗᏂᏁᎵᏛ	-11.2904
▁ᎤᏔᏲᎴ	-11.2904
▁ᏍᎩᏯᏅᏓᏗᏍᎨᏍᏗ	-11.2904
▁ᏙᏓᏳᏲᏏ	-11.2904
▁ᎤᎾᏕᏘᏱᏍᎬ	-11.2904
▁ᏌᎶᎻ	-11.2904
▁ᎨᏍᏓᏗ	-11.2904
▁ᎠᎩᎵᏬᎢᏍᏗ	-11.2904
▁ᏗᎧᏃᎩᏛ	-11.2904
▁ᏕᏦᏕᏍᏗ	-11.2904
ᏩᎾᎦᎶ	-11.2904
▁ᎤᎩᏠᏫᏎ	-11.2904
▁ᎤᏓᏅᎦᎸᏓ	-11.2904
▁ᎩᏂᏙᏓ	-11.2904
▁ᎠᎦᎵᏍᎪᎸᏓᏁᎸᎩ	-11.2904
▁ᎥᏇᎵᏎᎸ	-11.2904
▁ᏭᏓᏓᎩᏅᏎ	-11.2904
▁ᎱᏂᎷᏣ	-11.2904
▁ᎢᏥᎧᎵᏣ	-11.2904
▁ᎤᏬᏢᏁ	-11.2904
▁ᏗᏗᏰᎸ	-11.2904
▁ᎤᎪᏗᏗ	-11.2904
▁ᏧᎾᏓᏅᏬᏗᏱ	-11.2904
▁ᏕᏣᎧᎿᏩᏗᏙᎮᏍᏗ	-11.2904
▁ᎤᎸᏫᏒ	-11.2904
▁ᏂᏕᎦᎵᏍᏗᏍᎨ	-11.2904
▁ᏳᏲᎱᏎᎸ	-11.2905
▁ᏴᎨᏥᎪᏩᏛ	-11.2905
ᏏᏀᎥ	-11.2905
▁ᏱᏚᏲᏎ	-11.2905
▁ᏚᏭᏓᏔᏅᎩ	-11.2905
▁ᏂᏪᏎᎸᎭ	-11.2905
▁ᏄᏂᎪᎸᎾ	-11.2905
▁ᏗᎬᏩᏁᎶᏗ	-11.2905
▁ᏭᏂᏩᏛᎮ	-11.2905
▁ᎠᎦᎫᏴᎡᏗ	-11.2905
▁ᏗᎧᎿ	-11.2905
▁ᏕᎬᏩᏠᏎᎢ	-11.2905
▁ᏂᏚᏩᏂᎦᎸ	-11.2905
▁ᎠᏆᎵᏥᏙᏗᏱ	-11.2905
▁ᏕᎤᎴᎯᏌᏅ	-11.2905
ᏓᏒᏍᏓ	-11.2905
▁ᏅᏓᏳᎵᏍᎪᎸᏔᏅᎯ	-11.2905
▁ᏫᏲᏪᎳᏏ	-11.2905
▁ᎢᏣᏕᏗᏱ	-11.2905
▁ᎤᎾᎵᏍᏓᏴᏁᏃ	-11.2905
▁ᏧᏬᏪᎶᏗ	-11.2905
▁ᏧᏚᎪᏔᏅᎯ	-11.2905
ᏃᎵᏤ	-11.2905
▁ᏥᏄᏩᏁᎸ	-11.2905
ᏦᏎᎭ	-11.2905
▁ᏫᎦᎢᏒ	-11.2905
▁ᏧᏁᏅᏒ	-11.2905
▁ᏗᏂᎦᏘᎴᎩ	-11.2905
▁ᏧᎵᎩᏏ	-11.2905
▁ᎪᏍᏔᏱ	-11.2905
▁ᎠᏟᏍᏕ	-11.2905
▁ᎪᏍᏔᏴ	-11.2905
▁ᎣᏣᎵᎡᎵᏤ	-11.2905
▁ᎤᎾᏨᏓᎵ	-11.2905
▁ᏓᎬᏅᏏ	-11.2905
▁ᏥᏯᎵᎡᎵᏤᎭ	-11.2906
▁ᏂᏚᏩᏅ	-11.2906
▁ᎤᏁᎵᏨ	-11.2906
▁ᎦᏅᏍᎨᏂ	-11.2906
▁ᎠᏂᎵᎾ	-11.2906
▁ᎤᏗᏩᏒᎯ	-11.2906
▁ᏓᏍᏆᏚᎸ	-11.2906
▁ᎱᎷᏤ	-11.2906
▁ᎤᎵᏨᏓᏆᏛ	-11.2906
▁ᎠᏓᎦᎵᏍᏓᏗᏍᎩ	-11.2906
▁ᎠᎾᏡᏗᏍᎬ	-11.2906
▁ᎣᎦᎵᎪᏅ	-11.2906
▁ᏛᏂᎪᎯ	-11.2906
▁ᏚᎵᎬᏩᏢ	-11.2906
▁ᏚᏙᏓᏈᏒ	-11.2906
▁ᎤᏁᏐᎠᏒᎩ	-11.2906
▁ᎠᏓᏴᏍᏔᎩᏍᎩ	-11.2907
▁ᏂᏚᏂᏪᏎᎸᎩ	-11.2907
▁ᎠᏂᏐᏢᎢᏍᏗᏍᎩ	-11.2907
▁ᏱᏄᏩᏁᎰ	-11.2907
▁ᏍᎩᏰᎸᏗ	-11.2907
▁ᏭᏕᏁᎢ	-11.2907
▁ᏍᏊᏓᎳᎩ	-11.2907
▁ᏚᎾᎭᏄᏮ	-11.2907
ᏁᎢᏍᏓᏁᎸᎯ	-11.2907
ᎶᏁᏔᏁ	-11.2907
▁ᏓᏂᏰᏌᏛ	-11.2907
▁ᎾᏅᏁᎰ	-11.2907
▁ᏅᏓᏳᎶᎯᏍᏗᏱ	-11.2907
▁ᏱᏚᏳᎪᏗ	-11.2907
▁ᏂᎦᏖᏍᏗ	-11.2907
ᎬᏲᎵᎭ	-11.2907
▁ᏦᏚᎯ	-11.2907
ᎩᏍᏓᏩᏕᎬᎾ	-11.2907
▁ᎠᏥᏂᏌᏁ	-11.2907
▁ᎠᎩᏲᎱᎯᏍᏗᏱ	-11.2907
▁ᎬᎩᏁᏤᎸᎯ	-11.2907
▁ᏧᎾᏓᎴᏅᏓ	-11.2907
▁ᏣᏍᎦᎸᎩ	-11.2907
ᏘᏍᎩ	-11.2907
▁ᏂᏨᏁᎮᏍᏗ	-11.2907
▁ᎢᏗᎬᏁᎸᎯ	-11.2907
▁ᏧᎾᏕᎶᏆᏍᏗ	-11.2907
▁ᎢᏨᏂᏗᏳ	-11.2907
▁ᎢᏣᎵᏍᏓᏴᏗᏍᎨᏍᏗ	-11.2907
▁ᏗᏘᏲ	-11.2907
▁ᎱᎷᏨ	-11.2907
▁ᎤᎵᏏᏅᏗ	-11.2907
▁ᎤᏩᎾᏕᏍᎩ	-11.2907
▁ᏘᎹᏂ	-11.2907
▁ᏚᎵᏃᎮᏔᏁᎢ	-11.2908
▁ᏅᏯᏗᎦᎪᏗᏱ	-11.2908
▁ᎢᏖᎳ	-11.2908
▁ᎢᏯᏋᏁᏗᏱ	-11.2908
▁ᎡᏣᏙᎵᎩ	-11.2908
▁ᏧᎾᏨᏍᏗᏱ	-11.2908
▁ᏗᏅᏂᏗᏳ	-11.2908
▁ᏗᏓᏙᏕᏍᏗᏍᎩ	-11.2908
▁ᎧᏃᎨᏂ	-11.2908
▁ᎬᏩᏂᏍᏓᏩᏗᏙᎯ	-11.2908
ᏂᏅᎪᎠ	-11.2908
▁ᏧᏍᏆᎳ	-11.2908
▁ᏧᏓᏅᏓᏗᏍᏙᏗᏱ	-11.2908
▁ᏗᏜᏍᏔᏅᎯ	-11.2908
▁ᏚᎾᎴᏅ	-11.2908
▁ᏧᏪᎷᏁ	-11.2908
▁ᎢᏣᏓᏟᏌ	-11.2908
▁ᏧᏅᎨᏫ	-11.2908
▁ᎢᏥᎧᎵᏨᎯ	-11.2908
▁ᎣᎩᎵᏦᏩᏛ	-11.2908
▁ᎾᏥᎸᏉᏛᎾ	-11.2908
ᏠᏯᏍᏗᏍᎨᏍᏗ	-11.2908
▁ᏱᏂᏣᏛᏁᎸ	-11.2908
▁ᎢᏣᏟᏂᎬᏁᎮᏍᏗ	-11.2908
▁ᏗᏂᏙᎬ	-11.2909
▁ᏱᏥᏰᎸᎾ	-11.2909
▁ᎩᎵᏯᏗ	-11.2909
▁ᎨᏥᏰᎸᎯ	-11.2909
▁ᎻᏗᏂᏱ	-11.2909
▁ᏗᎩᏂᏴᏗᏱ	-11.2909
▁ᏕᎦᎶᏛ	-11.2909
▁ᏧᏏᎳᏛᏙᏗ	-11.2909
ᏍᎦᏍᏓᏁᏗᏱ	-11.2909
▁ᎤᎾᎵᏓᎩᏛ	-11.2909
▁ᎢᎾᎩᏃ	-11.2909
▁ᏗᎦᎵᏦᏛᎢ	-11.2909
▁ᏁᏓᏂᎵ	-11.2909
▁ᎤᏓᎷᎸ	-11.2909
▁ᎭᏠᎠᎯ	-11.2909
▁ᏧᎾᏂᏏᏗᏱ	-11.2909
ᏍᏓᏱᏗᏍᏗᏱ	-11.2909
▁ᏗᏥᏲᎯᏍᏗᏱ	-11.2909
▁ᎡᎶᏂᎵ	-11.2909
▁ᎤᏪᏰᏂ	-11.291
▁ᎬᏯᎵᎡᎵᏤᎭ	-11.291
▁ᏗᏣᎵᏂᎩᏗᏳ	-11.291
▁ᏧᏂᎷᏫᏍᏔᏁᏗ	-11.291
▁ᎢᏥᎷᏨᎭ	-11.291
▁ᎤᏅᏟᏃ	-11.291
▁ᎨᏥᎩᎵᏲᎢᏍᏙᏗᏱ	-11.291
▁ᏂᏚᎵᏍᏔᏁ	-11.291
▁ᏓᎦᎾᏄᎪᏫᏏ	-11.291
▁ᏗᎩᏣᏗ	-11.291
▁ᎢᏓᎻ	-11.291
▁ᎭᏙᎴᎰᎯ	-11.291
▁ᎠᏍᏓᏱᏗᏍᎩ	-11.291
▁ᎡᏣᏑᏰᏛ	-11.2911
▁ᏙᏓᎬᏁᎵ	-11.2911
▁ᎣᏥᎨᏳᎢ	-11.2911
▁ᏳᏪᎾ	-11.2911
▁ᏭᏓᏐᎴᎢ	-11.2911
▁ᏅᏧᏪᏎᎢ	-11.2911
▁ᎠᏗᏔᏍᎨᏍᏗ	-11.2911
▁ᎬᏛᎪᏗ	-11.2911
ᏩᎾᏓᎴ	-11.2911
▁ᎤᏓᏱᎴᎢ	-11.2911
▁ᏱᏓᏲᎩ	-11.2911
▁ᎦᏳᎸ	-11.2912
ᏄᏬᎡᎢ	-11.2912
▁ᏓᎬᎷᏤᎵ	-11.2912
▁ᏂᏕᎲᏁ	-11.2912
▁ᎤᏂᏔᎳᏬᏍᎬᎢ	-11.2912
▁ᏧᏙᏍᏙᏗ	-11.2912
▁ᏚᏂᏚᎲ	-11.2912
▁ᎠᎾᏟᏃᎮᏍᎬ	-11.2912
▁ᎠᏂᏏᎾᏌᏅ	-11.2912
▁ᏍᎩᏲᏍᏓ	-11.2912
▁ᏥᏐᎯ	-11.2912
▁ᏍᎩᎨᏳᎯᏳ	-11.2912
▁ᏚᏁᏅᏒ	-11.2912
ᎵᏥᏙᎲᏍᎩ	-11.2912
▁ᎦᎬᏩᏐᏢᏕᎢ	-11.2912
▁ᎦᏣᏃᏍᏔ	-11.2912
▁ᏒᎦᎾᏲᎪ	-11.2912
▁ᎥᎦᏥᎪᎥᎩ	-11.2912
▁ᎢᏳᏂᏪᏍᏗᏱ	-11.2913
▁ᏧᏄᎪᏙᏗᏱ	-11.2913
▁ᎤᏓᏍᏛᏗᏍᏗ	-11.2913
▁ᏗᎪᏍᏔᏱ	-11.2913
▁ᏁᏪᏎᎴᎢ	-11.2913
▁ᏓᏍᎩᏁᎵ	-11.2913
▁ᏧᏅᎪᏤ	-11.2913
▁ᏗᎩᏙᏓ	-11.2913
▁ᏥᏂᏣᏛᏁᎸ	-11.2913
▁ᏫᎤᎶᏎᎢ	-11.2913
▁ᏧᎾᏤᎵᎪᎯ	-11.2913
▁ᏃᎦᏍᏛ	-11.2913
ᏍᏆᎸᎲ	-11.2913
▁ᎢᏣᏙᎴᎰᎯ	-11.2913
ᏏᏐᏗ	-11.2913
▁ᎢᏣᏛᎪᏗᏱ	-11.2914
▁ᏳᏃᎵᏤ	-11.2914
▁ᏕᎦᏃᏣᎸ	-11.2914
▁ᏥᏥᏯᎠ	-11.2914
▁ᎪᏢᏛᎩ	-11.2914
▁ᎬᎾᏬᏔᏅᎯ	-11.2914
▁ᎢᏥᎩᎵᏲᎬᎢ	-11.2914
▁ᏱᏥᏯᎠ	-11.2914
▁ᎦᎶᎪᏗ	-11.2914
▁ᏈᏂᏏ	-11.2914
▁ᎤᎩᎸᎩ	-11.2914
▁ᏧᏄᎪᏔᏅ	-11.2915
▁ᎬᏩᏂᏴᏗᏱ	-11.2915
▁ᎪᏍᏓᏯ	-11.2915
▁ᎢᏦᎵᎩ	-11.2915
▁ᏅᏋᏁᎸ	-11.2915
▁ᏄᏪᎡᎢ	-11.2915
▁ᏂᎬᏩᏂᏪᏎ	-11.2915
▁ᎠᏥᏂᏌᏅ	-11.2915
▁ᎤᎿᎸᎯ	-11.2915
▁ᎦᎾᏄᎪᏥᎸᎭ	-11.2915
▁ᏍᎩᎾᏄᎪᏫᏏ	-11.2915
▁ᎡᎵᏊ	-11.2916
▁ᏤᏏᏂ	-11.2916
▁ᎯᏌᏙᏯ	-11.2916
ᏛᏛᎲᏍᎨᏍᏗ	-11.2916
ᎵᏂᎪᎯᏍᏗᏍᎩ	-11.2916
▁ᎠᎩᎩᎬ	-11.2916
▁ᎬᏩᏂᏴᎲᎩ	-11.2916
▁ᏓᎩᏲᎯᏎᎸ	-11.2916
▁ᎠᎾᏟᎲ	-11.2916
▁ᎠᏥᏐᏅᏅ	-11.2916
▁ᎤᎾᏛᏅᎢᏍᏔᏁ	-11.2917
▁ᏅᏩᏍᏗᏉ	-11.2917
▁ᏗᏂᎾᏕᎩ	-11.2917
▁ᏌᎻ	-11.2917
▁ᎤᏂᏁᎢᏍᏗᏱ	-11.2917
▁ᏧᏂᏲᏏᏍᎩ	-11.2917
▁ᎠᏂᎨᏳᏣ	-11.2917
▁ᏕᎤᎴᏅ	-11.2917
▁ᏭᏓᏅᏖᎴ	-11.2917
▁ᏚᎧᎾᏅ	-11.2918
ᎤᏂᎷᏨ	-11.2918
ᎨᎮᎩ	-11.2918
▁ᎤᎾᎵᏍᏓᏴᏁᎢ	-11.2918
▁ᎠᏆᏕᏗᏱ	-11.2918
▁ᎠᏓᏛᏗᏍᎩ	-11.2918
▁ᏧᏂᏍᏓᎢ	-11.2918
▁ᎠᎾᏁᎷᎩ	-11.2918
▁ᎾᎦᎸᎳᏗᏴ	-11.2918
ᏩᏘᏍᎪᎢ	-11.2918
▁ᏔᏔ	-11.2919
▁ᏃᎦᏛᏅ	-11.2919
▁ᏭᏘᏅᏍᏔᏁᎢ	-11.2919
▁ᎠᎦᏍᎦᏂᏗᏢ	-11.2919
▁ᏩᎾᎨ	-11.2919
▁ᏯᎦᏔᎰ	-11.2919
▁ᎣᎩᏅᏏᏓᏍᏗ	-11.2919
▁ᏣᎩᏯᎠ	-11.2919
ᎻᏂ	-11.2919
▁ᎣᏥᏃᎮᏍᎩ	-11.2919
▁ᎤᎾᏓᏅᏍᏗᏱ	-11.2919
▁ᎠᏂᎬᎾᎨ	-11.2919
▁ᎮᏙᎭ	-11.2919
▁ᎠᎦᏔᏛᏍᎩ	-11.2919
▁ᏓᏥᎷᏥ	-11.2919
▁ᎤᏁᏍᏔᎳ	-11.2919
▁ᎠᎦᏙᎥᎯᏍᏙᏗ	-11.292
▁ᎠᎾᎦᎵᏍᎩ	-11.292
▁ᎠᏥᎶᎥ	-11.292
▁ᏓᎶᎨ	-11.292
ᏒᎦᎶᏗ	-11.292
▁ᏕᏥᎳᏫᎩ	-11.292
▁ᎤᎯᏐᏓᏁ	-11.292
▁ᎤᏓᏁᏟᏴᏍᏓᏁᎴ	-11.292
▁ᏓᏕᏏ	-11.292
▁ᎬᏩᏂᎩᏍᏗ	-11.292
ᏣᎴᏛ	-11.292
▁ᎢᎬᏴ	-11.2921
▁ᎠᏖᎵᏙᎩᎯ	-11.2921
▁ᏧᏂᏄᎪᏫᏍᏗᏱ	-11.2921
▁ᎠᏆᎴᏅ	-11.2921
▁ᎾᏂᎠ	-11.2922
▁ᎢᏣᎵᏍᏓᏴᏗ	-11.2922
▁ᎢᏥᏴᎭ	-11.2922
▁ᏗᏥᏅᏏᏓᏍᏗ	-11.2922
ᏕᏘᏱ	-11.2922
▁ᎮᎮᏍᏗ	-11.2922
▁ᏫᏥᎶᎯ	-11.2923
▁ᎠᏆᏡᏗᏍᎩ	-11.2923
▁ᏚᎩᏒᎩ	-11.2923
▁ᎤᏆᏖᏍᏗ	-11.2923
ᏲᎩᏂ	-11.2923
▁ᎢᏨᏰᎳᏗᏙᎲ	-11.2923
▁ᏣᎾᏗᎭ	-11.2923
▁ᏗᎦᎫᏍ	-11.2923
▁ᎢᏥᏴᏍᏗᏱ	-11.2923
▁ᎤᏅᏪᎥ	-11.2924
▁ᎠᏂᎷᏨᎭ	-11.2924
▁ᎤᏍᏔᏩᏛᏎ	-11.2924
▁ᎤᎾᏓᏅᏓᏕᎢ	-11.2924
▁ᏗᏣᎵᎢ	-11.2924
▁ᎤᏁᏉᎢᏍᏗᏱ	-11.2924
▁ᎤᏪᏟᏌᏁ	-11.2924
▁ᎠᎩᏍᎦᏅᏨᎢ	-11.2924
▁ᎾᏆᎵᏍᏓᏁᎸᎩ	-11.2924
▁ᎤᏅᎪᎢᏍᏗ	-11.2924
▁ᎤᏪᏙᎵᏤᎢ	-11.2924
▁ᎩᎳᏊ	-11.2924
▁ᎯᎨᏳᏎᏍᏗ	-11.2924
▁ᎢᏥᎦᏔᎰ	-11.2924
▁ᎤᏤᏘ	-11.2924
▁ᏯᎩᏰᎸᎭ	-11.2924
▁ᎤᏄᎩᏣᏁ	-11.2925
ᎵᏍᎪᎸᏓᏁᎰ	-11.2925
▁ᏯᏆᏛᏁᎸ	-11.2925
▁ᏣᏠᎾᏍᏗ	-11.2925
▁ᎠᎩᎸᏙᏗ	-11.2926
ᎬᎭᎷᏰᎢ	-11.2926
▁ᎠᎾᏓᏩᏛᎯᏙᎢ	-11.2926
▁ᎤᏅᏓᏗᏗᏒᎢ	-11.2926
▁ᏓᏓᏁᎳᏗᏒᎢ	-11.2926
▁ᏗᏆᏓᎴᏅᎢ	-11.2926
▁ᏚᏚᎪᏔᏅᎢ	-11.2926
▁ᏚᏠᏒᏎᎢ	-11.2926
▁ᏗᎦᏃᎸᏗᏍᎬ	-11.2926
▁ᏳᎨᏳᎭ	-11.2926
▁ᎤᏛᎦᏍᏔᏁᎢ	-11.2926
▁ᎤᎵᏍᏛᏧᏁᎢ	-11.2926
▁ᏥᎧᏍᎨᏂ	-11.2926
▁ᏗᎵᏍᏚᎶ	-11.2926
▁ᏕᏣᏓᏘᎾᎥᎢ	-11.2926
ᏅᎡᎵ	-11.2926
ᏛᏂᏗᏍᏕᏍᏗ	-11.2926
▁ᏗᏒᏆᎶᏍᏗ	-11.2926
▁ᎤᏍᏓᏱᏕᎸᎩ	-11.2927
▁ᎠᏓᏬᎯᎳ	-11.2927
▁ᏧᎾᏄᎪᏫᏎᎴᎢ	-11.2927
▁ᎧᏁᎨᎢ	-11.2927
▁ᎣᎦᏛᎦᏅᎯ	-11.2927
▁ᎣᎦᏣᏅᎩ	-11.2928
▁ᏧᎾᎵᏍᏓᏴᏗᏱ	-11.2928
▁ᎧᏁᎩ	-11.2928
▁ᎠᏛᏅᎢᏍᏙᏗᏱ	-11.2928
ᏒᏁᎰ	-11.2928
▁ᎠᏲᏟᎨ	-11.2928
ᏔᎴᏐ	-11.2928
▁ᎠᏲᎱᏍᎨᏍᏗ	-11.2928
▁ᏳᎷᏨ	-11.2929
ᎧᏔᎭ	-11.2929
▁ᎢᏥᏯᎥᎢ	-11.2929
ᎦᏕ	-11.2929
▁ᏧᏂᏰᎸᎭ	-11.2929
▁ᏄᏁᎩᏴ	-11.2929
ᏓᏬᏍᎬ	-11.2929
▁ᎤᎾᏗᏔᏍᏗᏱ	-11.293
ᎩᎸᏂ	-11.293
▁ᏭᏲᎢᏴ	-11.293
▁ᏱᏂᏨᏁ	-11.293
▁ᏑᏓᎵᎦᎵ	-11.293
ᏓᏛᏁᎮᏍᏗ	-11.2931
▁ᎠᏂᏍᏆᏂᎪᏍᎨ	-11.2931
▁ᎠᎾᏓᏙᎵᏍᏗᏍᎨᏍᏗ	-11.2931
▁ᏚᎾᏄᎪᏫᏎᎢ	-11.2932
▁ᎤᏟᏂᎩᏛ	-11.2932
▁ᏥᏃᎪᎢ	-11.2932
▁ᎪᎹᎵᏱ	-11.2932
▁ᎤᎾᏍᎪᏎ	-11.2932
ᎧᎲᏍᏗᏱ	-11.2932
ᎩᎦᏘᏛ	-11.2932
▁ᎦᎷᏨ	-11.2932
▁ᎢᏓᎵᎮᎵᎩ	-11.2933
▁ᎤᏂᏰᏨ	-11.2933
▁ᏂᏓᎾᏓ	-11.2933
▁ᎠᎩᏁᏤᎸᎩ	-11.2934
▁ᎣᏤᎲᎢ	-11.2934
▁ᏧᎶᏎ	-11.2934
▁ᏭᏴᏍᏗᏱ	-11.2934
▁ᎤᏁᎳᏗᏍᏗᏱ	-11.2934
▁ᏫᏓᏆᎧᎾᏅᎩ	-11.2934
▁ᏥᎪᎵᏰᏍᎬ	-11.2935
▁ᏥᎪᎥ	-11.2935
ᏍᏔᏁᎰ	-11.2935
▁ᏥᏥᎪᏩᏘᎭ	-11.2935
▁ᏣᎦᏙᎥᎯᏍᏗᏱ	-11.2935
ᏓᏅᏔ	-11.2936
▁ᏗᎦᏁᎸᎢ	-11.2936
ᏃᎯᏴᎯ	-11.2937
ᎾᏓᏅᎡᏗᏱ	-11.2937
▁ᎠᎩᏰᎯ	-11.2938
▁ᏧᏓᎴᏅᎢ	-11.2938
▁ᎤᏁᏙᎴᎢ	-11.2938
▁ᏓᏗᎶᏂᏃ	-11.2938
▁ᎤᏂᏄᎪᏤᏃ	-11.2938
▁ᎦᎸᏌᏛ	-11.2939
▁ᎠᏂᎦᏔᎮᏍᏗ	-11.2939
▁ᎮᏙᎲᎢ	-11.294
▁ᎤᎩᎵᏲᎢᏍᏗᏱ	-11.294
▁ᎤᏃᎮᎸᎯ	-11.294
▁ᎢᏥᏰᎸᎭ	-11.294
▁ᎠᏍᏆᏂᎪᎯᏍᏗ	-11.294
▁ᏓᏕᏲᎲᏍᎬᎩ	-11.294
▁ᎤᏔᎳᏬᏍᎬᎢ	-11.2941
▁ᎾᏆᏛᏅᎢ	-11.2941
ᏑᎸ	-11.2941
▁ᎠᎩᏅᏏᏓᏍᏗ	-11.2941
▁ᏇᎯ	-11.2941
▁ᏚᏪᏲᏁᎢ	-11.2942
▁ᏓᏰᏙᎳᏛᎢ	-11.2942
ᏓᏌᎳᏗᏍᎨᏍᏗ	-11.2942
▁ᏚᏓᏴᎳᏛ	-11.2942
ᏓᏅᏘ	-11.2943
▁ᎠᏄᎯᏍᏗᏍᎬ	-11.2943
ᏗᎦᎴᏲᏤ	-11.2944
▁ᎤᎾᏓᏑᏴᎩ	-11.2944
▁ᏚᏅᏩᏅᎩ	-11.2944
ᏁᏤᎭ	-11.2944
▁ᎤᏂᏴᎲᎩ	-11.2944
▁ᏗᏐᏂ	-11.2944
▁ᎤᏢᎨ	-11.2945
ᏓᏁᎸᎯ	-11.2945
ᏌᎳᏙᏗᏱ	-11.2945
▁ᏚᏄᎪᏫᏒ	-11.2945
ᎢᏗᏢ	-11.2945
▁ᎤᏍᎦᏃᎵᏳ	-11.2946
▁ᎤᏃᏴᎵ	-11.2946
▁ᎣᎦᏤᎵᎦ	-11.2946
▁ᏯᎦᏓ	-11.2946
▁ᏕᏓᏓᎪᎲᏳ	-11.2946
▁ᎤᏓᏏᏁᎢ	-11.2946
▁ᎩᎦᎨᏍᏛᏱ	-11.2946
▁ᎤᎵᏌᎳᏓᏁ	-11.2947
ᎵᏃ	-11.2947
▁ᎠᏂᎦᏔᎯᏳ	-11.2947
ᏟᏏᏍᎪᎢ	-11.2947
▁ᎤᎾᏛᏅᎢᏍᏗ	-11.2947
▁ᎠᏍᏓᏱᏛᎯ	-11.2948
▁ᎤᏂᏲᎸᎩ	-11.2948
▁ᏦᎨᏅᏒ	-11.2948
▁ᎡᏥᎦᏔᎭ	-11.2948
▁ᎠᎩᏠᏫᏍᏗ	-11.2948
ᎶᎨ	-11.2948
▁ᎠᏨᏏᏰᏗ	-11.2949
ᏆᏚᎵᏍᎬᎾ	-11.2949
▁ᎾᎾᏛᏁᎮᏍᏗ	-11.2949
▁ᎠᏒᏆᎶᏍᏗ	-11.2949
▁ᎨᏥᏍᏕᎸᏗᏱ	-11.2949
▁ᎠᏓᏅᏙᎩᎯ	-11.2949
▁ᎠᏁᎷᎲᏍᎨ	-11.295
▁ᎤᏓᏙᎵᏍᏔᏅᎩ	-11.295
ᏎᎸᎢ	-11.295
▁ᎤᎾᏄᎪᎢᏍᏗᏱ	-11.2951
▁ᏚᏭᎪᏔᏁᎢ	-11.2951
ᎬᏯᏘᏃᎮ	-11.2951
▁ᎢᏥᏰᎸᎯ	-11.2951
▁ᎤᎾᏓᏅᏖᎸᎩ	-11.2953
▁ᏣᎵᏍᏓᏴᏗ	-11.2953
▁ᎠᎩᎾᏫᏱ	-11.2953
▁ᎪᏢᏙᏗ	-11.2953
▁ᎤᎾᏠᎾᏍᏛ	-11.2954
ᎾᎾᏛᏁᎭ	-11.2954
▁ᎤᏍᏓᏩᏛᏎᎢ	-11.2955
▁ᎠᏔᏲᎯᎮᏍᏗ	-11.2955
▁ᎤᏔᏲᎸ	-11.2956
▁ᎤᎵᏖᎸᏁᎢ	-11.2956
▁ᏣᏁᏨᎢ	-11.2956
▁ᏤᏙᎭ	-11.2956
▁ᎢᏥᏍᏆᏂᎪᏙᏗᏱ	-11.2956
▁ᎦᎾᏰ	-11.2957
▁ᎠᏥᏃᎮᏍᎬ	-11.2957
▁ᎠᏗᏅᏓ	-11.2957
▁ᎤᏬᎯᏨᏃ	-11.2958
▁ᎲᏂ	-11.2958
▁ᎡᏓᏍᏗᏱ	-11.2958
▁ᎤᏂᏁᏨᎯ	-11.2959
▁ᎤᏢᎦ	-11.2959
▁ᎤᏘᏯᏍᏓᏁᏗ	-11.296
▁ᎤᏇᏓᏢ	-11.296
▁ᎤᏄᎸᏁ	-11.296
▁ᎠᏥᏁᎸᎩ	-11.296
▁ᎤᏁᎫ	-11.2961
▁ᎤᎬᎭᎷᏴ	-11.2961
▁ᎠᏫᎾᎨᏍᏗ	-11.2962
▁ᏚᏂᏲᏎ	-11.2962
▁ᎧᏃᎮᎭ	-11.2962
▁ᎤᏬᏂᏒᎩ	-11.2962
▁ᏓᏥᏍᏛ	-11.2962
▁ᎤᏙᏯᏅᎯᏛ	-11.2962
▁ᎪᎵᎩ	-11.2963
▁ᏚᏲᎯᏎᎸᎩ	-11.2963
▁ᏚᎾᏔᏅᎩ	-11.2964
▁ᏥᏚᏁᏤᎴ	-11.2965
▁ᎤᏂᏩᏛᏗᏱ	-11.2966
ᎨᏎᏍᏗ	-11.2967
▁ᎤᏂᏰᎸᏗ	-11.2968
▁ᏓᏍᏆᏂᎪᏗ	-11.2968
▁ᎤᏂᏍᏆᏂᎪᏙᏗᏱ	-11.2968
▁ᏂᏍᏆᏛᏁ	-11.2969
ᎵᏍᏚᎸ	-11.2969
▁ᎠᏆᏛᎦᏅᎯ	-11.2969
▁ᎠᏤᎷᎯᏍᏗ	-11.2969
▁ᏂᏓᏕᏘᏴᎯᏒᎢ	-11.2971
▁ᎠᏎᎵᏔᏅᎯ	-11.2971
▁ᎤᏯᏅᎮᎢ	-11.2971
▁ᏧᏏᎳᏛᏗ	-11.2971
▁ᎦᏯᎸᎢ	-11.2972
▁ᎤᏁᏙᎸᎢ	-11.2972
ᎦᏴᎵ	-11.2973
▁ᏕᎦᎸᎢ	-11.2973
▁ᏚᏛᏛᏁᏃ	-11.2974
ᏙᎵᏍᏙ	-11.2974
▁ᎾᏆᏛᏁᎸᎩ	-11.2974
▁ᎾᎾᏛᏁᎲᎾ	-11.2975
▁ᏣᏚᎵᎭ	-11.2975
▁ᏧᏂᎯᏍᏗᏱ	-11.2975
▁ᎠᏣᏅᎩ	-11.2975
▁ᎤᏛᏛᏅᎩ	-11.2977
▁ᎣᏥᏁᎸ	-11.2978
▁ᏚᏂᏲᎱᏒᎩ	-11.2978
▁ᏥᏤᎾ	-11.2978
▁ᏣᏰᎸᏅ	-11.2979
▁ᎤᎾᏚᎵᏍᎬᎩ	-11.2981
ᏄᏪᏎ	-11.2981
▁ᎡᏥᏁᏗᏱ	-11.2982
▁ᎤᏁᏅ	-11.2983
▁ᎤᏢᎬᎩ	-11.2983
ᏨᏒᎩ	-11.2983
▁ᎤᎩᏢ	-11.2983
▁ᎤᏪᏓᏍᏗᏱ	-11.2983
▁ᎤᏯᏪᏐᎴ	-11.2984
ᎵᏫ	-11.2984
▁ᎩᏥ	-11.2984
▁ᎢᏨᏁᏗᏱ	-11.2985
▁ᎤᏍᏓᏩᏛᏎ	-11.2986
▁ᏕᎦᏍᎩᎸᎢ	-11.2986
▁ᎤᎾᏗᏔᏍᏗ	-11.2987
ᏛᏅᎢᏍᏔᏅᎯ	-11.2988
ᎣᏁ	-11.2988
▁ᏗᎾᏙᏂᏍᎩᏃ	-11.2988
▁ᏙᎤᏍᏗ	-11.2989
▁ᎤᏪᎷᏅ	-11.2989
▁ᎤᏍᏚᎢᏒᎩ	-11.299
▁ᏙᏌ	-11.299
▁ᏂᎨᏨᏁ	-11.2991
▁ᎤᏂᎷᏨᎯ	-11.2991
▁ᎢᏣᎵᎮᎵᎬᎢ	-11.2993
▁ᎤᎾᏅᏅ	-11.2993
ᏁᎸᏗᏍᎬ	-11.2994
▁ᎣᎦᏓᏅᏔᏩᏕ	-11.2994
▁ᏧᏄᏬᎢ	-11.2994
ᎵᏖᎸᏂ	-11.2994
▁ᏧᎶᏎᎢ	-11.2994
▁ᏱᎾᏛᎦ	-11.2994
▁ᎤᏂᏅᏅᎢ	-11.2995
▁ᎤᏬᎯᏳᏒᎢ	-11.2995
▁ᏄᏂᏪᏎᎴᎢ	-11.2995
▁ᏗᎵᏍᎪᎸᏔᏅᎯ	-11.2995
▁ᏣᏍᎦᎩ	-11.2997
▁ᏓᎩᎸᏫᏍᏓᏁᎲᎢ	-11.2997
▁ᎠᏍᏆᏂᎪᏛ	-11.2998
▁ᏱᎾᎩ	-11.2998
▁ᎠᎼᎯ	-11.2998
▁ᏕᎩᎸᏫᏍᏓᏁᎲ	-11.2999
▁ᏈᎵᎩᏱ	-11.2999
▁ᎤᏔᎷᎩᏍᎬ	-11.3
ᎴᏂᏓᏍᏗ	-11.3001
ᎦᏓᎢᏅ	-11.3001
▁ᏴᎦᎬ	-11.3002
▁ᎦᎢᏒᎢ	-11.3002
▁ᎯᎦᏔᎲᎢ	-11.3002
▁ᎠᎩᏇᏓᎸᎢ	-11.3003
▁ᎤᎾᎵᎪᎲ	-11.3003
▁ᎤᏲᏍᏔᏅᎯ	-11.3004
▁ᎪᏢᏗᏱ	-11.3004
▁ᎣᏏᏉᏍᎪ	-11.3005
▁ᎦᎬ	-11.3006
▁ᎤᎵᏂᎩᏛᏯ	-11.3008
▁ᏗᏂᏁᎯ	-11.3008
▁ᎡᏥᏁᎸ	-11.3009
▁ᏧᎦᏴᎵᎨᎢ	-11.3009
▁ᎠᏂᎦᏴᎵᎨᎢ	-11.301
ᏛᎯᏎᎸ	-11.3011
▁ᏗᏍᏕᎵᏍᎩ	-11.3012
▁ᎤᎵᏍᏆᏗᏍᏗᏱ	-11.3012
ᏕᏣ	-11.3012
▁ᏕᎨᎦᏛ	-11.3014
▁ᏗᏆᏄᏬ	-11.3014
ᏯᏅᎲᎭ	-11.3014
▁ᏦᎢᎦᎵ	-11.3014
▁ᎠᏔᎸ	-11.3015
▁ᎢᏳᎵᏍᏓᏁᏗᏱ	-11.3015
▁ᏚᎴᎯᏌᏅᎢ	-11.3016
▁ᏕᎦᎳᏫᎥᎢ	-11.3016
▁ᏳᏛᎾ	-11.3018
▁ᎠᎩᏲᏏᏍᎬ	-11.3019
▁ᏗᏥᎦᏴᎵᎨᎢ	-11.3019
▁ᎤᎧᎵᎢᏍᏗᏱ	-11.3019
▁ᎤᏛᏃᎯ	-11.3023
▁ᎤᏌᎳᏓᏅ	-11.3023
▁ᎢᏕᎲᎢ	-11.3023
▁ᏰᏙᎮ	-11.3024
ᏖᎸ	-11.3026
▁ᎣᏥᏬᏂᏍᎬ	-11.3027
▁ᎮᎳᏂᏃ	-11.303
▁ᏕᎫᏓᏛ	-11.303
▁ᎤᏂᏍᏆᏂᎪᏎᏃ	-11.303
ᎵᏰᎢᎶᎸ	-11.3031
▁ᎦᏄᎸᏒᎢ	-11.3031
▁ᎤᏬᏢᏗᏱ	-11.3032
▁ᎤᏩᏒᏍᎩᏂᏃᏅ	-11.3032
▁ᏗᏓᏘ	-11.3033
ᏓᏎᎪᎩᏍᏗᏱ	-11.3034
▁ᎤᏍᎦᏃᎳ	-11.3034
▁ᎠᎵᏥ	-11.3035
▁ᏑᎾᎴᎢᏳ	-11.3035
▁ᎠᏂᏁᏉᎨ	-11.3035
▁ᎤᏍᎩᏓᏎᎢ	-11.3035
ᎯᎠᎾ	-11.3035
▁ᎤᏲᎯᏍᏔᏅ	-11.3036
▁ᏗᏤᏅᏒ	-11.3036
ᏂᎦᎵᏍᏓ	-11.3037
▁ᏗᎹ	-11.3037
▁ᏏᎦ	-11.3038
▁ᎢᏳᎾᎵᏍᏓᏁᏗᏱ	-11.3039
▁ᎠᏓᏰ	-11.3041
▁ᏕᎳᏃ	-11.3043
▁ᎤᏰᎸᏅᎢ	-11.3044
▁ᏰᎮᏍᏗ	-11.3045
▁ᏕᎦᏚᏩᏗᏒᎢ	-11.3046
▁ᎠᏂᎦᏘᏯ	-11.3047
▁ᏧᏍᏕᎸᏗᏱ	-11.3049
▁ᎦᎵᏦᏅ	-11.3049
▁ᎯᏍᎩᏁᏃ	-11.3049
▁ᏧᎵᏏᎬ	-11.3049
▁ᎠᏕᎶᎰᎯᏍᏗ	-11.3051
▁ᎢᏯᏛᏁᏗᏱ	-11.3053
▁ᎤᏰᎸᎲ	-11.3053
ᏂᏴᏍᏗ	-11.3056
▁ᏣᏁᎮ	-11.3057
ᏄᎪᎢ	-11.3057
▁ᎯᎳ	-11.3057
▁ᎦᎾᏄᎪᏫᏍᎪ	-11.3062
▁ᎣᎳ	-11.3062
▁ᏧᏂᏰᎸ	-11.3062
ᎯᏐᏗ	-11.3063
ᏡᏔᏂ	-11.3066
▁ᎠᏥᏍᏕᎸᏗᏱ	-11.3067
▁ᎢᏯᏋ	-11.3068
▁ᏍᎩᏳ	-11.3069
▁ᏚᎾᏓᏂᎸᏨ	-11.307
ᏓᏑᏴᎢ	-11.3073
ᏩᎵ	-11.3074
▁ᏓᏳᏓᎴᏅᎩ	-11.3075
▁ᎢᏆᎶᏂᏃ	-11.3075
▁ᏳᏁᎭ	-11.3076
▁ᎤᎵᏁᏨᎢ	-11.3076
▁ᎠᏕᎸᏓᎶᏂᎨ	-11.308
ᏥᏂ	-11.3085
▁ᎢᏥᏔᏲᎯ	-11.3086
▁ᎤᏕᎶᎰᎯᏍᏗ	-11.3088
ᏍᏚᎩᏎ	-11.3088
▁ᏚᏑᏰᏒ	-11.3091
ᏓᏤᎵᏛ	-11.3092
▁ᏕᎦᏛᎢ	-11.3092
ᏍᏆᏂᎪᏓᏁᏗ	-11.3093
ᎵᏍᎨ	-11.3094
▁ᏌᏊᏃ	-11.3098
ᎣᏏᏉᏗ	-11.3099
▁ᏂᏚᏛᏁᎸ	-11.3099
ᎯᎸ	-11.3105
ᏁᏉᏤᏗᏱ	-11.3107
▁ᎤᏚᏓᎳ	-11.3107
▁ᎤᏄᎪᏤᏃ	-11.3108
▁ᏧᎾᏄᏬᎢ	-11.3108
ᏯᏅᎡᎵ	-11.3111
ᏅᏖ	-11.3111
▁ᏬᏥ	-11.3112
ᏍᏔᏱ	-11.3113
ᏘᏂᏒ	-11.3114
▁ᎤᏂᎷᏤᏗᏱ	-11.3116
ᏰᎸᎰ	-11.3116
ᎵᏙᎸᎢ	-11.3116
ᏍᎦᎢᎲᎾ	-11.3119
▁ᏧᏄᏬᏍᏗ	-11.312
ᏣᎵᏍᎦᏍᏙᏛ	-11.3123
ᏕᏙᎭ	-11.3124
▁ᏕᎦᎵᏦᏛ	-11.3124
▁ᏎᎳᏃ	-11.3124
▁ᎤᏇᏓᎸᎢ	-11.3127
▁ᏭᏯᏅᎮᎢ	-11.3127
▁ᎤᏜᏅᏛᎢ	-11.3127
ᏆᎧᎿᏅᎩ	-11.3131
▁ᏕᏥᎧᏅ	-11.3133
▁ᏉᏏ	-11.3135
▁ᏗᎦᏅᎯᏛ	-11.3135
▁ᎤᏤᎵᎪ	-11.3135
▁ᎠᏂᏙᎾᎥᎢ	-11.3136
ᏂᎮ	-11.3137
ᏃᏴᎵ	-11.314
ᏙᏙᏱ	-11.314
▁ᎤᏂᏃᎮᎸᎩ	-11.3142
▁ᎪᎢᎭ	-11.3143
▁Ꮌ	-11.3147
ᏂᏍᏓᏩᏚᎦ	-11.3148
ᏏᏙᎮ	-11.3149
ᏚᎸ	-11.315
ᏍᎦᏅᏨᎯ	-11.3153
▁ᏍᎩᎵ	-11.3154
▁ᎯᏰ	-11.3154
ᎦᏙᎥᎯᏍᏗ	-11.3157
ᏗᏔᏍᎬ	-11.3157
ᏐᏢᎢᏍᏗᎭ	-11.316
ᏂᏆᏘᎭ	-11.3161
ᏎᎪᎩ	-11.3163
▁ᏴᎾ	-11.3164
▁ᏂᎨᏒ	-11.3166
▁ᎤᏅᏏᏴᎢ	-11.3166
▁ᎤᎨᏓᎵᏴᎢ	-11.3166
▁ᏈᎳᏃ	-11.3168
ᏓᏅᏬᏗ	-11.3169
▁ᎬᏗᏍᎬᎩ	-11.3171
ᏃᎮᎮᎸᎩ	-11.3173
ᎸᏂᏗᏍᎩ	-11.3175
ᏲᎵᎴ	-11.3177
▁ᎠᏂᏐᎢᏍᎩᏂ	-11.3178
ᏍᏔᏁᏗ	-11.3178
▁ᎧᎳᏩᏗᏒᎢ	-11.3182
▁ᏗᎦᏚᎲᎢ	-11.3184
ᏥᎶᏛ	-11.3185
ᏨᎦ	-11.3186
▁ᏩᏥᏯᏅ	-11.3186
▁ᎤᏙᎴᎰᏒᎩ	-11.319
▁ᏎᎳᏱᏃ	-11.3191
ᎤᏙ	-11.3194
ᎦᎲ	-11.3196
ᎪᎲᏍᏔᏁ	-11.3199
▁ᎤᏂᏍᏆᏂᎪᏔᏅ	-11.32
ᎵᎯ	-11.3201
ᏥᏌᎳᏙᏗ	-11.3204
▁ᎤᎿᎷᏎ	-11.3206
ᏛᏅᎢᏍᏗᏍᎨ	-11.3207
▁ᏭᎶᏒᏍᏛ	-11.3207
ᏂᏐᏗᏱ	-11.3208
ᏏᎳᏕ	-11.3212
▁ᏧᏃᎸ	-11.3212
▁ᎨᏆ	-11.3213
▁ᎠᏆᏓᏅᏖ	-11.3213
▁ᎤᏲᎴᏃ	-11.3214
ᏰᎵᏏ	-11.3215
ᏓᏅᏒ	-11.3222
ᏯᏛᏁᏗᏱ	-11.3222
▁ᏚᏂᏃᎩ	-11.3223
ᏥᏯᏂᏍᎨᏍᏗ	-11.3225
▁ᎣᎩᎷᏤᎸ	-11.3226
▁ᎢᎦᎦᏛᎢ	-11.3227
▁ᏓᏓᎿᏩᏍᏛᎢ	-11.3227
▁ᏙᏣᏓ	-11.323
▁ᎤᎾᏂᎩᏒ	-11.323
ᏥᏁᎰᎢ	-11.3231
▁ᏆᎷ	-11.3235
ᏓᏅᎾ	-11.3235
ᏃᏎᎭ	-11.3235
ᎫᏍᏛ	-11.3237
▁Ꮚ	-11.3239
▁ᏚᏪᎧᎮ	-11.3241
▁ᎠᏂᏃᎮᏍᎬᎢ	-11.3242
▁ᎠᏍᎦᏯᏯ	-11.3248
ᎪᎨ	-11.325
ᎸᏏ	-11.325
ᎷᏤᎸᎭ	-11.3251
▁ᎤᎾᎵᏥᏙᏅ	-11.3252
ᏛᏅᎢᏍᏔᏅᎩ	-11.3254
ᏘᏴ	-11.3259
▁ᏚᎴᏁᏃ	-11.326
ᏥᎾᏄᎪᏫᏎᎸ	-11.3266
ᎸᏉᏙᎢ	-11.3269
ᏭᎪ	-11.3273
ᏄᎪᏨ	-11.3273
▁ᎤᏪᏁ	-11.3275
▁ᎤᎵᏂᎩᏗᏳᏍᎩᏂ	-11.3276
ᏂᎨᏒᎾ	-11.3278
▁ᎤᏍᎩᏓᏒ	-11.3281
▁ᏚᎾᎦᎴᏅ	-11.3283
ᎪᏪᎳ	-11.3283
ᏂᏬᏂᏍᎩ	-11.3284
▁ᎠᏆᏛᎦᏅᎩᏃ	-11.3288
▁ᎤᏂᎪᎲᎢ	-11.3289
ᎧᏔᎲ	-11.3295
ᏂᏪᎠ	-11.33
▁ᏳᎵᏃᎯᏰ	-11.33
ᏆᎵᎢ	-11.3302
ᏓᏅᏖᏗ	-11.3304
ᎯᏍᎩᏂᏃᏅ	-11.3306
ᏁᏤᎢ	-11.3309
ᎧᏁᎬ	-11.3311
ᎸᏉᏛ	-11.3314
ᎦᏢ	-11.3314
ᎪᎮᎢ	-11.3316
ᏂᎦᎵ	-11.3321
▁ᎾᏯᏛᎥ	-11.3322
ᎪᏩᏘ	-11.3327
ᏁᏢ	-11.3328
▁ᏫᎬᏪᎧ	-11.3332
ᏓᏠ	-11.3334
ᏥᏁᎪᎢ	-11.3334
ᏓᎴᎲᎦ	-11.3336
ᎵᏍᏗᏍᎬ	-11.3337
ᎵᏎᎭ	-11.3339
▁ᏍᎩᏲᏎ	-11.334
ᎧᎵᏨ	-11.3341
ᏄᏛᏗ	-11.3343
▁ᎠᏍᎦᏂᏍᎩᏂ	-11.3345
ᏅᏙ	-11.3345
ᏗᏛ	-11.3349
▁ᎬᏩᏛᏛᏅᎩ	-11.3349
ᎦᏉ	-11.3353
▁ᎤᏍᏚᏁ	-11.3354
▁ᏥᏂᎦᏪᏍᎪ	-11.3354
ᎦᏬ	-11.3355
ᏏᏉ	-11.3359
ᏥᏰᎸ	-11.3359
▁--	-11.3364
▁ᏫᎬᏩᏴ	-11.3368
ᎬᏩᏂᎪᏩᏛ	-11.3368
ᏕᏨᎩ	-11.3368
▁ᏳᎾᎵᎪ	-11.3377
▁ᏣᏓᏰ	-11.3378
ᏓᏁᎲᎾ	-11.3379
ᏇᏅᎯ	-11.3381
▁ᏕᎧᏅ	-11.3382
ᏬᏂ	-11.3383
▁ᎠᏆᎴᏂᏙᎸ	-11.3384
ᎦᏔᎲᎩ	-11.3385
ᏏᏔᏕᎢ	-11.3385
ᏈᏃ	-11.3385
▁ᎣᎩᎭ	-11.3389
▁ᏂᏥᎥᏰᏃ	-11.3391
▁ᎪᎵ	-11.3391
ᎦᏘᏗᏍᏗᏱ	-11.3392
▁ᎢᏨᏰᎵᏎ	-11.3395
▁ᏪᎮ	-11.3395
▁ᏓᎱᏃᎲ	-11.3397
▁ᎤᎾᏓᏙᎵᏍᏓᏁ	-11.3399
▁ᎤᎾᏛᎦ	-11.3399
ᏍᏓᏁᎭ	-11.3412
ᎯᏴᎩ	-11.3414
ᎵᎮᎵᏥ	-11.3417
ᎾᏁᎴ	-11.3418
ᏄᎸᎲ	-11.3426
▁ᏕᎨᏥᏲ	-11.3428
▁ᎤᏍᎦᏤ	-11.3429
ᎧᏃᎮ	-11.3432
▁ᏆᎩ	-11.3434
ᎵᎵ	-11.3435
ᎯᏍᏔᏁ	-11.3436
ᏓᏁᏟᏴ	-11.3438
▁ᎹᎵ	-11.3441
ᎵᎪᏁᎸᎯ	-11.3447
ᎾᏣᎡᎢ	-11.3449
ᎨᎯᏓᏍᏗ	-11.345
▁ᎢᎳᎻ	-11.345
▁ᎫᏩᎾ	-11.3451
ᎵᏂᎪᎯᏍ	-11.3451
ᏣᎴ	-11.3454
ᏅᏓᏗᏍᎨᏍᏗ	-11.346
▁ᏳᏫᎦ	-11.3462
▁ᏫᏚᎷᏤᎴ	-11.3462
ᎪᏙᎯ	-11.3464
▁ᏳᏰᎸᏁ	-11.3464
ᏳᏍᏗ	-11.3465
▁ᏧᏩᏔᏁ	-11.3474
▁ᏓᎾᏗᏔᏍᎨ	-11.3475
▁ᎠᏍᏓᏱ	-11.3478
▁ᏄᎾᏍᏛᎢ	-11.3479
ᏱᎴ	-11.3479
ᎬᏉ	-11.3479
ᎨᎲ	-11.348
ᎪᎵᏰᏍᎪᎢ	-11.348
ᏛᏂᏗᏍᏗ	-11.3481
Ꮽ	-11.3483
▁ᎤᏂᎪᎲᏃ	-11.3484
ᏩᏒᎬ	-11.3489
▁ᎦᏍᎩᎶᏃ	-11.349
▁ᏙᎬ	-11.3491
▁ᎤᏚᎵᏍᎬᎢ	-11.3494
ᏂᏴᎭ	-11.3497
ᏄᎮᎵ	-11.3501
▁ᏫᏙ	-11.3503
ᏲᎯᏎᏗ	-11.3505
▁ᏱᏣᏓᏅᏖ	-11.3506
ᏴᏓᏆᎶᎥᎩ	-11.3527
▁ᏚᏂᏅᏨ	-11.3529
ᏬᎥᎢ	-11.3533
▁ᏚᏂᏍᏚ	-11.3534
▁ᎤᎦᎾᏍᏛᏃ	-11.3536
ᏴᏍᏕᏍ	-11.3548
▁ᏓᏟᏰᎵᏙ	-11.3549
ᏦᏕ	-11.3551
ᏥᎨᏳᎢ	-11.3557
ᏓᏁᎰ	-11.3569
▁ᎠᏏᏴᏫᏉ	-11.3574
ᏯᏔ	-11.3575
ᏍᏆᏂᎪᏔᏂ	-11.3577
ᏓᏁᎭ	-11.3577
ᏌᎡ	-11.3581
▁ᎯᏍᎦᏍᎪᎯᏃ	-11.3582
▁ᎠᏔ	-11.3586
ᏠᏱᎭ	-11.3593
▁ᏣᏓᏡᏗᏍᎪ	-11.3597
ᏚᏓ	-11.36
ᏲᎮᎸᎩ	-11.3602
▁ᎤᎾᎵᎪᏒ	-11.3603
ᎦᏘᏰᎢ	-11.3605
ᏂᏴᎯ	-11.3606
▁ᎣᎬᏙᏗ	-11.3606
ᎾᎨ	-11.3612
ᎲᏉ	-11.3612
ᎴᏅᎲ	-11.3614
▁ᎤᎾᏨᏎ	-11.3618
▁ᎤᎵᏂᎩᏗᏳᏰᏃ	-11.3618
▁ᎤᏎᎵᏔᏅ	-11.3624
ᏲᎱᏎ	-11.3624
▁ᏦᎠᏍᎪᎯᏃ	-11.3628
▁ᏫᏗᎩ	-11.3631
ᎦᏌᎴ	-11.3634
ᏓᏇ	-11.3639
▁ᏚᏄᏩᎥ	-11.364
ᎨᏅ	-11.3641
▁ᎠᏂᎦᏘᏴ	-11.3642
ᏥᎪᏩᏗᎭ	-11.3644
ᏪᎶ	-11.3646
▁ᎦᎵᏦ	-11.3646
▁ᎤᏂᎷᏤᏃ	-11.3667
ᎨᏓᎵ	-11.3671
ᏴᏂ	-11.3676
▁ᏚᏂᎧᎵ	-11.368
ᎦᎶᎯᏍᏗᏱ	-11.3685
ᏕᎲ	-11.3687
ᏕᏯᏙᏓ	-11.3695
▁ᎢᎶ	-11.3696
ᏓᏅᏖᎳ	-11.3711
ᏥᎬᏩᎶ	-11.3716
ᎵᏎ	-11.3722
ᎯᎠᏃ	-11.3724
▁ᎠᏂᎦᏔᎲᎩ	-11.373
ᏪᏎᎭ	-11.3733
▁ᎤᎾᎴᏅᏗ	-11.3736
ᎸᏉᏙᏗᏱ	-11.3736
▁ᏭᏏᎳᏛᏁ	-11.3742
▁ᏧᎦᎴᏅ	-11.3744
▁ᏧᏂᏲ	-11.3744
▁ᎦᏃᎯᎵᏙ	-11.3755
ᎩᎵᏲᎩ	-11.376
▁ᏄᏅᏁ	-11.3771
▁ᏚᎾᏓᎸ	-11.3774
ᎢᎲ	-11.3787
▁ᎦᏍᎩᎸᏃ	-11.3792
▁ᎭᏢᏃ	-11.3794
▁ᏖᎾ	-11.3799
ᏥᎪᎥ	-11.3801
ᏂᏚ	-11.3805
ᏛᏁᎰ	-11.3805
ᏙᎴᎰᏒ	-11.3806
▁ᎤᏂᏬᏂᏒ	-11.3807
ᎦᏙᏍᏕᎢ	-11.3807
ᎨᏫ	-11.3819
▁ᏄᎵ	-11.3826
ᏅᏣ	-11.3836
▁ᏕᎦᏄᎪᏫᏍ	-11.3837
▁ᎤᏂᏩᏒ	-11.384
▁ᏥᏯᎥ	-11.384
ᏲᏍᏙᏓᏁᏗ	-11.3841
▁ᏯᎩᎪ	-11.3843
ᏔᏲᎯᎲ	-11.3844
ᏪᎴ	-11.3845
ᏎᏒ	-11.3852
ᎾᏗᏅᏎ	-11.3853
ᏍᏆᏂᎩᏗ	-11.3854
ᎢᏳ	-11.3868
ᏂᏕᏅ	-11.3868
ᏥᏩᎯᏍᏔᏅᎯ	-11.3869
▁ᏣᏲ	-11.3872
ᏗᎦᏅᎯᏛ	-11.3873
ᏍᏆᏂᎪᏛ	-11.3875
▁ᏴᎦᏲ	-11.3877
▁ᏱᏓᏚ	-11.3888
ᏍᏋ	-11.3891
ᎩᏯᏅᏛ	-11.3894
ᏲᎮᎴᎢ	-11.3895
ᏙᏯᏅᎯᏕᎢ	-11.3895
ᎾᏏᏁ	-11.3898
ᏗᎦᎸᏉᏗ	-11.3907
▁ᏓᏈ	-11.3911
ᏅᎦᎸᎮᎢ	-11.3918
ᏱᎦ	-11.3919
▁ᏣᎦᎴ	-11.392
ᏲᏍᏔᏂ	-11.3925
▁ᏰᎮ	-11.3931
ᎬᏂᏛ	-11.3933
▁ᎢᏨᏯᏅᏓᏗᏍ	-11.3939
ᏍᏆᏂ	-11.3941
ᏍᎦᎬ	-11.3943
ᎪᏫ	-11.3944
ᏲᏎᎸ	-11.3945
ᏓᏲᏁᏗ	-11.3946
▁ᏕᏫᏃ	-11.3946
ᎪᏕᏍᏗ	-11.3952
ᏂᎩᏏ	-11.3963
ᏏᎵ	-11.3964
ᏴᏢ	-11.3965
▁ᎤᏓᏅᎡᎸᎩ	-11.397
ᏗᏓ	-11.3973
▁ᏗᎦᏙᎵᏃ	-11.3973
ᎮᎴ	-11.3979
▁ᏙᏓᏥ	-11.398
ᏂᎪ	-11.3982
ᎦᎴ	-11.3983
ᎦᏌᏯᏍᏕᏍᏗ	-11.3985
ᏂᏡ	-11.3987
▁ᎠᎵᎮᎵᎪ	-11.3992
ᏥᎾᏌ	-11.3993
ᎲᏃ	-11.3993
ᏁᏁᎴ	-11.3993
ᏠᏯᏍᏙᏗᏱ	-11.3996
▁ᎤᏣᏔᏅᎯᏃ	-11.3998
ᎤᏂ	-11.4
▁ᎬᏩᏄᎯ	-11.4002
ᎵᏖᎸ	-11.4003
▁ᏣᏕ	-11.4004
ᏲᎳ	-11.4011
▁ᏄᎨᏳᏎ	-11.4012
ᏥᏁᏤᎸᎯ	-11.4015
ᏧᏓ	-11.4016
ᏪᏥ	-11.4021
ᎪᎵᏰᏍᎨ	-11.4023
ᎵᏗ	-11.4039
▁ᏅᏓᏣ	-11.4048
ᏙᏍᏛᎢ	-11.405
▁ᎠᏂᎡ	-11.4053
ᎾᏗᏍᎪᎢ	-11.4053
ᎩᏐ	-11.4055
▁ᎡᎳᏪᏱᏉ	-11.4057
ᎬᏯ	-11.4063
ᏚᎢ	-11.4083
ᎶᎸᎯ	-11.4092
ᎶᏔᏅ	-11.4095
ᏃᎯᏎᏗ	-11.4096
ᏁᏟᏴᏍᏗ	-11.4097
ᎾᏅᏁ	-11.4101
ᏕᎳ	-11.4104
▁ᏗᏓᎴᎲ	-11.4104
ᏙᏢᏒᎢ	-11.4108
ᏲᏎ	-11.411
ᏱᎵᏙ	-11.4118
ᏍᏓᏩᏛᏍᏗᏱ	-11.4119
ᏍᏆᏂᎪᏙ	-11.4128
ᏴᏔᏅᎩ	-11.413
ᏥᏳ	-11.4137
ᏬᏁᏙᏗ	-11.4138
▁ᏥᏂᎬ	-11.4146
ᏄᎪᏥ	-11.415
ᎪᏩᏘᏍᎨᏍᏗ	-11.4153
ᎾᏗᏅᏗ	-11.4155
ᎪᏁᎶ	-11.4156
ᎶᏁᏗ	-11.4157
▁ᎤᏬᏰᏂᏃ	-11.4158
ᎤᎾ	-11.4163
ᎬᎾᎨ	-11.4167
▁ᏗᏂᏲᎵᏃ	-11.4169
ᏩᏗᏒ	-11.4171
▁ᎢᏥᎧᎵᎢ	-11.4172
ᎦᏂ	-11.4183
▁Ꮰ	-11.4184
ᏓᎢᏅᏒᎩ	-11.4189
ᏍᏆᎵᏍᎨ	-11.4191
ᏁᏤᎮᏍᏗ	-11.4193
▁ᎠᏲᎵᏃ	-11.4196
ᏍᏗᏰᏔᏅᎩ	-11.4202
▁ᏫᎦᎶ	-11.4202
ᏧᏓᎴ	-11.4214
ᎰᎸ	-11.4216
ᏱᎵᏙᎸ	-11.4219
ᏁᎶᎯ	-11.4223
ᏅᏯ	-11.4223
ᎧᏁᏥ	-11.4225
ᏍᏆᏂᎪᏍᎨ	-11.4226
▁ᎤᏛᏓᏍᏓᏁᎴ	-11.4226
▁ᎨᏥᏯᏅᏗ	-11.4237
ᏭᎾ	-11.4244
▁ᎮᎵ	-11.4248
▁ᏯᎩᏰᎸ	-11.4253
ᏕᏯᏙᏗ	-11.4268
ᎢᏴ	-11.4273
ᏥᏃᎮᏍᎬ	-11.4275
ᎸᏉᏔᏂ	-11.4276
▁ᎠᎩᏍᏆᏂᎪ	-11.4277
ᏩᏕᎦ	-11.4282
▁ᎬᏩᏯᏫ	-11.4289
ᏂᎩᏍᎬ	-11.4297
▁ᎠᏓᏁᎸᏃ	-11.4298
ᎪᏁ	-11.4301
ᎫᏴᏗ	-11.4304
ᎧᎵᎢᏍᏗᏱ	-11.4306
▁ᎠᏉᎯᏳ	-11.4309
▁ᏎᏗ	-11.431
ᏓᏂᏐᏗᏱ	-11.4313
ᏉᎨ	-11.4315
▁Ꮦ	-11.4318
▁ᏫᏗᎨ	-11.4321
▁ᎠᎺᏉᎯᏃ	-11.4322
▁ᎤᎦᏔᎲᏒᎩ	-11.4324
ᎨᏃ	-11.4324
ᏈᏓ	-11.4335
ᎷᎨᏍᏗ	-11.4339
ᏂᏁᏨ	-11.434
▁ᎠᏥᏯᏅᎲ	-11.4344
▁ᏱᏄᎾ	-11.4355
ᏓᏁᎲ	-11.4359
▁ᎢᎦᏛᏉ	-11.436
▁ᎢᎪ	-11.4366
▁ᏧᎦᏌᏬᎸ	-11.4371
ᎾᎵᏍᎦᏍᏙᏗ	-11.4372
ᏲᎯᏍᏗᏱ	-11.4373
ᎦᏄᎪᎬᎢ	-11.4375
ᏰᎦ	-11.4376
ᎴᏔᏂ	-11.4377
ᏓᎨᏳ	-11.4379
▁ᏔᎴ	-11.44
ᏂᎪᎲ	-11.4408
ᎬᏩᎶ	-11.4412
ᎬᏁ	-11.4413
▁ᎠᎵᎮᎵ	-11.4415
ᏍᏕᎵ	-11.4432
▁ᏕᎬᏆ	-11.4433
ᏍᏘᏰᎬᎢ	-11.4433
ᎾᎻ	-11.4446
ᏙᎦ	-11.4451
▁ᏴᎨᏨ	-11.4451
ᏕᏃ	-11.4454
▁ᎢᏯᎦ	-11.4459
ᎾᏙ	-11.446
ᏓᎵᏁᎯᏕ	-11.446
ᏥᏍᏕᎸᏗᏱ	-11.4462
ᏦᎯᏳᏅ	-11.4475
ᏛᏃᎯ	-11.4475
ᎸᏫᏍᏓᏁᏗ	-11.4478
▁ᏱᏥᏍᏆᏂᎪ	-11.4486
▁ᏚᏲ	-11.4486
▁ᏔᎳ	-11.4487
▁ᏕᎨᏣ	-11.4489
ᎦᏙᎥᏎ	-11.449
ᎵᏍᏓᏴᎲᎦ	-11.4513
ᏓᏁᎲᎩ	-11.4516
▁ᏮᏓᏥ	-11.4521
ᎵᏨ	-11.4536
▁ᎤᏂᏲᎮ	-11.4538
ᏕᏏ	-11.4541
ᏨᏓ	-11.4543
ᏁᏤᎸᎩ	-11.4557
ᎵᏙᎯ	-11.4557
ᎦᎵᏍᏓᏛ	-11.4566
ᏳᎵ	-11.4573
ᏕᏘ	-11.4575
ᏰᏅ	-11.4575
▁ᎤᏬᎯᏳᏁ	-11.4577
▁ᏫᏓᎦ	-11.458
▁ᎤᏗᏍᎦᏢ	-11.4581
ᏘᏅᏍᏔᏁᎢ	-11.4582
ᎪᏔᏅ	-11.4583
ᏔᏛ	-11.4586
▁ᏣᎪ	-11.4589
ᏲᎲᎩ	-11.4593
ᏥᏖᎸᏗ	-11.4594
ᏫᏗ	-11.4602
▁ᏗᏂᏁ	-11.4606
▁ᎤᏪᎧᏁ	-11.4616
ᏩᎾᎦᎳᎯᏳ	-11.4616
▁ᎦᏂᏴᏗ	-11.4617
ᏍᏆᏂᎪᏕᏍᏗ	-11.4618
ᏣᏉᏍᎪ	-11.4622
ᎧᏃ	-11.4626
▁ᎤᏬᏒ	-11.4632
ᏛᎦᏅ	-11.4634
ᎵᏌᎳ	-11.4634
ᏰᎸᎮ	-11.4641
▁ᎤᏓᏣᎦᎸ	-11.4645
ᏥᏍᏕ	-11.4646
▁ᏓᎴᎲᏍᎬ	-11.4649
ᏅᏨᎩ	-11.4655
▁ᏂᏕᎦ	-11.4659
▁ᏓᎦᏥ	-11.4672
▁ᎠᎾᏙ	-11.4677
ᏩᏛᎮᎢ	-11.4678
▁ᎤᏪᏯ	-11.4682
ᏄᎪᏫᏍᏗᏱ	-11.4695
▁ᏧᏭᎪ	-11.47
ᏗᏔᎯ	-11.4721
ᏟᏂᎩᏓ	-11.4721
▁ᏧᏂᏯ	-11.4733
▁ᎤᎾᏣ	-11.4736
▁ᎤᎾᏘ	-11.4737
ᎾᏝᎠ	-11.4743
▁ᎦᏄᎪᎬ	-11.4745
ᏓᏪ	-11.4758
ᎩᏎᎢ	-11.4766
ᏄᎪᏫᏒ	-11.4771
ᏂᏆᏘᎮᏍᏗ	-11.4777
ᎧᎾᎾ	-11.478
ᏂᎷᏨ	-11.4785
ᎵᎩ	-11.4786
ᎾᏣᏅᎩ	-11.4789
▁ᏚᏌᎳᏓᏅ	-11.4801
ᎮᎸ	-11.4806
ᏠᏯ	-11.4812
ᎪᏓ	-11.4824
▁ᏩᏴᏍᏗ	-11.4831
ᎾᎾᎵᏍᏗ	-11.4832
▁ᏘᎩ	-11.4832
ᎵᏰᏅ	-11.4834
ᏖᏍ	-11.4837
ᏯᏛᏗ	-11.4838
ᏎᎮᏍᏗ	-11.4839
▁ᎰᎯᏳᎲᏍᎦ	-11.484
ᎪᏩᏔ	-11.484
ᎧᎸ	-11.4841
ᏒᏁ	-11.4843
▁ᎦᏁᏟᏴ	-11.4852
ᎴᎲᏍᎦ	-11.4859
ᏬᏥ	-11.4867
ᎦᎸᏉᏗᏳ	-11.4869
ᏖᏃᎯ	-11.4873
ᎦᏓᏅᏖᏗ	-11.4876
ᏛᏅᎢᏍᏙᏗ	-11.4884
ᎵᏏᎲᏍ	-11.4891
ᏂᏂᏌᏁᎢ	-11.4892
ᏃᎯᏰ	-11.4893
ᏓᏛᏁᎭ	-11.4894
ᏠᎯᏍᏔᏅ	-11.4897
▁ᎢᏣᏙᎴᎰ	-11.4905
ᎮᏗᏱ	-11.4906
▁ᏄᎾᎵᏍᏓᏁ	-11.4923
▁ᎢᏣᎵᏏᎾᎯᏍᏗ	-11.4925
▁ᏥᏍᎦᏅᏤᎸ	-11.4926
ᏓᏴᎳᏔ	-11.4929
ᎾᏁᎶ	-11.4932
ᎩᎳᎾᎳᏗᏍ	-11.4937
ᏍᎫᏕ	-11.4939
▁ᏓᏰᏣ	-11.4939
ᏕᏲᎲ	-11.494
ᏞᏤ	-11.494
ᎧᏔᎮᎢ	-11.4941
ᎵᏍᎪᎸᏓᏏ	-11.4945
▁ᏥᏨᏲᏎ	-11.4961
▁ᎧᏁᎢᏍ	-11.4969
ia	-11.498
▁ᎤᏂᎧᎲ	-11.4986
ᏥᎪᏩᏘᎭ	-11.4988
ᏓᏅᏓᏗᏍᏗ	-11.4992
ᏕᏔᏅᎯ	-11.4996
ᏝᏁᎢ	-11.4999
ᏍᏓᏁᎲ	-11.5003
ᏧᏢ	-11.5004
▁ᎾᏋ	-11.501
ᎠᏡᏗᏍᎩ	-11.5016
ᎠᎴᏂ	-11.5018
ᎧᏘ	-11.5028
ᏓᏛᏁᎵ	-11.5028
ᏐᏢᎢᏍᏙᏗᏱ	-11.503
ᏩᎯᏍᏔᏅᎯ	-11.5032
ᎸᏌ	-11.5039
ᏄᎯ	-11.5044
▁ᏓᎾᎵ	-11.5068
ᎬᏍᎪᎸᏁᎢ	-11.5095
ᏘᏍᏓᏁᎯ	-11.5102
ᎵᎸ	-11.5107
▁ᏓᎬᏯ	-11.5109
ᎧᎵᎢᏍᏔᏅ	-11.5111
ᎾᏄᎪᏫᏍᎦ	-11.5114
ᏃᎮᎸᎩ	-11.5115
ᎶᎨᏒᎢ	-11.5119
ᏙᎰᎢ	-11.5131
ᏪᎵ	-11.5132
ᎩᎨᏳᎯᏳ	-11.5134
ᏕᏣᏙ	-11.5136
▁ᏕᎦᎾ	-11.5147
ᏓᏅᏛᎳ	-11.5149
ᏚᎳ	-11.5155
ᏓᎾᏩ	-11.5156
ᎯᎲ	-11.5158
ᏂᏴᏎᏍᏗ	-11.5158
ᎫᏴᎡᎸ	-11.5174
ᏲᏍᏙᏗᏱ	-11.5175
▁ᏚᏩᏛᎲ	-11.5175
ᎾᏕᏘᏴ	-11.5178
▁ᎤᏲᏏᏍᎨ	-11.5187
ᏩᏛᎯᎵ	-11.5188
ᏁᎵᏍᎨ	-11.5189
▁ᎠᎦᏔᎲᎩ	-11.5189
ᎦᏙᎨ	-11.5194
ᎬᏁᎲ	-11.5194
ᏂᏍᏚᏁ	-11.5199
ᏁᏟᏴᏒ	-11.5202
▁ᏗᎦᎳ	-11.5215
ᏘᏱ	-11.5215
ᏎᎵᏙᏔ	-11.5218
ᏍᎦᏅᏥᏙᎸᎢ	-11.5229
ᎾᏣᎥ	-11.524
▁ᎤᏣᏘᏂᏉ	-11.5245
▁ᎬᎨᏳ	-11.5247
ᎵᏍᏓᏴᏅ	-11.5248
ᏣᎦᎸ	-11.5249
ᏛᎩᎠ	-11.5249
ᎫᎩ	-11.5254
ᏠᏍᏗ	-11.5255
ᎨᏐ	-11.5256
ᎵᏍᎨᎢ	-11.5257
ᏕᏨ	-11.526
ᏬᎯᏳᏁᎢ	-11.5262
ᏥᏲᎢ	-11.5265
▁ᎢᏣᎦᏔᏅᏎ	-11.5271
ᏣᏛᏅᎢᏍᏓᏁ	-11.5271
le	-11.5275
ᏅᏏᏙ	-11.5277
ᏟᏐᏗᏱ	-11.5278
▁ᏗᏟ	-11.5281
ᏛᏁᎸᎢ	-11.5284
▁ᎠᏆᏛ	-11.5286
▁ᏱᏫ	-11.5287
ᏣᎩ	-11.5289
ᏛᏒ	-11.5291
▁ᏕᏣᏓᏠ	-11.5294
▁ᎦᎳᏅᏛ	-11.5294
ᏏᏯ	-11.5295
▁ᏕᏤ	-11.53
ᏴᏏ	-11.5303
ᎥᏍᎩ	-11.5304
ᏙᏔᏅᎩ	-11.5313
▁ᎤᎸᏕ	-11.5316
ᏢᎭ	-11.5318
ᏓᏙᎵᏍ	-11.532
ᏍᏓᏁᏗᏱ	-11.5321
ᏌᏕ	-11.5326
ᎧᏯ	-11.5329
ᎸᏅᎭ	-11.5341
ᏛᏂᏏ	-11.5349
▁ᏯᏆᏓ	-11.537
▁ᎠᏆᏚ	-11.5382
ᎵᎮᎵᏍᏗ	-11.5383
▁ᏭᎷᏤᎸ	-11.5387
ᏩᏛᎯᏙ	-11.5389
ᏴᎵᏎ	-11.539
ᎵᏍᎪᎸᏓᏁᎸ	-11.5391
ᎪᎡ	-11.54
ᏂᎬᎬᎢ	-11.5403
ᎦᏗᏓ	-11.5404
ᏓᎨᏳᎯᏳ	-11.5406
ᏥᎩᎡᏗ	-11.5408
▁ᏕᏣᎵ	-11.5414
ᏓᎧᏁ	-11.5416
ᎾᏛᏁᎭ	-11.5418
ᏙᎥᎢ	-11.5424
ᏌᎳ	-11.5428
ᎡᎰ	-11.5432
ᏃᎯᏏ	-11.5434
ᎰᏂ	-11.5436
ᏴᏒ	-11.5452
ᎦᏧ	-11.547
ᎠᎩᎷᏨ	-11.5471
ᏴᏔᏂ	-11.5476
ᏫᏍᎪᎢ	-11.5476
ᏤᎸᎩ	-11.5477
ᎾᏰᏍᎦ	-11.5478
ᏁᏉ	-11.5479
ᏳᏃ	-11.5482
▁ᎢᏳᏲ	-11.5494
ᏭᏂ	-11.5495
ᏂᎭᏲᎲ	-11.5495
▁ᏳᏬᎯᏳ	-11.5495
ᏃᏟᏍ	-11.5499
▁ᏭᎶ	-11.5511
ᏥᎸᏉᏔᏅᎯ	-11.5514
ᏍᏕᎸᎯ	-11.5519
ᎩᎪᎲᎯ	-11.5527
▁ᎠᏥᏍᏛᏗᏍᏙᏗ	-11.5529
▁ᎠᎵᎮᎵᏤᏗ	-11.553
ᎿᏬ	-11.5538
ᎨᏳᎢ	-11.5546
ᎩᎦᏔᎲᎾ	-11.5549
ᎥᏍᎦ	-11.555
ᏕᏒ	-11.5556
ᏥᎩᎡᎸ	-11.5559
ᏳᎵᏍᏙᏗ	-11.5567
ᎡᎩ	-11.5574
ᎵᏍᎪᎸᏙᏗᏱ	-11.558
ᎪᏩᏘᏍᎪ	-11.5581
ᏟᏍᏔᏅᎩ	-11.5581
ᏌᎩᏒ	-11.5583
ᏬᏂᎯᏍᏗᏱ	-11.5587
▁ᎤᎵᏍᏚ	-11.5589
▁ᎧᏁᏉᎨ	-11.5592
ᎸᏉᏔᏅ	-11.5593
ᎩᏍᏕᎸᏗᏱ	-11.5594
ᎨᎵ	-11.5597
ᏍᎩᏯᏅᎡᎸ	-11.5604
▁ᎤᏪᎷ	-11.5609
or	-11.5611
ᏇᏗ	-11.5612
ᏂᏌᏂ	-11.5613
▁ᎠᏑ	-11.5614
ᏫᏍᎪ	-11.5614
ᎯᏰ	-11.5617
ᏍᎦᏤᎢ	-11.562
ᏣᎬ	-11.5627
▁ᎤᏍᏓᏱᏛ	-11.5637
ᏂᎶ	-11.5637
▁ᏫᏕ	-11.5644
▁ᎭᏓᏅ	-11.5649
ᏥᏍᏈ	-11.5651
▁ᏫᎷᏥ	-11.5655
▁ᎪᎶ	-11.5657
ᏍᎪᎳ	-11.5664
ᏛᎪᏗ	-11.5669
ᎲᏍᏗᏱ	-11.567
ᎴᎬ	-11.5683
▁ᎦᏣᏄᎵ	-11.5694
▁ᎠᏂᏬᏂ	-11.5698
ᏍᏚᎲᏍᎪ	-11.57
▁ᏅᏗᎦ	-11.57
▁ᏓᏰᏙᎳᏛ	-11.5704
▁ᎤᎵᏓᏍᏔᏅ	-11.5707
ᎰᏒ	-11.571
ᏅᏬᏗ	-11.5716
ᏕᏘᏴᎲ	-11.5718
ᎴᏅᏗ	-11.572
ᏨᏍᏗ	-11.572
ᎪᎵᏰᏍᎬᎢ	-11.5729
ᏰᎢᎵᏙᎲᎢ	-11.5739
ᎵᏍᎪᎸᏓ	-11.5745
ᏂᏏᎾ	-11.5755
ᏕᏙ	-11.5757
▁ᏬᏤ	-11.5759
ᎪᎲᎩ	-11.5764
▁ᎣᎩᏍᏛᏗᏍ	-11.5771
ᏩᏂᎦ	-11.5778
▁ᎤᏁᎳᏗᏍᏗ	-11.5782
ᎤᏛᏁᎢ	-11.5783
ᏙᎰ	-11.5786
ᎵᏓᏍᏔᏅ	-11.5787
ᎾᏁᏍᎨ	-11.5794
ᎵᎪᏅ	-11.5795
▁ᎢᏯᎾᏛᏁ	-11.5796
▁ᏚᎾᏓᏅ	-11.5797
▁ᏥᏂᏣ	-11.5798
ᏛᏛᏁᎢ	-11.5799
ᏏᏏ	-11.5803
▁ᎠᏓᎾᏅ	-11.5804
▁ᎠᎱ	-11.5806
ᎪᎥ	-11.5806
▁ᏚᏆ	-11.5809
▁ᎠᏐᏢᎢᏍᏙᏗ	-11.5811
ᏥᎰᎵ	-11.5824
ᏓᎢᏅ	-11.5826
ᏍᏆᏗᏍᎬ	-11.5832
ᏥᎪᎵᏰᏗᏱ	-11.5835
ᎦᏙᎥᏒ	-11.5841
ᏗᎬᏁᏗ	-11.5842
ᏛᎦᏅᎢ	-11.5847
▁ᎤᏃᎯᏳ	-11.5849
▁ᎡᎬ	-11.5852
▁ᏰᏣ	-11.5855
▁ᎣᎩᎸᏉᏗ	-11.5862
ᎦᏔᎰᎢ	-11.587
▁ᎧᏁᏉ	-11.5872
ᏤᎮ	-11.5874
ᏅᏗᏍᎨᏍᏗ	-11.5875
ᏂᏴᏗᏱ	-11.5879
ᎬᏍᎦᎳ	-11.5879
ᏗᏅᏗ	-11.588
ᏍᏚᏁᎢ	-11.588
ᏘᏃᎯᏍᏗ	-11.5888
ᏥᏛ	-11.5888
ᎫᏴᎡᏗ	-11.5894
ᏛᏔᏁ	-11.5895
ᏁᏉᏥ	-11.5896
ᏄᎪᏫᏒᎭ	-11.5897
ᎴᏫᏍ	-11.5898
ᏯᏍᏛ	-11.5901
ᏍᏆᏘ	-11.5902
ᎪᏪᎵ	-11.5909
ᏁᏟᏴᏎ	-11.591
▁ᏓᏥᎶᏍ	-11.5922
ᏪᏎᎮᏍᏗ	-11.5925
ᎸᏅᎩ	-11.5929
ᏧᎦ	-11.5938
ᎶᏒᎯ	-11.594
▁ᎤᏪᎧᎲ	-11.5943
ᎸᏫᏍᏓᏁᎭ	-11.5944
ᏗᎦᎶ	-11.595
ᎴᎾᏍᏗ	-11.5956
ᏘᏌ	-11.5959
ᏂᎨᏥᏪᏎᎴ	-11.5961
ᏛᎦᏁᎴ	-11.5962
ᎠᏎᏗ	-11.5964
ᏑᏫᏓ	-11.5964
▁ᎣᎩᏙ	-11.5967
▁ᎢᏥᎨᏳᎯ	-11.5968
ᏰᏏ	-11.597
ᎷᏏ	-11.5971
ᎵᏳ	-11.5973
ᎸᏎ	-11.5976
▁ᏫᎦᎾᏄᎪ	-11.5981
ᏍᏈᏗ	-11.5984
ᏄᏬᎥ	-11.5987
ᏁᎬᎢ	-11.5988
ᏍᏉᏟ	-11.5995
ᎵᏱᎵᏕ	-11.6002
ᎾᏓᏅ	-11.6004
▁ᏥᏂᎦᎵᏍᏗ	-11.6007
▁ᎤᏁᏉᏤ	-11.6008
ᎰᏅ	-11.6015
ᎪᏪᎸᎢ	-11.6026
ᎵᏰᎢᎶ	-11.603
ᎲᎭ	-11.6032
ᏙᏳ	-11.6033
ᏓᏅᏓᏗᏍᏔᏅ	-11.6034
ᏂᎶᏒᎯ	-11.6036
▁ᏓᎾᏓᎧ	-11.604
ᏓᏂᎵᎨ	-11.6041
ᏛᏁᎸᎩ	-11.6041
ᏯᎦᏔᏂ	-11.6042
▁ᎤᏦᏍᏔᏁ	-11.6043
Ꮊ	-11.605
ᏪᏌ	-11.6051
ᏍᏕᎵᏍᎨ	-11.6054
ᏓᏎᎪᎩ	-11.6055
ᏫᏱ	-11.6059
▁ᏛᎬ	-11.6059
ᎪᏩ	-11.606
ᏘᏲᎯ	-11.6065
ᏱᎵ	-11.6068
ᏍᎪᏎ	-11.6073
ᏍᎦᏰᎬᏍᏔ	-11.6073
ᎵᏍᏚᎶ	-11.6076
ᎦᎾᏍᏓ	-11.6082
▁ᏓᎫ	-11.6083
ᏌᎢ	-11.6085
ᏣᏛᎦᏁ	-11.6088
▁ᏯᏋ	-11.6091
ᏗᎦᎵᏍᏙᏗᏍᎨ	-11.6092
ᏤᎳ	-11.6093
ᏉᎯᏳ	-11.6093
ᏂᎪᎵᏰᎥ	-11.6094
ᎪᎯᎩ	-11.6095
▁ᎠᎦᏞ	-11.6096
ᏍᎩᏓᏒᎢ	-11.6096
ᎸᎲ	-11.6098
▁ᏱᏅᏩᏍᏗ	-11.6098
ᏫᏒᏗ	-11.6099
ᏛᏗᏍᎨᏍᏗ	-11.6099
ᏅᎪᏨ	-11.6101
ᏛᎦᏁ	-11.6101
ᎶᏄᎮᏗᏱ	-11.6102
ᎦᏪᏍᎬᎩ	-11.6105
ᏌᏬᎸ	-11.6106
▁ᏫᏘ	-11.6106
ᏔᎷᎩᏍᎬ	-11.611
▁ᏕᏨᏯ	-11.6113
ᏰᎾ	-11.6113
▁ᏱᎬᏆ	-11.6115
ᏰᏂ	-11.6118
ᏙᏂ	-11.6119
ᎪᎸᏛ	-11.6123
ᏏᎾᏌᏂ	-11.6123
ᎦᏔᎿᎢ	-11.6123
ᏂᎬᎨ	-11.6125
ᎦᏁᎳᏅᎯ	-11.613
ᏅᏁᏗ	-11.613
ᏔᏕ	-11.6134
ᏓᏘᎾᎥ	-11.6135
ᏯᏛᎥ	-11.6135
ᏙᎵᏨᎢ	-11.6137
ᏔᏲᏎᎮ	-11.6141
ᏓᏅᏖᎮ	-11.6143
ᏍᏙᏗᏍᎨ	-11.6144
ᎦᏖᏃ	-11.6144
▁ᎨᎢᎾᏂ	-11.6145
ᏂᏪᏍᎨ	-11.6145
▁ᎢᏏᎦ	-11.6146
▁ᎤᎾᏗᎦᎴᏲᏨᎯ	-11.6146
ᏨᏌ	-11.6147
▁ᎢᏓᏙᎴᎰᎯ	-11.6148
ᏂᏆᏘᎲ	-11.6149
ᎨᎳᏍᏙᏗ	-11.615
ᏚᎢᏍᏓᏁ	-11.6151
▁ᏓᎩᎪᎲ	-11.6152
ᎦᎾᏅᎪ	-11.6154
ᏓᎦᎶᏐᏂ	-11.6159
ᏓᏙ	-11.6166
ᏯᏃ	-11.6166
ᎵᏬᏤ	-11.6167
ᎤᏁᏤ	-11.6167
ᎦᏅᎯᏓ	-11.6167
ᏁᎢᏍᏔᏁ	-11.6167
ᏄᏩᎢᏴ	-11.617
▁ᎠᎩᏫ	-11.617
ᎮᎵᎠᏍᎪ	-11.6171
▁ᎠᏫᎾᎨ	-11.6171
▁ᎤᎾᎵᎪᏎ	-11.6174
ᎦᎾᏄᎪᏫᏍᎪ	-11.6175
ᏂᎦᏛᏁᎰᎢ	-11.6176
▁ᎤᏂᏂᎬᏎᎲ	-11.6176
ᎩᎦᎨᏍᏛᏱ	-11.6176
ᏕᏓᏓᎪᎲᏳ	-11.6176
▁ᎤᏅᏍᎦᎴ	-11.6176
ᎣᏏᏉᏍᎪ	-11.6176
▁ᎤᏓᏙᏎᎴ	-11.6176
▁ᎠᏌᎹᏗ	-11.6176
▁ᏓᎾᏓᏅᏖᏍᎬ	-11.6177
▁ᏳᏂᎪᎮ	-11.6177
ᎷᏨᎯ	-11.6178
ᏗᎦᎪᏗᏱ	-11.6179
ᎦᏙᏍᏕ	-11.6179
▁ᏚᎸᏫᏍᏓᏁᎮ	-11.618
▁ᏱᏅᏎᎦᎩ	-11.618
▁ᎢᏣᏓᏁᏟᏴᏏᏒ	-11.6181
ᎤᏬᏚᏨ	-11.6182
ᎠᏋᏌ	-11.6182
ᏚᏓᎴᏛ	-11.6182
ᎠᎳᏑᎶ	-11.6182
▁ᎢᏨᏬᏁᏔᏅ	-11.6182
▁ᎤᏁᎸᏔᏁ	-11.6182
ᏧᏂᎸᏫᏍᏓᏁᎯ	-11.6183
▁ᎠᏍᏆᏂᎪᏗᏍᎨ	-11.6184
▁ᎤᏔᎳᏬᏍᎬ	-11.6184
ᏘᏅᏎ	-11.6184
ᎬᏂᏳᏉ	-11.6184
▁ᏫᏚᏳᎪᏛ	-11.6184
▁ᏂᏚᏂᏪᏎᎴ	-11.6185
▁ᎾᏆᎵᏍᏓᏁᎸ	-11.6185
▁ᏂᎤᏪᏎ	-11.6185
▁ᏕᏣᎸᏫᏍᏓᏁᎲ	-11.6185
ᏣᏄᏏ	-11.6185
ᏓᎩᏎ	-11.6186
ᎶᏒᎢ	-11.6186
▁ᏚᏰᎵᎯᏍᏔ	-11.6186
ᎬᏂᏗᏳ	-11.6187
▁ᎠᎾᎢᏎ	-11.6187
▁ᏓᎩᏏᎳᏛ	-11.6187
ᎺᎵ	-11.6187
▁ᏚᏠᏱᎴ	-11.6188
▁ᏄᏕᏘᏴᎮ	-11.6188
ᎪᏎᎮᏍᏗ	-11.6188
▁ᎠᏉᎸ	-11.6188
▁ᏥᎦᎷᎪ	-11.6188
ᎡᎳᏂ	-11.6189
ᎤᏔᎷᎩᏍᎩ	-11.6189
▁ᎠᎵᏍᏕᎵᏍᎬ	-11.619
ᏂᏚᏪᏎᎸᎩ	-11.619
▁ᎠᏂᏫᎾᎨ	-11.6191
▁ᏂᎬᏩᏪᏎᎴ	-11.6191
▁ᎠᏂᎪᎵᏰᏍᎨ	-11.6191
▁ᎤᏂᏇᏓᎸ	-11.6192
ᎣᎯᏍᏙᏗ	-11.6192
ᏓᏙᎵᏣᏘᏳ	-11.6192
ᏐᏈᎵ	-11.6192
ᏈᎳ	-11.6192
ᏧᏪᏥ	-11.6193
ᎦᎵᏉᎩ	-11.6194
ᏕᎶᏆᏍᏗ	-11.6194
ᎪᏢᏅᎯ	-11.6194
▁ᏚᏫᏞᏫᏒ	-11.6194
▁ᎦᏃᎪ	-11.6195
▁ᏚᏂᏂᏴᎮ	-11.6196
▁ᏚᏪᎧᏁᎴ	-11.6196
ᏟᎶᏛ	-11.6197
▁ᎦᎶᏐᎲᏍ	-11.6198
ᏗᏂᎦᏘᏯ	-11.6198
ᎾᏕᎶᏆ	-11.6198
▁ᎤᎾᎦᏙᏍᏕ	-11.6198
ᏍᏆᏃᏴᎪ	-11.6199
ᎯᏄᎪᎢ	-11.62
▁ᎤᏕᎰᎯᏍᏗᏳ	-11.62
ᏤᎦᏈᏃ	-11.6202
ᎡᏆ	-11.6203
▁ᏚᏂᎧᎲ	-11.6203
▁ᎭᏕᎶᎰ	-11.6203
▁ᏚᏬᏢᏁ	-11.6204
ᏎᎵᏔᏁ	-11.6204
ᏯᏪᎢᏍᏗ	-11.6204
▁ᏄᏅᏁᎴ	-11.6205
ᏂᏁᎦᎸ	-11.6205
ᏓᏨᏁᎵ	-11.6205
ᎵᏍᎪᎸᏗᏍᎬ	-11.6205
ᏖᎸᎮᏍᎬ	-11.6205
▁ᎾᏆᏛᏅ	-11.6206
ᏧᏙᎢᏛ	-11.6206
▁ᎠᏐᏢᎢᏍᏗᏍᎬ	-11.6206
ᏁᏙᎮ	-11.6207
ᎸᏉᏕᏍᏗ	-11.6207
▁ᎦᏙᎴᎣ	-11.6208
ᏛᏛᎮᎸ	-11.6208
▁ᏄᏩᏂᏌᏅ	-11.6209
ᎾᏓᏗᏍᎪ	-11.6209
ᏌᏙᏱ	-11.6211
▁ᏚᏪᏲᏁ	-11.6211
▁ᎠᏟᏍᏛ	-11.6212
ᎠᎨᏴ	-11.6212
▁ᏕᏥᎳᏫ	-11.6213
ᎵᏍᎪᎸᏔᏅ	-11.6214
ᏅᏫᏍᏔᏅ	-11.6215
ᏁᎦᎸᎢ	-11.6215
ᏍᏕᏥ	-11.6216
▁ᎠᏋᏔᏅ	-11.6216
ᏂᏐᏢᎢᏍᏙᏗ	-11.6216
▁ᏩᎩᎶᏒ	-11.6216
ᏀᎢ	-11.6217
ᎬᏂᎨᏒ	-11.6217
ᏍᏚᎢᏎ	-11.6217
ᏧᏁ	-11.6218
▁ᏚᏂᎳᏫᏨ	-11.6218
▁ᎠᏂᏁᏉ	-11.6219
▁ᎦᎾᏄᎪᏥᎸ	-11.622
▁ᎤᏂᏚᎲ	-11.622
▁ᎡᎩᏁᎸ	-11.622
▁ᏥᏍᏚᏂᎩᏍᏗ	-11.622
▁ᎤᏂᏁᎢᏍᏔᏅ	-11.622
ᏤᏍᏙᎩᎯ	-11.622
ᏓᏅᏘᏐ	-11.622
ᏣᏁᎳ	-11.6221
▁ᎤᎾᏘᏅᏍᏗ	-11.6221
▁ᎠᎩᎪᏁᎸ	-11.6221
▁ᏓᏂᏙᎬ	-11.6221
▁ᏚᎸᏫᏍᏓᏁ	-11.6222
▁ᏗᎨᏥᎢᏍᏗ	-11.6222
▁ᏗᎦᎳᏫᎢᏍᏗ	-11.6222
▁ᏱᏥᏏᎾ	-11.6222
ᎧᎿᏩᏗᏓ	-11.6222
ᏣᏛᎦᏁᎸ	-11.6222
▁ᎢᏳᏂᏪᏍᏗ	-11.6222
▁ᏧᏄᎪᏙᏗ	-11.6223
▁ᎮᎲ	-11.6223
ᎻᎦ	-11.6223
ᏤᏙᎭ	-11.6223
ᏅᏍᏓᏕᎴ	-11.6223
▁ᏫᏨᎷᏤᏗ	-11.6224
ᏏᏲ	-11.6224
ᎦᏌᏯᏍᏙᏗ	-11.6224
ᏜᏏᏛᎡᎲᎾ	-11.6225
ᎨᏢᏔᏅᎭ	-11.6225
▁ᏭᏂᎷᎯᏍᏗ	-11.6226
ᏗᎦᎵᏍᏙᏗᎭ	-11.6226
▁ᎢᏳᎾᎵᏍᏙᏗ	-11.6227
ᏩᏙᎯᏯᏛ	-11.6227
ᎵᏍᏓᏴᎾᏁᏗ	-11.6228
▁ᎤᎵᏍᎪᎸᏔᏁ	-11.6228
ᏝᏪᎯ	-11.6229
ᎪᏢᏔᏅᎯ	-11.623
▁ᎠᎾᏙᎴᎰ	-11.623
▁ᎤᏂᏁᎢᏍᏗ	-11.623
ᏐᎭᏛ	-11.623
▁ᏇᏗᏂ	-11.6231
ᏯᏛᏂᏏ	-11.6231
▁ᏂᏣᎵᏍᏔᏅ	-11.6231
▁ᏕᎬᎦᎿᏩᏗᏙ	-11.6231
▁ᎠᏆᎵᎮᎵᏍᏗ	-11.6232
er	-11.6232
▁ᏗᎩᎸᏫᏍᏓᏁᏗ	-11.6232
ᏣᎵᎡᎵᏤᏗ	-11.6232
▁ᎢᏣᏛᎦᏅ	-11.6232
▁ᎵᏳ	-11.6233
ᏗᏌᏓᏕ	-11.6233
▁ᎤᎾᏠᏤ	-11.6233
▁ᏧᏃᏚᎯ	-11.6233
ᏧᏍᏛ	-11.6233
▁ᎾᏆᎵᏍᏔᏁ	-11.6233
ᏐᏈ	-11.6234
in	-11.6234
ᎴᏫᏍᏔᎾ	-11.6234
▁ᏱᏣᏚᎵ	-11.6234
ᏑᏢᏛ	-11.6234
▁ᎦᏓᎷᎪᏗ	-11.6234
ᏍᏓᏩᏛᏛ	-11.6235
ᎵᏏᎾᎯᏍᏛᎾ	-11.6235
▁ᎦᏃᏙᏗ	-11.6235
ᎦᏃᎱᎩᏍ	-11.6235
▁ᎢᏣᏓᏤᎵ	-11.6235
ill	-11.6235
▁ᎤᎩᏓᏟ	-11.6236
ᎫᎪᏓᏁᏗ	-11.6236
ichael	-11.6236
reland	-11.6236
treet	-11.6236
ᎦᏨᏩᏍᏙᏗᏱ	-11.6236
ᏍᏕᎵᏌᏕᏒᎭ	-11.6236
ᏓᏓᎾᏁᎶᏂᎨ	-11.6236
ᏗᎦᏔᏫᎢᏍᏗᏱ	-11.6236
ᏥᏍᏓᎷᎩᏍᎩ	-11.6236
▁ᎠᎩᏔᎳᏬᏍᎬ	-11.6236
▁ᎠᎩᏬᏂᏒ	-11.6236
▁ᎠᎩᏲᎱᏏᏗ	-11.6236
▁ᎠᎫᏤᎵᎪ	-11.6236
▁ᎠᎵᎬᏚᎶ	-11.6236
▁ᎠᎾᎵᏥᏙᎲᏍᎨ	-11.6236
▁ᎠᎾᏓᎸᏉᏗᏍᎩ	-11.6236
▁ᎠᎾᏓᏌᎩᏙᎲ	-11.6236
▁ᎠᏍᎪᎯᎫᏈ	-11.6236
▁ᎠᏐᏢᎢᏍᏗᏍᎨᏍᏗ	-11.6236
▁ᎠᏥᎤᏍᏕᏎᏗ	-11.6236
▁ᎡᏣᎵᎡᎵᏤᎮᏍᏗ	-11.6236
▁ᎡᏤᏲᏅᎢ	-11.6236
▁ᎢᎡᏍᏕᎵᏌᏕ	-11.6236
▁ᎢᎦᏲᎦᏛᏁᏗ	-11.6236
▁ᎢᎬᏂᎢᏛᏉ	-11.6236
▁ᎢᏍᏙᏎᎸᎭ	-11.6236
▁ᎢᏦᎦᏓᎵ	-11.6236
▁ᎢᏯᎳᏏᏔᏅ	-11.6236
▁ᎢᏳᏅᏂᏌᏛ	-11.6236
▁ᎤᎳᏍᏚᏒ	-11.6236
▁ᎤᎾᏓᏄᏴᏗ	-11.6236
▁ᎤᏁᏍᏓᎶᏨ	-11.6236
▁ᎤᏍᎫᏓᏁᎦᎸ	-11.6236
▁ᎤᏓᏅᎵᏰᏓ	-11.6236
▁ᎤᏓᏦᎯᏯ	-11.6236
▁ᎤᏩᎦᏘᎶᏓ	-11.6236
▁ᎤᏩᎫᏘᎶᏛ	-11.6236
▁ᎤᏲᎱᏏᏕᎾ	-11.6236
▁ᎦᎫᏍᏓᎥ	-11.6236
▁ᎦᏖᏌᏗ	-11.6236
▁ᎦᏨᏩᏍᏔᏅᎯ	-11.6236
▁ᎨᏤᎳᏗᏙᎮᏍᏗ	-11.6236
▁ᎬᏩᏃᎯᏳᏗ	-11.6236
▁ᎬᏩᏓᏡᏫᏍᏔᏅᎩ	-11.6236
▁ᎭᏓᎦᏖᏙᎢᏍᎨᏍᏗ	-11.6236
▁ᎯᏲᏍᏗᏍᎩ	-11.6236
▁ᎳᎭᎢᎶᎢ	-11.6236
▁ᎾᎾᏓᏛᏍᎬᎾ	-11.6236
▁ᏂᎠᏂᏪᎭ	-11.6236
▁ᏂᎧᏪᏍᎬᎩ	-11.6236
▁ᏂᏓᎷᎸᎥᏍᎬᎾ	-11.6236
▁ᏂᏓᏂᎧᎿᏩᏕᎬᎾ	-11.6236
▁ᏂᏓᏓᏂᎸᎬᎾ	-11.6236
▁ᏂᏕᏥᎾᏝᎥᎾ	-11.6236
▁ᏂᏗᎦᎵᏍᏔᏂ	-11.6236
▁ᏂᏗᏣᏓᏂᎸᎬᎾ	-11.6236
▁ᏂᏚᎾᏑᎴᎲᎾ	-11.6236
▁ᏂᏣᏠᎾᏍᏛᎾ	-11.6236
▁ᏂᏥᏪᏍᎪᎢ	-11.6236
▁ᏄᎵᏍᎨᏗᏴ	-11.6236
▁ᏄᏂᎦᏙᎥᏒᎾ	-11.6236
▁ᏅᏓᎨᏥᏅᏏᏛ	-11.6236
▁ᏅᏓᏍᏛᏴᏁᎵ	-11.6236
▁ᏅᏓᏲᏣᏛᏁᎵ	-11.6236
▁ᏅᏩᏍᏗᏗᏎᏍᏗᏉ	-11.6236
▁ᏈᏯᏏᏱᏆ	-11.6236
▁ᏍᎩᎨᏳᎭᏧ	-11.6236
▁ᏍᏆᏎᎵᏓᏁᎸᎢ	-11.6236
▁ᏍᏆᏎᎵᏓᏏ	-11.6236
▁ᏍᏇᎵᏎᏗᏱ	-11.6236
▁ᏐᎣᏁᎵᏁ	-11.6236
▁ᏓᎪᏄᎶᏏᏙᎮᏍᏗ	-11.6236
▁ᏓᎵᏖᎸᏂᏙᎮᏍᏗ	-11.6236
▁ᏓᏂᏍᏔᏲᎯᎲ	-11.6236
▁ᏓᏆᏚᏫᏍᏔᏅᎩ	-11.6236
▁ᏓᏛᎯᏍᏓᏁᎮᏍᏗ	-11.6236
▁ᏓᏤᏅᎡᎵ	-11.6236
▁ᏔᏓᏅᏗᏍᏓ	-11.6236
▁ᏕᎦᎶᎴᎬᎢ	-11.6236
▁ᏕᏥᏅᎪᎥᏗᏍᎨᏍᏗ	-11.6236
▁ᏕᏥᏅᏫᏍᎨᏍᏗ	-11.6236
▁ᏗᎩᎪᎶᎯ	-11.6236
▁ᏗᎩᎸᏫᏍᏓᏁᎯ	-11.6236
▁ᏗᎬᏩᏁᎶᏙᏗᏱ	-11.6236
▁ᏙᏓᏳᎸᏫᏍᏓᏁᎵ	-11.6236
▁ᏙᏗᏂᏁᎸᎢ	-11.6236
▁ᏚᎵᏘᎾᎥ	-11.6236
▁ᏚᎾᏠᏱᎴᎢ	-11.6236
▁ᏚᏃᏣᎳᏁ	-11.6236
▁ᏚᏃᏣᎶᏤ	-11.6236
▁ᏚᏟᎶᏍᏓᏁᎸᎩ	-11.6236
▁ᏚᏯᏪᎬ	-11.6236
▁ᏛᎵᏛᏔᏂ	-11.6236
▁ᏛᏥᎷᏥ	-11.6236
▁ᏝᏬᏔ	-11.6236
▁ᏣᏍᏕᏅᏨ	-11.6236
▁ᏣᏗᏫᏍᏓ	-11.6236
▁ᏣᏚᎧᏔᏁ	-11.6236
▁ᏤᎦᏬᎥᎯ	-11.6236
▁ᏥᏫᏗᎨᎦᏘᏅᏍᏔᏁ	-11.6236
▁ᏧᎦᏎᏍᏗᏕᎩ	-11.6236
▁ᏧᎪᏅᏍᏓᎵ	-11.6236
▁ᏧᏓᏅᎵᏰᏓ	-11.6236
▁ᏧᏓᏴᎳᏙ	-11.6236
▁ᏨᏆᏁᎶᏗ	-11.6236
▁ᏨᏓᎬᏯᏎᎮᎵ	-11.6236
▁ᏩᎦᏘᏅᏍᏙᏗᏱ	-11.6236
▁ᏫᏗᏍᎩᏯᏅᏏ	-11.6236
▁ᏭᏪᏙᎴᎢ	-11.6236
▁ᏯᏕᎶᎰᏍᎦ	-11.6236
▁ᏱᏅᏓᎦᎵᏍᏙᏓ	-11.6236
▁ᏱᏙᎬᏩᎸᏫᏍᏓᏏ	-11.6236
▁ᏱᏚᏓᏌᏝᎮᏍᏗ	-11.6236
▁ᏱᏚᏪᏘᎸ	-11.6236
▁ᏱᏨᏲᏪᎳᏁᎭ	-11.6236
▁ᏳᏔᎳᏬ	-11.6236
▁ᏳᏙᎴᎰᏎ	-11.6236
▁ᏴᎬᏂᎷᎩ	-11.6236
ᎵᏰᏑᏍᏚᏬ	-11.6236
▁ᎤᎾᏦᏍᏔᏁ	-11.6236
▁ᎤᏁᏄᎳᏍᏔᏁᎢ	-11.6236
▁ᎤᏓᏁᏟᏴᏍᏔᏁᎴ	-11.6236
▁ᎦᎨᏥᏐᏢ	-11.6236
▁ᎫᏘᏍᎬ	-11.6236
▁ᏂᎦᎸᏉᏗᏍᎬᎾ	-11.6236
▁ᏄᎵᏍᏚᎸᎾ	-11.6236
▁ᏇᏣᏱᏗ	-11.6236
▁ᏙᏧᏁᏅᏒ	-11.6236
▁ᏩᏓᏁᏟᏴᏍᏓ	-11.6236
▁ᏭᎦᏔᎲᏍᏔᏅ	-11.6236
▁ᏳᏥᏍᎪᎸ	-11.6236
ᏗᎨᏥᏰᎪᎢ	-11.6236
▁ᎠᏍᏈᏅ	-11.6236
▁ᎢᏍᏉᏎᎭ	-11.6236
▁ᎤᎵᏏᏂᏕᎾ	-11.6236
▁ᎤᎶᏏᎶᏛ	-11.6236
▁ᎤᏂᎾᏰᏒᎩ	-11.6236
▁ᎤᏍᏆᎷᎪ	-11.6236
▁ᎤᏓᏏᏂᏕᏅ	-11.6236
▁ᎬᎭᏃᏓ	-11.6236
▁ᏂᏚᎿᏍᏕᏢᎾ	-11.6236
▁ᏃᎩᏪᏒᎩ	-11.6236
▁ᏄᏓᏅᎯᏒ	-11.6236
▁ᏄᏓᏓᎸᎾ	-11.6236
▁ᏌᎷᏱ	-11.6236
▁ᏍᎩᏯᏅᏓᏗᏍᎬᎢ	-11.6236
▁ᏓᏓᏬᏍᏗᏍᎬᎩ	-11.6236
▁ᏓᏰᏍᏗᏩᏛᎯ	-11.6236
▁ᏕᏣᏤᎴᏍᏗ	-11.6236
▁ᏗᎪᏪᎶᏙᏗ	-11.6236
▁ᏗᏂᏃᎩᏍᎩ	-11.6236
▁ᏗᏂᏍᏔᏲᎯ	-11.6236
▁ᏗᏛᏂᏗᏳ	-11.6236
▁ᏙᏗᎦᏚᎲ	-11.6236
▁ᏙᏛᏂᏲᎯᏎᎵ	-11.6236
▁ᏚᏢᏫᏎᎴ	-11.6236
▁ᏥᏅᏓᎦᎵᏍᏔᏂ	-11.6236
▁ᏧᎧᎭᏲᏛ	-11.6236
▁ᏧᎩᏓᏟ	-11.6236
▁ᏧᏃᏕᏍᏗᏍᎩ	-11.6236
▁ᏧᏠᎠᏒ	-11.6236
▁ᏭᏅᎬᏛ	-11.6236
▁ᏯᏓᏬᏍᎨᏍᏗ	-11.6236
▁ᏱᎱᏩ	-11.6236
ᏥᏲᎤᎯ	-11.6236
▁ᎠᎻᏗᏏ	-11.6236
▁ᎠᏂᏁᎢᏍᏗᏍᎩ	-11.6236
▁ᎠᏓᏍᏕᎸᏓ	-11.6236
▁ᎢᏨᏂᏌᏛ	-11.6236
▁ᎤᎾᎵᏍᎪᎸᏔᏅᎩ	-11.6236
▁ᎤᏁᏓᏥᏛ	-11.6236
▁ᎤᏔᎷᎩᏍᎨ	-11.6236
▁ᎤᏦᏔᎮ	-11.6236
▁ᎨᏂᏏᎳᏗ	-11.6236
▁ᎪᎸᏌᏛᏗ	-11.6236
▁ᎯᎳᏳᎢ	-11.6236
▁ᎾᏉᎯᏳᏒᎾ	-11.6236
▁ᏂᎪᎯᎴᏍᏗ	-11.6236
▁ᏓᎬᏯᎫᏴᎡᎵ	-11.6236
▁ᏓᏍᏆᎸᎮᎬᎢ	-11.6236
▁ᏕᎦᎦᏙᏍᏛ	-11.6236
▁ᏗᎦᎾᎯᏍᏙᏗ	-11.6236
▁ᏗᎪᏒᏍᏔᏅ	-11.6236
▁ᏗᏕᎶᏆᏍᎩ	-11.6236
▁ᏙᏓᎨᏥᏲᎯᏎᎵ	-11.6236
▁ᏚᏂᎵᏬᏨᎩ	-11.6236
▁ᏝᏬᏚ	-11.6236
▁ᏣᎦᏥᎶᏍᏔᏅ	-11.6236
▁ᏥᎾᎾᏛᏁᎰ	-11.6236
▁ᏥᏂᎦᏛᏁᎭ	-11.6236
▁ᏧᎾᏁᎳᎩᎭ	-11.6236
aire	-11.6236
ᏂᏆᏘᎸ	-11.6236
ᏕᏯᏔᏁᎭ	-11.6236
ᏤᏲᎲᏍᎦ	-11.6236
▁ᎠᎾᎵᏍᏓᏴᏂᏙᎮ	-11.6236
▁ᎠᏥᎸᏳᎸᏗ	-11.6236
▁ᎡᏥᎦᏙᎥᏒᏰᏃ	-11.6236
▁ᎢᏳᏂᏨᎯ	-11.6236
▁ᎣᎾᏫᏱ	-11.6236
▁ᎤᎾᏁᎶᏔᏁ	-11.6236
▁ᎤᎾᏗᏒᎸ	-11.6236
▁ᎤᏂᏔᏲᎴ	-11.6236
▁ᎤᏓᎴᎾᏍᏗᏱ	-11.6236
▁ᎤᏙᎴᎱ	-11.6236
▁ᎻᎴᎳ	-11.6236
▁ᏅᏩᏛᏁᏍᏗ	-11.6236
▁ᏈᏥᏱ	-11.6236
▁ᏒᎦᏙᎯ	-11.6236
▁ᏓᏆᎴᎸ	-11.6236
▁ᏗᏂᏏᎲᏍᎩ	-11.6236
▁ᏚᏇᏍᏘ	-11.6236
▁ᏠᏆᎹ	-11.6236
▁ᏧᏍᏆᏅᏂ	-11.6236
▁ᏴᎨᏦᎯᏳᎲᎦ	-11.6236
▁ᎠᎦᏘᏗᏍᏙᏗ	-11.6236
▁ᎢᏯᏂᏪᏍᎩ	-11.6236
▁ᎤᎦᏑᎲᎢ	-11.6236
▁ᎤᎦᏛᎴᎯᏍᏗᏱ	-11.6236
▁ᎤᏩᎢᏎᎸᎯ	-11.6236
▁ᏗᏂᎭᏲᎯ	-11.6236
▁ᏗᏲᎳᏅᎯ	-11.6236
▁ᏚᎾᏂᏏᏁᎢ	-11.6236
▁ᏥᎦᏍᎦᏂ	-11.6236
▁ᏧᏛᏒᏁ	-11.6236
▁ᏭᏩᏌᏙᏰᎢ	-11.6236
▁ᏮᏓᎦᏙᎴᎣᏏ	-11.6236
▁ᏱᏄᏓᎠ	-11.6236
▁ᎠᏂᏇᎵᏏ	-11.6236
▁ᎤᏁᎳᎥᎯ	-11.6236
▁ᎦᎷᎶᎩ	-11.6236
▁ᏙᏓᏰᏣᏬᏍᏔᏂ	-11.6236
▁ᏚᎾᎵᏯᏍᏚ	-11.6236
▁ᏧᎶᎸᏗ	-11.6236
▁ᏭᏴᏅᎮ	-11.6236
▁ᏱᎰᏣᏰᏃ	-11.6236
ᎩᏲᎱᏎᎲᎩ	-11.6236
▁ᎢᏯᏆᎵᏍᏓᏁᏗ	-11.6236
▁ᏄᎸᏉᏔᏅᎾ	-11.6236
▁ᏧᏕᏲᏗᏱ	-11.6236
▁ᎠᎩᎳᏫᏍᏗᏱ	-11.6236
▁ᎠᎾᎵᏙᎩᏯᏍᎩ	-11.6236
▁ᎤᎾᎵᏛᏔᏅ	-11.6236
▁ᎤᎾᏕᎶᏆᏍᏗᏱ	-11.6236
▁ᎤᏕᏯᏔᏁᎸ	-11.6236
▁ᎬᏍᎦᎳᏅᎯ	-11.6236
▁ᎾᏂᎦᏔᎾᎥᎾ	-11.6236
▁ᎾᏂᏴᎬᎾ	-11.6236
▁ᏗᏂᏃᏣᎵ	-11.6236
▁ᏗᏑᏫᏍᎩ	-11.6236
▁ᏚᎭᏁᎦᎸ	-11.6236
▁ᏱᏍᎩᎪᏩᏘᏍᎨᏍᏗ	-11.6236
▁ᎡᎵᏍᏓᎦ	-11.6236
▁ᎢᏨᏲᏎᏰᏃ	-11.6236
▁ᎨᎬᏓᏁᏗ	-11.6236
▁ᏅᏗᏛᏁᎵᏒ	-11.6236
▁ᏱᏩᏍᏔ	-11.6236
▁ᎢᏍᎩᎪᏩᏘᏍᎨᏍᏗ	-11.6236
▁ᎤᏂᏍᏛᏛᎯ	-11.6236
▁ᎤᏚᏣᎳᏅᎩ	-11.6236
▁ᎵᎰᏉ	-11.6236
▁ᏄᏂᏍᎦᏅᏨᎾ	-11.6236
▁ᏓᎦᏥᏁᏉᎢ	-11.6236
▁ᏕᎯᏯᏁᎶᏕᏍᏗ	-11.6236
▁ᏕᏤᏯᏙᏤᎮᏍᏗ	-11.6236
▁ᏗᎬᏩᎾᏛᎪᏙᏗ	-11.6236
▁ᏣᏓᏅᏖᏗᏱ	-11.6236
▁ᏬᎩᏃᎸᎩ	-11.6236
▁ᏱᏄᎵᏍᏔᏃ	-11.6236
▁ᎠᏍᏆᎾᎸ	-11.6236
▁ᎠᏍᏚᎢᏛ	-11.6236
▁ᎠᏕᏄ	-11.6236
▁ᎡᏍᏗᏔᏲᏏ	-11.6236
▁ᎢᏥᎪᎵᏰᎥᎭ	-11.6236
▁ᎾᎾᎵᏍᏗᎭ	-11.6236
▁ᎾᏂᎦᏔᎿᎥᎾ	-11.6236
▁ᏂᏙᏓᎦᏪᏎᎵ	-11.6236
▁ᏦᎧᏔᏂ	-11.6236
▁ᏧᎧᏃᏗᏱ	-11.6236
ᎩᎵᏲᎨᏍᏗ	-11.6236
ᏨᏯᏛᏛᏂ	-11.6236
ᏬᎯᎵᏴᏍᏓᏁ	-11.6236
▁ᎠᏥᏅᏩᏅᎢ	-11.6236
▁ᎠᏲᏩᏁᎦ	-11.6236
▁ᏙᎦᏠᏒᎩ	-11.6236
▁ᎤᏍᎦᎢᏓ	-11.6236
▁ᏂᏙᏓᎬᏁᎵ	-11.6236
▁ᎠᏂᎫᏌᏩᎩ	-11.6236
▁ᎢᎨᏥᏛᎯ	-11.6236
▁ᎤᎦᏌᏛᎢ	-11.6236
▁ᎤᏰᎶᎢᏍᏔᏁᏃ	-11.6236
▁ᎾᏓᏛᏁᎲᎢ	-11.6236
▁ᏂᏚᎾᎵᏂᎬᎬ	-11.6236
▁ᏗᎾᏓᏙᏕᏍᏗᏍᎩ	-11.6236
▁ᏮᏓᎦᎶᏏ	-11.6236
▁ᏳᏂᏣᏔ	-11.6236
ᏣᏘᏃᎯᎮᏍᏗ	-11.6236
▁ᎨᎩᏍᎦᎩ	-11.6236
▁ᏍᎩᏯᏛᏓᏍᏓᏏ	-11.6236
▁ᏫᏴᎨᏥᎷᎩ	-11.6236
▁ᎢᏣᏛᎩᏍᎨᏍᏗ	-11.6236
▁ᎵᏆᏗᎻ	-11.6236
▁ᏄᎵᏍᏔᏂᏙᎴ	-11.6236
▁ᏓᏨᏳᏓᎴᏏ	-11.6236
▁ᏥᎨᏳᎠ	-11.6236
▁ᏧᎦᏙᏍᏙᏗ	-11.6236
▁ᎠᏃᏢᏅᎥᏍᎩ	-11.6236
▁ᎢᏳᎾᏕᏘᏴᏛ	-11.6236
▁ᎠᏄᎦᎸᏃ	-11.6236
▁ᎣᏌᏯ	-11.6236
▁ᏓᏍᏔᏅᏅ	-11.6236
ᏓᎾᏫᏛᏗ	-11.6236
▁ᎢᏏᎳᎻ	-11.6236
▁ᏄᏅᏂᏌᏁ	-11.6236
▁ᏧᏃᏑᎴᏗ	-11.6236
▁ᎫᏓᎴᏍᎩ	-11.6236
▁ᎯᏯᏛᎥᎦ	-11.6236
ᎬᏣᏝᏅ	-11.6236
ᏙᏥᎵᏦᏛᎦ	-11.6236
▁ᎤᏄᏬᎥᎯ	-11.6236
▁ᎤᏎᎵᏓᏁᎴᏃ	-11.6236
ton	-11.6236
▁ᏥᏂᏴᏁᎭ	-11.6236
▁ᏥᏰᎸᎥ	-11.6236
▁ᎠᏍᏆᎸᎲᎭ	-11.6236
▁ᏕᏓᎧᏂᏍᎬ	-11.6236
▁ᏥᏚᏃᎱᎦᏁ	-11.6236
ᎱᏢᏔᏅᎭ	-11.6236
▁ᎠᏓᎴᏂᏍᎨᏍᏗ	-11.6236
▁ᏐᏚᎯ	-11.6236
▁ᏓᏂᎾᏌᏛ	-11.6236
▁ᏗᎦᏚᏗᏱ	-11.6236
▁ᏳᏁᏐ	-11.6236
▁ᎢᎬᏩᏂᎩᏍᏔᏁ	-11.6236
▁ᎢᏤᎳᏗᏙᎭ	-11.6236
▁ᏗᏛᏃᏛ	-11.6236
▁ᏧᎳᏏᏗᏱ	-11.6236
▁ᎤᏗᏛᎲᎩ	-11.6236
▁ᎬᏬᏍᏔᏅᎯ	-11.6236
▁ᏅᏓᏨᏴᏁᎵ	-11.6236
▁ᏗᎨᎦᎸᎢᏛ	-11.6236
▁ᎤᏓᎾᏏᏅᏍᏔᏁᎢ	-11.6236
▁ᎢᏰᎬᏁᎸᎯ	-11.6236
▁ᏄᎾᏓᏁᏟᏴᏎᎢ	-11.6236
▁ᏄᏂᏧᏈᏍᏕᏍᏗ	-11.6236
ᎵᏍᏓᏁᎵᏕᎬ	-11.6236
ᏓᎴᏴᏗᏍᎩ	-11.6236
▁ᎺᎵᎩᏏᏕᎩ	-11.6236
▁ᎠᏉᎵᏨ	-11.6236
▁ᎤᏂᏲᎢᏎᎸᎯ	-11.6236
▁ᎤᎾᏓᏓᏍᎩᏌᎲ	-11.6236
▁ᏓᎾᏦᏍᎬ	-11.6236
▁ᏥᏯᎵᎪᏁᎯ	-11.6236
▁ᏫᏚᎾᏘᏃᎮᎸᎩ	-11.6236
▁ᏴᎦᎦᏗᏔ	-11.6236
▁ᎾᏂᎾᏰᏍᎬᎾ	-11.6236
▁ᏗᎬᏩᎾᏓᏂᎸᎢᏍᏗ	-11.6236
ᎿᎸᏍᏗᏍᎨᏍᏗ	-11.6236
▁ᎠᎵᏱᎵᏒᎢ	-11.6236
▁ᎡᏥᏁᏉᎡᏗ	-11.6236
▁ᎤᏙᏣᎸᎢ	-11.6236
▁ᎾᏆᎵᏍᏓᏁᎵᏕᎬ	-11.6236
▁ᎠᎵᏍᏆᏛᎭ	-11.6236
▁ᎡᏣᏁᎳᏁᎸ	-11.6236
▁ᎦᏥᏃᏍᏛ	-11.6236
▁ᏂᏥᏍᎦᏅᎾ	-11.6236
▁ᏄᎾᏙᏓᏈᏒ	-11.6236
▁ᏫᏚᎵᏍᏘᏂᎸ	-11.6236
▁ᏅᏓᏳᏄᎪᏨᎯ	-11.6236
ᎳᏍᏕᎵᏴᏌ	-11.6236
▁ᎢᏣᏓᏯᏫᏍᎨᏍᏗ	-11.6236
▁ᎤᏃᎱᎦᏅ	-11.6237
▁ᎤᏅᏘᏛ	-11.6237
▁ᎦᏛᎩᏍᎬ	-11.6237
▁ᏗᎬᏎᎰᎲᏍᏗ	-11.6237
ᏩᏛᎱᎦ	-11.6237
▁ᏂᎦᎵᏍᏔᏂᏙᎮᏍᏗ	-11.6237
▁ᏕᎦᏕᏲᎲᏍᎬ	-11.6237
▁ᏂᎦᎷᎶᎬᎾ	-11.6237
ᎾᏬᏍᏔᏁᎢ	-11.6237
▁ᎡᏣᏁᏍᎨᎲᎯ	-11.6237
▁ᎤᏄᏖᏎ	-11.6237
▁ᏓᏳᏂᏄᎪᏨᎩ	-11.6237
▁ᏗᏥᏅᏍᎨᏂ	-11.6237
ᎾᎪᏄᎸ	-11.6237
▁ᎹᏈᎳ	-11.6237
▁ᎠᏆᏁᎳᏫᏎ	-11.6237
▁ᏭᏗᏢᏍᏔᏅ	-11.6237
▁ᎤᎾᎵᏍᏓᏴᏃᏅ	-11.6237
▁ᏕᎧᏃᎮᏍᎬ	-11.6237
ᏚᎸᎡᎸᎩ	-11.6237
▁ᏅᏓᏥᏯᏛᏁᎵ	-11.6237
▁ᏓᏱᏓᎵ	-11.6237
▁ᏚᏄᏮ	-11.6237
▁ᎢᏯᏖᏅ	-11.6237
▁ᏭᏪᏙᎸ	-11.6237
▁ᎤᏉᏔᏗ	-11.6237
▁ᏏᏗᎻ	-11.6237
▁ᏮᏓᏥᎶᏏ	-11.6237
▁ᏰᏦᏎᎮᏍᏗ	-11.6237
▁ᏣᎪᏎᎰᎢ	-11.6237
▁ᎤᏔᎶᏁ	-11.6237
▁ᏙᏍᏓᏓ	-11.6237
▁ᎠᎦᎸᏥ	-11.6237
▁ᏓᏂᏏᎳᏛᎥᏍᎨ	-11.6237
▁ᎢᏥᏁᎢᏍᏗᏱ	-11.6237
▁ᏥᏚᏓᏲᏎ	-11.6237
▁ᏪᏙᎰ	-11.6237
▁ᎠᎾᏓᎩᎡᎯ	-11.6237
▁ᎠᎾᏗᏒᎯᎮ	-11.6237
▁ᎠᏂᎾᏰᏍᎬ	-11.6237
▁ᏙᎩᎾᏗᏔᎲ	-11.6237
▁ᏂᏥᎾᏰᏍᎬᎾ	-11.6237
▁ᎠᎾᎵᏥᏙᎲᏍᎦ	-11.6237
▁ᎤᎦᏔᏔᏁᎢ	-11.6237
▁ᏚᏃᏪᎸᎢ	-11.6237
▁ᏦᏪᎶᏗ	-11.6237
▁ᎤᏬᎦᏒ	-11.6237
▁ᎦᏅᏃᏫ	-11.6237
▁ᎢᏳᎾᎵᏍᏔᏁᏗ	-11.6237
▁ᏗᏓᏛᏍᎩ	-11.6237
▁ᏙᎩᏃᏢ	-11.6237
▁ᏦᏓᎻ	-11.6237
▁ᎡᏓᎵᏍᎦᏍᏙᏛ	-11.6237
▁ᏚᏂᎳᏫᏦᎴ	-11.6237
▁ᏧᏁᎩᏳ	-11.6237
▁ᏅᏓᎬᏩᏍᏓᏩᏛᏛ	-11.6237
▁ᎤᎾᏣᏪᏐᎸᏍᏙᏗᏱ	-11.6237
▁ᎦᏢᏍᎩ	-11.6237
▁ᏙᏘᏲᎢ	-11.6237
ille	-11.6237
▁ᎢᏣᏟᏂᎬᏁᏗᏱ	-11.6237
▁ᏂᎨᏣᏛᏁᎮᏍᏗ	-11.6237
▁ᏅᏓᎬᏓᎴᏅᏛ	-11.6237
▁ᏚᏪᎧᎲᏎ	-11.6237
▁ᎡᏥᎸᏉᏗᏍᎨᏍᏗ	-11.6237
▁ᎠᎩᏟᏲ	-11.6237
▁ᏚᎾᏠᎯᏍᏛ	-11.6237
▁ᎤᏂᏛᏗᏍᎩ	-11.6237
ᏣᏛᏓᏍᏗᏍᎨᏍᏗ	-11.6237
▁ᎠᎴᏅᎲᎭ	-11.6237
▁ᏚᎾᏁᏢᏔᏅᏒᎢ	-11.6237
▁ᏥᏄᏧᏈᏍᏗ	-11.6237
▁ᏱᏂᎬᏩᏍᏗᏉ	-11.6237
▁ᎢᏨᏯᏅᏓᏗᏍᏗᏍᎬᎢ	-11.6237
ᏍᏓᏩᏕᏒᎭ	-11.6237
▁ᎢᏨᏁᏤᎸᎢ	-11.6237
▁ᏗᎩᎧᏁᎸᎯ	-11.6237
▁ᏗᎬᏯᏠᎢᏍᏗ	-11.6237
▁ᎢᎨᏓᏍᏗᏱ	-11.6237
▁ᏂᏣᏚᎵᏍᎬᎾ	-11.6237
▁ᏓᎾᎴᎯᏌᏅ	-11.6237
▁ᎠᏇᏙᏅ	-11.6237
ᏂᏍᏋᎦ	-11.6237
▁ᏂᏕᎦᏅᎯᏒᎩ	-11.6237
▁ᎠᏎᎵᏛᏍᎬ	-11.6237
▁ᏥᏓᏓᏂᎸᎪᎢ	-11.6237
▁ᎠᏥᎸᏉᏙᏗ	-11.6237
▁ᏙᏥᏲᎦ	-11.6237
▁ᏥᏄᎾᏍᏛᎢ	-11.6237
▁ᎤᏂᏔᎳᏬᏒᎩ	-11.6237
▁ᎪᎵᎦᏓ	-11.6237
ᏧᎧᎸᏨ	-11.6237
▁ᏂᏗᏨᎦ	-11.6237
▁ᏂᏚᏂᎨᏳᏒ	-11.6237
▁ᏕᏨᏁᏍᏗ	-11.6237
ᏣᏓᏅᎡᎸ	-11.6237
▁ᎡᎳᏆᏘ	-11.6237
▁ᏳᎾᏛᏅᎢᏍᏗ	-11.6237
ᎵᏖᎸᏂᏍᏗ	-11.6237
▁ᎠᏆᏎᎵᏙᏔᏅ	-11.6237
▁ᏕᎱᎪ	-11.6237
ᏠᎠᏒᎩ	-11.6237
▁ᎠᎩᎸᏗᏍᎩ	-11.6237
▁ᎢᏣᏓᏅᏓᏓ	-11.6237
▁ᏗᏩᎾᎨ	-11.6237
ᏬᏁᏓ	-11.6237
ᎾᏟᏃᎮᎸ	-11.6237
▁ᏅᏧᏪᏎᎴᎢ	-11.6237
▁ᏁᏥᎦᏔᎲᎾ	-11.6237
▁ᎾᏋᏁᎮᏍᏗ	-11.6237
▁ᏍᎩᏲᎢᏳᎲᎦ	-11.6237
▁ᏍᎩᏂᏌᏅᎭ	-11.6237
▁ᏦᎩᎦᏴᎵᎨᎢ	-11.6237
▁ᏧᏲᏍᏔᏅᎯ	-11.6237
ᏈᏴᎡᏗ	-11.6237
▁ᏗᏧᎪᏗᏍᎩ	-11.6237
▁ᎦᏃᎱᎩᏍᎨ	-11.6237
ᎶᏅᎮᎸ	-11.6237
▁ᎤᏰᏥᏍᎩ	-11.6237
ᏑᎶᏨᎯ	-11.6237
▁ᏧᎾᎳᏏᏕᏄᎶᏗ	-11.6237
▁ᎤᎾᏘᏍᏙᏗᏱ	-11.6237
▁ᎠᏆᏍᎦᏱ	-11.6237
▁ᎠᏓᏅᏬᎯᏍᏗᏍᎩ	-11.6237
▁ᏩᏂᎦᏖᎢ	-11.6237
▁ᎠᏰᎴᎩ	-11.6237
▁ᎤᏬᏠ	-11.6237
▁ᏛᏂᎷᏥ	-11.6237
▁ᏤᏣᏛᏅᎩ	-11.6237
▁ᎤᏲᏏᏌᏁᎢ	-11.6237
▁ᎠᏉᎯᏳᎲᏍᎨᏍᏗ	-11.6238
ᏯᏒᎦᎶᏔ	-11.6238
▁ᏄᎪᎸᎾ	-11.6238
▁ᏧᎾᎳᏏᏕᏅ	-11.6238
▁ᏧᎾᏓᏟᏴᏗ	-11.6238
▁ᏗᏦᏢᏅᎯ	-11.6238
▁ᎠᏅᏍᎬᎢ	-11.6238
▁ᎤᏪᎧᎮ	-11.6238
▁ᏱᏣᏞᎨᏍᏗ	-11.6238
▁ᎢᏨᏲᎵᎦ	-11.6238
▁ᎢᏳᏥᎶᏓ	-11.6238
▁ᏳᏂᏃᎮᎸ	-11.6238
▁ᏓᏰᏥᎪᎢ	-11.6238
▁ᏗᎩᏄᎪᏨ	-11.6238
▁ᏓᏳᏍᏕᎸᎯ	-11.6238
▁ᏓᏳᏠᎠᏒᎩ	-11.6238
ᏓᏂᏲᎰᏍᎪ	-11.6238
▁ᎨᏥᏰᎸᎢ	-11.6238
▁ᎠᏆᏙᎴᎰᎯᏍᏗᏱ	-11.6238
▁ᏫᏓᏂᎷᎦ	-11.6238
ᏟᏫᏛᏗ	-11.6238
▁ᎣᏣᏓᏅᏟ	-11.6238
▁ᎠᏆᏛᏐᏅᎯ	-11.6238
▁ᏕᏥᎸᏉᏕᏍᏗ	-11.6238
▁ᏚᏂᎦᏘᎸᏎ	-11.6238
▁ᎢᏥᎪᏙᏍᎨᏍᏗ	-11.6238
▁ᏄᏓᏛᏁᎴ	-11.6238
▁ᏄᏬᏚᏒ	-11.6238
▁ᏂᏥᏲᎯᏍᏗᏍᎬᎾ	-11.6238
▁ᏕᏣᏂᏴᏒ	-11.6238
▁ᎠᏯᏖᏂ	-11.6238
▁ᎠᎩᏁᎢᏍᏗᏱ	-11.6238
▁ᎥᏆᏬᏍᏙᏗ	-11.6238
▁ᏕᎤᏲᏎ	-11.6238
▁ᏛᎩᏲᎵ	-11.6238
ᎶᏄᎮᎸᎩ	-11.6238
▁ᏓᏣᏙᎴᎰᏏ	-11.6238
▁ᎨᏆᏂᏃ	-11.6238
▁ᎠᎾᏉᎯ	-11.6238
▁ᎧᏩᏯ	-11.6238
▁ᎭᏛᏅᎢᏍᏓ	-11.6238
ᏟᏂᎬᏁᎲ	-11.6238
▁ᏴᏗᏓᎴᎲᏍᎦ	-11.6238
▁ᏭᎵᏍᏘᏂᎸ	-11.6238
ᏍᏇᎵᏰᏗ	-11.6238
▁ᏗᎧᏃᎩᏓ	-11.6238
▁ᏫᎬᎷᏤᏗᏱ	-11.6238
▁ᎤᏂᏏᏁᎢ	-11.6238
ᏍᎦᏃᎸ	-11.6238
▁ᏧᏓᎴᏅᏔᏅᎯ	-11.6238
▁ᎬᏩᏛᎡᎴᏍᏗ	-11.6238
▁ᏱᏚᏛᏓᏍᏓᏁᎴᎢ	-11.6238
▁ᎫᏩᎶᏐᏅ	-11.6238
▁ᏄᎵᏁᏨ	-11.6238
ᏆᎶᎦ	-11.6238
▁ᏕᎤᏲᎯᏎᎴᎢ	-11.6238
▁ᎤᎾᏅᏓᏛᎩ	-11.6238
▁ᎬᏍᏗᏰᏗᎭ	-11.6238
▁ᏌᎵᎹ	-11.6238
▁ᎭᎴᎲᎦ	-11.6238
ᏗᎩᏴᎩ	-11.6238
▁ᏁᏙᎲᎾ	-11.6238
▁ᏄᏓᏅᏛᎾ	-11.6238
▁ᎫᏩᏓᏅᏖᏗ	-11.6238
▁ᏕᎧᏅᏫ	-11.6239
▁ᎠᎾᏘᏍᏗᏍᎩ	-11.6239
▁ᏛᏓᎸᎢ	-11.6239
▁ᏥᏂᎬᏁᎭ	-11.6239
ᎦᏘᎴᎦ	-11.6239
▁ᏱᎦᏂᏆᏘᎭ	-11.6239
▁ᏚᏂᏐᏨ	-11.6239
▁ᏚᏂᏎᎪᎩᏎ	-11.6239
▁ᏱᏄᏩᏁᎸ	-11.6239
ᏥᏍᏢ	-11.6239
▁ᏂᎪᎵᎬᎾ	-11.6239
▁ᎠᎦᏘᏅᏍᏗᏱ	-11.6239
▁ᏌᏗᏏ	-11.6239
▁ᏐᏆᎵ	-11.6239
▁ᎢᏳᏩᎪᏗ	-11.6239
▁ᎤᏂᎦᏙᎥᏒ	-11.6239
▁ᏗᎨᏥᏰᎯ	-11.6239
▁ᎤᎾᏞᏒ	-11.6239
▁ᏅᏛᎴᏅᏛ	-11.6239
▁ᏚᏂᏃᎸᎩ	-11.6239
▁ᏫᏍᎩᏩᎯᏏ	-11.6239
▁ᏧᎧᎭᏲᏓ	-11.6239
▁ᏚᏂᏲᏏᏍᎬ	-11.6239
ᎩᏍᏚᎲᎩ	-11.6239
▁ᏯᏥᏯᏝ	-11.6239
▁ᏗᎬᏩᏂᎾᏝᎢ	-11.6239
▁ᎢᏣᏛᎪᏗ	-11.6239
▁ᏓᎦᏓᏅᏏ	-11.6239
▁ᏱᏦᎯᏳᎲᎦ	-11.6239
▁ᎢᏣᏓᏄᎸᏗ	-11.6239
▁ᎥᎩᏁᏤᎸᎯ	-11.6239
▁ᎢᏣᏗᏔᏍᎨᏍᏗ	-11.6239
▁ᎬᏁᏤᎸᎢ	-11.6239
▁ᏫᏚᏂᏴᏍᏗᏱ	-11.6239
ᎵᏍᏔᏴᎾ	-11.6239
▁ᏗᎨᏧᎪ	-11.6239
▁ᏭᏅᎪᏤ	-11.6239
▁ᎢᏲᎦᏛᏁᏗᏱ	-11.6239
▁ᏤᏥᎤᏍᏕᏎᏗᏱ	-11.6239
▁ᏧᏃᏚᎯᏳ	-11.6239
▁ᏧᏓᏂᎸᎢᏍᏗᏳ	-11.6239
ᏙᎰᏎ	-11.6239
ᏅᎦᎵᏍᎬᎢ	-11.6239
▁ᏬᏥᎦᏛ	-11.6239
▁ᏥᎦᏡᎦ	-11.6239
▁ᏥᏚᏲᏎ	-11.6239
▁ᎦᏓᏆᏟ	-11.6239
▁ᏗᎻᎾᏗ	-11.6239
▁ᏅᏓᏳᏪᏒᎩ	-11.6239
▁ᏗᏗᏙᏗ	-11.6239
▁ᎤᏗᎴᎲᏍᎨᎢ	-11.624
▁ᏕᏣᏏᎳᏛ	-11.624
▁ᎨᏦᎯᏳᏗ	-11.624
▁ᎠᏥᎸᏳᎶᏗ	-11.624
▁ᎣᎦᎵᏍᏓᏴᏗ	-11.624
ᏨᏉᏛᎾ	-11.624
▁ᏫᏄᏩᏁᎴ	-11.624
▁ᎢᏳᏪᏍᏘ	-11.624
▁ᎢᎬᏩᏅᏁᏗ	-11.624
▁ᎬᎩᏩᏛᎲᎩ	-11.624
▁ᎢᏣᏛᎿᏕᎩ	-11.624
▁ᏒᏟ	-11.624
▁ᎠᎾᎵᏍᎩᏍᎬ	-11.624
▁ᎤᏃᎯᏳᏗ	-11.624
▁ᏗᎬᏩᏂᏯᎢ	-11.624
▁ᏓᏆᎭᏄᏮ	-11.624
▁ᏧᎾᏛᏒᎯ	-11.624
▁ᎣᎩᎾᏟᏃᎮᎸ	-11.624
▁ᎤᏓᏬᎡ	-11.624
▁ᏫᎯᎶᎯ	-11.624
▁ᎠᏂᏂᎩᎸ	-11.624
▁ᏂᎨᎬᏁᎸ	-11.624
▁ᎡᏣᏓᏅᏛᎵ	-11.624
▁ᎠᏓᏓᏱᎮᏍᏗ	-11.624
▁ᏓᏉᏙᎥ	-11.624
▁ᏚᎾᏠᏱᎸᎩ	-11.624
▁ᎤᎩᎴᏍᏗ	-11.624
ᎿᎥᎾ	-11.624
▁ᏫᏚᎧᎾᏅ	-11.624
▁ᏱᏙᎦᏰ	-11.624
▁ᎢᎬᏴᏁᏗᏱ	-11.624
▁ᏯᏂᎷᎩ	-11.624
▁ᎣᎦᏛᏅᎢᏍᏗ	-11.624
▁ᎦᏁᏐᎠᏍᎬ	-11.624
▁ᏕᏥᎵᎷ	-11.624
▁ᏗᏣᏠᏱᎸᎩ	-11.624
▁ᏱᏂᏣᏛᏁᎳ	-11.624
▁ᏕᏥᏁᏤᎮᏍᏗ	-11.624
▁ᎤᏛᎸᎮ	-11.624
▁ᏥᎦᎷᎯᏍᏗᎭ	-11.624
ᏁᏢᏙᏗᏱ	-11.624
▁ᏍᎩᏯᏘᏃᎮᎸᎭ	-11.624
▁ᏣᎾᏓᎾᏏᏂᏙᎭ	-11.624
▁ᎠᎾᎵᏥᏙᎲᏍᎩ	-11.624
▁ᎢᏨᏁᏤᎭ	-11.624
▁ᎢᏨᏍᏓᏩᏕᏅ	-11.624
▁ᎤᏂᏁᏉᎢᏍᏗᏱ	-11.624
▁ᏱᏣᏰᎸᏅ	-11.624
▁ᏓᏥᎾᏄᎪᏫᏎᎵ	-11.624
▁ᎠᎵᏱᎶᎸᎭ	-11.624
▁ᎹᏚ	-11.624
ᎬᏑᎶᏙᏗ	-11.624
▁ᏚᏂᏖᎸᏁ	-11.624
▁ᏕᎦᏂᏌᎲ	-11.624
▁ᏕᏣᏓᏅᏖᏍᏗ	-11.624
▁ᏗᏋᏅ	-11.624
▁ᎢᏦᎵᏍ	-11.624
▁ᎫᎵᏍᏔᏅ	-11.624
▁ᏂᎬᏁᏕᏍᏗ	-11.624
▁ᏚᏂᏔᏲᏎᎴ	-11.624
▁ᎢᎾᏏᏃ	-11.624
▁ᏂᏥᏪᏒᎭ	-11.624
▁ᏧᏂᏲᎱᎯᏍᏗ	-11.6241
ᎳᏫᏎᎮᏍᏗ	-11.6241
▁ᎥᎩᏂᏐᏗᏱ	-11.6241
▁ᎦᎾᏜᎢ	-11.6241
▁ᏧᎾᏁᎳᏗᏍᏗᏱ	-11.6241
▁ᏓᏘᎭᏁᎲ	-11.6241
▁ᏓᏳᏗᏩᏏ	-11.6241
ᏍᏚᎢᎡᎸ	-11.6241
▁ᎤᏃᏒᏅ	-11.6241
ᏠᏱᎸᎩ	-11.6241
▁ᎣᎦᏁᎳᎩ	-11.6241
▁ᏗᎾᏓᎯᎯ	-11.6241
▁ᏪᎵᏏ	-11.6241
▁ᎠᎾᏙᎴᎰᏍᎨᏍᏗ	-11.6241
▁ᎾᏆᎵᏍᏔᏁᎸ	-11.6241
▁ᎤᎾᏕᏯᏔᏁᎴᎢ	-11.6241
▁ᎦᎸᏓᏱ	-11.6241
▁ᎨᏣᎵᏍᏕᎸᏙᏗ	-11.6241
▁ᎤᏂᏍᏘᏰᎬ	-11.6241
▁ᏑᎧᏔ	-11.6241
▁ᎠᏂᏯᏙᎯᎯ	-11.6241
▁ᏗᏤᎵᏏ	-11.6241
▁ᏳᏬᎯᏳᎮ	-11.6241
▁ᎡᏥᎨᏳᎢᏳ	-11.6241
▁ᎤᏂᏲᎯᏍᏙᏗ	-11.6241
▁ᏱᏥᏩᏘᎭ	-11.6241
ᏴᎳᏎᎢ	-11.6241
▁ᏂᏨᎾᏛ	-11.6241
ᎨᏳᏅᎾ	-11.6241
▁ᎦᎵᏍᏕᎵᏍᎬ	-11.6241
▁ᏚᏍᏕᎸᎯᎸ	-11.6241
▁ᏚᏰᎵᏏᏙᎴᎢ	-11.6241
▁ᏚᎳᏫᏛ	-11.6241
▁ᎥᎩᏂᎵ	-11.6241
▁ᏚᏯᏙᎮᎴ	-11.6241
▁ᎠᎾᎵᏍᏓᏴᎲᏍᎩ	-11.6241
▁ᏭᏕᎵᎨ	-11.6241
▁ᏗᎧᎾᏗ	-11.6241
▁ᎢᏗᏓᏛᏁᏗ	-11.6241
▁ᎬᏃᏓ	-11.6242
▁ᏓᏍᏕᎵᏍᎬᎩ	-11.6242
▁ᏙᏛᎴᏂ	-11.6242
▁ᏱᎪᎵᎬᎾ	-11.6242
▁ᎢᏥᏫᏅ	-11.6242
▁ᏱᏣᏓᏅᏛᎾ	-11.6242
▁ᏯᏬᏅ	-11.6242
ᎵᎯᎮᎢ	-11.6242
▁ᎢᏳᏩᏁᏗ	-11.6242
▁ᎠᏱᏍᎨᏍᏗ	-11.6242
ᏦᎣᏍᏙᏗ	-11.6242
▁ᎨᏣᎷᏤᏗᏱ	-11.6242
ᏯᏪᏐᎸᏍ	-11.6242
ᏕᎰᏍᎬᎾ	-11.6242
▁ᏱᏚᏂᎸᏫᏍᏓᏁ	-11.6242
▁ᎠᎬᏔᏅᏛ	-11.6242
▁ᎠᎾᎵᏍᏓᏴᏗᏍᎬ	-11.6242
▁ᎠᏂᎪᏩᏘᏍᎩ	-11.6242
▁ᏄᏛᏁᎳ	-11.6242
ᏕᏤ	-11.6242
▁ᎤᎾᏚᎸᏅᎥᏍᎬ	-11.6242
▁ᎤᎾᎵᏍᏔᏴᏅ	-11.6242
▁ᏧᎾᏚᎪᏓᏁᏗᏱ	-11.6242
▁ᎤᎵᎪᎾ	-11.6242
▁ᏕᏣᎸᏫᏍᏓᏁᎮᏍᏗ	-11.6242
▁ᎢᏥᏲᎮᏍᏗ	-11.6242
▁ᏭᏂᎧᏁ	-11.6242
▁ᏗᏂᏂᏙᎯ	-11.6242
▁ᏕᎧᏁᏤᎲ	-11.6242
▁ᎢᎨᎳᏗᏙᎭ	-11.6242
▁ᎢᎫᏓᎴᏍᏗᏱ	-11.6242
▁ᎢᏓᎢᏎᏍᏗ	-11.6243
▁ᏍᎩᏯᏓᏅᏏ	-11.6243
▁ᎢᏳᎾᏓᎵ	-11.6243
ᎨᎲᏒᎩ	-11.6243
▁ᎭᎵᏍᏓᏴᎲᎦ	-11.6243
ᎨᏳᎲᏍᎨᏍᏗ	-11.6243
▁ᎣᎦᏂᎩᏒᎩ	-11.6243
ᏍᏕᎸᏙᏗ	-11.6243
ᏯᏛᎦᏁᎵ	-11.6243
▁ᎨᎦᏎᎸᎯ	-11.6243
▁ᎧᏁᏉᏥᏎ	-11.6243
▁ᏩᏌᏅ	-11.6243
▁ᎢᏥᎦᏔᎯᏳ	-11.6243
▁ᎤᏬᎯᏳᎯᏍᏛ	-11.6243
▁ᏱᎾᏛᏁᎮ	-11.6243
▁ᎢᏥᏂᎬᏎᎲᎢ	-11.6243
▁ᎢᏨᏅᎵ	-11.6243
▁ᎤᎾᏓᏙᎵᏍᏙᏗᏱ	-11.6243
▁ᎤᏃᎯᏳᎯᏍᏛ	-11.6243
▁ᎠᏏᎾᏌᏅ	-11.6243
▁ᎣᎦᏅᏅᎩ	-11.6243
ᏛᏅᎢᏍᏓᏁᏗᏱ	-11.6243
▁ᎨᏥᏃᎮᏍᎬᎢ	-11.6243
▁ᏕᏨᏗᏍᎨᏍᏗ	-11.6243
▁ᎤᏂᏴᏔᏂᎯᏍᏗᏱ	-11.6243
▁ᎬᏩᏄᎸᏗ	-11.6243
▁ᎢᏨᏲᎢᏳ	-11.6243
▁ᏄᏲᎱᏒᎩ	-11.6243
▁ᏥᏗᎧᎸᎪ	-11.6243
ᏅᏮᎦ	-11.6243
ᏛᏓᎴᎲᏍᎩ	-11.6243
ᏯᏆ	-11.6243
▁ᎠᏆᏐᎭᏛ	-11.6243
▁ᏣᏂᎦᏴᎵ	-11.6243
▁ᏗᎬᏩᏍᏕᎸᏗ	-11.6243
▁ᎬᏩᏍᏚᎢᏍᏗ	-11.6243
▁ᎢᏣᏣᏪᏐᎸᏍᏓ	-11.6243
▁ᎣᏦᎯᏳᎲᏍᎦ	-11.6243
▁ᏗᎻᏟᏯ	-11.6243
▁ᎭᎿ	-11.6244
▁ᎡᏥᏍᎦᏅᏤ	-11.6244
▁ᏂᎦᏁᎲᎾ	-11.6244
ᎾᏌᎾᎩᏍᎬ	-11.6244
▁ᏗᎦᎸᏉᏔᏅᎯ	-11.6244
▁ᏥᎨᎳᏗᏙᎮ	-11.6244
▁ᏗᎫᎪᏗᏱ	-11.6244
▁ᎤᎾᏓᏅᎡᎸᎩ	-11.6244
▁ᏗᎪᏍᏓᏯ	-11.6244
▁ᏱᏦᎵᎦ	-11.6244
▁ᎣᏨᏗᏍᎬ	-11.6244
▁ᏥᏓᎩᏂᏴ	-11.6244
▁ᎡᏥᏯᎡᏍᏗ	-11.6244
▁ᎢᏣᎴᏂᏓᏍᏗᏱ	-11.6244
▁ᏋᏗᏱ	-11.6244
▁ᎠᏉᎯᏳᎲᏍᎩ	-11.6244
▁ᎰᎯᏳᎲᎦ	-11.6244
▁ᎢᏗᏜ	-11.6244
ᎵᏍᏓᏴᎲᏍᎨᎢ	-11.6244
▁ᎤᏗᏩᏒᎩ	-11.6244
▁ᎠᏙᏅᏗ	-11.6244
▁ᏦᎢᎭᏃ	-11.6244
ᏢᏈᏍᎦ	-11.6244
ᎦᏎᏍᏔᏅ	-11.6244
ᎩᏙᎵᏍᏗᏱ	-11.6244
▁ᏫᏨᏲᏪᎳᏁᏗᏱ	-11.6244
ᏎᎵᏛᎦ	-11.6245
▁ᎢᏥᎷᎨᏍᏗ	-11.6245
▁ᎢᏰᏨᏁᏗᏱ	-11.6245
▁ᏧᏩᎿ	-11.6245
▁ᎾᎾᏓᏁᏟᏴᏏᏒ	-11.6245
ᏠᏯᏍᏛᎾ	-11.6245
▁ᏗᎧᏃᎮᏗ	-11.6245
▁ᎢᏯᎩᏪᏍᏗᏱ	-11.6245
▁ᏚᏍᏚᏤ	-11.6245
▁ᏣᏙᎴᎰᎯᏍᏗᏱ	-11.6245
▁ᏧᏪᏲᏅᎯ	-11.6245
▁ᏓᏂᏅᎬ	-11.6245
▁ᎭᎵᏘ	-11.6245
▁ᏳᏲᏤᎢ	-11.6245
ᏃᎮᎮᎸᎯ	-11.6245
▁ᎤᎾᎳᏍᏓᎡᏗ	-11.6245
▁ᏕᎤᏅᏅ	-11.6245
ᎾᏟᎴ	-11.6245
▁ᏗᏣᏓᏂᎸᏨᎯ	-11.6245
▁ᎠᏆᏙᎴᎰᏒ	-11.6245
ᎸᎦᏍᏙᏗ	-11.6246
▁ᏍᎩᏍᏓᏩᏕᎩ	-11.6246
▁ᏧᏂᏯᏪᏨ	-11.6246
▁ᏕᎨᏥᎵᎥᏂ	-11.6246
▁ᎹᏌ	-11.6246
▁ᎣᎬᏌ	-11.6246
▁ᏗᏨᏙᏗᏱ	-11.6246
▁ᏗᎩᎸᏙᏗ	-11.6246
▁ᏚᏅᏴ	-11.6246
▁ᏧᏅᏔᏅᎯ	-11.6246
▁ᏚᏂᏁᏤᎴ	-11.6246
ᎦᏛᎲᏍᎬ	-11.6246
▁ᏄᎾᏍᏕᏍᏗ	-11.6247
ᎥᏍᎩᏱᎩ	-11.6247
▁ᎤᏂᏑᎵᎪᏤ	-11.6247
▁ᏓᏈᎵᏯ	-11.6247
▁ᏧᏪᏙᎵᏍᏗᏱ	-11.6247
▁ᏧᏬᏚᎯᏳ	-11.6247
▁ᎦᏙᎴᎣᏍᎦ	-11.6247
▁ᎤᏓᎪᎵᏰᏗᏱ	-11.6247
▁ᎤᏬᏢᏅᏅᎯ	-11.6247
▁ᎻᏌ	-11.6247
▁ᎤᏔᏕᎩᏍᎨ	-11.6247
ᏦᏁ	-11.6247
▁ᏳᏁᏉᏥ	-11.6247
▁ᏓᎦᎵᏍᏙᏓ	-11.6247
▁ᏍᎪᎾ	-11.6247
▁ᏧᎾᎭᎾᏬ	-11.6247
ᎵᎲᏲᎵ	-11.6247
▁ᎤᎾᏁᎳᏛ	-11.6247
▁ᎤᏪᏰ	-11.6247
▁ᏂᎩᏴᏁᎸᎭ	-11.6247
▁ᎤᎧᎭᏲᏓ	-11.6247
▁ᎠᏆᎵᏍᎦᏍᏙᏛ	-11.6247
▁ᎤᏍᏆᎸᎯᏗᏒᎩ	-11.6247
▁ᎯᏁᏒᎭ	-11.6247
▁ᏱᏓᎨᏏ	-11.6248
▁ᏚᏰᎵᏎ	-11.6248
ᎦᎴᏅᏗᏱ	-11.6248
▁ᏧᏄᎪᏤᎢ	-11.6248
▁ᎢᏣᏙᎴᎰᎯᏍᏗᏱ	-11.6248
▁ᎥᎩᏍᏕᎸᏗᏱ	-11.6248
▁ᏕᏣᎧᏛ	-11.6248
▁ᎡᏦᎢᏳᏗᏱ	-11.6248
▁ᎤᏬᎯᏨ	-11.6248
ᎦᎧᎲᏍᎨᏍᏗ	-11.6248
ᏚᎨ	-11.6248
▁ᎭᏓᏙᎵᏍᏗᏍᎬ	-11.6248
▁ᏌᎳᏓᏱᎵ	-11.6248
▁ᏚᏂᏯᎣ	-11.6248
▁ᏚᎵᏥᏙᏁᎴᎢ	-11.6248
▁ᎬᏁᏤᎲᎢ	-11.6248
▁ᏚᏪᏣᎦᎸᎮᎢ	-11.6248
▁ᏄᏍᏗᏕᎬᎢ	-11.6248
▁ᎠᏯᏙᎵ	-11.6248
▁ᏓᎪᏄᎴᎢ	-11.6248
▁ᎤᏓᏅᏔᏕᎢ	-11.6248
▁ᎨᎪᏢᏅᎯ	-11.6248
▁ᎢᏥᎪᎲ	-11.6248
▁ᎤᎾᏓᏁᏟᏴᏒᏒᎢ	-11.6248
▁ᎬᏩᏂᏃᎮᏗ	-11.6248
▁ᏕᎾᏓᎪ	-11.6248
▁ᏧᏂᏍᏚᏗ	-11.6248
▁ᎢᏣᏛᎩᏍᎬᎢ	-11.6248
▁ᎤᎾᏤᎸᎯ	-11.6248
▁ᎤᏃᏢᏅᎩ	-11.6248
▁ᎢᏨᎷᏤᏗᏱ	-11.6249
▁ᎨᏥᏁᎢᏍᏗᏍᎬ	-11.6249
▁ᎬᎩᎷᏤᏗᏱ	-11.6249
▁ᏱᏍᎩᏃᏁᎴ	-11.6249
▁ᏕᎦᏆᏛ	-11.6249
▁ᎢᏨᏯᏛᏁᏗᏱ	-11.6249
▁ᎣᎩᎪᏩᏛᏗᏱ	-11.6249
▁ᎠᏯᎦᏯ	-11.6249
▁ᏕᎦᎶᏍᎬ	-11.6249
ᏓᏙᎵᏍᏗᏍᎨᏍᏗ	-11.6249
▁ᎢᎬᏩᎵᏍ	-11.6249
▁ᏍᎩᏩᎯ	-11.6249
ᏟᏰᎵ	-11.6249
ᏄᏪᏎᎢ	-11.6249
▁ᎠᎦᏬᎡᎢ	-11.6249
ᎫᏴᏛ	-11.6249
▁ᎦᏁᎵᏛ	-11.6249
▁ᏦᏥᎦᏔᎭ	-11.6249
▁ᏗᏣᎵᏂᎪᎯᏍᏙᏗᏱ	-11.6249
▁ᏳᏓᏅᏒ	-11.6249
▁ᎢᏨᏁᎢᏍᏗᏍᎬᎢ	-11.6249
▁ᎦᏟᏓ	-11.6249
▁ᎢᏥᎷᏤᏗ	-11.6249
▁ᎠᏆᏓᏅᏔ	-11.6249
▁ᎠᏌᏍᏛ	-11.6249
▁ᎠᏯᏦᎯ	-11.6249
▁ᎤᎵᏒᏍᏔᏁᎢ	-11.6249
▁ᏳᏚᎵᏍᎬᎾ	-11.625
▁ᎦᏃᎦ	-11.625
▁ᎯᏫᏅ	-11.625
▁ᏭᎵᏰᎢᎶᎸ	-11.625
▁ᎠᏂᎪᏩᏗᏍᎬ	-11.625
▁ᏫᏗᎦᏘ	-11.625
▁ᎠᏆᏁᎸᏔᏅ	-11.625
▁ᎯᎶᏁᎥᎭ	-11.625
▁ᏙᏓᏰ	-11.625
▁ᏕᎭᏕᏲᎲᏍᎬᎢ	-11.625
▁ᏣᏍᏉᏂᎪᏗ	-11.625
▁ᎢᏳᏅᏁᎯ	-11.625
▁ᎤᎵᏏᎾᎯᏍᏗ	-11.625
▁ᏙᏥᏩᏛᎲᎩ	-11.625
▁ᏗᏓᏂᎸᎩ	-11.625
▁ᏅᏛᎾᎵᏍᏔᏂ	-11.625
▁ᏦᏕᏆᏠᏥ	-11.625
▁ᎦᏌᎴᎾ	-11.625
▁ᏍᎩᏍᏕᎳ	-11.625
▁ᏓᎪᏪᎳᏂ	-11.625
▁ᏨᏗᎦᏚᎭ	-11.625
▁ᏅᏓᏥᏪᏎᎵ	-11.625
▁ᎦᏴᏓᏗ	-11.625
▁ᎤᏍᏗᎩᎨ	-11.625
ᏂᏍᎩᏴᎦ	-11.625
▁ᎠᎯᏗᎨ	-11.625
▁ᏄᎾᎵᏍᏔᏁᎲ	-11.625
▁ᏗᎦᎪᏙᏗᏱ	-11.625
▁ᏱᏥᏩᏘᏍᎪᎢ	-11.625
▁ᏳᏰᎸᎮ	-11.6251
▁ᏓᎾᎵᏍᏓᏴᎲᏍᎨᎢ	-11.6251
▁ᏓᏂᎧᎿᏩᏗ	-11.6251
▁ᏕᎬᏩᏘᏃᎮᎴᎢ	-11.6251
▁ᏅᏓᎦᏛᏁᎵ	-11.6251
▁ᎤᎾᏁᏢᏔᏅᏒᎢ	-11.6251
ᏫᏃ	-11.6251
ᏲᏞᎯᏍᏗ	-11.6251
▁ᏗᎨᎪᏍ	-11.6251
▁ᏈᎪᎵ	-11.6251
▁ᎤᏒᎦᎸᎩ	-11.6251
ᎦᎵᏍᏓᏗᏍᏗᏱ	-11.6251
▁ᏯᏲᎱᎯ	-11.6251
▁ᎠᏆᎵᎮᎵᏨᎩ	-11.6251
▁ᎤᎸᏓᎸᎥᏍᎩ	-11.6251
▁ᎢᏨᎪᏩᏛᏗᏱ	-11.6251
▁ᎠᏆᏢᏈᏍᏗᏱ	-11.6251
▁ᏱᎦᏕᎣᏍᎦ	-11.6251
▁ᎤᎾᏁᎶᏔᏅᎩ	-11.6251
▁ᏓᏰᏥᏁᎵ	-11.6251
▁ᎤᏪᎷᎬᎩ	-11.6251
ᏛᎿ	-11.6251
▁ᏥᏚᏙᎠ	-11.6251
▁ᏫᏄᏒ	-11.6251
▁ᎡᏙᏙᏱ	-11.6251
▁ᎠᎩᏰᏨ	-11.6251
ᏓᏲᏁᎯ	-11.6252
▁ᎬᏩᏂᏴᎮᎢ	-11.6252
ᏗᎨᎳᏍᏙᏗ	-11.6252
▁ᎤᎾᏓᏄᎸᏗ	-11.6252
▁ᏃᎦᏛᏁᎸ	-11.6252
▁ᎠᏂᏲᎵᎮ	-11.6252
▁ᎠᏥᎸᎨᎳᏍᏙᏗ	-11.6252
▁ᏫᎤᏂᎶᏎᎢ	-11.6252
▁ᏭᏗᏅᏎ	-11.6252
▁ᎠᏓᎦᏘᏕᎯ	-11.6252
▁ᎡᎯᏍᏗᏳ	-11.6252
▁ᎥᎰᎵ	-11.6252
ᎷᎳ	-11.6252
▁ᎦᏓᏫᏔᏅ	-11.6252
▁ᎤᎾᏁᎳᏗᏍᏗᏱ	-11.6252
ᏐᏲ	-11.6252
▁ᏫᏥᏤᎢ	-11.6253
▁ᏳᏇᏗ	-11.6253
▁ᏚᏂᎵᏬᏤᎢ	-11.6253
▁ᏱᏥᏏᎾᎯ	-11.6253
▁ᏓᏂᏙᎦ	-11.6253
▁ᎨᏣᏓᏑᏴ	-11.6253
ᏩᎫ	-11.6253
▁ᏓᎦᎾᏬ	-11.6253
▁ᎠᏆᎵᏍᏕᎸᏙᏗ	-11.6253
▁ᎠᎫᏣ	-11.6253
▁ᏭᏂᏴᎸ	-11.6253
▁ᎢᎩᏍᏕᎵᎭ	-11.6253
▁ᏧᏪᏯ	-11.6253
ᏥᏲᎭ	-11.6253
▁ᏣᎷᎯᏍᏗᏱ	-11.6253
▁ᎢᏣᏓᏅᏓᏗᏍᏗᏱ	-11.6253
▁ᏧᎾᏦᏗ	-11.6253
▁ᎬᏩᏂᏍᎦᎩ	-11.6253
▁ᏱᏥᏁᎦ	-11.6253
ᏍᏚᏣ	-11.6253
▁ᏫᎷᏨᎭ	-11.6253
▁ᎣᏥᏃᎮᎭ	-11.6254
▁ᏓᏥᏁᎢᏍᏔᏂ	-11.6254
▁ᎦᎨᏥᏁᏗᏱ	-11.6254
▁ᎪᏪᎳᏅ	-11.6254
▁ᎦᎳᎨᏰ	-11.6254
▁ᏭᏙᎯᏳᎲ	-11.6254
▁ᎠᏆᎵᏂᎬᎬᎢ	-11.6254
▁ᏚᏃᎸᏎᎢ	-11.6254
▁ᎠᏆᏛᏛᏅ	-11.6254
▁ᏚᎧᎵᏤ	-11.6254
▁ᎤᏂᎦᎾᏍᏓ	-11.6254
▁ᎢᏨᎥᏏ	-11.6254
▁ᎢᏨᏃᏁᎸᎯ	-11.6254
▁ᎠᏒᏛᏓ	-11.6254
ᏯᏓᏂᎸᏥ	-11.6255
ᏱᎵᏙᎯ	-11.6255
▁ᎠᎾᏔᏍᎩᏍᎩ	-11.6255
▁ᎠᏆᎵᎮᎵᏍᏗᏱ	-11.6255
▁ᏣᏂᎧᏔᎮᎢ	-11.6255
▁ᎤᎾᎵᏍᏓᏴᏅᎩ	-11.6255
▁ᎭᏂᏨ	-11.6255
▁ᏓᎾᏗᏔᏍᏗᏍᎨ	-11.6255
▁ᎠᎩᏁᎫ	-11.6255
▁ᎤᎾᏓᏅᏖᏛ	-11.6255
ᏜᏗᏍᏗ	-11.6255
▁ᏖᏒᎭ	-11.6255
▁ᎠᏛᏍᎨ	-11.6256
▁ᎢᏳᏏᏗ	-11.6256
▁ᏱᏍᎩᏃᎯᏎ	-11.6256
▁ᏗᎨᏥᎸᎯ	-11.6256
▁ᏄᏛᏁᎵᏙᎸ	-11.6256
▁ᏥᎦᏘᏏᏗᏢ	-11.6256
▁ᏦᎩᎾᏫᏱ	-11.6256
▁ᏧᏳᎪᏘ	-11.6256
▁ᎦᏓᏙᎵᏍᏗᏍᎨᏍᏗ	-11.6256
ᏋᏕᏨ	-11.6256
▁ᏧᏁᏢᏔᏅᏒᎢ	-11.6256
▁ᎣᏥᏁᎦ	-11.6256
▁ᎠᎾᏓᏛᎥ	-11.6257
▁ᏧᏩᏍᏉᎸ	-11.6257
▁ᏓᏁᎶᏛᎩ	-11.6257
▁ᎢᏣᏅᏓᏓ	-11.6257
▁ᎠᎾᎵᏍᏔᏴᎲᏍᎬ	-11.6257
▁ᏧᎬᏩᏟ	-11.6257
▁ᎢᏗᏧᏏ	-11.6257
▁ᎤᎾᏓᏅᎦᎸᏛ	-11.6257
▁ᏗᏣᏏᎳᏛᏗ	-11.6257
▁ᏘᏁᏥ	-11.6257
▁ᏧᏪᏲᎲᏍᎩ	-11.6257
▁ᏚᏬᎥᎩ	-11.6257
▁ᏳᎵᏬᏨ	-11.6257
ᎳᏫᏎᏗ	-11.6257
▁ᎠᎫᏴᎡᏗᏱ	-11.6257
▁ᏥᎦᏁᎭ	-11.6257
▁ᏗᎦᏅᎬ	-11.6257
▁ᏣᏚᎵ	-11.6258
▁ᏓᎩᎧᎭ	-11.6258
ᏄᏬᎥᎭ	-11.6258
ᏥᏰᎸᏂ	-11.6258
la	-11.6258
ᏚᏏ	-11.6258
▁ᎤᏙᏓᏆᏛ	-11.6258
▁ᎠᏂᏬᏗᎨ	-11.6258
▁ᏧᎾᏄᎪᏤᎢ	-11.6258
▁ᎠᎦᎸᎢᏛ	-11.6258
▁ᎢᏣᏓᏅᏘᏳ	-11.6258
▁ᏳᏬ	-11.6258
▁ᏧᏂᎦᏯᎷᏗ	-11.6258
▁ᎭᏅᏓᏓ	-11.6259
▁ᏣᏁᏉᏣᏘ	-11.6259
▁ᎠᏂᏍᎦᏰᎬᏍᏔ	-11.6259
▁ᎦᎶᏐᏅ	-11.6259
▁ᏗᏣᏘᏄᎦ	-11.6259
▁ᎨᏥᏃᎮᏍᎩ	-11.6259
▁ᏄᎵᏍᏙᏔᏅ	-11.6259
▁ᎡᎳᎻ	-11.6259
▁ᏗᎦᎪᏙᏗ	-11.6259
▁ᎢᏤᏙᎮᏍᏗ	-11.6259
ᏏᏔᏗᏍᏗᏱ	-11.6259
ᏯᏫᏍᎨᏍᏗ	-11.6259
▁ᏄᏟᏂᎬᎬ	-11.6259
▁ᎤᏃᏴᎩ	-11.6259
▁ᏳᏰᎸᎭ	-11.6259
▁ᎤᏂᎾᏗᏅᏗ	-11.6259
▁ᏚᏂᏂᏴᎲ	-11.626
ᏁᏉᏣᏘ	-11.626
▁ᏅᎩᏗᏂᏅᏌᏗ	-11.626
▁ᏣᏱᎵᏙᎯ	-11.626
▁ᏚᏅᏫᏍᏔᏅ	-11.626
▁ᏚᏂᏰᎵᏒ	-11.626
▁ᎠᏓᏁᏣᏍᏚᎶᎩ	-11.626
▁ᏥᎬᏗᎭ	-11.626
▁ᎢᏥᏍᎪᎵ	-11.626
▁ᏬᏯ	-11.626
▁ᎨᏥᎾᏌᎢ	-11.626
ᎨᏳᏒᎾ	-11.626
▁ᏕᎦᏄᎪᏫᏍᎦ	-11.626
ᏯᏖᏃ	-11.626
ᏓᏙᎵᏍᏓᏁᎸᎩ	-11.626
▁ᎠᏂᏃᎲᏍᎨ	-11.626
▁ᎤᏁᏍᎨᎴ	-11.626
▁ᎠᏆᏓᏅᏖᏙᏗ	-11.626
▁ᎠᏓᏬᏍᏗᏱ	-11.6261
▁ᎡᎩᏩ	-11.6261
ᏓᎢᏅᏎᎢ	-11.6261
▁ᏂᏣᎵᏍᏔᏅᎩ	-11.6261
▁ᎠᎵᏃᎮᏗᏍᎬᎢ	-11.6261
▁ᎠᎩᎾᏄᎪᏫᏎᎸᎩ	-11.6261
▁ᏣᏂᏃᎮᎭ	-11.6261
▁ᎠᎾᏓᏁᏟᏴᏏᏒ	-11.6261
▁ᎤᏁᎵᏒᎩ	-11.6261
▁ᏚᏍᏚᎢᏎ	-11.6261
▁ᏩᏥᎳᎨ	-11.6261
▁ᏧᎾᏙᏅ	-11.6261
▁ᏗᎪᏢᏙᏗ	-11.6261
▁ᏚᏂᎳᏫᏨᎩ	-11.6261
▁ᎢᏕᎮᏍᏗ	-11.6261
▁ᏱᏣᏚᎵᎭ	-11.6262
▁ᎧᏁᏉᎩ	-11.6262
ᏖᎸᎮᏍᎨ	-11.6262
▁ᏳᏰᎸᏅ	-11.6262
ᏍᎦᎳᏤ	-11.6262
▁ᎣᎵᏩᏲᎯ	-11.6262
▁ᏂᏚᏅᏅ	-11.6262
▁ᏭᏓᎪᎾᏛᏗ	-11.6262
▁ᎤᎾᎵᏖᎸᏅᎩ	-11.6262
▁ᎨᏥᏚᎢᏍᏓᏁᎸᎯ	-11.6262
▁ᎨᏥᏛᏙᏗᏱ	-11.6262
▁ᏂᏯᏛᏂᏏ	-11.6262
▁ᏣᏍᎦᏅᎪᎢ	-11.6262
▁ᏚᎾᏟᏴ	-11.6262
▁ᏭᏩᏅᏓᏕᎢ	-11.6262
▁ᏕᏥᏩᏛᎲ	-11.6263
ᏠᎯᏍᏗᏱ	-11.6263
ᏖᏍᎬᎢ	-11.6263
▁ᎢᏦᎯᏳᏅ	-11.6263
▁ᏳᏩᏛᎮᎢ	-11.6263
▁ᎤᏅᏣᏛ	-11.6263
▁ᎰᎵᏈ	-11.6263
▁ᎣᎩᎪᎲᎯ	-11.6263
▁ᏚᎪᏓᏁᎯ	-11.6263
▁ᏓᏜᏍ	-11.6263
▁ᎢᏗᎬᏓ	-11.6264
▁ᏗᏥᎦ	-11.6264
ᏌᎾ	-11.6264
▁ᎢᏣᏗᏔᏍᏗᏱ	-11.6264
▁ᏗᎪᏏᏐᏗ	-11.6264
▁ᎢᏣᎦᏌᏯᏍᏕᏍᏗ	-11.6264
ᏃᏪᎳᏁ	-11.6264
▁ᎭᏗᏛ	-11.6264
▁ᎨᏥᏛᎦ	-11.6265
▁ᏚᏯᏅᎮᎢ	-11.6265
▁ᎢᎦᎵᏍᏓᏁᏗ	-11.6265
▁ᎠᏯᎣᎢ	-11.6265
▁ᎣᎩᏍᎦᏅᏨᎢ	-11.6265
ᏎᎪᎩᏛ	-11.6266
▁ᏧᏂᎷᏤᎸ	-11.6266
▁ᏗᏥᏙᏓ	-11.6266
ᏲᏢᎾᏁᏗ	-11.6266
▁ᎹᎳ	-11.6266
▁ᏩᏎᎯ	-11.6266
▁ᎣᏣᎢᏒ	-11.6266
ᏙᎯᏳᎲᎦ	-11.6266
▁ᎤᎧᏲᏓ	-11.6267
▁ᎤᎵᏍᎫᏮ	-11.6267
▁ᎤᎵᏍᏛᏧᏅ	-11.6267
▁ᎤᏯᏍᏚᏎᎢ	-11.6267
▁ᎡᎵᎩᏱ	-11.6267
▁ᎣᎦᎵᏍᏓᏴᏗᏱ	-11.6267
▁ᎤᎱᏍᏕᏎᎴ	-11.6267
▁ᎤᎿᏬᎡ	-11.6267
▁ᎤᏍᏚᎩᏒ	-11.6267
▁ᎤᏅᎦᎳᎲ	-11.6267
▁ᎤᎵᏬᎢᏍᏗ	-11.6267
▁ᏗᎾᎵᏍᏓᏴᏂ	-11.6267
▁ᎤᏓᏁᏟᏴᏛ	-11.6267
ᎾᏓᏙᎵᏍᏓᏁ	-11.6267
▁ᏧᏂᎧᎿᏩᏛᏍᏗᏱ	-11.6267
▁ᎢᏯᎬᏁᏗᏱ	-11.6267
▁ᏇᏓᏁᎳᎻᏱ	-11.6267
ᎵᏍᏓᏴᏁᎢ	-11.6267
▁ᎡᏣᏁᎸᎯ	-11.6267
ᏕᎰᏏ	-11.6267
ᏘᏒᎴᎢ	-11.6267
▁ᎮᎳᏂᏱ	-11.6267
▁ᎤᏂᏯᏙᎴ	-11.6268
▁ᎤᏃᏢᏅᎯ	-11.6268
▁ᎤᏁᏢᏔᏅᏒᎢ	-11.6268
▁ᎦᏁᎵᏒ	-11.6268
▁ᏂᏣᎵᏍᏓᏁᎲᎢ	-11.6268
ᏱᎵᏓᏍᏗᏱ	-11.6268
▁ᎤᏬᏁᏔᏅᎢ	-11.6268
▁ᏥᏚᎦᏒᏍᏙ	-11.6269
▁ᏚᏄᏬᎡᎢ	-11.6269
▁ᎢᏣᎢᏒᎢ	-11.6269
▁ᎧᏁᎢᏍᏗᏍᎨᏍᏗ	-11.6269
▁ᏣᏙᎵᎦ	-11.6269
▁ᎠᏂᏲᎯᎲ	-11.6269
▁ᏗᏯᏖᏃ	-11.6269
▁ᏥᏮᎦᏙᎢ	-11.6269
▁ᏄᎾᏛᎿᏕᎬᎢ	-11.6269
▁ᏕᎨᏲᎲᏍᎨ	-11.6269
ᎩᎸᏔᏅᎯ	-11.6269
▁ᎢᏣᏓᏁᎮᏍᏗ	-11.627
▁ᎤᏁᎳᏫᏎᎲᎢ	-11.627
▁ᎧᏁᎦ	-11.627
▁ᏂᏣᏛᏁᎲᎾ	-11.627
▁ᏗᏣᎸᏫᏍᏓᏁᏗᏱ	-11.627
▁ᏗᏑᏫᏓ	-11.627
▁ᎤᏓᏴᏒᎩ	-11.627
▁ᏕᎦᎸᏫᏍᏓᏁᎸᎢ	-11.627
▁ᏅᏛᏁᎵ	-11.627
ᎵᏂᎪᎯᏍᏙᏗᏱ	-11.627
▁ᎦᏗᏔᏍᎬ	-11.627
▁ᏦᏥᏰᎸ	-11.627
▁ᏧᏯᏪᎢᏍᏗ	-11.627
▁ᎠᎵᏥᏙᎲᏍᎬ	-11.627
▁ᏙᏓᎨᏥ	-11.627
▁ᎡᏥᏲᎭ	-11.627
▁ᏣᏫᏎᎢ	-11.6271
▁ᎯᎦᏔᎮᏍᏗ	-11.6271
▁ᎠᏓᎳᎻ	-11.6271
▁ᎤᏍᏆᎸᎮ	-11.6271
▁ᎯᎪᏩᏘᎭ	-11.6271
ᏛᏗᏍᎪᎢ	-11.6271
▁ᏚᏅᏩᏁᎢ	-11.6271
▁ᏂᎦᏪᎠ	-11.6271
▁ᎠᏆᏤᎵᎪᎯ	-11.6271
▁ᎠᏂᎵᏫ	-11.6272
▁ᏭᏩᎦᏘᏗᏒᎢ	-11.6272
▁ᎯᎩᏍᎪ	-11.6272
▁ᎾᏂᏪᎭ	-11.6272
▁ᎠᏆᏕᏗ	-11.6272
▁ᎤᏮᏔᏅᎩ	-11.6272
▁ᏨᏒᎯᏳ	-11.6272
▁ᎤᏅᏫᏍᏗᏍᎩ	-11.6272
▁ᎬᏩᏡᏗᏍᎬᎢ	-11.6273
▁ᎦᏐ	-11.6273
▁ᏨᏓᎸᎢ	-11.6273
▁ᎪᏌᏂᏱ	-11.6273
▁ᏗᎪᏪᎳᏅᎯ	-11.6273
▁ᎢᎨᎬᏁᏗᏱ	-11.6273
▁ᏄᎳᏉ	-11.6274
▁ᏟᏗ	-11.6274
▁ᏫᏥᎶᎢ	-11.6274
▁ᏗᎾᏟ	-11.6274
▁ᏚᎴᏔᏁ	-11.6274
▁ᎦᏅᏆᎶᏏᎶᏛ	-11.6274
▁ᎥᏘᏍᎩ	-11.6275
▁ᎬᏬᏎᎸᎩ	-11.6275
▁ᏚᏰᎵᏒ	-11.6275
▁ᏩᎩᎶᏒᎩ	-11.6276
▁ᏍᎩᏁᏥ	-11.6276
▁ᏍᏆᏛᎦᏁ	-11.6276
ᎾᏕᎬᎢ	-11.6276
▁ᏚᎸᏫᏍᏓᏁᎰᎢ	-11.6277
▁ᎢᏣᏓᏅᏖᎭ	-11.6277
ᏦᎢᏳ	-11.6277
▁ᎤᎯᏌᏛ	-11.6277
▁ᎤᏂᏲᎰᏎᎸ	-11.6278
ᏘᏅᏍᏗᏱ	-11.6278
▁ᎤᏂᎪᎵᏰᏗᏱ	-11.6278
▁ᏛᏨ	-11.6278
▁ᏱᎾᏰᏍᎨᏍᏗ	-11.6278
▁ᎤᏂᏲᎸᎯ	-11.6278
▁ᎤᏟᏃᎮᏔᏁᎢ	-11.6278
▁ᏚᏂᏃᏁᎴ	-11.6279
▁ᎤᏠᎩ	-11.6279
▁ᎤᎵᏛᏔᏁᎢ	-11.6279
ᏅᏨᎾ	-11.6279
ᏥᎦᏔᎲᎾ	-11.6279
▁ᏫᏱᏣ	-11.6279
▁ᎤᎵᏦᏔᏁᎢ	-11.6279
▁ᎢᏳᏪᏍᏗᏱ	-11.6279
ᎶᎦ	-11.6279
ᏓᏏᏒ	-11.6279
▁ᎢᏥᏃᎮᏍᎩ	-11.6279
▁ᎢᏣᎵᎪᎯ	-11.6279
▁ᏤᏅᏍᏗᏱ	-11.628
▁ᏂᏥᎦᏔᎲᎾᏉ	-11.628
▁ᎦᏐᏂ	-11.628
▁ᏚᏂᎧᏁ	-11.628
▁ᏣᏁᏤᏗᏱ	-11.6281
▁ᏍᏆᎳ	-11.6281
▁ᏓᎪᏩᏘᏍᎬ	-11.6281
▁ᏍᎩᏃᎯᏏ	-11.6281
ᏅᏬᎳᏕᏍᎬ	-11.6281
▁ᏚᎷᎬᎢ	-11.6281
▁ᏗᎪᏱ	-11.6282
ᎷᏤᎰᎢ	-11.6282
ᏁᎳᏲᏍᎬ	-11.6282
▁ᎤᏓᏑᏰᏍᏗ	-11.6282
▁ᏱᎾᎾᏛᏁᎰ	-11.6282
▁ᏳᏍᎦᏅᏨ	-11.6282
▁ᎤᏪᎷᎩ	-11.6282
▁ᏣᏰᎸᎭ	-11.6283
▁ᎤᏗᎴᎬ	-11.6283
▁ᏱᏙᎨᏗ	-11.6283
▁ᏚᏟᎶᏍᏓᏁᎴᎢ	-11.6284
▁ᎦᎵᏦᏩᏛ	-11.6284
▁ᏥᏕᏙᎭ	-11.6284
▁ᏫᏂᎬᎦ	-11.6284
▁ᎩᎦᎨᎠᏗᏔᏍᏗ	-11.6284
ᏓᏙᎵᏍᏗᎭ	-11.6285
ᏁᎢᏍᏓᏁᎭ	-11.6285
ᏗᎧᏁ	-11.6285
▁ᏃᏊᏛ	-11.6285
▁ᎤᏂᏲᏍᏙᏗᏱ	-11.6285
ᏓᎢᏅᏗᏱ	-11.6286
ᏚᏁᎢ	-11.6286
ᏍᏔᏯ	-11.6286
▁ᎤᏍᏆᎸᎭ	-11.6287
▁ᏭᎳᏛ	-11.6287
▁ᏚᏬᏁᏔᏁᎢ	-11.6287
ᏍᏓᏩᏕᎪᎢ	-11.6287
▁ᎠᏳᎾᎦᏃ	-11.6287
▁ᏓᏐᏴᎢ	-11.6287
▁ᏚᏟᎶᏍᏓᏁᎴᏃ	-11.6287
▁ᏕᎪᏢᏒᎩ	-11.6288
ᏍᏚᎶᏙᏗ	-11.6288
▁ᏛᎨᏥ	-11.6288
▁ᎬᏩᏅᏏᏙᎯ	-11.6288
▁ᎤᏂᎷᎯᏍᏗ	-11.6288
▁ᏥᏥᏃᎮᎭ	-11.6288
▁ᏱᏅᏗᎦᎵᏍᏙᏗᏍᎨᏍᏗ	-11.6289
▁ᎤᎷᏤᎸᎯ	-11.6289
▁ᏕᏣᏓᎨᏳᏒ	-11.6289
▁ᎤᎵᎮᎵᏍᏗᏳ	-11.6289
▁ᏣᏁᏆ	-11.629
ᏨᏅᎯ	-11.6291
ᏟᏂᎬᏁᎰ	-11.6291
▁ᏩᏁᎾ	-11.6291
▁ᎡᏣᏙ	-11.6291
ᏓᏅᏓᏗᏍᏗᏱ	-11.6292
ᎵᏉᎩ	-11.6292
▁ᎤᏁᏉᏤᎢ	-11.6292
ᎦᏓᎡᎢ	-11.6292
▁ᎤᏁᎢᏍᏔᏁᎢ	-11.6292
▁ᎢᏣᏓᎳ	-11.6292
▁ᏥᏄᎾ	-11.6292
ᏓᏡᏗᎭ	-11.6292
ᎤᏥᎸᏎᏍᏗ	-11.6292
▁ᎤᏁᎸᏔᏁᎢ	-11.6293
▁ᎤᏰᎾᎥ	-11.6293
▁ᏱᏗᏥᏯᏅ	-11.6293
▁ᏱᎦᏗᎭ	-11.6293
▁ᏄᏓᏪᏎᎴ	-11.6293
ᎦᏓᎭ	-11.6293
▁ᏂᏍᎩᏴᏁᎸ	-11.6293
▁ᎠᏯᎡᎢ	-11.6293
ᏲᏞᏒ	-11.6294
▁ᏗᏍᏆᏂᎪᏗᏍᎩ	-11.6294
▁ᏅᏓᏳᎾᏄᎪᎢᏍᏗ	-11.6294
▁ᏩᎾᎦᎳ	-11.6294
▁ᎤᏗᏔᎮᎢ	-11.6294
▁ᏥᏁᏣᏛ	-11.6294
▁ᏩᏲᎯ	-11.6294
▁ᎢᏳᏊ	-11.6295
▁ᏱᏄᎾᏍᏗ	-11.6295
ᏥᏲᎵᎭ	-11.6295
▁ᏗᏄᎪᏗᏍᎩᏱ	-11.6296
ᏢᏥᏰᏍ	-11.6296
▁ᎢᎬᏩᏁᏗᏱ	-11.6296
▁ᎤᎵᏍᏙᏰ	-11.6296
▁ᏧᏂᏒᏍᏗᏱ	-11.6296
▁ᎠᏉᎯᏳᎭ	-11.6296
▁ᏍᎩᏁᎮᏍᏗ	-11.6297
ᏒᏂᏍᏗᏱ	-11.6297
ᏙᏓᏋ	-11.6297
▁ᎣᏥᏯᎥ	-11.6297
▁ᎢᏤᎳᏗ	-11.6297
▁ᎨᎪᏣᎴᏛ	-11.6297
▁ᎢᏣᏓᏁᏟᏴᏏᏒᎢ	-11.6298
▁ᎦᎷᎨᏍᏗ	-11.6298
▁ᎧᏁᏉᎨᎢ	-11.6298
▁ᏧᎵᏬᏨ	-11.6299
▁ᏚᏂᎪᎲᏃ	-11.6299
▁ᎤᏓᏅᏓᏛᎩ	-11.6299
▁ᎠᏍᏆᏂᎪᏗᏍᎨᏍᏗ	-11.6299
▁ᏚᏂᏴᎲ	-11.6299
▁ᎤᏭᏢᏅᎩ	-11.63
▁ᎤᏂᎿᎥᎢ	-11.63
ᏪᏛ	-11.63
▁ᎡᎩᏍᏕᎸᏗᏱ	-11.63
ᎪᎸᏏ	-11.63
▁ᏄᏅᏁᎸᎩ	-11.63
▁ᏐᎭ	-11.63
▁ᏕᎯᏬᏁᏗᏍᎬ	-11.6301
▁ᎤᎾᏓᏡ	-11.6301
▁ᎤᏬᏛ	-11.6301
▁ᏧᎬᏩᎴ	-11.6301
▁ᏫᎾᏛᎦ	-11.6302
▁ᎠᎵᏰᎢᎶᎦ	-11.6302
▁ᏥᎨᎲ	-11.6302
▁ᎬᏩᎨᏳᎯ	-11.6302
ᏴᏎᎸᎩ	-11.6302
▁ᎢᏳᎵᏍᏓᏁ	-11.6303
ᏣᏙ	-11.6303
▁ᎠᏩᏉᎯ	-11.6303
▁ᎠᏰᏙᎳᏕᏍᏗ	-11.6303
▁ᎠᏲᏍᏗᏍᎪ	-11.6303
▁ᎠᏑᏴᏗ	-11.6303
▁ᏧᏓᏂᎸᎢᏍᏗ	-11.6304
ᏕᎬᏲᎯᏏ	-11.6304
▁ᏙᏛᏁᎵ	-11.6304
▁ᎠᎾᎢᏎᎢ	-11.6304
▁ᎥᏘ	-11.6304
▁ᎠᏃᏎᎮ	-11.6304
▁ᏅᎩᏗᎦᏅᏌᏗ	-11.6305
▁ᏕᎫᎪᏗᏍᎬ	-11.6305
▁ᏣᏁᏢᏔᏅᏛ	-11.6306
▁ᏚᎸᏌᏓ	-11.6306
ᎨᏙᎰ	-11.6306
ᎭᏁ	-11.6306
ᏯᎩᏍᎪ	-11.6307
▁ᏥᎦᎷᎪᎢ	-11.6307
▁ᏨᏔᏅᎯ	-11.6307
▁ᎠᎩᏩᏛᎲᎩ	-11.6307
▁ᎠᎩᏃᎮᏍᎬᎢ	-11.6307
▁ᎤᏂᎧᎵᏤ	-11.6307
ᏐᏅᏤᎸᎩ	-11.6307
▁ᏚᏙᎡᏍᏗ	-11.6308
▁ᎤᏟᎶᎥᎩ	-11.6308
▁ᎠᏯᏨᏗ	-11.6308
ᎲᏍᎬᎩ	-11.6308
ᎫᏱᏍᎪ	-11.6308
▁ᏕᎤᎸᏫᏍᏓᏁᎸ	-11.6309
ᏗᎦᎵᏍᏙᏗᏍᎨᏍᏗ	-11.6309
▁ᏭᏯᏅᎲᎩ	-11.6309
▁ᎾᎬᏁᎸᎭ	-11.6309
▁ᎤᏍᏘᏰᎩ	-11.6309
▁ᏭᏓᎾᏫᏛᎮ	-11.6309
▁ᎤᏂᏲᎰᎢ	-11.6309
ᎾᏙᎴᏆᏍᎬ	-11.631
ᎮᎯ	-11.631
▁ᏧᎳᏏᏕᎾ	-11.6311
▁ᏄᏅᏁᎴᎢ	-11.6311
▁ᏫᏚᏂᏯᏅᎲ	-11.6312
▁ᎠᏄᎯᏍᏗᏍᎬᎢ	-11.6312
▁ᎤᎾᏤᎵᎪ	-11.6313
ᏍᏆᏗᏍᏗᏱ	-11.6313
▁ᏗᎵᏍᎪᎸᏙᏗ	-11.6313
▁ᎤᏓᏅᏖᏗᏍᎬ	-11.6313
▁ᏓᏅᏗᏍᎬᎢ	-11.6313
▁ᏚᏄᎪᏔᏅᎢ	-11.6313
▁ᎤᎾᎵᎪᏒᎢ	-11.6313
▁ᎤᏢᎬᎢ	-11.6313
▁ᏕᏣᎸᏫᏍᏓᏁᎸᎢ	-11.6313
ᎨᎬᏁᎵ	-11.6313
▁ᏚᏍᎫᏓᏛᎢ	-11.6314
ᎪᏢᏁᎢ	-11.6314
▁ᎤᏁᎢᏍᏔᏁ	-11.6314
▁ᏫᎷᎩ	-11.6314
▁ᏗᎧᏃᎩᏍᏗᏱ	-11.6314
▁ᏚᏂᏢᎬᎢ	-11.6314
▁ᎠᏂᏔᏲᎯᎮᏍᏗ	-11.6314
ᎣᏍᏛ	-11.6314
▁ᏱᏮ	-11.6315
▁ᎠᎩᏰᎸᏗᏱ	-11.6315
▁ᏓᎾᏓᏅ	-11.6316
▁ᎠᏥᎢᏍᏗᏱ	-11.6316
▁ᎠᏐᏢᎢᏍᏗᏍᎬᎢ	-11.6316
▁ᏑᎠ	-11.6316
▁ᎠᏒᏛ	-11.6316
▁ᏯᏆᏚᎵᎭ	-11.6316
▁ᏕᎨᏛ	-11.6316
▁ᎤᏓᏙᎵᏣᏘ	-11.6317
▁ᎬᏩᎾᏝᎢ	-11.6317
▁ᎤᏩᏂᎴᎢ	-11.6318
▁ᎤᎵᏦᎯᏓ	-11.6318
▁ᎢᎦᏛᏁᎯ	-11.6319
ᎯᎰᎢ	-11.632
▁ᎤᏬᏍᎩᎵ	-11.632
▁ᎤᏃᎯᏳᏁᎢ	-11.632
▁ᎤᏬᎯᏤ	-11.632
ᏢᏈᏍᏗ	-11.6321
ᏙᎵᏍᏗᏉ	-11.6321
▁ᏍᎩᏯᏅᏛ	-11.6321
ᎾᏰᏍᎬᎾ	-11.6322
ᎩᎵᏲᎬ	-11.6322
▁ᎤᎵᏍᏆᏙᏅ	-11.6322
▁ᎠᏂᏫᎾᎨᏍᏗ	-11.6324
▁ᎤᏍᏚᏞ	-11.6324
▁ᏥᎥᎡ	-11.6324
▁ᎠᎩᏁᏨᎩ	-11.6326
▁ᏚᏃᏁᎸᎩ	-11.6327
▁ᏄᏃᎯ	-11.6328
▁ᎤᏰᎸᏐᎢ	-11.6328
▁ᎠᏘᏍᏗᏍᎩ	-11.6328
▁ᎤᏃᎯᏳᎯ	-11.633
▁ᎤᎩᎵᏲᏨᎯ	-11.633
▁ᎮᎲᎢ	-11.633
ᎤᏙᎯᏳᎭ	-11.633
▁ᎯᏴᎭ	-11.6331
▁ᏓᎩᎪᎲᎩ	-11.6331
▁ᏚᏄᎪᏫᏒᎩ	-11.6331
▁ᏂᏕᎬᏁᏍᏗ	-11.6333
ᏓᏍᎦᎨᏍᏗ	-11.6333
ᎾᏝᎥᎢ	-11.6333
ᎪᎵᎩ	-11.6333
▁ᏕᏥᎨᏳᏒ	-11.6333
ᎾᎩᏪᏒ	-11.6333
ᏰᎶᎴ	-11.6334
ᏥᏰᎸᎾᏁᎰᎢ	-11.6334
ᎭᏂᏉ	-11.6334
▁ᎠᏥᎦᏘᏗᏍᏗᏱ	-11.6334
▁ᎠᏓᏙᎵᏍᏙᏗᏱ	-11.6335
▁ᎠᎾᏕᎲᏍᎬᎢ	-11.6335
▁ᏣᏍᏆᏂᎪᏙᏗᏱ	-11.6335
▁ᏍᏆᏕᏁᎸ	-11.6336
▁ᎢᏳᏪ	-11.6338
ᎫᏴᎲ	-11.6338
▁ᎫᏢᏗᏱ	-11.6339
▁ᎤᏃᎯᏳᏒᎢ	-11.6339
▁ᏗᎦᏅᏬᎢ	-11.6339
▁ᏣᏍᏆᏂᎪᏗ	-11.634
▁ᎤᏲᎰᏒ	-11.634
▁ᏚᏪᎧᏁᎢ	-11.634
▁ᎾᏯᏛᎥᏃ	-11.634
ᏪᏙᎵᏨᎩ	-11.6341
▁ᎤᎾᎵᏗᎩ	-11.6342
▁ᏥᏂᏫ	-11.6343
ᏓᎾᏫᏛᎮ	-11.6343
▁ᎤᎾᏦᏗ	-11.6343
ᎦᏌᏯᏍᏙᏗᏱ	-11.6343
▁ᎠᎩᏍᏛᏗᏍᎬᎢ	-11.6343
▁ᏖᏒ	-11.6344
▁ᎠᎾᏓᏅᏖᎵᏙ	-11.6345
▁ᎤᏓᏅᏖᏗᏍᎨᎢ	-11.6345
▁ᎤᏁᎵᏒ	-11.6345
ᏝᏅᎯ	-11.6346
▁ᏣᏰᎸᏗ	-11.6346
ᏁᏟ	-11.6346
ᏍᏢᏂᏍᏔᏅ	-11.6346
▁ᎠᎵᏖᎸᏂᏍᏗ	-11.6347
ᏗᏔᎲᎩ	-11.6347
ᏰᎵᏎᏗ	-11.6347
▁ᎠᏛᏍᎨᎢ	-11.6347
▁ᏣᏴᏍᏗ	-11.6348
▁ᏕᎨᏥᏰ	-11.6348
▁ᎤᎵᏍᎪᎸᏓᏁᎸᎩ	-11.6348
ᏬᏗᎨ	-11.6348
▁ᎤᎾᏂᎩᏒᏃ	-11.6349
ᎶᏌ	-11.6349
ᎩᎡᎴᎢ	-11.6349
▁ᎤᏓᏴᏍᏗᏱ	-11.6349
▁ᎤᏕᏒᏅ	-11.635
▁ᎾᏎᎵ	-11.635
ᏆᏒᎦᎸ	-11.6351
▁ᎤᎾᎳᏅᎯᏍᎩᏂ	-11.6351
▁ᎪᏢᏒᎩ	-11.6352
▁ᏭᏂᎦᏐᎠ	-11.6353
▁ᎤᎾᎵᏍᎪᎸᏔᏅᎯ	-11.6353
▁ᎠᏓᏍᏕᎵᏍᎩ	-11.6353
ᎵᏂᎬᎬ	-11.6353
▁ᏧᏁᎵᏁᏃ	-11.6353
▁ᎠᏂᏍᎦᎢᎲᏃ	-11.6354
▁ᏦᏑᏫᏃ	-11.6354
▁ᏎᏘᏃ	-11.6354
▁ᏏᎵᏆᏃ	-11.6354
▁ᏁᏩᏔᎵᏃ	-11.6354
▁ᏙᏂᏍᎩ	-11.6355
ᎬᏔᏅᎯ	-11.6355
ᎴᏫᏍᏗᏍᎨ	-11.6355
ᎤᏏ	-11.6356
▁ᏧᏂᎶᏒ	-11.6356
▁ᎠᏓᏪᎵᎩᏍᎬᎢ	-11.6357
ᏍᏚᎢᏍᏗᏱ	-11.6357
ᏓᎵᏅᏟ	-11.6357
▁ᎤᏍᏕᎸᎯᏙᎯ	-11.6357
▁ᎾᎾᏛᏁᎮ	-11.6357
▁ᎤᏪᏘᏁᎢ	-11.6357
▁ᏛᎬᏯᏘᏃ	-11.6357
▁ᏘᏅᎵ	-11.6358
ᎥᎭ	-11.6358
▁ᎠᏆᏣᏃ	-11.6358
▁ᏓᏕᏲ	-11.6359
ᏰᏌᏛᎢ	-11.6359
▁ᏕᏣᎴ	-11.636
▁ᎤᏁᎷᎬᎢ	-11.6361
▁ᎬᏩᏃᏁᎴᏃ	-11.6361
ᏡᎦ	-11.6362
ᏰᎸᏁᎢ	-11.6362
▁ᏂᏚᏩᏁ	-11.6363
▁ᏕᎦᏥᏯ	-11.6364
ᏗᎬᏩᎧᏃᏗ	-11.6366
▁ᎠᏂᏍᎦᎩ	-11.6367
ᏄᎪᏫᏎᎢ	-11.6367
▁ᎤᏂᏬᏂᎯᏍᏗᏱ	-11.6367
▁ᏂᎬᏁᎮᏍᏗ	-11.6368
▁ᏱᏂᎬᎦ	-11.6368
▁ᎦᏄᎸᎯ	-11.6368
▁ᏂᎦᎵᏍᏗᏍᎪᎢ	-11.6368
▁ᎤᏘᏃᎴᎢ	-11.637
▁ᎤᎾᏓᏴᎳᏛ	-11.637
ᎩᎾᏄᎪᏫᏒ	-11.637
▁ᏥᏧ	-11.6371
▁ᎪᏫ	-11.6371
▁ᏂᏪᏏ	-11.6371
ᎯᎦᏔᎭ	-11.6371
ᏯᏄᎵᏳ	-11.6372
▁ᎤᏕᎶᎰᏌ	-11.6372
▁ᎦᎵᏉᎩᎦᎵ	-11.6373
▁ᎤᏓᎾᏫᏛᎮ	-11.6374
ᎧᏃᏗ	-11.6374
▁ᏱᏥᎦᏔᎮᎢ	-11.6375
▁ᎤᏅᎪᏨ	-11.6375
▁ᎤᏍᏆᏗᏍᏗᏱ	-11.6375
▁ᏱᏄᏍᏕᎢ	-11.6376
▁ᎤᎾᏤᎵᎦᏯ	-11.6376
▁ᎾᎾᏛᏁᎭ	-11.6377
ᏂᎷᏣ	-11.6377
▁ᏥᏃᎯᏎᎸ	-11.6379
▁ᏓᏕᏲᎲᏍᎨᎢ	-11.6379
ᎸᏣ	-11.6379
▁ᎾᏍᏊ	-11.638
▁ᏙᏓᏆᏍᎬᎢ	-11.638
ᏛᏓᏍᏓᏁᎵ	-11.6381
▁ᎠᏂᎩᎵᏲᎬᎢ	-11.6382
▁ᏕᎦᏯᎸ	-11.6384
▁ᏧᏂᏁᏗᏱ	-11.6384
▁ᎤᎾᏓᏅᏔᏩᏕ	-11.6385
ᏂᏏᏅᎩ	-11.6386
▁ᎦᏓᎥᎢ	-11.6386
▁ᎠᎧᎵᎢᎯ	-11.6386
ᏥᏅᏬᏗ	-11.6387
▁ᏧᎦᏴᎵᎨᏃ	-11.6387
ᎩᎶᏫᏎ	-11.6387
▁ᏗᎦᏅᏬᏃ	-11.6387
ᏱᏐ	-11.6388
ᏚᎾᏚᏫᏍᏔᏁᎢ	-11.6389
▁ᎤᎦᏙᎥᏎ	-11.6389
ᏏᏕᏅ	-11.639
ᏮᏕ	-11.6392
▁ᏥᎪᏩᏘᎭ	-11.6393
▁ᏚᏑᏰᏎ	-11.6393
ᎯᎶᎥ	-11.6395
▁ᏧᎾᏓᎵ	-11.6396
ᎾᏍᏉ	-11.6397
▁ᏴᎨᏤ	-11.6398
ᏅᏫᏍᏗᏍᎨ	-11.6398
▁ᏚᎸᏫᏍᏓᏁᎸᎩ	-11.6399
ᏰᏍᏔᏁᎢ	-11.6399
ᏗᏯ	-11.64
▁ᏫᎲᎦ	-11.6402
▁ᎤᎦᏘᏗᏍᏗᏱ	-11.6403
ᎶᏒᏍᏙᏗᏱ	-11.6403
ᏥᏯᏫᏍᎬ	-11.6404
▁ᎤᎾᎵᎮᎵᏤᎢ	-11.6405
▁ᎤᏓᏅᏙᎩᎯ	-11.6406
▁ᎤᏓᏴᏎ	-11.6407
ᎳᏕᏗ	-11.6409
▁ᎤᏛᏗᏕᎨ	-11.6409
▁ᎶᏛ	-11.6411
▁ᎦᏛᎬᎦ	-11.6411
ᎾᏓᏙᎵᏍᏗᏍᎪᎢ	-11.6412
ᏮᏕᏨ	-11.6412
ᏰᎢᎸᏍᏗᏱ	-11.6414
ᏣᏃᏁᎵ	-11.6414
▁ᎾᏆᎵᏍᏓᏁ	-11.6415
▁ᎤᎵᏍᎪᎸᏙᏗᏱ	-11.6415
▁ᏧᏁᏨᏃ	-11.6417
ᏓᏅᏓᏗᏍᏔᏅᎯ	-11.6418
ᏛᏏ	-11.6419
ᏁᎳᏕᎢ	-11.6419
▁ᎤᏚᎢᏍᏔᏅᎢ	-11.642
▁ᎠᏓᏁᏣᏍᏚᎶᏃ	-11.642
ᏓᏢ	-11.6421
▁ᏕᎤᎴᏔᏅᎢ	-11.6422
▁ᏯᏥ	-11.6423
▁ᏥᏃᎮᏍᎬᎢ	-11.6423
▁ᎤᏐᏱᎭ	-11.6424
ᏌᏙᏯ	-11.6424
▁ᎤᏍᏚᎩᏎ	-11.6424
▁ᏁᎵᏍᎬᎾ	-11.6424
ᎬᏂᏐᏗᏱ	-11.6426
ᏟᎶᏍᏔᏂ	-11.6426
▁ᎤᏰᎯᏍᎩᏂ	-11.6428
ᏌᎴ	-11.643
▁ᏂᎦᎵᏍᏗᏍᎨᎢ	-11.6431
ᏚᎸᏫᏍᏓᏁ	-11.6432
ᏔᎳᏗ	-11.6432
ᎧᎿᏩᏚᎦ	-11.6433
▁ᎤᎷᏥᏗ	-11.6434
▁ᎤᎪᎵᏰᎡ	-11.6435
▁ᏫᎦᎾᏄᎪᎢ	-11.6436
ᎳᏑᎳ	-11.6436
ᏣᏓᏂᎸᎩ	-11.6436
▁ᎤᎾᎷᏒ	-11.6437
ᏥᎯᎮᏍᏗ	-11.6437
▁ᏂᎦᏛᏁᎰᎢ	-11.6438
▁ᏱᏚᏩᏛᎲ	-11.6439
▁ᎦᎵᏆ	-11.6441
▁ᎯᏆᏃ	-11.6442
▁ᎤᏍᏆᏙᏅ	-11.6443
ᎦᎵᏯ	-11.6445
ᏄᎵᏍᏓᏁᎴ	-11.6445
ᎫᏱᏍᎨᏍᏗ	-11.6446
ᏣᎵᏥᏙᎲᏍᎦ	-11.6447
▁ᏕᏥᏍᏚ	-11.6447
ᏥᏯᏓᏙᎵᏍᏓᏁᎭ	-11.6452
ᏓᏒᏂ	-11.6452
▁ᎤᏍᎩᏓᏒᎢ	-11.6452
ᏣᎦᏔᎲᏛ	-11.6452
▁ᎠᎹᏱᎭ	-11.6453
▁ᏫᏓᏗ	-11.6454
▁ᎤᎵᏠᏯᏍᏛ	-11.6454
▁ᎡᏂᎾᏯᏃ	-11.6454
ᏗᎴᎲᏍᎬᎢ	-11.6454
▁ᏕᏥᎸᏫᏍᏓᏁ	-11.6455
▁ᏩᎩᎶᎯ	-11.6456
▁ᏚᎾᎵᏂᎬᎬ	-11.6458
ᏝᎥ	-11.6459
▁ᏍᏊ	-11.646
▁ᏗᏥᏰᎸᎢ	-11.6461
▁ᏫᏚᎷᏤᎸ	-11.6462
ᎴᏈ	-11.6462
ᏇᎵᏒ	-11.6462
▁ᎠᏂᎷᎬ	-11.6463
▁ᎤᏚᎢᏍᏔᏅᎯ	-11.6465
ᏍᎦᏅᏤ	-11.647
▁ᎤᏄᎪᏨᏃ	-11.647
▁ᏙᏓᏥᏯ	-11.6472
ᏪᏒᏛ	-11.6474
ᏕᎶᎰᏌ	-11.6474
ᎭᏄᏫ	-11.6476
ᏓᏓᎴᏔᏂ	-11.6476
ᏙᎴᎰᎯᏍᏙᏗ	-11.6477
▁ᏪᏙᎲ	-11.6479
ᏣᏪ	-11.648
ᎧᏁᎢ	-11.6481
ᏂᏱᏍᎩ	-11.6482
ᏤᎮᏍᏗ	-11.6483
▁ᏫᎦᎶᏍᎬ	-11.6483
▁ᎠᏂᏃᎮ	-11.6483
ᏁᏓᏍᏗ	-11.6483
▁ᎤᏟᎯᏳᏍᎩᏂ	-11.6484
ᏫᏒᎢ	-11.6484
▁ᏕᎩᎸᏫᏍᏓᏁᎸ	-11.6485
ᏰᎸᏎᏍᏗ	-11.6485
▁ᎠᎪᏎᎴ	-11.6485
ᏱᎵᏕᎲᎢ	-11.6486
▁ᎮᎼᏃ	-11.6488
▁ᏓᏥᏯᎵ	-11.6488
▁ᎦᏰᏌᏛᎢ	-11.6488
▁ᏫᏚᏯᏅᎲᏃ	-11.6488
ᎬᏩᎶᏓᏁ	-11.6488
ᏂᎾᎷ	-11.6489
ᎾᏌᎾᎩ	-11.6489
▁ᏗᏂᏰᎸᎢ	-11.649
ᎨᎦ	-11.6492
ᎦᏓᎡ	-11.6492
▁ᎨᏥᏙᎵᏍᏗ	-11.6492
▁ᏚᏅᏎᏃ	-11.6492
▁ᎠᏓᏅᏓᏗᏍᏗᏱ	-11.6492
ᎶᏄᎮᏗ	-11.6493
ᏌᏅ	-11.6493
▁ᎤᏂᎷᏤᎭ	-11.6494
▁ᎠᏂᏍᎦᎾᏍᎩᏂ	-11.6494
▁ᎦᎪᎨ	-11.6494
ᏣᎦᏎᏍᏓ	-11.6495
ᎸᏉᏓ	-11.6495
▁ᎤᏩᎾᏬᏒ	-11.6496
ᏍᎫᏕᏒᎩ	-11.6497
▁ᏣᏢᏗ	-11.6502
ᏆᎧᎿᏅ	-11.6502
▁ᎠᏁᏙᎯᏉ	-11.6503
ᏍᏓᏩᏗᏙᎮ	-11.6503
▁ᏚᏂᎩᏒ	-11.6504
ᏫᏚᏓᎢᏅ	-11.6504
ᎭᎵᏙᎩ	-11.6505
ᎬᏇᎯᏍᏗᎭ	-11.6505
▁ᎤᏲᎱᎯᏎᎸᎯ	-11.6506
▁ᎬᏩᎵᏃᎮᏔᏁ	-11.6507
▁ᏚᎸᏌᏛᎢ	-11.6507
▁ᏥᏂᎦᎵᏍᏗᏍᎪ	-11.6508
ᎣᎩ	-11.651
ᏆᏤᎵ	-11.6511
ᎪᏢᏅ	-11.6512
▁ᎪᏒ	-11.6512
ᎵᏙᎮ	-11.6517
ᎵᏍᏔᏴᎲ	-11.6518
▁ᎤᏲᏨᎩ	-11.6519
▁ᏂᏓᏅᏁᎲ	-11.6519
▁ᏚᏲᏍᏔᏅ	-11.6519
ᏓᏡᏗᏍᎪᎢ	-11.6521
▁ᎤᏂᏁᏨᎢ	-11.6522
▁ᎤᏬᎯᏳᎯ	-11.6524
▁ᎵᏓ	-11.6525
ᎵᏲᏃ	-11.6528
▁ᎠᏓᏅᏖᏍᎨᎢ	-11.6528
ᎾᏟᏃᎮ	-11.6529
▁ᎠᏁᏙᎮᎢ	-11.653
ᏣᏉ	-11.653
ᎧᏅᎩ	-11.653
▁ᎠᏆᏚᎸᎲ	-11.6531
▁ᏆᏏ	-11.6532
▁ᏫᏔ	-11.6534
▁ᎤᏔᏲᏎᎸᎩ	-11.6535
▁ᏂᎬᏁᎰ	-11.6535
▁ᏚᏁᏒ	-11.6536
ᎾᏓᏂᎸᏤ	-11.6538
ᏲᎱᏎᎸᎯ	-11.6539
▁ᎤᏤᎸᏅ	-11.6541
▁ᏥᏯᎠ	-11.6543
▁ᏍᎩᎾᎾᏂ	-11.6544
ᎾᏠᏨᏃ	-11.6545
ᎦᎴᏂ	-11.6546
ᎵᎮᎵᎩ	-11.6547
ᏥᏩᏛᎡᎭ	-11.6549
ᎭᏛᎦ	-11.655
▁ᎠᏁᎵᏍᎨᎢ	-11.655
ᏍᏆᏓᏃ	-11.6554
▁ᏂᏨᏪᏎᎸ	-11.6557
ᏥᎦᏘᏗ	-11.6558
▁ᎠᏒᎨᏍᏗ	-11.6564
▁ᎤᏩᏛᎲᏃ	-11.6564
ᏍᎫᏕᏍᎬ	-11.6565
▁ᎤᏚᎵᏍᎨᎢ	-11.6565
ᏃᎯᏳᎲ	-11.657
ᏄᏯᎩ	-11.6572
▁ᎢᏳᏩᏁᎸ	-11.6573
▁ᎳᏏ	-11.6574
ᏲᏎᎮᏍᏗ	-11.6575
ᏩᏘᎭ	-11.6575
ᎥᏍᎪ	-11.6579
ᎵᏃᎮᏗᏍᎬ	-11.6582
ᏣᎵᏍᎪᎸᏓᏏ	-11.6583
▁ᏱᏝ	-11.6583
ᎵᏯ	-11.6584
ᎾᎿ	-11.6587
▁ᎤᎾᎴᏅᎮᏃ	-11.6588
ᏗᎴᎩ	-11.6591
▁ᎠᎵᏍᎪᎸᏙᏗᏱ	-11.6592
▁ᎡᏥᏯᏅᎲ	-11.6594
▁ᎠᏆᏚᎵᏍᎬᎢ	-11.6594
▁ᏚᏂᎸᏫᏍᏓᏁᎲᏰᏃ	-11.6595
▁ᏎᎦᏉ	-11.6597
▁ᎢᏗᎦᏔᎭᏰᏃ	-11.6597
ᏓᏂᎸᎪᎢ	-11.6597
▁ᎤᎵᏌᎳ	-11.6598
▁ᎤᎾᎵᏖᎸᏅ	-11.6599
ᏤᎸᏗ	-11.6599
▁ᎤᏁᎵᏎᎢ	-11.66
▁ᏛᎾᎢ	-11.66
▁ᏚᎪᎲᏃ	-11.6602
ᏅᏍᏔᏁᎢ	-11.6602
▁ᎮᏙᎲ	-11.6604
ᏓᎵᏱ	-11.6606
▁ᎤᎾᎦᏙᏍᏛ	-11.6606
▁ᎺᎵᏍᎩᏂ	-11.6608
ᏂᏣ	-11.6608
▁ᎠᏓᏍᏕᎵ	-11.661
ᎧᎲᎦ	-11.661
▁ᎢᏨᏰᎳᏗᏙᎸ	-11.661
ᎵᏎᎮ	-11.6611
ᎹᎵ	-11.6613
ᏃᎸᏔᏅᎩ	-11.6613
▁ᎬᏩᎸ	-11.6613
▁ᎤᏂᏲᏍᏔᏁ	-11.6616
▁ᏫᏚᎾᎧᎿᏅ	-11.6619
ᏯᏙᎳᏛ	-11.6625
▁ᏧᎾᏄᏬᏍᏗ	-11.6626
ᏘᏁᎬ	-11.6627
▁ᎤᏂᏣᏛᎩᏃ	-11.6629
▁ᎷᎦ	-11.6632
▁ᎤᎾᏄᎪᏨᎯ	-11.6633
▁ᏚᏑᎦ	-11.6633
▁ᎠᏁᏙᎮᏍᏗ	-11.6634
ᏨᏎ	-11.6636
ᏕᎰᎯᏍᏗᏱ	-11.6637
ᏓᏁᏘ	-11.6638
ᎾᏰᎯᏍᏗᏳ	-11.6639
▁ᏱᏅᎨᏣ	-11.664
▁ᎠᏍᏓᏱᏗᏍᏗ	-11.6641
ᏘᏍᎬᎾ	-11.6641
▁ᏕᎰ	-11.6642
ᏗᏔᎲᎭ	-11.6645
ᏚᏪᎧᏁᎢ	-11.6648
▁ᏂᎦᏥᏴᏁᎸ	-11.665
▁ᏥᏅᏏᏓᏍᏗᏃ	-11.6652
ᏓᏬᎠ	-11.6653
ᎵᎨᏂ	-11.6653
▁ᏎᎻᏃ	-11.6654
▁ᎠᏂᎨᎾᏂᏃ	-11.6656
ᏓᎾᏅ	-11.6657
ᏲᏣᏃ	-11.6658
ᏍᏚᏛ	-11.6659
▁ᎮᎦᏃ	-11.666
▁ᏫᏚᏠᏎ	-11.666
ᎩᏒᎩ	-11.666
ᎾᎦᎵᏳ	-11.6661
▁ᏭᏂᏃᏁ	-11.6669
▁ᏂᏥᎥᏉ	-11.667
▁ᎣᏥᎩᎵᏲᎬ	-11.6673
ᏤᎳᏍᏓ	-11.6676
▁ᎤᏅᏕᏨ	-11.6677
ᎾᏏᏗ	-11.6677
ᎬᏬᎯᏳ	-11.6678
ᏥᏅᎦᎸᎡ	-11.6679
ᏕᎶᏆᎥ	-11.668
▁ᏕᎭᏘᏁ	-11.6681
▁ᎢᏣᎵᎪ	-11.6683
▁ᎢᏥᎩᎬ	-11.6687
▁ᎤᎾᎴᏗ	-11.6691
▁ᎤᏓᏙ	-11.6693
ᏤᎵᎯᏍᎪ	-11.6693
▁ᏚᏰᎵᎯᏍᏔᏅ	-11.6694
ᎯᏍᏗᏱᏉ	-11.6694
▁ᏐᎢᏱᏃ	-11.6696
ᏴᏍᎪᏳᏁ	-11.6697
ᎾᏁᏍᎨᏗ	-11.67
▁ᏁᎰᏃ	-11.6702
ᎧᎵᏨᎯ	-11.6702
▁ᏱᎨᏩ	-11.6703
ᏃᏫ	-11.6704
▁ᎤᏂᏔᏲᏎᎴ	-11.6705
▁ᎤᎸᏖᎴ	-11.6707
ᏓᎦᏟᏌᏂ	-11.6708
ᏓᎨᏛ	-11.6709
ᏥᎷᏤᎸ	-11.6711
ᎧᎵᎵ	-11.6711
ᏓᎵᏍᎪᎸ	-11.6713
▁ᏥᏚᎾᏚ	-11.6715
▁ᏓᏂᏱ	-11.6716
ᏯᏙᎮᎮᏍᏗ	-11.6718
▁ᎨᎵᏍᎬᏃ	-11.6722
▁ᎤᎾᏙᎴᎰᏒᏃ	-11.6723
▁ᎠᎩᏂᎬᏎᎲ	-11.6723
▁ᏭᏯᏅᎮᏃ	-11.6726
▁ᎡᎭᏏ	-11.6728
▁ᎩᎶᏍᎩᏂᏃᏅ	-11.6728
▁ᏕᎬᏕ	-11.6729
▁ᏗᏥᎸᏫᏍᏓᏁ	-11.6734
ᎪᏢᎭ	-11.6736
ᎾᏓᏛᏁᏗᏱ	-11.6737
ᏅᏍᎪᎢ	-11.6737
ᎸᎲᎩ	-11.6739
▁ᏧᎭᎾᏬ	-11.6739
▁ᏄᎳ	-11.6741
ᏂᏅᏫᏍᏗᏍᎩ	-11.6745
ᏓᏐ	-11.6745
▁ᏇᎳ	-11.6754
▁ᎤᎾᏓᏙᎵᏍᏓᏁᎴ	-11.6757
▁ᎬᏩᎵᎪᏁ	-11.6758
ᏳᏍᏈᏛ	-11.6761
ᏥᏏ	-11.6763
ᎩᎳᏩ	-11.6768
▁ᎢᎩᏇᏓᎸ	-11.677
ᏍᎧ	-11.6772
▁ᎦᏥᏔᏲᏎ	-11.6774
ᎸᏃᏘᎭ	-11.6774
ᎨᏳᏐ	-11.6775
▁ᎤᎦᎾᏬᏍᎬ	-11.6776
▁ᎾᏂᎥᏉᏰᏃ	-11.6778
ᎳᏗᏓᏍᏗᏱ	-11.678
▁ᎬᏩᏛᏓᏍᏓᏁ	-11.6781
ᎾᏓᏬ	-11.6782
ᏂᏰ	-11.6785
▁ᏣᏣᏪᏐᎸᏍᏙᏗ	-11.6786
▁ᏂᏥᏃᎯ	-11.6787
▁ᎠᏂᏬᏂᏍᎨ	-11.6789
▁ᏧᏓᏕᏒᏛᏃ	-11.679
▁ᎡᏉᏗᏃ	-11.679
ᏆᎵᏍᏓᏁ	-11.6791
ᏕᎪᏢᎾ	-11.6791
ᏯᎥᎾ	-11.6795
▁ᎠᏂᏆᎵᏏᏍᎩᏂ	-11.6796
ᎩᏁᎸᎯ	-11.68
ᎪᎬ	-11.6808
▁ᏥᏂᎨᎬᏁ	-11.6808
▁ᏩᏂᎷ	-11.6808
▁ᏦᏥᏩᎾᎦᎳ	-11.6811
▁ᏓᏳᏪ	-11.6812
ᏂᏪᏍᎬ	-11.6816
ᎵᏰᏗ	-11.682
▁ᏫᏚᏂᏲᎯᏎ	-11.6821
▁ᎤᏓᏅᏘᏌᏅ	-11.6822
▁ᏂᎦᎵᏍᏗᏍᎬᎢ	-11.6822
▁ᎫᏢᏗᏃ	-11.6825
▁ᏚᎷᎬ	-11.6828
▁ᎩᏛ	-11.6829
ᎧᏂᏍᎬ	-11.6831
▁ᏏᏂ	-11.6836
▁ᏓᏃᏎᎰ	-11.684
ᏉᎯᏳᏗ	-11.684
ᏃᏄ	-11.6841
ᎵᏁᏌ	-11.6847
▁ᏓᏁᎶᏛ	-11.6848
▁ᏗᎦᏥᏯ	-11.6852
ᏢᎬ	-11.6853
ᎦᏤᎵᎦ	-11.6854
▁ᏳᏬᎵᏤ	-11.6854
ᎵᏍᏙᏗᏱ	-11.6855
ᏥᏯᏂᏍᎬ	-11.6857
▁ᏧᏯᏖᎾᏃ	-11.6857
ᏲᏍᎨᏍᏗ	-11.6859
▁ᏂᏚᎩᏨᏂᏒᏃ	-11.6859
ns	-11.6861
▁ᎤᏂᏣᏖᏃ	-11.6864
ᎵᏙᎲᎢ	-11.6866
ᎸᏤ	-11.6871
ᎦᏬᎥ	-11.6873
▁ᏝᏉ	-11.6878
▁ᏃᏥᎥ	-11.6879
ᎥᏃ	-11.6883
ᎵᏂ	-11.6886
ᎩᏁᏤᎸᎢ	-11.6887
▁ᏱᎯᎦᏔᎮ	-11.6888
ᏘᎾᏫᏛᎲ	-11.6888
ᏑᏴ	-11.6889
▁ᏓᏂᏢ	-11.6897
▁ᎠᎾᎵᏍᏓᏴᎲᏍᎬ	-11.6898
ᏓᏙᎵᏍᏓᏁᎭ	-11.6904
ᏂᏙᎲᎢ	-11.6905
ᏯᏪᎦ	-11.6908
▁ᎠᎫᏬᏰ	-11.6909
ᎫᏓᎴ	-11.6909
▁ᎡᎶᏛᏰᏃ	-11.6912
ᏲᎯᎲ	-11.6912
▁ᎻᏗᏯᏂ	-11.6915
▁ᏕᎨᏥᏅᏩ	-11.6917
ᎡᎰᎢ	-11.6921
ᏉᏎᏗ	-11.6921
ᎬᏆᏛᎦᏁ	-11.6922
ᏴᏥ	-11.6923
ᎦᏑᏰᏛ	-11.6923
▁ᏱᏅᏗᎦᎵᏍᏙᏗᏍᎨ	-11.6925
ᏃᎮᏍᎨ	-11.6927
▁ᏗᎨᏫᏃ	-11.6927
ᎵᏩᏛᎡᎲᎢ	-11.6931
▁ᎠᏥᏌᎳᏓᏅ	-11.6932
ᏏᎾ	-11.6932
p	-11.6942
ᏥᏰᎸᏅ	-11.6942
ᎦᏔᎭᏰᏃ	-11.6945
ᏥᏩᏛᏓ	-11.6954
▁ᏚᏲᎴ	-11.6956
▁ᏚᎾᏗᏩᏍᎨ	-11.6958
ᎾᏗᏅ	-11.6959
▁ᎤᏣᏘᏅ	-11.6961
▁ᎤᎾᏄᎪᏨ	-11.6966
ᏍᏓᏁᎸᎯ	-11.6966
ᏌᎵ	-11.6975
▁ᏱᏂᏣᏛᏁ	-11.6976
▁ᏚᏓᏓᎴᏔᏁ	-11.6977
ᏒᎲᏍᏗᏱ	-11.6979
ᎬᏩᎸ	-11.6982
▁ᎠᏰᏙᎳᏛᏗᏃ	-11.6984
ᏍᎩᎾ	-11.699
▁ᏆᏂᏆᏃ	-11.6993
ᎨᏳᏣ	-11.6996
▁ᎣᏥᏬᏂ	-11.6998
▁ᏱᏗᏥᏳᎪᏓᏁ	-11.7003
ᏓᏅᏒᎭ	-11.7003
ᎦᏎᏍᏕᏍᏗ	-11.7003
▁ᏂᏣᏪᏎᎸ	-11.7005
ᎸᏫᏍᏓᏁᎸ	-11.7006
▁ᎢᏳᏩᏁ	-11.7007
ᏩᏥ	-11.7007
ᎦᏖᏅ	-11.7008
ᏯᏂᏍᎪ	-11.7009
ᎾᏄᎪᏫᏎᎭ	-11.7011
ᎦᏂᏱᏍᎨ	-11.7013
▁ᎦᎴᏂᏙᎲ	-11.7016
▁ᏧᎦᎿᏁ	-11.7021
▁ᎤᏂᏩᏛ	-11.7028
ᎾᏗᏅᏓ	-11.703
ᎾᏡᏔᏅᎩ	-11.7031
ᎩᏲᎱ	-11.7034
▁ᏄᏩᏁᎲ	-11.7036
▁ᎠᏥᎸᏱᏃ	-11.7037
▁ᎤᎾᏓᏙᎵᏍᏔᏁ	-11.7042
▁ᏗᏓᎴᎲᏍᎨ	-11.7056
▁ᏧᏃᎯᏳᏗ	-11.7057
▁ᎣᎩᎦᎵᏍᏓᏗᏍ	-11.7058
▁ᎢᎸᎯᏢᏰᏃ	-11.7059
▁ᏚᎾᏓᏡᎬ	-11.7064
▁ᎤᏂᎧᎭᏲ	-11.7064
▁ᎤᏂᏲᏃ	-11.7066
▁ᎧᏅᏂᏍᎩᏉ	-11.7068
ᏛᏕᏍᏗ	-11.7069
ᎩᎸᏫᏍᏓᏏ	-11.7071
ᏋᏁᎸᎩ	-11.7073
ᏔᏩᏕᎩ	-11.7073
ᎵᏍᏓᏁᎵᏒ	-11.7076
ᏓᏅᏅ	-11.7076
ᏛᏓᏍᏓᏁᎴᎢ	-11.7078
▁ᎬᏩᎪᎵᏰᏍᎬ	-11.7078
▁ᎣᏣᏓᏙᎵᏍᏓᏁ	-11.708
ᎦᎵᏍᏙ	-11.7082
▁ᎠᎩᏁᎢᏍᏔᏅ	-11.7082
ᎩᎪᏩᏛ	-11.7091
ᏕᏅᎾ	-11.7091
ᎩᎷᏤᏗ	-11.7093
▁ᏧᎾᏦ	-11.7094
▁ᏚᏂᎵᏦᏛ	-11.7095
▁ᏚᏏᎳᏛᎢ	-11.7096
ᏢᏔᎮ	-11.7099
▁ᎠᏉᎯᏳᏅ	-11.7102
ᎮᎶ	-11.7103
ᏯᏘᏃᎯᏏ	-11.7106
▁ᎠᏃᏢᏍᎬ	-11.7107
▁ᎤᎾᏓᏅᏖᏔᏁ	-11.711
▁ᏲᎪ	-11.711
ᏚᏙᎥ	-11.7111
ᏁᏎ	-11.7117
▁ᏍᎩᏂᏃᏅ	-11.7118
▁ᏳᏲᎰ	-11.7123
▁ᏌᏉᏉᏍᎩᏂ	-11.7124
ᏘᏃᎮᎸᎩ	-11.7125
ᏘᏍᏗᏍᎩ	-11.7126
▁ᎤᎵᏂ	-11.7127
▁ᎨᎻᎵᏃ	-11.7128
ᎾᏟ	-11.7129
ᎩᏂᎬᎦ	-11.7129
ᎾᏰᏍᎬᎢ	-11.713
ᏖᏗ	-11.7132
ᎬᏍᎪᎸᏅᎢ	-11.7133
ᏦᎯᏳᎲᏍᎦ	-11.7134
▁ᎦᎸᎳ	-11.7145
▁ᏭᏚ	-11.7148
ᏲᏍᏙᏓᏁᎸᎩ	-11.7151
▁ᎤᏪᎵᏎᎢ	-11.7155
ᎵᏌᎳᏓᏅ	-11.7156
ᏃᏢ	-11.7157
ᎬᏲᏎᏗ	-11.7159
ᎷᏤᎢ	-11.7161
ᎾᎵᏍᏓᏴᏂ	-11.7162
ᏓᏥᎶ	-11.7163
▁ᎨᏣᏁᎢᏍᏗ	-11.7168
ᏂᏎ	-11.7169
ᎾᏂᏢᏗᏱ	-11.717
ᏛᎦᏂ	-11.7174
ᏂᏅᏁᎢ	-11.7174
ᎧᎵᏨᎩ	-11.7176
▁ᎤᎷᏨᎢ	-11.7178
ᎦᏡᏓ	-11.7188
ᎩᎷᏤᎸ	-11.7188
ᎦᏅᎦᎸᎯ	-11.719
▁ᏗᏣᏓᏅᏙᎩ	-11.7191
ᏋᏙᏗ	-11.7192
▁ᎤᎾᏚᎸᏅᏗ	-11.7201
ᏬᎯᏳᎲ	-11.7201
ᏂᏜ	-11.7201
ᎠᏁ	-11.721
ᏥᏯᏅᎲ	-11.7213
▁ᎢᏣᏠᏯᏍᏙᏗ	-11.7215
ᏓᎥ	-11.7216
ᏢᏈ	-11.7218
ᎴᏏ	-11.7221
ᎬᎿᏗᏍᏗ	-11.7223
▁ᎣᎬᏔᏅ	-11.7225
▁ᏘᏂ	-11.7225
ᏳᏓᎴ	-11.7226
ᎨᏫᏒ	-11.7227
ᏌᎳᏓᏅ	-11.7228
▁ᎤᎵᏍᏈᏗᏃ	-11.723
ᏒᏂᎸ	-11.7232
▁ᏚᏨ	-11.7234
ᏰᎵᏉ	-11.7235
ᏓᏅᏘᏳ	-11.7239
ᏅᏪ	-11.7244
▁ᎠᏥᏂᏌᎲ	-11.7245
ᎧᎵᎸᎯ	-11.7247
▁ᎤᎪᎮᏃ	-11.7249
ᎾᎵᏍᏓ	-11.725
▁ᏧᏬᏢᏁ	-11.7253
ᏛᏓᏍᏓᏁᏗᏱ	-11.7253
ᎨᏐᎢ	-11.7257
▁ᎢᏨᏒᏰᏃ	-11.7258
▁ᎢᏳᏅᏁ	-11.726
▁ᏣᏙᏓᏃ	-11.7261
ᏣᎳ	-11.7267
ᎶᏁᎥ	-11.7268
▁ᎢᏣᏓᏅᏓᏛ	-11.7269
ᏓᏂᎸᎦ	-11.727
ᏩᏍᎦ	-11.7276
ᏪᏌᏆᎴ	-11.7277
ᏇᎵᏎ	-11.7278
ᏂᏏᏁ	-11.7279
ᎦᎾᏬᏗ	-11.7279
ᎷᏤᏗ	-11.728
ᏃᏢᎯ	-11.7283
▁ᏯᏍᎦᎢᎮ	-11.7283
▁ᎢᏨᏲᏪᎳᏁ	-11.7285
ᏰᏟ	-11.7289
ᎭᎷᎨ	-11.729
ᏰᏲᎲᏍᎩ	-11.729
ᏨᏁᎰ	-11.7294
ᏥᏅᏁᏗ	-11.7298
ᏓᏰᏅ	-11.73
ᏂᎶᏌ	-11.7308
▁ᏤᏙᎰ	-11.7308
▁ᏍᎩᏅᎦᎸ	-11.7319
▁ᏄᎵᏍ	-11.7319
▁ᏥᏄᏛᏁᎴ	-11.732
▁ᏣᏙ	-11.7322
ᏴᎾ	-11.7331
▁ᏚᏘᏃᎴ	-11.7333
ᏣᏛᏁᎮᏍᏗ	-11.7335
ᎩᏂᏆᏘᎯ	-11.7337
▁ᎢᏥᎪᎵᏰ	-11.7342
ᏨᏉᏗ	-11.7353
▁ᎦᎾᎸ	-11.7357
▁ᎣᎯᏍ	-11.7357
ᏍᏚᎩᏛ	-11.7359
ᎼᏂ	-11.7361
▁ᎤᏁᏤᏃ	-11.7362
ᏬᎯᏳᎯᏳ	-11.7368
▁ᎤᏂᎾᏝᎾᎥ	-11.7383
ᏍᏓᏁᎸᎭ	-11.7386
ᏟᎯ	-11.7388
▁ᏧᏬᏢ	-11.7393
▁ᎡᏣᏛᎦᏁᎸ	-11.74
▁ᏯᎩᏍᏆᎸᎡ	-11.7401
ᏘᏍᏙᏗ	-11.7403
ᎬᏒ	-11.741
ᏲᎲᎢ	-11.7415
ᏬᎡ	-11.7424
ᏂᎷᏤ	-11.7429
ᏛᎮ	-11.7432
ᏩᏅ	-11.7433
ᏂᎯᎯ	-11.7443
ᏩᎾᎦᎳ	-11.7446
ᎾᎸ	-11.7453
ᏘᏃᎮᎴ	-11.7453
ᎴᏅᎮ	-11.7454
ᏫᏂᏴ	-11.7477
ᏘᎷᎦ	-11.7483
ᏯᏛᎦᏁᏗᏱ	-11.7483
ᏄᎸᏅᏃ	-11.7484
▁ᎤᏁᏤᎴᏃ	-11.749
ᏣᏪᏐᎸᏍᏙᏗ	-11.7496
ᎵᎥᏂ	-11.7497
ᏂᏬᏂᎭ	-11.7501
▁ᎡᏉᏂᏃ	-11.7503
ᏍᏇ	-11.7509
ᏲᏏᏍᎨᎢ	-11.7514
ᏂᏴᏓ	-11.7524
ᏂᎩᏌ	-11.7526
▁ᏓᏥᏯᏛ	-11.7534
ᏙᎣ	-11.7542
ᎾᎵᏍᏔᏅᎩ	-11.7548
ᏓᏂᎸᎪ	-11.7554
▁ᎤᏓᏴ	-11.7564
▁ᏂᎬᏂᏏ	-11.7569
ᏴᎲ	-11.757
ᏓᏁᏤᏗ	-11.758
ᎫᏴᎲᎾ	-11.7581
ᏍᏚᏟᏍᏗ	-11.7585
ᏥᏃᏁᎸᎩ	-11.7587
▁ᎢᏨᏗᏍᎪ	-11.7589
ᎪᎵᏰ	-11.7592
ᎵᎥᏂᎸᎩ	-11.7592
ᏕᏲ	-11.7599
▁ᎬᏩᏚᏫᏛᏃ	-11.7604
ᏁᎪ	-11.7609
ᏅᏩᏁᎢ	-11.7611
ᏦᏱ	-11.7613
ᎫᏴᎡᎮᏍᏗ	-11.7616
ᏳᏰᏃ	-11.7616
ᏂᏁᎦ	-11.7627
▁ᎠᏆᏓᏅᏖᎸ	-11.7633
ᎾᏗᏅᏒᎩ	-11.7639
▁ᎤᎾᏟᎶᎥ	-11.764
ᎤᏅᏎ	-11.7646
ᏚᎢᏍ	-11.7648
ᏕᎮᏍᏗ	-11.7651
ᎦᏔᏂᎴ	-11.7655
▁ᏳᏪ	-11.7655
ᏲᎯᏎᎸᎯ	-11.7659
ᎵᏍᏕᎸᏙ	-11.7662
ᎳᏁᎸ	-11.7666
ᎵᏍᏓᏁᎭ	-11.7678
▁ᎤᎵᏘᏎ	-11.7679
ᏫᏯ	-11.768
▁ᎢᏨᏰ	-11.7684
▁ᎠᏥᎪᎵᏰᎥ	-11.7687
ᎦᏓᏅᏓᏗ	-11.7688
ᏆᏅᏔ	-11.7689
ᎨᏓ	-11.7689
ᎾᏛᏁᏗᏱ	-11.7691
ᏲᎰᎢ	-11.7694
ᎪᎰᏍᎬ	-11.7695
▁ᎢᏣᏓᏑᏴ	-11.7695
ᏕᎰᎯᏍᏗ	-11.7701
▁ᎬᏍᎦᏅᏤᎸ	-11.7702
▁ᎡᏙᎰ	-11.7708
▁ᎤᏪᎵᏒ	-11.7717
ᏓᏄᏴᏛ	-11.7719
ᏥᎩᎵᏲᎢᏍᏗᏍᎩ	-11.7727
ᏑᎵ	-11.7735
ᏅᏓᏕ	-11.7736
ᎧᎵᏤ	-11.7741
ᏔᏂᏒ	-11.7747
ᏣᏛᏁᎭ	-11.7749
ᎿᏬᏍᏗ	-11.7755
ᎦᏄᎪᏫᏍᎦ	-11.7755
ᎠᏯᏍᏉ	-11.7759
ᏆᏓᏅᏘ	-11.7762
▁ᎤᏗᎴᎲ	-11.7765
ᎾᏓᏅᏛ	-11.7768
ᎵᏥᏙᏁᎸᎯ	-11.7771
▁ᏧᏂᏲᎱᏒᎯᏃ	-11.7771
▁ᏧᏂᏁᏟᏴᏍᏗ	-11.7771
ᎼᏏ	-11.7772
ᎾᏗᏔᎲ	-11.7779
▁ᎢᏨᏃᏁᎸ	-11.7786
ᏌᏛᏅᎩ	-11.7786
▁ᏯᎩᏍᏕᎵ	-11.7787
▁ᎪᎯᏳᏙ	-11.7787
ᎯᏐ	-11.7792
ᎾᏟᏂᎩᏓ	-11.7793
ᏗᎪᏩᏘᎭ	-11.7797
ᏩᏔᎰ	-11.78
ᏂᏳ	-11.7801
▁ᎥᎩᎱᏍᏕ	-11.7801
ᎾᏄᎪᏫᏎᎸᎯ	-11.7802
ᏛᏉ	-11.7807
▁ᏱᏓᎩᏯ	-11.7809
ᏂᎶᏍᎨᏍᏗ	-11.7811
▁ᎤᏛᎦᏅᏃ	-11.7813
▁ᎤᎷᎯᏍ	-11.7818
ᎯᏙᎸ	-11.783
ᏂᏯᎥᎢ	-11.7839
ᏪᏍᏗᏱ	-11.7842
ᏨᏯᎵᏥᏙᏁᎸᎩ	-11.7843
ᏥᏍᏓᏱᏕᎸ	-11.7843
ᏥᏪᏎᎮᏍᏗ	-11.7843
ᏡᏗᎭ	-11.7843
ᎬᎬ	-11.7844
ᎵᏍᏓᏁᏗ	-11.7845
▁ᎤᏁᎷᏅ	-11.7852
ᎩᎵᏲᎦ	-11.7854
ᎪᎯᏗ	-11.7858
ᏂᎩᏒ	-11.7859
ᏒᎮᏱᏣ	-11.7865
ᏥᏅᎦᎸᏛ	-11.7871
ᎤᏪᏅ	-11.7874
ᏕᎶᎰᏒ	-11.7876
▁ᏲᎨ	-11.7878
ᎵᏥᏙᏁᎲᎢ	-11.788
ᎩᎦᎨᎢ	-11.7888
ᎵᏥ	-11.7888
ᎾᎦᏌᏯᏍᏗ	-11.7901
▁ᏓᏂᏂᏱ	-11.7905
ᏥᏒᎲᏍᏗ	-11.7908
ᏪᏤ	-11.7908
ᏥᎧᏅ	-11.7912
▁ᏤᏈ	-11.7917
ᏌᎹ	-11.7918
ᏓᏛᏁᏗ	-11.7919
▁ᎤᎬᎥᏍᎬ	-11.7927
ᏓᏙᎵᏍᏔᏂ	-11.7929
ᎾᎥᎾ	-11.7929
ᏂᎵᏓᏍᏗ	-11.793
ᎦᏛᏅᎢᏍᏓᏁᎸᎯ	-11.7933
ᏐᏯ	-11.7937
ᏂᏴᎮ	-11.7937
ᎵᏌᎳᏗ	-11.7938
▁ᏓᏂᏍᎦᎢ	-11.7943
▁ᏚᎾᏘᏃᎸ	-11.7948
ᏩᏐ	-11.7955
ᏘᏯ	-11.7955
ᏗᏍᎦᎳᏁ	-11.7956
ᏅᏍᎬᎾ	-11.7957
ᏓᎾᏅᏗᏱ	-11.7959
ᏍᏛᏗᏍᎬᎢ	-11.7969
ᏃᎯᏍᏔᏂ	-11.7973
ᏍᏚᎢᎡ	-11.7977
▁ᏱᏥᎪᏩᏘ	-11.798
ᏔᏛᎩ	-11.7987
ᎩᏄᎪᏫᏒᎩ	-11.799
ᎷᏨᎩ	-11.8005
ᎵᏱᎶ	-11.801
▁ᏳᎾᏚᎵ	-11.8018
ᎩᏃᎮᎭ	-11.8019
▁ᏗᎾᏓᏅᏟᏉ	-11.8021
▁ᎠᎩᎷᏤᎸ	-11.8034
ᏃᎮᎵ	-11.8042
▁ᏥᏯᏓᏙᎵᏍᏓᏁ	-11.8047
ᎩᎳᏫ	-11.8059
ᏥᎦᏖᏃᎭ	-11.8059
ᎾᎵᎪᎲ	-11.8061
ᏓᎴᎲᏍᎪᎢ	-11.8061
▁ᎡᏥᎷᏤᎸ	-11.8064
▁ᎦᏥᏯᎵᏥᏙᏁ	-11.8067
▁ᏭᎷᎯᏍᏗ	-11.8073
▁ᏱᏂᎦᎵᏍ	-11.8074
ᏰᏗᏍᎬ	-11.8075
▁ᎬᏬᎯᏳᎲᏍᎨ	-11.8077
ᎪᎥᎯ	-11.8077
ᏠᎢ	-11.8084
▁ᎣᎦᎵᎪ	-11.8088
ᏓᏁᎸᎢ	-11.8089
ᏥᏍᎦᏅᎨᏍᏗ	-11.8096
ᏨᏲᏎᎭ	-11.8099
▁ᏭᎧ	-11.8105
ᏛᏁᎰᎢ	-11.8106
ᏲᏎᎭ	-11.8108
ᏂᎸᏉᏙᏗᏱ	-11.8109
ᎵᎪᏁᎴ	-11.8109
▁ᎤᏪᎲ	-11.8112
ᏣᎪ	-11.8113
▁ᎤᏍᏓᏱᏕ	-11.8121
▁ᎦᎾᏄᎪ	-11.8123
ᏓᏂᏱ	-11.8125
ᏥᏍᎦᎢᎭ	-11.8132
▁ᏛᏂᏍᏆᏂᎪ	-11.8134
ᏥᏂᏐᏗᏱ	-11.8139
▁ᏨᏗᎦ	-11.8142
ᏒᎲᏍᎦ	-11.8143
ᎪᏄᎶᏎᎢ	-11.8147
▁ᎢᎸᏍᎩᏉ	-11.8155
ᎦᏥᏲ	-11.8163
ᏣᎦᎸᎮ	-11.817
ᏂᏌᏅ	-11.8177
▁ᏳᎪ	-11.8178
ᎧᏲᏗ	-11.8181
ᎵᏒᏗ	-11.819
ᎸᏙ	-11.8199
ᎳᎾ	-11.8202
▁ᏂᎦᏪᏍᎨ	-11.8204
▁ᎤᎾᏛᏅᎢ	-11.8208
ᏅᏂᏗ	-11.8209
▁ᏲᏎ	-11.8209
ᎩᎸᏔᏁᎢ	-11.821
▁ᏚᏂᎪᎲ	-11.8214
ᏍᏗᏰᏔᏁ	-11.8214
ᎵᏥᏙ	-11.8216
ᏥᎪᎵᏰᏍᎨᏍᏗ	-11.8216
ᎾᎯᏳ	-11.8217
ᏯᏓᏅᏏ	-11.8237
ᏙᎴᎰ	-11.8243
ᎦᎵᎰ	-11.8252
ᏃᏢᏙᏗ	-11.8262
▁ᏓᎪᏩᏘᏍᎨ	-11.8262
ᎬᎨᏫ	-11.8264
ᏣᏗᏔ	-11.8277
▁ᏚᏂᏁ	-11.8277
ᎾᏄᎪᎬ	-11.8278
ᎵᏍᎪᎸᏓᏁᎸᎩ	-11.8285
▁ᏚᏬᏑᎴ	-11.8291
ᎾᏬᏙᏗᏱ	-11.8309
ᏨᏗᏍᎬ	-11.8312
▁ᏁᏨ	-11.833
▁ᏕᏧᎪᏗᏍ	-11.8331
ᏃᎸ	-11.8332
▁ᏗᎦᏓᎨᏳᎯ	-11.8335
▁ᏗᏂᎳᏫ	-11.835
ᎦᏱᏛ	-11.8356
ᎵᎥᏂᎵ	-11.8362
ᏂᎷᎪ	-11.8365
ᏑᏯᎩᏍᏗ	-11.8368
ᎩᏯᎠ	-11.8373
ᏍᏓᏩᏕ	-11.8374
ᏍᎦᎩᏳ	-11.8375
▁ᏆᏙ	-11.8381
▁ᏗᏂᏲᎵᏉ	-11.8386
ᏌᏓ	-11.8396
ᏴᎸᎭ	-11.8398
ᎯᏌ	-11.8399
ᏲᎯᏎᎸ	-11.8405
ᏂᎬᎪ	-11.8406
ᎯᏰᎸᎾ	-11.8406
ᏥᏃᎮᎸ	-11.8406
ᏯᎷᎦ	-11.8413
ᎾᏓᏛᏁᎭ	-11.8414
▁ᏗᎦᏍᎩᎶ	-11.8423
ᏥᏁᎢᏍᏗᏍᎬ	-11.8425
ᏓᎪᏩᏘᎭ	-11.8429
ᏤᎦ	-11.843
ᏓᏗᏍᏗᏱ	-11.8432
ᎴᎲᏍᎬᎩ	-11.8437
ᎴᎿ	-11.8446
ᏙᎢᏳ	-11.8446
ᏍᏕᎲ	-11.8448
ᏥᏩ	-11.8449
ᎪᎵᏰᎥᎩ	-11.845
ᎵᏍᎦᏍᏙᏙ	-11.8453
▁ᎤᏂᏁᏎ	-11.846
▁ᎨᏣᎪᏩᏛᏗ	-11.8461
ᏗᏨ	-11.8462
ᏨᏁᏗᏱ	-11.8464
ᏯᏛᎾ	-11.8468
ᏄᎸ	-11.8469
ᏫᏒᏅ	-11.847
ᏴᎳ	-11.8471
ᏎᎵᏛᏍᎨᏍᏗ	-11.8475
ᏃᎮᎴᎢ	-11.8476
ᎯᏳᎲᎦ	-11.8485
ᏂᎧᎵᎴᎢ	-11.8487
ᏝᏗ	-11.8488
ᎨᏰᎢ	-11.8488
▁ᏓᏓᎯ	-11.8489
ᎩᎧᏏ	-11.8495
ᎦᎾᏄᎪ	-11.8496
ᏣᎦᏌᏯᏍᏗᏕᎩ	-11.851
ᎵᏖᎸᏂᎴ	-11.8512
▁ᎤᎾᏗᏍᎦᎳ	-11.8516
ᎾᏗᏔ	-11.8517
ᎦᎵᏍᏓᏗᏍᎩ	-11.8523
ᎧᏌᏔ	-11.8527
ᎯᏍᏕᎸᏗ	-11.8533
ᏃᎯᎸᏍ	-11.8537
ᏕᎸᎩ	-11.8538
ᏌᎯ	-11.8538
ᏘᏂᏙᎭ	-11.854
ᎾᏕᏏ	-11.8545
ᏴᎸᎩ	-11.8546
▁ᎬᎾᏬ	-11.8555
ᎸᎥ	-11.8557
ᎾᏗᏔᏍᏗ	-11.8557
ᏯᎢᏎ	-11.856
ᎩᏲᏒ	-11.8561
ᏥᏚᎢᏍᏓᏁᎸᎯ	-11.8563
▁ᎢᏦᎯᏳᎲᏍ	-11.8576
▁ᎦᏥᏬᏁᏗ	-11.8578
▁Ꮆ	-11.8581
ᎳᏍᏙᏗ	-11.8586
▁ᎤᏂᏍᎦᎢᏍᏗ	-11.8586
ᏆᎵᏏ	-11.859
▁ᏂᏚᏪ	-11.8593
ᎩᎧᎭ	-11.8598
ᎭᏅ	-11.8606
▁ᏧᎾᏓᎸ	-11.8607
▁ᎢᏣᏪᏍᏗ	-11.8612
▁ᏬᎩᏂ	-11.8612
ᎪᏎ	-11.8617
ᎨᎶ	-11.8622
ᏘᏲ	-11.8627
ᏂᎨᎯᏙᎴᎢ	-11.8627
▁ᏚᎵᏍᏚ	-11.8628
▁ᎤᎵᎬᏚ	-11.864
ᎦᎶᏗ	-11.8643
ᎸᏍᏙᏗᏱ	-11.8646
ᏏᏐ	-11.8648
ᏘᏃᎸᎩ	-11.865
ᎾᏓᏅᏖᎸ	-11.865
ᎾᏤᎸ	-11.8652
▁ᎣᎩᏰᎸ	-11.8658
ᏣᏓᏅᏔ	-11.8662
ᎨᏳᏒᎢ	-11.8666
▁ᎢᏥᎨᏳ	-11.8668
ᎮᏍᎬᎾ	-11.8669
ᏛᏂᏌᏂ	-11.8675
▁ᏫᏚᎧᎿᏅ	-11.8682
▁ᏁᏨᏁ	-11.8685
▁ᏯᏆᏓᏅᏓᏗᏍ	-11.8692
ᏏᏙᎴ	-11.8697
▁ᎨᎶ	-11.8698
ᎵᎮᎵᏤᎢ	-11.8704
ᏯᏛᏅ	-11.8705
ᏣᏛᏂ	-11.8707
▁ᏓᎧᎿᏩᏗ	-11.871
ᏁᏌ	-11.8711
ᎵᏌᎳᏓᏅᎩ	-11.8715
ᎶᏍᎨ	-11.8716
ᎬᏲ	-11.8718
ᏌᏔ	-11.8728
ᏑᎴᏗ	-11.8732
ᏂᎪᎭ	-11.8733
▁ᎤᎵᏍᏚᎸᎩ	-11.8735
ᎵᎥᏂᎸ	-11.8736
▁ᎤᏅᏩᏁ	-11.8737
ᏂᎾᏫ	-11.8738
▁ᎠᎩᏔᏕᎩᏍᎬ	-11.8742
ᏓᏁᎰᎢ	-11.8749
▁ᏴᎦᎦ	-11.8752
ᎾᎴᏗ	-11.8754
ᎦᎸᏉᏗ	-11.8763
ᏍᏓᏱᏕᎴ	-11.8764
▁ᏓᏲᏥ	-11.8767
ᏂᎪᏙ	-11.8769
ᏚᏓᎸᏙ	-11.8777
ᎸᎡᎴ	-11.8793
ᏚᏅ	-11.8796
▁ᏕᎯᏁ	-11.881
ᏲᏤᎢ	-11.8813
ᎩᎷᏥᏏ	-11.8815
▁ᏗᏥᎧ	-11.8819
▁ᏥᏂᏨ	-11.8819
ᎨᎾᏂ	-11.8822
ᎦᎶᏙᏗ	-11.8824
ᎩᎵᏲᎢᏍᏗᏍᎬᎢ	-11.8828
ᎦᏛᎬᎦ	-11.8828
ᏱᎶ	-11.8844
ᏍᏕᎸᎯᏙᎯ	-11.8844
▁ᎤᎾᎵᏍᎪᎸᏙᏗ	-11.8847
▁ᏗᏂᎳ	-11.8849
ᏁᏤᎰ	-11.8867
ᏣᏢ	-11.888
ᏌᏛᎥᏍ	-11.8886
ᏗᏅ	-11.8898
▁ᎠᏂᏯᎥ	-11.8908
▁ᎤᏍᎦᏅᏥᏙᎸ	-11.8912
ᎨᎯᏒ	-11.8923
▁ᎤᎾᏓᏟᏌ	-11.8927
ᏥᏥ	-11.8928
ᎦᏘᏱ	-11.8929
ᏓᏅᏖᎭ	-11.8936
ᏓᏨᏯ	-11.8939
ᎩᏂᏴᎲ	-11.8942
ᏓᏍᏕᏓᎵᏴᏍᎩ	-11.8942
ᎦᏔᎿᎢᏳ	-11.8943
▁ᏭᏕ	-11.895
▁ᏴᎦᏰ	-11.895
ᏂᏩᏛᎲ	-11.8951
▁ᏗᎦᏁ	-11.8952
ᏑᏴᏅ	-11.8955
▁ᏂᏣᏛᏁᎰ	-11.8958
ᏔᏍᎬ	-11.8972
▁ᎤᏒᎴ	-11.8977
ᎾᏄᎪᏤ	-11.8977
ᎾᏓᏑᏴᎢ	-11.8982
ᎡᏒᎭ	-11.8984
ᏏᏁᏃ	-11.8984
ᏥᎳ	-11.8993
ᎵᏦᏔᏅᎯ	-11.8996
▁ᎬᏩᏂᎩᎵᏲᎢᏍ	-11.8998
▁ᏓᏲᏣ	-11.9005
ᏁᎵᏒ	-11.9006
▁ᎠᏂᎳᎨᏴ	-11.901
▁ᏄᎾᎵᏍᏓᏁᎲ	-11.9022
ᏃᎮᏢ	-11.9023
ᎩᎾᏝᎥᎾ	-11.9023
ᏍᏓᏱᏕᎸ	-11.9024
ᏁᏟᏴ	-11.9027
ᏕᎯ	-11.9035
ᏂᎶᏎ	-11.9043
ᏅᏩᏍᏗᏗᏉ	-11.9046
▁ᏅᏗᎦᎵ	-11.9047
ᎯᎦᏔᎭᏍᎪ	-11.9051
ᎪᏙ	-11.9052
ᎾᏁᎶᏗ	-11.9055
ᎧᏲ	-11.9067
▁ᎡᏤᎵᏎ	-11.9076
ᏚᏪᏎᎸᎩ	-11.9083
ᏁᎵᏍᎬᎾ	-11.9086
ᎾᏚᎵᏍᎨᏍᏗ	-11.9087
ᏁᏙᎯ	-11.909
Ꮶ	-11.9113
ᏗᏍᏚ	-11.9115
ᏎᎵᏔᏅᎯ	-11.9116
ᏴᏍᎪᎢ	-11.9121
ᎦᏖᏃᎭ	-11.9128
▁ᏚᎾᎵᏂᎪ	-11.9134
▁ᏯᏆᏛᎦ	-11.9137
ᏴᎭᎦ	-11.9141
ᏝᏫᏍᏗ	-11.9141
ᏗᏕᎬᎢ	-11.9148
ᏣᏕᎰᎯᏍᏗ	-11.9153
ᏄᎪᏫᏍᎦ	-11.9155
ᏘᎾᏫᏛᎲᎩ	-11.9162
ᏁᏟᏴᎡᏗ	-11.9163
ᏗᏅᏒᎩ	-11.9168
▁ᎦᎧᎲ	-11.917
▁ᏂᎦᏪᏏ	-11.917
ᏃᎭᏝ	-11.9179
ᏜᏏᏛᎡ	-11.9183
▁ᎰᏒ	-11.9185
ᏍᏆᎸᎯ	-11.9187
ᏂᏐ	-11.9188
▁ᏲᏣ	-11.9189
ᏓᏎ	-11.919
ᎬᏩᎷᏤᎴᎢ	-11.9194
▁ᏞᎦᏉ	-11.9195
▁ᏚᎪᏄᎶᏎ	-11.9203
ᎾᏥ	-11.9211
ᏐᏢᏗ	-11.9212
▁ᎤᏭᏓᎸᏤ	-11.9212
ᏅᏨᎯ	-11.9244
ᏰᎵᏎ	-11.9245
ᏂᏓᏛ	-11.9248
ᏅᏅᎩ	-11.9249
ᎨᎫ	-11.9254
ᎤᏛ	-11.9261
▁ᎢᏥᏍᏆ	-11.9276
ᏌᏃ	-11.9277
ᎾᏓᏴᎳᏛ	-11.9279
ᏥᎾᏌᎢ	-11.928
▁ᏯᏆᏓᏅᏔ	-11.9282
▁ᎤᏂᏩ	-11.9289
▁ᏳᏃᎯᏳ	-11.9304
ᏕᎰᏍᎨᏍᏗ	-11.9305
ᎪᏢ	-11.9306
▁ᎡᏣᎫᏴᎡ	-11.9308
▁ᎡᏦᎢᏳ	-11.9309
▁ᏚᏕᏲᏅ	-11.931
ᎦᎾᏩ	-11.9328
ᏃᏴᎦ	-11.9335
ᏝᎴ	-11.9344
ᏩᎯᏎᎴᎢ	-11.9345
ᎷᏤᎭ	-11.9351
ᏛᏅᎢ	-11.9351
▁ᎤᎵᏏᎲᏎ	-11.9355
▁ᎤᏙᏯᏅᎯᏕ	-11.9363
ᎵᏃᎮᏗᏍᎨᏍᏗ	-11.9374
ᎦᏛᎴᎯ	-11.9391
▁ᏧᎿᏬ	-11.9392
ᏔᏍ	-11.9394
▁ᎤᏂᎾᏗᏅᏎ	-11.9395
▁ᏄᏅ	-11.9406
ᎦᏘᏰᏍᏗ	-11.9414
ᎪᎵᏰᏍᎨᏍᏗ	-11.9414
ᏯᎪ	-11.9416
ᏚᎴ	-11.9419
ᏗᎦᏔᎭ	-11.9426
ᎲᏍ	-11.9429
ᏄᏬᏃ	-11.943
ᏝᎲ	-11.9441
▁ᎤᏛᏂᏗ	-11.9452
ᏗᏥ	-11.9452
ᎨᎮ	-11.9453
ᏂᏏᏍᎨᏍᏗ	-11.9462
ᎪᏩᏘᏍᎪᎢ	-11.9469
ᎩᎷᎯᏍᏗᏱ	-11.9472
▁ᎤᏄᎸᏅ	-11.948
▁ᏥᏩᎾᎦ	-11.9484
ᏣᏓᏱᎸ	-11.9491
▁ᏅᏗᎦᎵᏍ	-11.9495
ᏄᏫ	-11.9495
ᏗᏯᏂ	-11.9498
▁ᏅᏓᎦ	-11.9499
▁ᎠᏆᏎᎵᏔᏅ	-11.95
▁ᏓᎩᎷᏫᏍᏔ	-11.95
ᎬᏩᏘᏃᎮᎸᎩ	-11.9506
ᏤᏅ	-11.9506
▁ᏘᎧ	-11.9507
ᎾᏄ	-11.9512
ᏃᏁᎴᎢ	-11.9512
ᏫᏍ	-11.9515
ᏓᏥᏩᏛᎯᏃ	-11.9521
ᏓᎵᏁᎯ	-11.9524
ᏕᏋᎯᏍᏗ	-11.9528
ᎵᏍᏗᏍᎨᏍᏗ	-11.9528
▁ᎤᎬᏍᎪᎸᏁ	-11.9533
▁ᎢᏥᏔᏲ	-11.9536
ᎩᏰᎸᎭ	-11.9538
ᏚᎸᏛ	-11.9539
▁ᎠᏂᎶᏍᎨ	-11.954
ᎧᎿᏅᎩ	-11.9543
▁ᎤᏁᏉᎡ	-11.9544
ᏓᏂᎸᎨ	-11.9545
▁ᏗᏆᏓ	-11.9546
ᏣᏓᏁᎮᏍᏗ	-11.9547
ᎾᏓᏁᏟᏴ	-11.955
ᎢᎵᎻ	-11.9553
ᏗᏫᏎᎸᎯ	-11.9554
ᏚᎢᏍᏓᏁᎴ	-11.9591
ᏟᏌᏂ	-11.9594
ᏅᏓᏗᏍᎪ	-11.9596
ᏏᏙ	-11.96
ᏳᏓ	-11.9602
ᎾᏝᎾᎥᎢ	-11.9603
▁ᎢᏨᏯᎵᏥᏙᏁᎸ	-11.9603
ᏣᏯᏅᏛ	-11.9606
ᏂᎾᏄᎪᏫᏒᎯ	-11.9615
ᎩᎷᎯᏍᏗ	-11.9615
ᎵᏈ	-11.9617
ᎾᏛᏁᎲ	-11.9621
ᎦᏘᏗ	-11.9623
▁ᏙᏣ	-11.9629
ᏓᏟᏌᏁ	-11.9631
ᏘᏂᏙᎯ	-11.9643
ᏬᏂᏍᎩ	-11.9645
ᏍᏆᏂᎪᏓ	-11.9649
▁ᏦᏣ	-11.9655
▁ᎤᏩᏌᏆ	-11.9662
ᎰᎯᏍᏗ	-11.967
ᏲᎲᏍᎬ	-11.9672
ᏂᎩᏍᏔᏁ	-11.9673
ᏘᏁᎪᎢ	-11.9678
▁ᏚᏭᏓᎴ	-11.968
ᏛᏍᎪᎢ	-11.968
ᏯᏅᎮᎢ	-11.9684
ᏘᏂ	-11.9684
▁ᏦᎩᎾ	-11.9687
ᏓᏙᎵᏍᏓᏁᎮᏍᏗ	-11.9689
ᏆᏛᏂᏏ	-11.9691
ᏏᏙᎸ	-11.9702
▁ᎠᎩᏰᎸᏒ	-11.9702
▁ᏕᎶ	-11.9708
ᎪᎾᏛᏗ	-11.9711
ᏍᏕᎸᎮᎢ	-11.9713
▁ᏗᏓᎾᏅ	-11.9715
ᎦᏚᏓᎴᏍᏔᏅᎯ	-11.9724
ᏬᏯᏁᏎᎢ	-11.9732
ᏍᏆᎸᎡᎸ	-11.9733
ᏒᏛ	-11.9748
▁ᎤᏍᏕᎸᎮ	-11.9772
▁ᏙᏓᎨ	-11.9772
▁ᎦᏓᏅᏖᏍᎪ	-11.9772
▁ᏳᏴ	-11.9785
ᏨᏁᎸ	-11.9786
ᎯᏛᎭ	-11.9791
ᏲᎯᏎᎴᎢ	-11.9799
▁ᎤᏃᏴ	-11.9801
ᎪᏓᏁᎸ	-11.9803
ᏣᏲ	-11.9804
ᏕᏲᏅᎢ	-11.982
ᎩᎸᏔᏁ	-11.9829
ᎶᎸ	-11.983
ᎳᏏᏗ	-11.983
ᏁᏤᎴᎢ	-11.9831
ᎹᏱ	-11.9843
ti	-11.9844
ᏛᏓᏍᏔᏂ	-11.9846
▁ᏕᎦᏁ	-11.9846
ᏩᎡ	-11.9846
▁ᏱᏗᏣᏓ	-11.9847
▁ᎬᏯᏛᏁᎸ	-11.9852
ᎴᏫᏍᏔᏅᎩ	-11.9863
ᏥᏲᎵ	-11.9865
ᏬᏎᎴᎢ	-11.9875
▁ᎡᏗᎨᏳᎢ	-11.9875
ᏌᏬᎢᎲ	-11.9877
ᏌᎳᏙᏗ	-11.988
ᎦᏖ	-11.9885
ᎬᏩᏓ	-11.9888
ᎦᏒ	-11.989
ᎴᏒ	-11.9891
ᏤᎵᏛ	-11.9891
ᏆᎵᏍᏓᏁᎸ	-11.9895
ᎪᏓᏁᎯ	-11.9899
ᏕᎰᎯ	-11.9908
▁ᎥᏆ	-11.9908
ᏥᏯᏅᏛ	-11.9909
ᎦᏢᏈ	-11.9914
▁ᎢᎦᏓᏅᏓᏗᏍᏗ	-11.9915
ᎵᏱᎶᎸ	-11.9917
ᏰᎸᏁ	-11.992
ᎵᏍᏔᏴᎲᏍᎬ	-11.992
ᏎᎯᎲ	-11.9926
ᏯᏛᏁᎮᏍᏗ	-11.993
ᏗᏒᏅ	-11.9934
▁ᏙᏓᏲᏣ	-11.9939
▁ᎠᎩᏁᏤ	-11.9946
ᏟᎸ	-11.9948
ᎾᏡᏗᏍᎩ	-11.9957
ᏖᎸᎲᏍᎦ	-11.9961
ᏍᏉᏟᎢ	-11.9966
ᏁᎶᏙᏗ	-11.9968
ᏚᎾᏛ	-11.997
▁ᎢᏣᏗᏔ	-11.997
ᎣᎢ	-11.9976
ᏍᏚᎢᏒᏃ	-11.9982
on	-11.9984
▁ᎦᏥᏁᏗ	-11.9991
ᎸᏫᏍᏓᏏ	-11.9997
ᎧᎯᏴ	-12.0001
ᏍᎦᎢᎲᎢ	-12.0012
ᏍᎩᏴ	-12.0015
ᏰᎵᏉᏍᎪ	-12.0022
ᏍᏚᎶ	-12.0023
▁ᏘᏁ	-12.0025
ᏓᎬ	-12.003
ᏯᏨ	-12.0039
ᎦᏯᎷᏗ	-12.0041
ᎾᏦ	-12.0043
ᎶᏄᎲᎵ	-12.0052
ᏂᎧ	-12.0057
ᎬᏬ	-12.0063
ᎡᎮᏍᏗ	-12.0074
ᎩᎨᏳᏒᎢ	-12.0076
ᏫᏕ	-12.0077
ᏛᏗᏕᎬ	-12.0082
ᏤᏍᏙ	-12.0085
ᏓᏁᎲᎢ	-12.0087
▁ᏱᏥᏩᏛ	-12.0089
ᏡᏔᏅᎩ	-12.0089
ᏅᎭᏂ	-12.0093
▁ᎠᏆᎵᏃᎮ	-12.0096
▁ᏥᎪᏩᏘ	-12.0097
ᏓᏛᏁᎲᎩ	-12.0097
ᎪᎵᏰᎭ	-12.0115
ᏗᏅᏓ	-12.0116
ᏄᏙᎬ	-12.0116
ᏣᎵᏍᎪᎸᏓᏁᎸᎯ	-12.0116
▁ᎠᎪᎵᏰᏍᎪ	-12.0116
ᏒᎵ	-12.012
▁ᎢᏥᎾᏰ	-12.0122
▁ᏕᏨᏰ	-12.0122
ᏥᏴᏁᏗᏱ	-12.0122
ᎨᎯᏓ	-12.0124
ᏂᏲᎲᎩ	-12.0125
ᎧᏌ	-12.0136
ᎩᏲᎯᏎᎸ	-12.0137
ᎵᎪᏁᎸᎩ	-12.0138
ᎶᎾ	-12.014
ᏨᏍᏗᏱ	-12.0142
ᏙᏢ	-12.0143
ᏂᎦᏘᏯ	-12.0145
▁ᎡᏦ	-12.0146
ᎴᎯᏌ	-12.0164
▁ᏚᎾᏗᏩ	-12.0164
ᏚᎾ	-12.0168
▁ᎾᎾᏛᏁ	-12.0179
▁ᎠᏆᏓᏅᏘ	-12.0181
▁ᏂᏙᏔᏘ	-12.0185
ᏄᏍᏕᎢ	-12.0186
▁ᎤᏃᏴᎳᏒ	-12.019
▁ᏂᏨᏁ	-12.0194
▁ᏧᎾᏁ	-12.0198
ᎬᏗᏍᎨᎢ	-12.0201
ᎦᏔᎾᎢ	-12.0201
ᏓᏙᎵᏍᏔᏁᎢ	-12.0202
Ꮬ	-12.0209
ᏄᏩᎥᎢ	-12.021
▁ᎾᏥᏪᏎ	-12.021
ᏦᎸᎯᏍᏗ	-12.0215
ᏓᏛᎢ	-12.0225
ᏂᏩᏛᎯᏙ	-12.0231
ᏍᏓᏴᏗ	-12.0233
ᏚᎵᏍᎬᎾ	-12.0235
ᏍᏚᎮᎢ	-12.0242
ᎴᏂᏙᎸᎢ	-12.0243
ᏰᏍᏛ	-12.0243
▁ᎤᏂᏖᎸᏅ	-12.0249
ᏣᏓᏑᏯ	-12.0254
ᏤᏙ	-12.026
ᏖᏆᎶᎯ	-12.0261
ᏡᏓ	-12.0264
ᏌᏆᎴᎸ	-12.0265
ᎦᏃᎢ	-12.0268
ᎵᏙᎸ	-12.0268
ᏕᎲᎢ	-12.0271
ᏍᏓᏁᎴᎢ	-12.0272
▁ᏓᎦᏢ	-12.0276
ᎸᏫᏍᏓᏁ	-12.0277
ᏍᏓᏁᎸᎩ	-12.028
ᏓᎴᏂᏍᎬ	-12.0281
ᏬᎵᏤᎢ	-12.0284
▁ᏚᏏᏔᏕ	-12.0288
ᎳᎨᏯᏛ	-12.029
▁ᏚᎾᏚᏫᏍ	-12.0297
ᏏᎳ	-12.0297
▁ᏘᏲ	-12.0304
ᏪᎵᏎᎸ	-12.0305
ᎾᏂᎩ	-12.031
ᏥᏴᎩ	-12.0314
ᏬᏁᏙᏗᏱ	-12.0316
ᎯᏙ	-12.0317
ᏙᎨ	-12.0321
ᏘᏃᎮᎴᎢ	-12.0323
ᎿᏕᎦ	-12.0326
ᎵᏔᏗᏅ	-12.0328
ᎡᏅ	-12.033
▁ᏚᏪᎧ	-12.0331
ᏣᏅᎩ	-12.0333
▁ᏗᏧᎪᏓ	-12.0333
ᏐᏍᏙᏗ	-12.0334
ᏥᏬᏂ	-12.0336
ᏏᏌᏅ	-12.0336
ᎵᏘᎡ	-12.0343
ᎩᎸᏉᏔᏅ	-12.0345
ᎠᏨᏗ	-12.0353
ᏥᏃᎮᏍᎩ	-12.0353
▁ᎤᏪᏣᏄ	-12.0358
ᎵᏍᏓᏴᏂ	-12.0366
ᏅᏩᏅ	-12.0369
ᏪᏲᏁ	-12.0389
ᎴᏂᏓᏍᏗᏱ	-12.0393
ᎮᏃ	-12.0394
▁ᏓᎦᏄᎪ	-12.0397
▁ᏣᏓᏅᏘ	-12.0399
▁ᏕᎮ	-12.0406
ᏟᏛ	-12.0417
ᎾᏂᎥᎩ	-12.0423
ᏯᎦᎿᏅ	-12.0426
ᎻᎾ	-12.0426
▁ᏴᏥ	-12.0426
▁ᎠᎩᏍᏆᏛ	-12.0428
ᏥᎾᏰᏍᎬᎢ	-12.0433
ᏣᏪᏐᎸᏍ	-12.0438
▁ᎤᏪᏙᎵ	-12.044
▁ᏕᏥᏁ	-12.0441
▁ᏗᏂᏲ	-12.0443
▁ᎤᏍᏆᏃᏴ	-12.0449
▁ᎨᏥᎾᏄᎪᏫ	-12.045
▁ᎠᎵᏍᎪᎸ	-12.0458
ᎿᏍᏕᏢ	-12.0462
ᏂᏴᎮᎢ	-12.0463
ᏔᏃᎯ	-12.0464
ᏣᏛᏁᎲᎢ	-12.0466
▁ᎦᏰᏣ	-12.0468
ᏥᏍᏓ	-12.0483
ᎩᏍᏕᎸᏗ	-12.0486
ᏚᎯ	-12.0487
▁ᏙᏛᏂ	-12.0487
ᏪᏂ	-12.0488
ᏰᎲ	-12.0494
▁ᎬᏩᏯᎢ	-12.0497
ᎪᎰᏍ	-12.0501
ᏛᎥᏍᎬ	-12.0504
ᏩᏛᎡᏗᏱ	-12.051
ᎩᎦᏙᎥᎯᏍᏗᏱ	-12.0512
ᏘᏃᎯᏏ	-12.0513
▁ᎤᎾᏣᏅ	-12.0515
▁ᏣᎵᏂᎩ	-12.0516
ᏚᎢᏍᏓᏁᎸ	-12.0518
ᎩᎵᏲᎢᏍᏙᏗᏱ	-12.0519
ᎪᎷ	-12.052
ᏓᏅᏖᏍᎬᎢ	-12.0523
▁ᏦᏨ	-12.0534
▁ᎠᏂᎶᏏᏙ	-12.0536
ᏂᎬᏎᎲᎢ	-12.0538
ᎥᏍᎪᎢ	-12.0538
ᎪᏩᏛᎡᏗ	-12.0543
ᏍᏕᎸᎡᏗᏱ	-12.0543
ᎦᏙᎩ	-12.0545
ᏥᏅᏒᎩ	-12.0547
ᎾᏚᎦ	-12.0548
▁ᏂᏚᎾᏓ	-12.0555
ᏱᎶᎴ	-12.0556
▁ᏏᎻ	-12.0564
ᏲᏍᏔ	-12.0565
▁ᏧᏓᎴᏅ	-12.057
▁ᎡᏣᎵ	-12.0588
ᏕᏯ	-12.0591
▁ᎣᎨᏅ	-12.0592
▁ᏳᎾᏗᏅ	-12.0594
ᏴᏗᏱ	-12.0598
▁ᎤᏂᎦᏯᎷ	-12.0599
▁ᏭᏁ	-12.0608
ᏲᎱᏒᎩ	-12.061
ᏕᎲᎩ	-12.0615
▁ᏥᎾᏆ	-12.0624
ᏯᎣ	-12.0625
ᎬᏩᏛ	-12.0627
ᏟᏌᏅᎯ	-12.063
ᎩᎩᎡᎵ	-12.0632
ᎵᎪᎲᏏ	-12.0633
▁ᎦᎧᎮ	-12.0635
ᎩᏁᏟᏴᏏ	-12.0637
ᎣᎸ	-12.0639
ᏕᏙᎲᎩ	-12.0641
ᎤᏙᎯᏳᎩ	-12.0663
ᎱᏍᏕ	-12.0666
▁ᎠᏇᎷ	-12.0669
ᏓᏬᎢ	-12.0676
ᏖᎸᏂᎸ	-12.0676
ᏪᎧᏁᎴ	-12.0684
ᎦᏠᏯᏍᏗ	-12.0686
▁ᎠᏄᏖᏍ	-12.0686
ᎵᎡᎵᏤᎲ	-12.0687
ᏣᏪᏐᎸᏍᏗ	-12.069
ᎪᏘ	-12.0691
ᏍᏓᏩᏚᎦ	-12.0692
ᏓᏛᏁᏗᏱ	-12.0697
▁ᎠᏓᏄᏖᏲ	-12.0698
▁ᏭᏭᏓᎸ	-12.07
ᏗᏫᏎᏗ	-12.07
▁ᏚᎾᏁᎶ	-12.0701
ᏍᏓᏩᏗᏙ	-12.0702
ᏃᎯᏴ	-12.0705
▁ᏚᎾᏄᎪᏫᏎ	-12.0709
▁ᏂᏨᏪ	-12.071
▁ᏩᎫ	-12.0712
ᎹᏅ	-12.0716
ᎾᏯ	-12.072
ᎩᎦᎨ	-12.0721
ᎦᏥᏴ	-12.0729
▁ᏕᎪᏢ	-12.0736
ᏓᏙᎵᏍᏓᏁ	-12.074
ᏏᏅᏓ	-12.0746
▁ᏳᏕᎶᎰ	-12.0747
▁ᏱᏔ	-12.0748
ᎯᏙᎲ	-12.0751
ᏲᎢᏍᏗ	-12.0751
▁ᏓᏂᎳᏫ	-12.0752
ᏓᎾᏌᎲᏍᎩ	-12.0754
ᏫᏅ	-12.0759
ᏅᎦᎸᏗᏱ	-12.0763
ᏰᎮ	-12.0765
ᏦᏔ	-12.0765
ᎵᏰᏛ	-12.0767
ᎪᏩᏗᏍᎬ	-12.0768
ᏣᎦᎸᏓ	-12.0769
▁ᏍᎩᏯᏕᎶᏆ	-12.0772
ᏕᏍᏔ	-12.0772
▁ᎦᎵᏥᏙ	-12.0772
▁ᏍᏆᏛᏓᏍᏓ	-12.0776
ᏌᏁᎢ	-12.0779
ᏗᏛᏗ	-12.0787
ᎩᏁᏤᏗᏱ	-12.0787
ᏥᎩᎵᏲᎢᏍᏗᏍᎬ	-12.0788
ᏍᎪᏂᎯ	-12.079
ᎵᏃᎮᏙᏗᏱ	-12.0792
ᎶᏨ	-12.0797
ᏔᏲᏎᏗ	-12.08
ᏍᎪᎯᏧᏈ	-12.0801
▁ᎹᏏ	-12.0804
ᏂᏬᏂᏍᎨᏍᏗ	-12.0822
ᏘᎭ	-12.0826
ᏂᎾ	-12.0826
▁ᏂᏍᏋᏁ	-12.0836
▁ᎠᎫᏬ	-12.0837
ᎼᎵ	-12.0838
ᏥᎨᏳᎯᏳ	-12.084
ᏣᎧᏃᏗᏱ	-12.084
ᏕᏥ	-12.0845
ᏄᏒ	-12.0846
ᏅᏗᏍᎬ	-12.0852
ᏖᎳᏕ	-12.0852
▁ᎤᎾᏕᎰ	-12.0856
▁ᎨᏣᏕ	-12.0857
ᎮᎴᎢ	-12.0865
▁ᎠᏂᎦᏖᏃ	-12.0872
ᏟᏍᏗᏍᎪᎢ	-12.0872
ᏣᏛᎩᎭ	-12.0875
ᎩᎸᏨ	-12.088
ᏲᏂ	-12.088
ᎵᏖᎸᎲᏍᎬ	-12.0884
Ꮛ	-12.089
ᏅᎲ	-12.0892
ᏯᎸᏤ	-12.0894
ᎤᏃᎴ	-12.0894
ᎨᏠᎮ	-12.0896
ᏲᏨᎯ	-12.0899
ᏚᎸᏗ	-12.09
ᏴᏁᏗᏱ	-12.0901
ᎦᎵᏏ	-12.0906
ᏃᏍᎩᏛ	-12.0906
▁ᏓᎩᎸᏫᏍᏓᏁ	-12.0907
ᎦᎿᏩ	-12.0908
ᏍᎦᎾ	-12.0909
▁ᎢᏯᏛ	-12.0912
▁ᏭᏓᏒᏍ	-12.0914
ᏅᏩᏅᎩ	-12.0925
▁ᏂᏓᏅᏁ	-12.0927
ᎢᏥᏈᏱᏃ	-12.093
ᏰᎸᏐᎢ	-12.0937
ᏠᏯᏍᏗ	-12.094
ᏓᏥᎩᏏ	-12.094
▁ᎨᎦᎵᏥᏙᏁ	-12.0943
ᏙᏘ	-12.0943
▁ᏂᏚᏅ	-12.0944
ᏙᏁ	-12.0945
ᏟᏴᎭ	-12.0947
▁ᎠᏆᏚᏓ	-12.0954
ᎵᏰᎢᎸᏍ	-12.0955
ᏂᏕᎾ	-12.096
▁ᎯᎦᏍᎦᏂ	-12.0961
▁ᏳᏝ	-12.0962
▁ᏄᏂᏪ	-12.0963
ᏲᏎᎲᎩ	-12.0965
ᎯᏴᏁᎸ	-12.0967
▁ᏤᎳ	-12.0968
ᏗᎦᎴᏲ	-12.0969
ᎮᎵᏍᎬᏉ	-12.0973
ᏦᎸ	-12.0975
ᏗᎬᏓ	-12.0978
▁ᏔᎷ	-12.098
ᎫᏴᎡᎯ	-12.098
▁ᏱᏫᏨ	-12.0981
▁ᎬᏩᏍᏓᏩ	-12.0985
▁ᎡᏥᏄᎪ	-12.0989
ᏥᏪᏎᎸᎭ	-12.099
ᏯᎸ	-12.0992
▁ᏅᏓᎬᏩᎾ	-12.0994
ᏌᏆᎴ	-12.0996
ᏗᏤᎾ	-12.0997
▁ᎠᎫᏱ	-12.1008
ᎴᏁ	-12.1009
ᎵᏍᏔᏴᏗ	-12.101
▁ᎤᏂᏃᎮ	-12.101
ᎪᏪ	-12.1016
ᎦᏘᏰ	-12.1016
ᏍᎩᏓᏒ	-12.1017
ᏰᎳᏗᏙᎭ	-12.1019
ᏄᎵᏳ	-12.102
ᎵᏍᏓᏴᎲᏍᎨᏍᏗ	-12.1022
▁ᎤᎾᎴᎿᏫᏍ	-12.1025
ᏒᎦᎴ	-12.1026
▁ᏗᏣᎸᏫ	-12.1028
▁ᏂᏕᎤ	-12.103
ᎾᏛᏁᎴ	-12.103
▁ᎾᏂᏪ	-12.1031
▁ᏣᏣ	-12.1036
ᏤᎰ	-12.1038
ᏔᏲᏎᎴ	-12.1038
▁ᏨᏓᏥ	-12.1039
ᎤᏙᏓ	-12.1041
ᎦᎵᏍᎪᎸᏓᏁᎸᎯ	-12.1041
ᎵᎪᏁᎭ	-12.1043
ᏣᏓᏗ	-12.1044
ᏍᎦᏰᎬᏍᏓ	-12.1047
ᏓᏅᎡᎸᎩ	-12.1048
▁ᏚᏭᏢ	-12.1053
▁ᏗᏤᏅ	-12.1057
▁ᎤᏍᏢᏂᏍ	-12.1058
ᎬᏫᏳᏌᏕ	-12.1059
ᎷᎸᎥᏍ	-12.1059
▁ᎤᎾᏨᏏ	-12.106
ᎩᎵᏲᏤ	-12.1062
ᏛᏅᎢᏍᏔᏁ	-12.1062
ᎿᎥ	-12.1064
ᏃᎮᎴ	-12.1066
▁ᎤᏭᏢ	-12.1067
ᎬᏍᎪᎸᏁ	-12.1069
ᎳᏑᎶ	-12.1071
ᏍᎦᏅᎢᏍᏗ	-12.1074
ᏟᎶᎡᎸ	-12.1075
ᏖᎵᏙ	-12.1075
▁ᎬᏩᏁ	-12.1076
ᏒᎭᏂᎸ	-12.1077
ᏕᎴ	-12.1081
ᏙᏯ	-12.1081
ᎬᎭᎷᏴ	-12.1082
▁ᏣᏢ	-12.1082
ᎵᏙ	-12.1083
ᏩᏘᏍᎬ	-12.1084
ᎵᏍᏇᏚ	-12.1086
ᏕᏦ	-12.1087
ᎵᏍᎦᏂᏍᏛ	-12.1087
ᏟᏂᎬᏁᎴ	-12.1088
▁ᎢᏥᎪᏩᏛ	-12.1091
ᏂᎦᏛᏰᏃ	-12.1092
ᏚᎪᏓ	-12.1093
ᏚᎸᏌᏛ	-12.1094
ᏬᏅ	-12.1095
“	-12.1095
ᏑᎵᎪᏨᎩ	-12.1096
ᏥᏁᏤᎸᎢ	-12.1097
ᎬᏫᏳᏌᏕᎩ	-12.1097
ᏍᎫᏕᏒᎯ	-12.1098
ᎤᎵᎮᎵ	-12.1098
ᎢᏥᏈᏱ	-12.1099
ᏕᏘᏴᏌᏗᏒ	-12.1099
▁ᏚᏟᎶᏍᏓᏁᎴ	-12.1099
ᎧᎿᏩᏗᏙ	-12.11
▁ᎤᏁᎵᏤ	-12.11
ᏓᏙᎵᏣᏘ	-12.11
ᎹᏗ	-12.1103
ᏒᏆᎶᏍᏗ	-12.1104
ᏬᎯᏤ	-12.1104
ᏕᎭᎷᎨ	-12.1104
ᏏᏔᏕ	-12.1105
ᏏᎾᏌᏅ	-12.1107
ᏘᏯᏍᏓᏁᏗ	-12.1108
ᏂᎶᎯᏍᏗᏱ	-12.1109
ᏍᏚᏞ	-12.1109
ᏎᏅ	-12.1112
ᏇᏓᏢ	-12.1113
ᏃᏴᎬ	-12.1113
ᏃᎸᏔᏁ	-12.1113
ᏓᏅᏖᏗᏍᎨᎢ	-12.1115
ᏃᎯᏳᎯ	-12.1116
ᏄᎸᏁ	-12.1116
ᏍᏓᎦᏴᎯᏓ	-12.1116
ᏲᎲᏍᎨᏍᏗ	-12.1117
ᎾᏕᏒ	-12.1118
ᎵᏠᏯᏍᏕᏍᏗ	-12.1118
▁ᏦᎩᎭ	-12.1119
ᏬᏍᎩᎵ	-12.1119
ᏂᏌᏙᏴ	-12.112
ᏮᏔᏁᎢ	-12.112
ᏯᏘᏃᎵ	-12.1121
ᏍᏓᏱᏛᎩ	-12.1122
▁ᎤᏃᎱ	-12.1124
ᏐᏗᏱ	-12.1125
ᏗᎧᎿᏩᏛᏍᏗ	-12.1126
ᏍᎪᎸᏨ	-12.1127
ᏄᎪᏫ	-12.1127
ᏯᎨ	-12.1129
ᎬᏬᎵ	-12.113
ᏰᏙᎳᏕᏍᏗ	-12.113
ᏧᏣ	-12.113
ᏓᎦᎵᏍᏙᏔᏂ	-12.1131
ᏄᎯᏍᏗᏍᎬ	-12.1131
▁ᏧᏂᎦᏴᎵ	-12.1131
ᏲᏍᏗᏍᎪ	-12.1132
ᏲᎰᏒ	-12.1132
ᏪᎳᏅᎯ	-12.1133
ᏩᏉᎯ	-12.1135
ᏳᏩᏅ	-12.1135
ᎦᏔᎲᏒᎩ	-12.1135
ᏓᏙᎵᏍᏙᏗᏱ	-12.1136
ᏓᏁᏣᏍᏚᎶ	-12.1137
ᎬᏩᏛᏓᏍᏓᏁᎴ	-12.1137
▁ᏧᏓᎴ	-12.1138
ᏨᏏᏰᏗ	-12.1139
ᏬᏁᏗᏍᎨ	-12.1141
ᎬᎥᎯᏍᏗ	-12.1141
▁ᏱᏂᏨ	-12.1141
ᎾᏄᎪᏨᎩ	-12.1142
ᏈᎷ	-12.1142
ᏓᏰᎨᏍᏗ	-12.1142
ᏍᏓᏲᏒ	-12.1142
ᏫᏌᏅ	-12.1143
▁ᎤᎵᎮᎵᏤᎸ	-12.1143
ᏪᎵᏎᎢ	-12.1145
▁ᏂᏗᎬᏩᏓᎴ	-12.1145
ᎦᎾᏬᏍᎬ	-12.1145
▁ᎺᎮᎴᎵ	-12.1145
ᎬᎭᎸᏛ	-12.1146
ᏕᏯᏔᏁᎮ	-12.1146
ᏍᎪᏂᏗᏢ	-12.1147
ᎦᏲᎵᏳ	-12.1147
▁ᎤᏪᎵᎯᏍ	-12.1148
▁ᎤᎾᎵᏃᎯᏴᎯ	-12.1148
ᏂᏙᎾᎡ	-12.1149
▁ᎶᏔᏂ	-12.1149
ᏴᏓᏆᎶᏍᎩ	-12.1149
ᏛᏛᏅᎩ	-12.115
▁ᎬᏩᏂᏅᏫᏍᏔᏂᏙᎯ	-12.115
ᏨᏒ	-12.115
ᏁᏅᏍᏗᏱ	-12.1151
ᏂᏧᏈᏍᏗ	-12.1152
▁ᎠᏳᎾᎦ	-12.1153
ᏁᏅᏒᎩ	-12.1153
ᎿᎷᏒᎩ	-12.1157
▁ᏓᏗᎶᏂ	-12.1157
▁ᏗᏧᎪ	-12.1159
▁ᏓᏕᏙ	-12.1159
ᏖᎸᏁ	-12.116
▁ᎤᏂᏄᎪᏤ	-12.1162
ᎠᏆᏚᎵ	-12.1162
ᏓᎴᎲᏍᎨ	-12.1162
ᏂᏃᎮ	-12.1163
ᏙᎯᏳᎭ	-12.1164
ᎬᏩᏟ	-12.1164
ᏳᏩᏁᎦ	-12.1164
ᎴᎯᏌᏅ	-12.1165
ᎤᎾᏣᏅ	-12.1166
ᎫᏓᎴᏏ	-12.1166
ᎩᏠᏫ	-12.1166
ᏟᏃᎮᏙᏗ	-12.1166
▁ᏓᏘᏁᎲ	-12.1166
▁ᏫᏓᏆᎧᎾᏅ	-12.1166
ᏍᏆᏛᎦᏍᏓ	-12.1167
▁ᎠᏓᏔᎶᎯ	-12.1167
ᎤᏍᏆᏂᎩᏘ	-12.1167
ᏚᏂᎳᏫᏤ	-12.1168
ᏓᏟᎶᏍᏗᏍᎬ	-12.1168
ᏧᏁᏍᎨᎮᎢ	-12.1168
▁ᎨᏣᎵᎮᎵ	-12.1169
ᏩᏘᏍᎬᎾ	-12.117
ᏣᎦᏎᏍᏕᏍᏗ	-12.1171
ᏚᏳᎪᏛ	-12.1171
ᏙᏓᎦᏥ	-12.1171
ᏩᏂᎴᎢ	-12.1172
ᏛᏓᏍᏓᏁᎮ	-12.1173
ᎤᏁᎢᏍᏔᏅ	-12.1173
▁ᏕᏣᏓᏂᎸ	-12.1173
ᎦᏅᏆᎶᏏᎶᏛ	-12.1174
▁ᎤᎾᎵᏍᏓᏴᏅᎯ	-12.1174
ᏍᎩᏓᏍᎬ	-12.1174
ᎬᏬᏎᎸᎩ	-12.1174
▁ᎠᏂᏔᏲᎯᎮ	-12.1175
ᏘᏳ	-12.1175
ᏚᏬᏁᏔᏁᎢ	-12.1175
ᎧᏛ	-12.1176
▁ᎤᏩᏇᏅᏔᏁ	-12.1176
▁ᏚᎧᎿᏩᏗᏙᎮ	-12.1176
▁ᏧᎩᏥᏍᎪ	-12.1176
▁ᏂᏚᏛᏁᎴ	-12.1176
▁ᏙᏗᎧᏂᏍᎬ	-12.1176
▁ᏱᎪᎵᎨ	-12.1176
▁ᎢᎤᎾᏨᏎ	-12.1176
▁ᏭᎩᎸᏁ	-12.1176
▁ᎠᏂᎷᎨ	-12.1177
ᏭᏲᎢᏴ	-12.1177
▁ᏧᏲᏏᏍᎨ	-12.1177
▁ᎢᏍᎪᏂᏗᏢ	-12.1177
▁ᎤᏁᎢᏍᏓᏁᎸ	-12.1177
▁ᏕᏥᎧᎿᏩᏗᏒ	-12.1177
ᏄᏁᎩᏴ	-12.1177
▁ᎠᎾᎵᏅᏢ	-12.1177
▁ᎨᏣᏡᏗᏍᎬ	-12.1177
▁ᏭᏭ	-12.1177
▁ᎠᏍᏆᏂᎪᎯ	-12.1178
ᎤᏁᎫ	-12.1178
ᏚᎸᏫᏍᏓᏁᎰᎢ	-12.1178
ᏕᎾᏓᎪᎲᏳ	-12.1178
ᎭᏲᎮ	-12.1178
ᏔᏲᎯᎮᏍᏗ	-12.1179
ᏇᏄ	-12.118
▁ᎪᎭᏗ	-12.118
ᎤᎾᏛᎪᏗᏱ	-12.118
▁ᎤᏂᏄᎪᏨ	-12.118
▁ᏥᏙᏥ	-12.118
ᏓᎵᏂᎪᎯᏍᏙᏗ	-12.1181
ᎤᏍᏓᎦᏴᎯᏓ	-12.1181
▁ᎤᏓᏙᎵᏍᏔᏁ	-12.1181
ᎤᎵᏍᎨᏓ	-12.1181
▁ᎾᏯᏛᎡ	-12.1182
▁ᎤᏁᎳᏫᏎᎲ	-12.1182
▁ᎤᏗᏔᎮ	-12.1182
▁ᏭᏩᎦᏘᏗᏒ	-12.1182
▁ᏥᏮᎦᏙ	-12.1182
▁ᏄᎾᏛᎿᏕᎬ	-12.1182
▁ᏗᎦᏲᏥ	-12.1182
ᎠᏂᎪᏕᏍᎩ	-12.1182
ᎫᎫ	-12.1183
ᎤᎵᏍᏆᎸᏗ	-12.1183
▁ᏫᎬᏩᏴᏔᏁ	-12.1183
ᎤᎦᏃᏩ	-12.1183
ᏣᏁᏆ	-12.1183
ᎤᎾᏄᎪᏫᏎᎢ	-12.1183
ᏦᏓᎸ	-12.1183
▁ᏄᎾᏛᏁ	-12.1183
ᎡᎳᏆᏗ	-12.1183
ᏕᎤᏙᎥ	-12.1184
▁ᎤᏩᏓᎷ	-12.1184
ᏚᎾᏙᎥ	-12.1184
ᎢᎪᎯᏓ	-12.1184
▁ᎤᏅᏓᏗᏗᏒ	-12.1184
▁ᎤᎵᏍᏛᏧᏁ	-12.1184
▁ᏓᏓᏁᎳᏗᏒ	-12.1184
▁ᎠᏥᏰᎸᎾᏁᎴ	-12.1184
▁ᎤᏛᎦᏍᏔᏁ	-12.1185
ᏃᏈᏏ	-12.1185
▁ᎠᎾᏓᏩᏛᎯᏙ	-12.1185
ᏧᏓᎴᏁ	-12.1185
ᏧᏓᎴᏅᏓ	-12.1185
ᏧᎬᏩᎶᏗ	-12.1185
▁ᏂᏚᏅᏁᎴ	-12.1186
▁ᏗᏆᏓᎴᏅ	-12.1186
ᏠᎨᏏ	-12.1186
▁ᎤᏬᏯᏁ	-12.1186
▁ᎤᏍᏆᏂᎪᏔᏁ	-12.1186
▁ᏕᎦᎸᏫᏍᏓᏁᎸ	-12.1187
ᏑᏴᏗ	-12.1187
▁ᏧᎾᏄᎪᏫᏎᎴ	-12.1187
▁ᎢᏥᎾᏰᏍᎬ	-12.1187
▁ᎠᏥᏰᎸᎾᏁ	-12.1187
ᏩᎶᏏ	-12.1188
▁ᏚᏅᏩᏅ	-12.1188
ᎩᎵᎨᏂ	-12.1188
▁ᏓᏂᏬᏂᏍᎬ	-12.1188
ᏂᏪᏒᎩ	-12.1189
▁ᎬᏩᏕᏁᎴ	-12.119
ᎦᎿᏁ	-12.119
ᎬᎭᎷᏰ	-12.119
▁ᏕᏣᏓᏘᎾᎥ	-12.119
ᏍᏙᏰᎲ	-12.119
ᏚᎢᏍᏔᏅᎢ	-12.1191
ᏄᏂᏪᏎᎢ	-12.1191
ᎱᏎᎢ	-12.1191
ᎤᏲᏨ	-12.1192
ᏠᎠᏎ	-12.1192
ᏠᏗᏱ	-12.1192
ᏚᎳᏑᏝ	-12.1193
ᏛᏗᏍᎬᎢ	-12.1193
ᎵᏍᏙᏰᏗ	-12.1193
▁ᏥᏂᏕᎬ	-12.1193
▁ᏚᏠᏒᏎ	-12.1194
▁ᎾᏥᏪᏎᎴ	-12.1194
▁ᎤᎾᏚᎵᏍᎪ	-12.1194
▁ᎤᎾᏁᎶᏔᏅ	-12.1195
ᏔᎵᏁ	-12.1195
ᏕᎶᏆᎡ	-12.1196
▁ᎣᏤᎲ	-12.1197
ᏗᎧᎿᏩᏗᏙᎯ	-12.1197
▁ᏓᏔᎴ	-12.1197
ᎣᎾ	-12.1197
ᏲᎰᏎ	-12.1199
ᏣᎬᏫᏳᎯ	-12.12
ᎨᏥᏍᏕᎸᏗ	-12.12
ᎢᏳᏍᏘ	-12.12
ᎦᏔᎯᏳ	-12.1201
▁ᏓᏂᏴᎨ	-12.1201
ᎷᏆᏗᏅ	-12.1201
ᎩᏠᏫᏍᏗ	-12.1201
ᎷᏫᏍᏓᏁᏗ	-12.1202
ᎠᎦᏴᎵ	-12.1202
ᎠᏴ	-12.1202
▁ᎦᎷᎨ	-12.1202
ᎧᏍᎨᏂ	-12.1202
ᏕᏲᏅᎯ	-12.1202
ᎩᏍᏕᎵᏍᎬᎢ	-12.1203
ᎪᏫᏎ	-12.1203
ᎧᎿᏩᏕᎩ	-12.1204
▁ᎣᏥᏃᎮᏍᎬ	-12.1204
ᎬᎭᎷᏯᏍ	-12.1204
ᏩᏍᏉᎸ	-12.1204
ᏃᎮᎮᎴ	-12.1205
▁ᎤᎦᎾᏏ	-12.1205
ᎢᏧᎳᎭ	-12.1206
ᏃᎯᎰ	-12.1206
▁ᏨᏓᎸ	-12.1206
ᎧᎵᎢᎭ	-12.1207
▁ᎠᎾᏔᏍᎩ	-12.1207
ᏍᎪᎸᏙᏗ	-12.1207
ᏧᏁᎬ	-12.1207
ᏅᏧᎵᏍᏙᏔᏅ	-12.1207
ᎤᏁᎦ	-12.1207
ᎦᎸᎳᏗᏴ	-12.1207
ᏍᏆᎾᎳᏗᏍᏗ	-12.1207
ᏅᎵᏰᎥ	-12.1208
▁ᏚᏚᎪᏔᏅ	-12.1208
ᎨᏨᎿᏕ	-12.1208
ᏖᏍᎬ	-12.1208
▁ᎤᏍᏆᏂ	-12.1209
ᎮᏂᎵ	-12.1209
▁ᎤᏂᏲᏠᎯᏎᎸ	-12.1209
▁ᏚᏪᏟᏌᏅ	-12.1209
▁ᏓᏍᏗᏰᏗᏍᎬ	-12.1209
▁ᎧᏁᎨ	-12.121
ᏗᏏᏴᏫᎭ	-12.121
▁ᎾᏆᏛᎿᏕᎬ	-12.121
ᏍᎦᏅᎬ	-12.121
ᏂᏨᏛ	-12.1211
ᏍᎩᎾᎾ	-12.1211
ᎦᏯᎷᎥᏍᎩ	-12.1212
ᏃᏣᏝ	-12.1213
ᎦᎫᏴᏓᏁᏗ	-12.1213
ᎦᏰᎬᏍᏔ	-12.1213
▁ᏫᏓᎧᏁ	-12.1214
ᎪᏪᎵᎯ	-12.1214
ᏓᏪᎵᎩᏍ	-12.1214
▁ᏭᏂᏴᎴ	-12.1214
ᎵᏏᎲᏒᎩ	-12.1214
ᏁᎥᎭ	-12.1214
▁ᏚᏭᎪᏔᏁ	-12.1215
▁ᏄᏂᎬᏫᏳ	-12.1215
▁ᎠᏆᎵᎮᎵᏨ	-12.1215
ᎰᎻ	-12.1215
▁ᎤᏪᏙᎴ	-12.1215
ᎦᏕᎣᏍᎦ	-12.1216
ᏏᎳᏛᎥᏍᎬ	-12.1216
ᏴᎯᎲ	-12.1216
▁ᎣᏥᏃᎮᏍ	-12.1216
▁ᎤᏕᏁᎴ	-12.1216
ᎦᎵᏍᏓᏗᏍᏗ	-12.1216
ᎮᎵᎠ	-12.1217
▁ᏗᏥᏲᎯ	-12.1217
▁ᎢᏳᎾᎵᏍᏓᏁ	-12.1217
▁ᏙᏓᏲ	-12.1218
▁ᏂᎩᏴᏁᎸ	-12.1218
▁ᎤᏢᏨ	-12.1219
▁ᏧᏃᏪᎳᏅ	-12.1219
ᎠᎩᏲᏏ	-12.1219
ᎾᏗᏒᎲᏍ	-12.1219
ᎤᏁᎬ	-12.1219
▁ᎡᏓᏓᏙᎵᏍᏓᏁ	-12.1219
▁ᎤᏂᏍᏆᏂᎪᏒ	-12.1219
ᏍᏉᏂᎪᏗ	-12.122
▁ᎬᏩᏓᏅᏘ	-12.122
▁ᎬᏯᎵᏃᎮᏙᏗ	-12.1221
▁ᎬᏩᏛᎦᏁᎸ	-12.1221
ᎦᎵᏍᏗᏍᎪᎢ	-12.1221
▁ᎡᎻᏂᏓ	-12.1221
▁ᏥᏃᎪ	-12.1221
ᎨᏒᎾ	-12.1221
▁ᎤᎵᏨᏓᏆ	-12.1222
▁ᏧᏂᎷᏫᏍᏔᏁ	-12.1222
▁ᎭᎳ	-12.1222
ᏏᏙᏂ	-12.1222
▁ᎢᏯᎩᏪᏍᏗ	-12.1222
ᏂᎸᏫᏍᏓᏁᎲᎢ	-12.1222
▁ᎣᎦᏚᎵᏍᎬ	-12.1222
▁ᎢᎧᏁᏨ	-12.1222
▁ᎠᏥᎤᏍᏕᏎᎸ	-12.1222
▁ᏧᎷᏫᏍᏔᏁ	-12.1222
ᎾᏁᏍᎬ	-12.1223
▁ᎠᏍᎫᏕᏒ	-12.1224
ᏅᎵᏰᏗ	-12.1224
ᏛᏅᎢᏍᏕᏍᏗ	-12.1224
▁ᏫᎨᏥᏲᎵ	-12.1224
ᏕᏘᏴᏛ	-12.1224
▁ᎤᎾᎳᏍᏓᎡ	-12.1225
ᏍᎦᏅᎪᎢ	-12.1225
ᎵᏍᏚᎢᏎᎢ	-12.1225
▁ᏌᎺᎵ	-12.1225
▁ᏗᏣᎵᏂᎪᎯᏍᏙᏗ	-12.1226
▁ᎢᏰᏨᏁ	-12.1226
▁ᏧᏭᎪᏓᏁᏗ	-12.1226
ᏚᎸᏅᎥᏍᎬ	-12.1226
▁ᎤᏓᏏᏁ	-12.1227
ᏣᎸᏫᏍᏓᏁᎮᏍᏗ	-12.1227
▁ᎨᏥᏚᎢᏍᏓᏁᎸ	-12.1227
ᏠᎥᏔ	-12.1227
▁ᎦᎵᎡᎵ	-12.1227
ᏅᎫᏛᎢ	-12.1228
▁ᎬᏩᎪᎮ	-12.1228
ᏠᎲ	-12.1228
▁ᏗᎪᏑᎴᏗ	-12.1228
▁ᏫᎦᎶᎯ	-12.1228
▁ᎢᏧᏅᏁᏗ	-12.1228
ᏥᏲᎯᏎᎸ	-12.1228
ᎦᎵᏱᏳ	-12.1228
ᏓᏤᎵᎦᏯ	-12.1228
ᏥᏔᎳᏬ	-12.1228
ᏎᎮᎵᏃ	-12.1228
▁ᎻᏗᏂ	-12.1229
▁ᎬᏆᏛᏁᏗ	-12.1229
ᎵᎶᎲᏍᎦ	-12.1229
▁ᏚᏬᏏᏌᏁ	-12.1229
ᎵᏍᎪᎸᏓᏁᎭ	-12.1229
ᏙᎴᏆᏍ	-12.1229
ᏯᏅᏓᏗᏍᎪ	-12.1229
▁ᏧᎾᏄᎪᏫᏎᏗ	-12.1229
ᎩᎩᎵᏲ	-12.123
▁ᎣᎦᎵᏍᏓᏴ	-12.123
ᏧᏓᎢ	-12.123
ᏢᎬᎩ	-12.1231
▁ᎡᎳᏆ	-12.1231
ᏢᏆᏍᏙᏗ	-12.1231
ᎵᏍᏗᏰᏓᏁ	-12.1231
ᏄᎴ	-12.1231
ᏏᎳᏛᏅ	-12.1231
▁ᎤᏬᏪᎳᏅ	-12.1231
▁ᎭᏙᎴᎰ	-12.1232
ᎦᏴᎯᏓ	-12.1232
▁ᎤᎸᏓᎸᎥᏍ	-12.1232
▁ᏱᏄᏅ	-12.1232
▁ᏕᏣᏓᏘᎾ	-12.1232
▁ᎢᎯᏴᏁᏗ	-12.1232
▁ᎬᎩᏁᏉᏤ	-12.1232
ᎾᏫᏛᎯ	-12.1233
ᏍᎩᏃᎯᏏ	-12.1233
ᏪᎳᏅ	-12.1233
▁ᏚᏭᏓᏔ	-12.1233
ᎦᏙᎥᎯ	-12.1233
ᏓᏓᏅᏟ	-12.1233
▁ᏅᏓᎬᏩᏓᎴ	-12.1233
▁ᎢᏣᏓᏅᏔᏩᏕ	-12.1233
ᏡᏍᏗ	-12.1233
ᎵᏓᎩᏛ	-12.1233
▁ᏓᎭᏬᎢ	-12.1233
▁ᏓᏂᎶᏄᎮᏍ	-12.1234
▁ᏂᏓᎾᏤ	-12.1234
ᏛᏛᎲᎦ	-12.1234
ᏩᎯᏎᎸ	-12.1234
▁ᎬᏬᎳᏕᏍ	-12.1234
▁ᎢᎫ	-12.1234
ᏯᏙᏤᎮᏍᏗ	-12.1234
▁ᏫᏥᎷᏨ	-12.1234
ᏭᎷᏤᎢ	-12.1235
▁ᎤᎾᏄᎪᏥ	-12.1235
ᎶᏄᎡ	-12.1235
ᏓᏳᏓᎴᏅᎯ	-12.1235
ston	-12.1235
hi	-12.1236
▁ᏚᏟᏂᏆ	-12.1236
ᏓᎦᎵᏍᏔᏂ	-12.1236
ᏓᎪᎯᏥ	-12.1236
▁ᏧᏂᎦᏐᎠ	-12.1236
ᎾᏞᎬ	-12.1236
ᏴᏌᏗᏒ	-12.1236
▁ᏕᎪᏪ	-12.1236
ape	-12.1236
▁ᏚᏬᏢᏅ	-12.1236
▁ᏙᎳᏧᎦ	-12.1236
▁ᎬᏩᏂᏲᏥᏙᎸ	-12.1236
▁ᎯᏯᎵᏍᎦᏍᏙ	-12.1236
▁ᏅᏧᏛᎿᏗᏎ	-12.1236
▁ᏕᏥᎦᎿᏩᏗᏒ	-12.1236
▁ᏚᎾᏗᏫᏍᏗᏍᎨ	-12.1236
▁ᏛᎩᏯᏅᎡᎴᏍᏗ	-12.1236
▁ᏥᎬᏩᏂᏛᏔᏁ	-12.1236
▁ᏭᏗᏍᎦᏝᏁ	-12.1236
▁ᏯᏕᏠᏆᏍᎦ	-12.1236
ersey	-12.1236
lorida	-12.1236
ᎤᎸᏕᎦ	-12.1236
ᎦᎿᏩᏗᏙᎵ	-12.1236
ᎦᏎᏍᏗᏕᎬ	-12.1236
ᎦᏰᏥᏐᏢᏔᏂ	-12.1236
ᎧᏙᏍᏓᏁᎢ	-12.1236
ᎨᎩᎩᎵᏲᎢᏍᏗᏍᎬᎩ	-12.1236
ᎬᏯᎵᎮᎵᏤᎭ	-12.1236
ᎭᎴᏫᏍᏔ	-12.1236
ᎭᏄᏭ	-12.1236
ᎯᎪᏩᏘᎭᏧ	-12.1236
ᎵᏍᎫᎭᏴ	-12.1236
ᎵᏍᏇᏔᏬ	-12.1236
ᎺᎵᎩᏌᏕᎩᏃ	-12.1236
ᎾᏓᏁᏣᏍᏚᎸᎩ	-12.1236
ᏂᏆᏘᎵ	-12.1236
ᏂᏔᏫᏤ	-12.1236
ᏂᏗᏥᏲᏕᏍᏗᏍᎬᎾ	-12.1236
ᏄᏓᏅᎯᏛ	-12.1236
ᏅᏔᏗᏘᏍᎬ	-12.1236
ᏌᏆᏞ	-12.1236
ᏓᎦᎸᎥᎦ	-12.1236
ᏓᎾᏇᏍᎬ	-12.1236
ᏓᏓᏏᎾᎲᏍᏙᏗ	-12.1236
ᏓᏡᏩᏍᏗᏕ	-12.1236
ᏓᏡᏫᏍᏕᎢ	-12.1236
ᏓᏣᏓᏅᏖᏔᏂᏗ	-12.1236
ᏕᎦᎯᏞᏫᏒ	-12.1236
ᏕᎦᎵᎩᎡᎮᎢ	-12.1236
ᏖᎡᎯᏍᏗᏍᎨᎢ	-12.1236
ᏙᏛᎪᏄᎶᏏ	-12.1236
ᏚᏯᏍᏛᎾ	-12.1236
ᏛᏳᎩᏍᏗᏳ	-12.1236
ᏜᏅᏓᏕᏗᏱ	-12.1236
ᏟᏔᏗᏍᎬ	-12.1236
ᏠᎣᏒ	-12.1236
ᏥᏟᏏᏍᎨᏍᏗ	-12.1236
ᏥᏲᎢᏎᎸᎭ	-12.1236
ᏨᏩᏍᏔᏁᎴ	-12.1236
ᏬᏁᏔᏂ	-12.1236
ᏴᏍᏓᎩᏍᎩ	-12.1236
▁Cooper	-12.1236
▁Po	-12.1236
▁ᎠᎦᎫᏴᏓᏁᎮᏍᏗ	-12.1236
▁ᎠᎦᏔᏔᏅᎥᏍᎩ	-12.1236
▁ᎠᎦᏔᏙᎥᏗᏍᎩ	-12.1236
▁ᎠᎦᏗᏏᏗᏢ	-12.1236
▁ᎠᎧᏖᏃᎮ	-12.1236
▁ᎠᎩᏍᏕᎸᎯᏙᎸ	-12.1236
▁ᎠᎫᎢᏍᏗᏍᎩ	-12.1236
▁ᎠᎯᏏᎹᎩ	-12.1236
▁ᎠᎾᏁᏢᏔᏂᏒᎢ	-12.1236
▁ᎠᎾᏓᏓᏍᎩᏏᏍᎨᎢ	-12.1236
▁ᎠᏂᏃᏔᏂᏙᎯ	-12.1236
▁ᎠᏂᏅᏜᎡᎢ	-12.1236
▁ᎠᏂᏫᏄᏣ	-12.1236
▁ᎠᏃᏚᎢᏍᏗᏍᎬ	-12.1236
▁ᎠᏃᏢᏅᎥᏍᎬᎢ	-12.1236
▁ᎠᏆᏘᏂᏐ	-12.1236
▁ᎠᏓᏁᏣᏍᏕᎶᎩᎯ	-12.1236
▁ᎠᏕᎵᏙᎩᎯ	-12.1236
▁ᎠᏛᏄᏣ	-12.1236
▁ᎠᏛᏒᎥᏍᎩ	-12.1236
▁ᎠᏣᎾᏉᎯ	-12.1236
▁ᎠᏥᏍᏛᏗᏍᏗᏍᎬᎢ	-12.1236
▁ᎠᏯᏍᏜᏗᏍᎩ	-12.1236
▁ᎡᎵᎣᏈᎦ	-12.1236
▁ᎡᏙᎢᏍᏓᏁᎸᎯ	-12.1236
▁ᎡᏣᎫᏴᏓᏁᏗ	-12.1236
▁ᎢᎠᏥᏩᏛᎲᏃ	-12.1236
▁ᎢᎦᎤᏘᏍᏛ	-12.1236
▁ᎢᎨᎦᏛᏁᏗ	-12.1236
▁ᎢᎨᎬᎾᏕᎩ	-12.1236
▁ᎢᎨᏣᎵᏍᏓᏁᏗ	-12.1236
▁ᎢᎭᏛᏁᎯ	-12.1236
▁ᎢᏍᎩᏌᏛᎥᏍᎦ	-12.1236
▁ᎢᏍᏓᎵᏍᏓᏴᏔᏅᎩ	-12.1236
▁ᎢᏓᎵᏍᏓᏴᏗᏍᎬᎢ	-12.1236
▁ᎢᏣᎵᏂᎬᏁᎲ	-12.1236
▁ᎢᏣᏠᎾᏍᏛ	-12.1236
▁ᎢᏥᎾᏝᎾᎥ	-12.1236
▁ᎢᏨᏁᎵᏓᏍᏗᏱ	-12.1236
▁ᎢᏨᏰᏯᏔᏅᎢ	-12.1236
▁ᎢᏯᎩᏳᏍᏡᏛ	-12.1236
▁ᎢᏯᏕᏴᎵ	-12.1236
▁ᎢᏳᏆᏗᏅᏛ	-12.1236
▁ᎣᎩᏐᏅᎢᏍᏔᏅᎯ	-12.1236
▁ᎣᏁᏏᏉᎳ	-12.1236
▁ᎤᎦᏔᏙᎥᏙᏗᏱ	-12.1236
▁ᎤᎩᏓᏍᏕᎯ	-12.1236
▁ᎤᎫᏴᎰᎲᏍᏗ	-12.1236
▁ᎤᎬᏍᏉᎡ	-12.1236
▁ᎤᎵᏍᎦᏎᏔᏁᎢ	-12.1236
▁ᎤᎵᏍᎫᏪ	-12.1236
▁ᎤᎵᏍᏔᏴᏃᏁᏍᏗ	-12.1236
▁ᎤᎾᎦᎰᏍᏔᏅ	-12.1236
▁ᎤᎾᏑᎨᎲᎯ	-12.1236
▁ᎤᏁᎿᎢᏳ	-12.1236
▁ᎤᏁᏧᏥᏛ	-12.1236
▁ᎤᏂᎦᎾᏏᏍᎩ	-12.1236
▁ᎤᏂᎪᎯᏙᎸᎯ	-12.1236
▁ᎤᏂᎪᏁᎶᎯᏌᏘ	-12.1236
▁ᎤᏂᏍᏈᏍᏓ	-12.1236
▁ᎤᏂᏍᏕᏲᏅ	-12.1236
▁ᎤᏃᎯᎵᏓᏌᏘᏳ	-12.1236
▁ᎤᏃᎱᎦᏂᎸ	-12.1236
▁ᎤᏄᏮᎢ	-12.1236
▁ᎤᏅᎪᎥᏔᏁ	-12.1236
▁ᎤᏍᏘᏰᏅᎯ	-12.1236
▁ᎤᏓᏅᏫᏍᏔᏁ	-12.1236
▁ᎤᏓᏥᏃᎯᏍᏔᏅ	-12.1236
▁ᎤᏟᎠᏥᎸᏉᏗᏳ	-12.1236
▁ᎤᏧᏈᏍᏙᏒᎯ	-12.1236
▁ᎤᏩᏃᏫᏍᎨ	-12.1236
▁ᎥᎠᎩᎪᏩᏛᏗᏱ	-12.1236
▁ᎥᎤᏪᏅᏍᏗᏱ	-12.1236
▁ᎥᏥᏯᏓᏙᎵᏍᏓᏁᎸᎩ	-12.1236
▁ᎥᏥᏯᏛᎦᏁᎸᎩ	-12.1236
▁ᎦᏁᏄᎵ	-12.1236
▁ᎦᏁᏍᏓᎳᏗᏍᏗᏍᎩ	-12.1236
▁ᎦᏃᎯᎵᏒᎩ	-12.1236
▁ᎦᏌᏁᎾᏛᏗᏱ	-12.1236
▁ᎦᏕᎶᎥᏍᎬ	-12.1236
▁ᎦᏰᏗᎷᏤᏗ	-12.1236
▁ᎦᏰᏤᎵᏎᏗ	-12.1236
▁ᎧᏄᎦᏟ	-12.1236
▁ᎨᏤᎳᏗᏙᎭ	-12.1236
▁ᎨᏥᏐᏠᎸᎢ	-12.1236
▁ᎨᏧᎯᏍᏗᏍᎩ	-12.1236
▁ᎨᏨᎨᏫᏍᏗ	-12.1236
▁ᎫᏔᎩᏍᏙᏗ	-12.1236
▁ᎫᏢᏘᏱ	-12.1236
▁ᎫᏰᏉᏂ	-12.1236
▁ᎬᏩᏂᎾᏄᎪᏫᏎᎮᏍᏗ	-12.1236
▁ᎬᏯᏛᎦᏁᎸ	-12.1236
▁ᎭᎦᏌᏯᏍᏔᏅᎭ	-12.1236
▁ᎭᎵᎮᎵᎨᏍᏗ	-12.1236
▁ᎭᎵᏍᎪᎸᏗᏍᎨᏍᏗ	-12.1236
▁ᎭᏆᏥᏂ	-12.1236
▁ᎭᏓᏅᏗᏍᏗᏍᎨᏍᏗ	-12.1236
▁ᎭᏙᏯᏅᎯ	-12.1236
▁ᎯᏣᏚᎵᏍᎨᏍᏗ	-12.1236
▁ᎱᏌᎻᏃ	-12.1236
▁ᎺᏌᏆᏕᎻ	-12.1236
▁ᎻᎱᏤᎵ	-12.1236
▁ᎻᎵᏯᎻᏃ	-12.1236
▁ᎻᏏᎴᎻ	-12.1236
▁ᎻᏚᏎᎵ	-12.1236
▁ᎾᏆᏓᎾᏰᏍᏛᎾ	-12.1236
▁ᏁᏣᏛᏁᏍᏗᏉ	-12.1236
▁ᏂᎤᏟᏍᏕ	-12.1236
▁ᏂᎦᏅᎦᎸᎲᎾ	-12.1236
▁ᏂᏓᎩᎸᏫᏍᏓᏁᎲᎾ	-12.1236
▁ᏂᏕᏣᏓᏛᏁᎮᏍᏗ	-12.1236
▁ᏂᏕᏥᎤᏍᏕᏎᎸᎾ	-12.1236
▁ᏂᏕᏨᏁᏍᏗ	-12.1236
▁ᏂᏗᏣᏓᏕᎵᏎᎲᎾ	-12.1236
▁ᏂᏗᏣᏢᏫᏎᎲᎾ	-12.1236
▁ᏂᏗᏥᎾᏝᎥᎾ	-12.1236
▁ᏂᏗᏥᏁᎲᎾ	-12.1236
▁ᏂᏙᏣᎵᏍᏓᏁᎭ	-12.1236
▁ᏂᏚᎸᏫᏍᏓᏁᎲᎾ	-12.1236
▁ᏂᏚᎾᏓᏂᎸᏨᎾ	-12.1236
▁ᏂᏥᏑᎵᎪᎬᎾ	-12.1236
▁ᏄᎵᏌᎶᏛᎾ	-12.1236
▁ᏄᎾᎵᎮᎵᏣᏛᎾ	-12.1236
▁ᏄᎾᏠᎾᏍᏛᎾ	-12.1236
▁ᏄᎾᏰᎯᏍᏛᎾ	-12.1236
▁ᏄᏂᎷᎶᏤᎲᎾ	-12.1236
▁ᏄᏍᎦᏎᏛ	-12.1236
▁ᏄᏍᏆᏂᎦᏛ	-12.1236
▁ᏄᏛᎾᏕᎬ	-12.1236
▁ᏄᏟᏂᎬᎨ	-12.1236
▁ᏄᏧᏈᏍᏛ	-12.1236
▁ᏄᏪᎵᏍᏛᎾ	-12.1236
▁ᏄᏴᎳᏒᎾ	-12.1236
▁ᏅᎤᏪᏎᎸᎩ	-12.1236
▁ᏅᏋᏁᎵᏙᎸᎢ	-12.1236
▁ᏅᏓᏍᎩᏴᏁᎵ	-12.1236
▁ᏅᏓᏳᎾᎵᏍᏓᏁᎵ	-12.1236
▁ᏅᏓᏳᏍᏗᏗᏒᎩ	-12.1236
▁ᏅᏛᏂᏙᎾᎢ	-12.1236
▁ᏆᎮᎭᎶᏛ	-12.1236
▁ᏈᏗᏂᏱ	-12.1236
▁ᏍᎩᏯᏐᎥᎦ	-12.1236
▁ᏍᏆᏂᏏᎲᏏ	-12.1236
▁ᏍᏆᏕᎲᏏ	-12.1236
▁ᏐᎵᎼᏅ	-12.1236
▁ᏑᏙᏓᏆᏛ	-12.1236
▁ᏓᎦᎳᏐᏫᏏ	-12.1236
▁ᏓᎨᎯᏛᏔᏂ	-12.1236
▁ᏓᎬᏍᏓᏩᏗᏙᎵ	-12.1236
▁ᏓᎬᏩᏍᎪᏂᎵ	-12.1236
▁ᏓᎵᏂᎪᎯᏍᏗᏍᎬᎩ	-12.1236
▁ᏓᎾᏏᏛᏂᎲ	-12.1236
▁ᏓᎾᏕᏒᎲᏍᎨᎢ	-12.1236
▁ᏓᎾᏦᎭᏱᎮ	-12.1236
▁ᏓᏂᏁᎩᎡᎲ	-12.1236
▁ᏓᏂᏥᏍᏔᎳᏍᎬ	-12.1236
▁ᏓᏍᎩᏯᏠᏥ	-12.1236
▁ᏓᏛᏍᏆᎶᏥ	-12.1236
▁ᏓᏣᏅᏓᏗᏍᏔᏂ	-12.1236
▁ᏓᏤᏲᏂ	-12.1236
▁ᏓᏥᎦᏃᏔᏂ	-12.1236
▁ᏓᏥᎴᏐᏂ	-12.1236
▁ᏓᏥᏍᏔᏩᏕᏏ	-12.1236
▁ᏓᏥᏲᏪᎶᏔᏂ	-12.1236
▁ᏓᏲᏍᏓᏁᎳᏗ	-12.1236
▁ᏓᏳᏨᏨᎩ	-12.1236
▁ᏓᏴᏈᏛ	-12.1236
▁ᏔᎷᎩᏍᎩᎬᎾᏬᏙᏗᏱ	-12.1236
▁ᏕᎦᏄᎳᏥᏴ	-12.1236
▁ᏕᎦᏅᎿᏩᏗᏒ	-12.1236
▁ᏕᎨᎵᏍᎦᎸᎲ	-12.1236
▁ᏕᎬᏒᎲᏍᎬᎢ	-12.1236
▁ᏕᎬᏯᎫᏴᏓᏁᎮᏍᏗ	-12.1236
▁ᏕᎭᏅᏓᏗᏍᏗᏍᎨᏍᏗ	-12.1236
▁ᏕᎯᏯᏓᏂᎸᏨᎭ	-12.1236
▁ᏕᏍᏗᏂᏴᎮᏍᏗ	-12.1236
▁ᏕᏓᏁᎶᏛᎢ	-12.1236
▁ᏕᏓᏦᏍᎬᎢ	-12.1236
▁ᏕᏥᎧᎿᏩᏗᏎᏍᏗ	-12.1236
▁ᏗᎦᎦᏠᏱᎯ	-12.1236
▁ᏗᎦᎬᎩᎧᎿᏩᏛᎡᏗ	-12.1236
▁ᏗᎦᎵᏯᏅᎯᏛ	-12.1236
▁ᏗᎦᎸᏫᏍᏔᏁᎸᎯ	-12.1236
▁ᏗᎨᏥᏅᏍᏕᏎᎸᎯ	-12.1236
▁ᏗᎨᏥᏐᏅᏅᎯ	-12.1236
▁ᏗᎩᎾᏓᏛᏙᏗ	-12.1236
▁ᏗᎫᏩᎭᏄᏫ	-12.1236
▁ᏗᎬᎦᏌᏬᎢᎯ	-12.1236
▁ᏗᎬᏩᎾᏓᏁᏟᏴᎡᏗ	-12.1236
▁ᏗᎬᏩᏁᏲᏗ	-12.1236
▁ᏗᎾᎳᏫᎩ	-12.1236
▁ᏗᏂᎳᏍᏓᎳᏩᏗᏒ	-12.1236
▁ᏗᏍᎩᏲᏏᏌᏏ	-12.1236
▁ᏗᏓᎪᏗᏍᎩᏱ	-12.1236
▁ᏗᏓᏙᏕᎯᎯ	-12.1236
▁ᏗᏕᎫᏍᏛᏗ	-12.1236
▁ᏗᏗᏂᏃᎩᏍᎨᎢ	-12.1236
▁ᏗᏣᎧᎾᏂᏓᏍᏗᏱ	-12.1236
▁ᏗᏴᎦᎴᏴᏓ	-12.1236
▁ᏘᏰᎵᎯᏍᏓ	-12.1236
▁ᏙᎦᏓᏲᎵᎸ	-12.1236
▁ᏙᎦᏦᏒ	-12.1236
▁ᏙᎩᏲᏐᏅ	-12.1236
▁ᏙᏓᎦᏘᏃᎵ	-12.1236
▁ᏙᏓᎦᏥᏯᏟᎶᏍᏔᏂ	-12.1236
▁ᏙᏓᏦᎵᏍᏔᏂ	-12.1236
▁ᏙᏗᏍᎩᏯᏘᏁᏅ	-12.1236
▁ᏙᏘᏴᏔᏂᎵ	-12.1236
▁ᏙᏛᎠᎴᎯᏌᏂ	-12.1236
▁ᏙᏛᏏᏔᏗ	-12.1236
▁ᏚᎭᏄᏩᎩᏐᏅ	-12.1236
▁ᏚᎾᏁᎳᏗᏙᎴ	-12.1236
▁ᏚᎾᏁᏍᏓᏝᎰᎢ	-12.1236
▁ᏚᎾᏠᎯᏍᏔᏁᎢ	-12.1236
▁ᏚᎾᏡᏕᏍᏗ	-12.1236
▁ᏚᏂᎧᎿᏩᏗᏙᎮᏍᏗ	-12.1236
▁ᏚᏂᎷᏫᏍᏔᏁᎲ	-12.1236
▁ᏚᏂᏯᏪᎨ	-12.1236
▁ᏚᏌᏬᎴ	-12.1236
▁ᏚᏗᎦᎴᏯᏍᏔᏅ	-12.1236
▁ᏚᏙᎣᏐᏅ	-12.1236
▁ᏚᏟᎷᏆᏗᏅᏎ	-12.1236
▁ᏚᏣᏯᎩᏎ	-12.1236
▁ᏚᏥᏍᏠᏨᎩ	-12.1236
▁ᏚᏩᏅᎦᏢ	-12.1236
▁ᏚᏪᏍᏔᏁᎮ	-12.1236
▁ᏚᏪᏐᏨᎩ	-12.1236
▁ᏚᏬᏢᏔᏁ	-12.1236
▁ᏚᏮᎩᎶᎥᎩ	-12.1236
▁ᏚᏯᏍᏜᏛ	-12.1236
▁ᏛᎵᏰᎢᎸᏍᏓ	-12.1236
▁ᏛᎾᎵᏛᏔᏂ	-12.1236
▁ᏛᏆᎵᏍᎪᎸᏓᏁᎵ	-12.1236
▁ᏛᏋᏍᎦᎸᏂ	-12.1236
▁ᏛᏥᎵᏦᏘᏌᏂ	-12.1236
▁ᏤᎠᎳᎻ	-12.1236
▁ᏤᎪᎾᏯ	-12.1236
▁ᏥᎦᎧᎰᎢ	-12.1236
▁ᏥᎬᎩᎾᎸᏍᏔᏅᎩ	-12.1236
▁ᏥᎾᏬᎦ	-12.1236
▁ᏥᎿᏛᏁᎭ	-12.1236
▁ᏥᏂᏓᎦᏔᎰᎢ	-12.1236
▁ᏥᏄᎦᎾᎯ	-12.1236
▁ᏥᏅᏩᏍᏙᎢ	-12.1236
▁ᏥᏍᎩᏯᏂᎩᏍᏓ	-12.1236
▁ᏥᏓᏅᎿᏗᏍᏙᏗ	-12.1236
▁ᏥᏓᏚᏫᏍᏗᎭ	-12.1236
▁ᏥᏙᏣᏠᎯ	-12.1236
▁ᏥᏨᏲᏪᎳᏁᎭ	-12.1236
▁ᏥᏫᏗᎦᎸᏌᏓᏗᏍᎪᎢ	-12.1236
▁ᏥᏯᏎᎵᏓᏁᎸ	-12.1236
▁ᏥᏯᏓᏁᏟᏴᏍᏓᏁᎸ	-12.1236
▁ᏥᏯᏚᏣᎳᏅᎭ	-12.1236
▁ᏦᏑᏩ	-12.1236
▁ᏦᏣᎵᏥᏙᏁᏗᏱ	-12.1236
▁ᏧᏂᎾᏦᏴᏍᏗ	-12.1236
▁ᏧᏃᏕᎯᎯ	-12.1236
▁ᏧᏃᏣᎶᎢᏍᏗᏱ	-12.1236
▁ᏧᏟᏴᎦᏕᏩᏓ	-12.1236
▁ᏧᏣᏬᏓ	-12.1236
▁ᏧᏥᏍᏟ	-12.1236
▁ᏧᏪᎵᏏᏯ	-12.1236
▁ᏧᏭᏓᏔᏅᎯ	-12.1236
▁ᏧᏳᏩᏂᎭ	-12.1236
▁ᏨᏆᎧᏃᏗ	-12.1236
▁ᏨᏧᎶᏎᎢ	-12.1236
▁ᏩᎾᏅᎥᎦ	-12.1236
▁ᏫᎨᏥᏯᏅᏗᏱ	-12.1236
▁ᏫᎩᏅᎥᏏ	-12.1236
▁ᏫᎬᏩᏎᏒᎮ	-12.1236
▁ᏫᎬᏩᏲᏥᏓᏍᏗ	-12.1236
▁ᏫᏂᏚᏩᏁᎴ	-12.1236
▁ᏫᏄᎾᏛᏁᎸᎩ	-12.1236
▁ᏫᏄᎾᏛᏅ	-12.1236
▁ᏫᏕᎦᎦᏂᏍᎬ	-12.1236
▁ᏫᏙᏓᏨᏯᏘᏃᎵ	-12.1236
▁ᏫᏙᏛᎾᎴᏔᏂ	-12.1236
▁ᏫᏙᏛᎾᏓᎡᏏ	-12.1236
▁ᏫᏙᏛᏂᏲᎯᏎᎵ	-12.1236
▁ᏫᏚᎦᏔᎲᏍᏙᏗᏱ	-12.1236
▁ᏫᏚᏯᎲᏃ	-12.1236
▁ᏭᏓᏬᎥᏍᏗ	-12.1236
▁ᏭᏩᏯᎸᏥᎴ	-12.1236
▁ᏮᎠᎦᏔᎲᏍᏓ	-12.1236
▁ᏮᏓᏳᏎᎮᎵ	-12.1236
▁ᏮᏛᏂᎶᏏ	-12.1236
▁ᏯᎦᏎᏍᏗᏍᎨᏍᏗ	-12.1236
▁ᏯᏂᏍᏙᎰᎢ	-12.1236
▁ᏯᏃᎯᏳᎲᏍᎨ	-12.1236
▁ᏯᏆᏓᏅᏛᎾ	-12.1236
▁ᏯᏉᎯᏳᎮ	-12.1236
▁ᏱᏁᏨᎾᏕᎨᏍᏗ	-12.1236
▁ᏱᏂᎦᎵᏍᏙᏗᏍᎨᏍᏗ	-12.1236
▁ᏱᏂᎦᏪᏍᎨ	-12.1236
▁ᏱᏂᎪᎯᎸᎾ	-12.1236
▁ᏱᏄᏩᏂᏌᏅ	-12.1236
▁ᏱᏅᏛᏅᏁᎵ	-12.1236
▁ᏱᏍᎩᏲᎢᏳᏁᎢ	-12.1236
▁ᏱᏍᏆᏓᏙᎵᏍᏓᏁᎸ	-12.1236
▁ᏱᏓᏂᏍᏓᏩᎦᎦ	-12.1236
▁ᏱᏕᏥᎤᏍᏕᏎᎸ	-12.1236
▁ᏱᏚᏂᎿᏍᏕᏠᎢ	-12.1236
▁ᏱᏥᎪᏁᎶᏍᎨᏍᏗ	-12.1236
▁ᏱᏦᎯᏳᏁᏍᏗ	-12.1236
▁ᏱᏫᏙᏣᏁ	-12.1236
▁ᏲᎩᎾᏟᎳ	-12.1236
▁ᏳᏂᏬᏂᏌ	-12.1236
▁ᏳᏍᏘᏰᎦ	-12.1236
▁ᏳᏓᏍᏕᏓᎵᏴᏌ	-12.1236
▁ᏳᏛᎦᏍᏔᎾ	-12.1236
▁ᏳᏣᎩᏒᎾ	-12.1236
▁ᏴᎦᎬᏴᏕᎩ	-12.1236
▁ᏴᎬᎾᎴᎲᎦ	-12.1236
▁ᏴᎬᏚᏓᎴᏍᏓ	-12.1236
▁ᏴᏗᎤᏨᏎᏍᏗ	-12.1236
▁ᎠᎩᎷᏤᎮᏍᏗ	-12.1236
▁ᎤᎾᏙᎴᎨᏎ	-12.1236
▁ᎤᏂᏲᎸᎢᏍᏔᏅ	-12.1236
▁ᏂᎬᏫᏍᏕ	-12.1236
▁ᏓᏨᏲᏎᎵ	-12.1236
▁ᏥᎿᏛᎦ	-12.1236
▁ᏧᎾᏕᏲᏗᏱ	-12.1236
▁ᏱᎦᏅᎥᏏ	-12.1236
ᎪᎩᏔᏲᏎᎲᎩ	-12.1236
ᎫᎢᏍᏛᎾ	-12.1236
ᎴᎣᎯᏍᏔᏂ	-12.1236
ᏌᏙᎭᏯ	-12.1236
ᏔᎳᏬᎯᏎᎴ	-12.1236
ᏛᏳᎨᏗᏱ	-12.1236
ᏥᏥᏃᎯᏍᏓ	-12.1236
▁ᎠᎦᏐᎠᏏᎯᎲ	-12.1236
▁ᎠᎵᏘᏍᎪᎢ	-12.1236
▁ᎠᎾᏁᎳᏗᏍᎪᎢ	-12.1236
▁ᎠᏂᏌᎺᎵ	-12.1236
▁ᎠᏂᏫᏅᎨᏌᏂ	-12.1236
▁ᎠᏅᏳᎬ	-12.1236
▁ᎠᏉᏛᎸᎯ	-12.1236
▁ᎠᏒᎾᏘᎶᎥᎯ	-12.1236
▁ᎠᏜᏩᏍᏗᏍᎨᏍᏗ	-12.1236
▁ᎠᏢᏆᏍᏗ	-12.1236
▁ᎠᏫᏒᎥᏍᎩ	-12.1236
▁ᎡᎵᎡᏌ	-12.1236
▁ᎢᎬᏩᎾᎵᏍᏓᏁᏗ	-12.1236
▁ᎢᎬᏩᏓᏛᏁᏗ	-12.1236
▁ᎢᏍᎩᏃᏁᎵᎸ	-12.1236
▁ᎢᏍᎩᏍᎦᎦ	-12.1236
▁ᎢᏗᎣᏈ	-12.1236
▁ᎢᏤᏅᎢᏍᏔᏅᎯ	-12.1236
▁ᎢᏥᎶᏁᏔᏅᎯ	-12.1236
▁ᎢᏥᏑᎵᎪᎢ	-12.1236
▁ᎢᏥᏙᎾᎠ	-12.1236
▁ᎢᏯᏯᏖᏅ	-12.1236
▁ᎢᏳᏅᏂᏐᏗᏱ	-12.1236
▁ᎣᎦᎵᏥᏙᏗᏱ	-12.1236
▁ᎣᏣᏓᏙᎵᏍᏗᏍᎪ	-12.1236
▁ᎤᎦᏎᏍᏕᎢ	-12.1236
▁ᎤᎧᏙᏍᏔᏁᎢ	-12.1236
▁ᎤᎵᎨᏯᏛᏅ	-12.1236
▁ᎤᎵᏐᏯᏍᏗ	-12.1236
▁ᎤᎾᏈᏴᏗ	-12.1236
▁ᎤᎾᏜᏍᏛ	-12.1236
▁ᎤᏁᏐᎠᎯᏍᏗ	-12.1236
▁ᎤᏂᏃᏴᏨᎩ	-12.1236
▁ᎤᏂᏍᏓᏱᏕ	-12.1236
▁ᎤᏓᏁᎪᏳᎲ	-12.1236
▁ᎤᏓᏠᏍᏕᎢ	-12.1236
▁ᎤᏟᏴᏍᎩᎸᎮ	-12.1236
▁ᎥᎬᎭᏅ	-12.1236
▁ᎦᎷᎶᎬ	-12.1236
▁ᎦᏃᎯᎵᏓᏍᏗ	-12.1236
▁ᎦᏌᎾᎳ	-12.1236
▁ᎦᏟᏏᏍᎨᏍᏗ	-12.1236
▁ᎪᏱᏂᏓᏍᏗ	-12.1236
▁ᎬᏉᎯᏳᎲᏍᎩ	-12.1236
▁ᎬᏩᏔᏲᏎᎯ	-12.1236
▁ᎯᏍᏚᎶᏔᏅ	-12.1236
▁ᎻᎵᎧ	-12.1236
▁ᎾᎩᎬᏫᏳᏒ	-12.1236
▁ᎾᏙᏢᏍᎬᎾ	-12.1236
▁ᏂᎦᏥᏯᏛᏁᎸᎩ	-12.1236
▁ᏂᎨᎬᏁᎲᎢ	-12.1236
▁ᏂᎬᎩᏲᎸᎾ	-12.1236
▁ᏂᎻᎶᏗ	-12.1236
▁ᏂᏓᎦᏛᏁᎵ	-12.1236
▁ᏂᏥᏪᏍᎨᏍᏗ	-12.1236
▁ᏃᎦᏠᎾᏍᏛᎾ	-12.1236
▁ᏄᏂᏰᎸᏒᎾ	-12.1236
▁ᏄᏓᎵᏍᏛᎾ	-12.1236
▁ᏍᎩᏄᏍᏕ	-12.1236
▁ᏍᏆᏅᏓᏛᎭ	-12.1236
▁ᏑᏒᎯᏓ	-12.1236
▁ᏓᎦᎴᏔᏅᎢ	-12.1236
▁ᏓᎦᏁᏐ	-12.1236
▁ᏓᎦᏘᎴᎨᏍᏗ	-12.1236
▁ᏓᎿᏬᏍᎨ	-12.1236
▁ᏓᏓᏘᏁᎲᎢ	-12.1236
▁ᏓᏥᏔᏲᎵ	-12.1236
▁ᏓᏳᎾᏚᎩᏒ	-12.1236
▁ᏓᏳᏐᏅᏂ	-12.1236
▁ᏔᎧᏅᎦ	-12.1236
▁ᏕᎩᎾᏓᏁᏤᎸ	-12.1236
▁ᏕᎬᏯᏠᎢᏍᏓᏁᎸ	-12.1236
▁ᏕᏣᏓᏡᏩᏗᏒ	-12.1236
▁ᏗᎦᏄᎪᎪ	-12.1236
▁ᏗᎩᎧᏁᏴᏗᏱ	-12.1236
▁ᏗᏂᏁᏟᏴᏍᎩ	-12.1236
▁ᏗᏍᏓᏛᏅᎢᏍᏓ	-12.1236
▁ᏗᏔᏍᎩᏍᎩ	-12.1236
▁ᏗᏛᎯᏍᏗᏍᎩ	-12.1236
▁ᏗᏣᏠᏱᎦ	-12.1236
▁ᏘᎪᎸᏍᏗᏱ	-12.1236
▁ᏙᎤᏁᏅᏍᏗᏱ	-12.1236
▁ᏙᎵᏓᏍᏆ	-12.1236
▁ᏙᏓᎦᏥᏯᏠᎢᏍᏓᏁᎵ	-12.1236
▁ᏙᏓᎦᏥᏳᎪᏓᏁᎵ	-12.1236
▁ᏙᏓᏨᏲᎯᏎᎵ	-12.1236
▁ᏙᏗᏂᎧᏁᎢ	-12.1236
▁ᏚᎧᎿᏩᏗᏙᎲᎢ	-12.1236
▁ᏚᎾᏙᎠᏗᏒ	-12.1236
▁ᏚᎾᏦᎭᏱᎸ	-12.1236
▁ᏚᏂᏯᏙᎸᎩ	-12.1236
▁ᏚᏗᏔᏍᏔᏁ	-12.1236
▁ᏚᏦᏒ	-12.1236
▁ᏚᏬᎯᏳᏅ	-12.1236
▁ᏣᎦᎵᏍᏓᏴᎾᏁᏗᏱ	-12.1236
▁ᏣᎶᏅᎮᎭ	-12.1236
▁ᏥᏕᎯᎾᏄᎪᏫᏎᎸ	-12.1236
▁ᏥᏚᏱᎶᎴᎢ	-12.1236
▁ᏥᏣᏣᎠ	-12.1236
▁ᏦᎩᏂᏅᏒ	-12.1236
▁ᏫᎣᎨᏅ	-12.1236
▁ᏫᏗᏍᎩᏯᏘᏅᏍᏔᏅᎩ	-12.1236
▁ᏫᏗᏍᏗᏃᎲᏏ	-12.1236
▁ᏫᏯᏴᎯᎮᏍᏗ	-12.1236
▁ᏭᏁᎳᏗᏓ	-12.1236
▁ᏭᏩᎬᏛ	-12.1236
▁ᏭᏬᎯᎶ	-12.1236
▁ᏯᎩᎷᏤᎴᏍᏗ	-12.1236
▁ᏯᎾᏓᏅᏍᎬᎾ	-12.1236
▁ᏯᏕᎰᏍᎦ	-12.1236
▁ᏱᏂᎦᏪᎭ	-12.1236
▁ᏱᏅᏧᎵᏍᏙᏔᏁ	-12.1236
▁ᏱᏚᎸᏫᏍᏓᏁᎮᎢ	-12.1236
▁ᏱᏣᏍᎦᏅᏤᏍᏗ	-12.1236
▁ᏱᏣᏜᏅᏓᏕ	-12.1236
▁ᏱᏩᎦᏓᎢᏅ	-12.1236
▁ᏳᏂᏚᎬᎾ	-12.1236
▁ᏳᏙᎯᏳᎲᎾ	-12.1236
ᎪᏢᎾᏁᎴᎢ	-12.1236
ᏂᏒᎳᏍᎨ	-12.1236
ᏂᏟᏏᏍᎨᏍᏗ	-12.1236
ᏄᎶᏔᏅᎯᏍᎩᏂ	-12.1236
ᏄᏔᎩ	-12.1236
ᏓᏄᏖᏴᏓ	-12.1236
ᏕᎭᏓᏟᏴᎲ	-12.1236
ᏗᏍᎦᏅᎨᏍᏗ	-12.1236
ᏤᏲᎲᎦ	-12.1236
ᏥᏃᎯᏯᏍᎪᏃ	-12.1236
ᏥᏮᏗᎦᎶᏏ	-12.1236
ᏯᏓᏴᎡᎵ	-12.1236
▁ᎠᎾᏗᏒᎯᎲ	-12.1236
▁ᎠᏂᎫᎾᏓᎴᎩ	-12.1236
▁ᎠᏊᎢᏴ	-12.1236
▁ᎠᏓᏩᏛᎡᎯ	-12.1236
▁ᎠᏙᏩᏗᏍᏗ	-12.1236
▁ᎠᏠᏄᎮᏛ	-12.1236
▁ᎡᏣᏛᏓᏍᏓᏏ	-12.1236
▁ᎢᎬᏩᏰᎸᎭ	-12.1236
▁ᎢᏧᎵᏍᏔᏅᎯ	-12.1236
▁ᎢᏳᏛᏁᏘ	-12.1236
▁ᎣᏥᏅᏍᏓᏕᎸᎩᏃ	-12.1236
▁ᎤᎾᏙᏢᏗᏱ	-12.1236
▁ᎤᏂᎾᏄᎪᏤᎸ	-12.1236
▁ᎤᏂᏁᏓᏥᏛ	-12.1236
▁ᎤᏂᏃᏍᎩᏍᏗᏱ	-12.1236
▁ᎤᏦᎢᏎᏗ	-12.1236
▁ᎤᏩᏴᏒᎯ	-12.1236
▁ᎤᏪᎳᏗᏍᏙᏗ	-12.1236
▁ᎦᏄᎳᏥ	-12.1236
▁ᎦᏓᎷᎦᏅ	-12.1236
▁ᎨᏆᏙᏏ	-12.1236
▁ᎫᎭᏟ	-12.1236
▁ᎬᏩᎵᏠᏯᏍᏗ	-12.1236
▁ᎯᏣᏅᏔ	-12.1236
▁ᎹᏱᎩᎵ	-12.1236
▁ᎾᎩᏲᎲᎾ	-12.1236
▁ᏂᎦᏥᏪᏎᎭ	-12.1236
▁ᏂᎪᎯᏍᏗᏍᎨᏍᏗ	-12.1236
▁ᏂᏚᎾᏓᏁᎶᏛᎾ	-12.1236
▁ᏅᏛᏅᏁᎵ	-12.1236
▁ᏆᏟᏯ	-12.1236
▁ᏍᎩᏰᏲᎲᎦ	-12.1236
▁ᏐᏱᏁᎳ	-12.1236
▁ᏓᎧᏁᏌᏛ	-12.1236
▁ᏓᏂᏁᎵᎬᎢ	-12.1236
▁ᏕᎨᎦᏓᏂᎸᏨ	-12.1236
▁ᏕᎯᏍᏓᏩᏗᏎᏍᏗ	-12.1236
▁ᏕᏥᎳᏫᏦᎯᎲ	-12.1236
▁ᏕᏦᏢᎯᏏᏍᎪᏰᏃ	-12.1236
▁ᏗᎦᎶᏐᎲᏍᎩ	-12.1236
▁ᏗᎬᏩᏓᏘᏍᏗ	-12.1236
▁ᏗᏗᏐᎩ	-12.1236
▁ᏙᏛᏂᏴᎳᏏ	-12.1236
▁ᏚᏍᏚᎢᎡᎴ	-12.1236
▁ᏚᏓᏴᎳᏔᏅ	-12.1236
▁ᏚᏛᏅᎢᏍᏓᏁᎸ	-12.1236
▁ᏣᎦᏨᏍᏔᏅ	-12.1236
▁ᏤᎦᏡ	-12.1236
▁ᏥᎦᎶᎨᏎᎢ	-12.1236
▁ᏥᎾᎬᏁᎴ	-12.1236
▁ᏥᏂᏥᏪᏍᎬᎩ	-12.1236
▁ᏥᏕᎾᏦᎯ	-12.1236
▁ᏥᏚᏣᏃᏛᎩ	-12.1236
▁ᏥᏛᏦ	-12.1236
▁ᏥᏫᎦᎶᎯ	-12.1236
▁ᏦᏪᎳᏅᎩ	-12.1236
▁ᏧᎾᏓᏁᎳᏁᏗ	-12.1236
▁ᏧᎾᏚᎩᏎ	-12.1236
▁ᏩᏐᏝ	-12.1236
▁ᏩᏓᏬᏣ	-12.1236
▁ᏩᏗᏢᏍᏓ	-12.1236
▁ᏭᏓᏬᎡ	-12.1236
▁ᏳᏩᏂᏍᏔᏅ	-12.1236
ᏃᎯᎵᏣᏁ	-12.1236
ᏓᏓᎴᏗᏍᎨᏍᏗ	-12.1236
ᏪᎳᏗᏍᏗᎭ	-12.1236
ᏯᏙᎴᎣᎯ	-12.1236
ᏲᎢᎱᎯ	-12.1236
▁ᎠᎾᎵᎮᎵᏤᎮ	-12.1236
▁ᎠᏌᏱᎵ	-12.1236
▁ᎠᏥᏍᏛᏗᏍᏔᏁ	-12.1236
▁ᎡᏟᏯ	-12.1236
▁ᎡᏥᎧᏁᏗᏱ	-12.1236
▁ᎢᏣᏠᏯᏍᏗᏍᎩ	-12.1236
▁ᎤᏂᎦᏘᏕᎢ	-12.1236
▁ᎤᏓᏰᎵᎸ	-12.1236
▁ᎤᏩᎾᏖ	-12.1236
▁ᎦᎵᏣᏙᏗ	-12.1236
▁ᎦᏁᏔᏱ	-12.1236
▁ᎬᎩᎸᏉᏗᏍᎬ	-12.1236
▁ᏂᏚᎳᏍᎬᎢ	-12.1236
▁ᏓᏂᎾᏄᎪᏫᏍᎪᎢ	-12.1236
▁ᏕᎦᏃᏣᏢ	-12.1236
▁ᏗᎦᎵᏦᏙᏗ	-12.1236
▁ᏗᏅᏂᎦᎵᏍᏗ	-12.1236
▁ᏚᏄᎪᏔᏁ	-12.1236
▁ᏣᏁᏉᎥᎯ	-12.1236
▁ᏣᏓᏴᎳᏔᏍᎬ	-12.1236
▁ᏣᏲᎱᏒᎯᏉ	-12.1236
▁ᏥᏦᎯᏳᏂ	-12.1236
▁ᏧᏐᏴᎭ	-12.1236
▁ᏫᎨᏙᎲ	-12.1236
▁ᏫᏚᎰᏅᎯ	-12.1236
▁ᎠᏓᏓᏅᏓᏗᏍᏗᏍᎩ	-12.1236
▁ᎢᏍᏛᎨᏳᎢ	-12.1236
▁ᎨᏯᏔᎯ	-12.1236
▁ᎬᎾᏰᏍᎬ	-12.1236
▁ᎬᏲᎵᏍᏔᏅ	-12.1236
▁ᏱᎦᎾᏄᎪᎦ	-12.1236
▁ᏳᏰᎵᏛᎾ	-12.1236
ᏁᎢᏍᏓᏁᎲᎩ	-12.1236
ᏂᏅᎦᎴᎰᏅ	-12.1236
ᏑᎨᏗᏱ	-12.1236
ᏓᎩᎧᎿᏩᏗᏙᎸ	-12.1236
ᏚᏍᏗᎧᎸ	-12.1236
ᏢᏆᏍᎪᎢ	-12.1236
ᏢᏲᎵᎸ	-12.1236
ᏴᎧᏁᎵ	-12.1236
▁Pri	-12.1236
▁ᎠᎹᏳᎸᏗ	-12.1236
▁ᎠᏂᎯᏲᎲᎢ	-12.1236
▁ᎠᏂᏲᏁᎦ	-12.1236
▁ᎢᏓᎴᏂᏙᎯ	-12.1236
▁ᎤᎾᎦᏔᏅᏎ	-12.1236
▁ᎤᎾᏕᎰᎯᏍᏗᏍᎩ	-12.1236
▁ᎤᏚᏓᏛᏗᏱ	-12.1236
▁ᎦᏁᏡᎩ	-12.1236
▁ᎨᎦᏎᏍᏗᏱ	-12.1236
▁ᎨᎪᏎᎯ	-12.1236
▁ᎨᏥᏱᏢᏗ	-12.1236
▁ᎬᏇᎸ	-12.1236
▁ᎬᏕᏘᏱᎩ	-12.1236
▁ᎬᏩᎦᏌᏯᏍᏕ	-12.1236
▁ᎯᏍᏓᏩᏕᎨᏍᏗ	-12.1236
▁ᎹᎵᎩᏏᏕᎩ	-12.1236
▁ᎾᏲᎱᏍᎬᎾ	-12.1236
▁ᏂᏛᏅᏁᎵ	-12.1236
▁ᏅᏓᏥᏅᏍᏗ	-12.1236
▁ᏓᏂᏂᎩᎸ	-12.1236
▁ᏓᏥᏲᎤᏏ	-12.1236
▁ᏕᏧᎪᏓᏁᎮᏍᏗ	-12.1236
▁ᏗᏂᎳᏫᏦᎯᎯ	-12.1236
▁ᏗᏂᏲᎱᏍᎩ	-12.1236
▁ᏗᏍᏔᏲᏍᏙᏗ	-12.1236
▁ᏙᏓᏣᏠᏏ	-12.1236
▁ᏙᏨᏁᏍᏗ	-12.1236
▁ᏙᏨᏅᎢ	-12.1236
▁ᏚᏂᎬᏨ	-12.1236
▁ᏚᏂᎭᏁᎦᎸ	-12.1236
▁ᏚᏍᏆᎸᏔᏅ	-12.1236
▁ᏚᏒᎦᎸᎩ	-12.1236
▁ᏣᎵᏍᏆᏗᏍᎪ	-12.1236
▁ᏤᏧᎪᏓᏁ	-12.1236
▁ᏥᏚᎴᏔᏁᎢ	-12.1236
▁ᏧᎾᏓᎩᏯᏍᏗ	-12.1236
▁ᏧᏂᏨᏍᏙᏗ	-12.1236
▁ᏧᏅᏏᏴ	-12.1236
▁ᏱᏪᏣᏓᎢᏅ	-12.1236
ᎴᏫᏍᏘᏍᎨ	-12.1236
ᏩᏌᏙᎭᏰ	-12.1236
▁ᎠᏂᎱᏥ	-12.1236
▁ᎠᏍᎦᏅᏤᎮᏍᏗ	-12.1236
▁ᎠᏑᏫᏍᏙᏗ	-12.1236
▁ᎠᏔᏍᎩᏍᎬ	-12.1236
▁ᎤᏍᏆᎸᎡᎴ	-12.1236
▁ᏂᏚᎵᏍᏔᏅᎩ	-12.1236
▁ᏓᏂᏐᏍᎬ	-12.1236
▁ᏗᎨᏍᎩᎲᏏ	-12.1236
▁ᏘᎣᎵ	-12.1236
▁ᏙᏓᎨᎦᎴᏔᏂ	-12.1236
▁ᏚᏂᏐᏈᎳᏁ	-12.1236
▁ᏧᏐᏱᎭ	-12.1236
ᎦᏒᎳᏍᎪ	-12.1236
ᎪᎬᏂᏍᏓ	-12.1236
ᏓᏍᏔᏴᎲᏍᎩ	-12.1236
ᏗᏫᏎᎸᎩ	-12.1236
ᏤᎳᏍᏗᏍᎬ	-12.1236
▁ᎠᎵᏒᎢᏍᏙᏗ	-12.1236
▁ᎠᏂᏫᏒᎥᏍᎩ	-12.1236
▁ᎠᏈᏴᏗ	-12.1236
▁ᎢᏣᏚᎸᏗᏱ	-12.1236
▁ᎢᏤᏲᏗᏱ	-12.1236
▁ᎤᎷᏦᏅᎯ	-12.1236
▁ᎤᎾᎪᎲᏍᏙᏗᏱ	-12.1236
▁ᎤᏄᎶᎸ	-12.1236
▁ᎤᏓᏰᎸᏙᏗ	-12.1236
▁ᎤᏗᏍᎦᏞᎢ	-12.1236
▁ᎤᏪᏩᏒᎢᏍᏗ	-12.1236
▁ᎦᎵᏬᎦ	-12.1236
▁ᏏᏴᏫᎭ	-12.1236
▁ᏓᏁᏙᎲᎩ	-12.1236
▁ᏓᏂᎾᏆ	-12.1236
▁ᏓᏗᏍᏆᏂᎪᏔᏂ	-12.1236
▁ᏕᏈᎬ	-12.1236
▁ᏗᏍᏇᏲᎲᏍᎩ	-12.1236
▁ᏚᏏᎳᏓ	-12.1236
▁ᏛᏃᎵᏥ	-12.1236
▁ᏥᎯᏃᏁᎵ	-12.1236
▁ᏥᏄᎵᏍᏔᏃ	-12.1236
▁ᏫᎧᎳ	-12.1236
▁ᏫᏥᎧᏅᎯ	-12.1236
▁ᏯᎩᏍᏛᏓ	-12.1236
▁ᏱᏍᎩᏲᎢᏳᎲᏍᎦ	-12.1236
▁ᏱᏦᎯᏳᎭ	-12.1236
▁ᏳᎬᏫᏳᎭ	-12.1236
▁ᎠᎦᏓᏓᎴᏔᏅᎯ	-12.1236
ᏓᏕᏘᏴᎮᎬ	-12.1236
ᏥᏍᎦᏅᏤᎲᎾ	-12.1236
▁ᎠᎵᏍᏕᎵᏍᎩᏃ	-12.1236
▁ᎠᏍᏆᎵᏒᎯ	-12.1236
▁ᎠᏟᏂᎬᏁᎯ	-12.1236
▁ᎠᏢᏈᏍᎨᏍᏗ	-12.1236
▁ᎢᎾᎯᎨᏍᏗ	-12.1236
▁ᎤᎾᏓᏅᏓᏗᏍᏗᏍᎩ	-12.1236
▁ᎤᎾᏰᏒᎯ	-12.1236
▁ᎮᏏᎶᏅ	-12.1236
▁ᏓᎩᏯᎬ	-12.1236
▁ᏗᎦᏆᏙᏗ	-12.1236
▁ᏗᎬᏅᏃᏛ	-12.1236
▁ᏙᏓᏥᏃᎩᏍᏔᏂ	-12.1236
▁ᏣᏕᎲᏍᎪ	-12.1236
▁ᏥᏳᎧᏗ	-12.1236
▁ᏩᏆᏘᏅᏍᏔᏅᎩ	-12.1236
▁ᏳᎨᏅᏛ	-12.1236
ᎦᎴᏍᏙᏗᎭ	-12.1236
ᏗᏚᎳᏫᎢᏍᏗᏱ	-12.1236
ᏚᎦᎴᏅᏔᏁ	-12.1236
ᏤᏬᏤ	-12.1236
▁ᎠᎵᏖᎸᏂᎮᎢ	-12.1236
▁ᏄᏲᎱᏒᎾ	-12.1236
▁ᏕᎯᎾᏄᎪᏫᏎᎸᎢ	-12.1236
▁ᏗᏃᏏᏏᏍᎩ	-12.1236
▁ᏗᏠᎯᏍᏔᏅᎯ	-12.1236
▁ᏙᏗᏫᏒᎢ	-12.1236
▁ᏚᏂᎳᎦᎸ	-12.1236
▁ᏧᎾᎵᏂᎦᏂ	-12.1236
▁ᏫᎬᏲᏪᎳᏁ	-12.1236
▁ᏯᎦᎵᏍᎨᎢ	-12.1236
▁ᏱᎨᎨᎭ	-12.1236
▁ᏳᏜᏅᏕ	-12.1236
ᎢᏗᎬᏤᎵᏛ	-12.1236
▁ᎠᎾᎵᏍᎪᎸᏗᏍᎩ	-12.1236
▁ᎡᏍᏗᏍᏓᏩᏕᏒᎭ	-12.1236
▁ᎡᏥᏃᏁᎸᎭ	-12.1236
▁ᎣᎩᏃᎮᏗᏱ	-12.1236
▁ᎤᎾᏄᎪᏫᏏᏕᎾ	-12.1236
▁ᏌᏬᏛ	-12.1236
▁ᏓᎾᎵᏃᎮᎵᏙᎲ	-12.1236
▁ᏓᏓᏳᎶᏒ	-12.1236
▁ᏧᎵᏰᏁ	-12.1236
▁ᏳᎦᏌᏯᏍᏔᏁ	-12.1236
▁ᏳᏫᏚᎧᎾᎾ	-12.1236
ᎾᎳᏍᏘᏰ	-12.1236
▁ᎠᏓᏲᏁᎲ	-12.1236
▁ᎢᏥᏃᏔᏂᏙ	-12.1236
▁ᎢᏲᏨᏴᏁᏗᏱ	-12.1236
▁ᎢᏳᎵᏍᏔᏁᏗ	-12.1236
▁ᎣᎦᏕᏗᏱ	-12.1236
▁ᎤᎪᏏᏛ	-12.1236
▁ᎤᏃᎵᏍᏗᏱ	-12.1236
▁ᎤᏌᏃᎲ	-12.1236
▁ᎤᏓᏑᏰᎢ	-12.1236
▁ᎬᏩᎦᏘᏗᏍᎩ	-12.1236
▁ᎬᏩᏍᏓᏩᏗᏐᎯ	-12.1236
▁ᎬᏩᏓᏡᏫᏍᏔᏁᎢ	-12.1236
▁ᎭᏇᏅᏍᏗ	-12.1236
▁ᏂᏓᎵᏍᏗᎭ	-12.1236
▁ᏕᎭᎷᎨᏍᏛᎭ	-12.1236
▁ᏚᎦᏔᏂᎸ	-12.1236
▁ᏧᏍᏚᎢᎡᎸᎯ	-12.1236
▁ᏫᎾᏴᎯ	-12.1236
▁ᏯᏍᏆᏂᎪᏗᎭ	-12.1236
▁ᏳᎦᏙᎥᏎᎢ	-12.1236
▁ᎠᏅᏳᏤᎲ	-12.1236
▁ᎦᎨᏗᏳ	-12.1236
▁ᎧᏴᏌᏛ	-12.1236
▁ᏓᏥᎵᏬᏥ	-12.1236
▁ᏥᏁᏣᏛᎩᏍᎪᎢ	-12.1236
▁ᏩᏂᎦᏛᎢ	-12.1236
▁ᏱᎦᏁᎸᏓ	-12.1236
ᎬᏫᏳᏎᏕᎩ	-12.1236
▁ᎠᏩᏂᎦᎳ	-12.1236
▁ᎡᏥᎾᏰᎢᏍᏗ	-12.1236
▁ᎢᎡᏥᎪᎵᏰ	-12.1236
▁ᎢᎩᏲᎱᎯᏎᎸ	-12.1236
▁ᎢᏥᏙᎵᏍᏗᏱ	-12.1236
▁ᎣᎦᏢᏆᏒ	-12.1236
▁ᎥᎩᏐᏅᎢᏍ	-12.1236
▁ᎧᏁᎮᏛ	-12.1236
▁ᏥᎾᎩᏪᏒᎩ	-12.1236
▁ᏥᏂᏕᎯᏪᏎᎸᎩ	-12.1236
▁ᏥᏍᏓᏩᏕᎦ	-12.1236
ita	-12.1236
ᏓᎦᏥᏍᏓᏱᏕᎵ	-12.1236
▁ᎠᏂᏲᎯᏍᏗᏍᎪ	-12.1236
▁ᎢᏥᏍᏛᏗᏍᎨᏍᏗ	-12.1236
▁ᎤᏪᏛᏨᎩ	-12.1236
▁ᎤᏱᎸᏒᎩ	-12.1236
▁ᎨᏥᏍᎦᏂ	-12.1236
▁ᎬᏩᎩᏨᏗ	-12.1236
▁ᎷᏫ	-12.1236
▁ᏌᎪᏗᏃ	-12.1236
▁ᏧᏭᏓᎴᏛ	-12.1236
ᎩᏲᎱᏏᏕᎾ	-12.1236
ᏳᎢᏂᏒ	-12.1236
▁ᎠᏑᏯᎩᏛ	-12.1236
▁ᎢᎫᏩᎾᏛᏁᏗ	-12.1236
▁ᎤᏍᏖᎸᏗ	-12.1236
▁ᎬᏩᏙᏢᏅᎯ	-12.1236
▁ᎾᏆᏓᏄᏴᏛᎾ	-12.1236
▁ᏓᏄᎪᏗᏍᎨᏍᏗ	-12.1236
▁ᏣᏁᎫᏥᏛ	-12.1236
▁ᏨᎩᏅᏒ	-12.1236
▁ᏂᏤᎵᏍᎬᎾ	-12.1236
▁ᏭᏔᎷ	-12.1236
ᎯᏰᎶᎸᎭ	-12.1236
ᎳᏐᏫᏍᏗ	-12.1236
ᎸᏥᎴ	-12.1236
ᏅᏍᏙᏍᎨᏍᏗ	-12.1236
ᏑᏯᎡᎸᎯ	-12.1236
ᏨᏓᏋ	-12.1236
▁ᎠᏥᏙᎵᏍᏗᏱ	-12.1236
▁ᎤᏅᏪᏓ	-12.1236
▁ᎭᏓᏳᎦ	-12.1236
▁ᏗᏠᏗ	-12.1236
▁ᏥᏙᏛᎩᎸᏫᏍᏓᏁᎵ	-12.1236
▁ᏧᏴᏣ	-12.1236
▁ᏩᏍᏖᏍᏗ	-12.1236
▁ᏫᏍᏗᎷᏨᎭ	-12.1236
▁ᏫᏱᏣᎧᎲᎦ	-12.1236
▁ᏭᏁᏙᎸᎯ	-12.1236
ᎬᎾᏘᏁᎯ	-12.1236
ᏯᏕᎥᏏ	-12.1236
▁ᎠᏓᏁᏤᎯ	-12.1236
▁ᎡᎦᏆ	-12.1236
▁ᎢᎦᏚᏓᎴᏍᏙᏗᏱ	-12.1236
▁ᎢᏨᎩᎵᏲᏤᎲ	-12.1236
▁ᎤᏢᏲᎵ	-12.1236
▁ᎭᏛᏅᎭ	-12.1236
▁ᎾᏆᎵᏍᏓᏁᎵᏙᎲᎢ	-12.1236
▁ᎾᏞᎬᏉ	-12.1236
▁ᏃᎩᎲᎾ	-12.1236
▁ᏍᏔᎵᎢ	-12.1236
▁ᏚᎳᏑᏞ	-12.1236
den	-12.1236
ᏠᏒᏒᎩ	-12.1236
▁ᎠᏆᏂᎩᏍᏗᏱ	-12.1236
▁ᎠᏕᏘᏱᏍᎬ	-12.1236
▁ᎧᎹᎹ	-12.1236
▁ᎬᏇᏓᏍᏗ	-12.1236
▁ᏐᏍᏗᏂ	-12.1236
▁ᏒᏍᎦᏉ	-12.1236
▁ᏓᎨᏥᏄᎪᏫᏒᎩ	-12.1236
▁ᏗᎦᏥᏰᏲᎲᏍᎩ	-12.1236
▁ᏥᎧᎳ	-12.1236
▁ᏥᏂᏌᏅᎩ	-12.1236
ᎩᏰᏲᏗ	-12.1236
ᎪᎢᏳᏁᎢ	-12.1236
▁ᎤᏣᏃᏛᎩ	-12.1236
▁ᏃᏣᏛᏁᎲ	-12.1236
▁ᏌᎻᎳᏃ	-12.1236
▁ᏕᎬᏩᎾᏍᏗᏍᎨᎢ	-12.1236
▁ᏕᎬᏩᏚᏫᏍ	-12.1236
▁ᏚᎾᏐᏓᎸ	-12.1236
▁ᏚᏩᏇᏅᏔᏅ	-12.1236
▁ᏥᎬᏲᏎᎸᎩ	-12.1236
▁ᏧᏍᏕᎸᏛ	-12.1236
▁ᏫᏗᏥᏃᎲᏏ	-12.1236
▁ᏦᏌᏯ	-12.1236
▁ᏱᏍᎩᎦᏔᎮᎢ	-12.1236
ᎦᏄᏓᏛ	-12.1236
ᎩᎾᏄᎪᏫᏎᏗ	-12.1236
ᏂᏏᎲᏍᎪ	-12.1236
▁ᎣᏣᏁᏦᎥᏍ	-12.1236
▁ᎬᏇᏅᏍᏗ	-12.1236
▁ᏕᎩᎾᏓᎨᏳᏒᎢ	-12.1236
▁ᏣᏓᏅᎦᎸᎲ	-12.1236
▁ᏥᏯᎵᏃᎮᏗᏍᎬᎢ	-12.1236
▁ᏧᏙᎨᏍᎩ	-12.1236
▁ᏭᎾᏌᎾᎩᏎ	-12.1236
▁ᏱᎦᎲᏍᎪ	-12.1236
▁ᏱᏄᎵᏍᏓᏁᎮ	-12.1236
▁ᏲᏍᏗᎦᏔᎭ	-12.1236
ᏩᏒᏙᎣᏎ	-12.1236
▁ᎠᎵᏍᏛᏧᏍᏗ	-12.1236
▁ᏁᏓᏂ	-12.1236
▁ᏄᎪᏒᎾ	-12.1236
ᎾᏙᎯᏳᎾᏁᏗ	-12.1236
ᏂᎨᎯᏙᎵ	-12.1236
ᏍᏆᏗᏍᎬᎾ	-12.1236
▁ᎠᏂᎵᏇ	-12.1236
▁ᎠᏥᏴᏔᏅᎯ	-12.1236
▁ᎤᏓᏦᏍᏗ	-12.1236
▁ᏌᎨᎢᏳ	-12.1236
▁ᏗᎨᏥᏴᎩᏅᎯ	-12.1236
▁ᏗᎩᎾᏢᏗᏱ	-12.1236
▁ᏗᎾᏓᏅᏫᏍᎩ	-12.1236
▁ᏫᏔᎧᏅᎦ	-12.1236
ᏂᏴᎡᎴ	-12.1236
ᏉᏪᎳᎾ	-12.1236
▁ᎤᏂᏩᏒᎥᏍᎩ	-12.1236
▁ᎦᏃᏟᏍᏗᏍᎨᏍᏗ	-12.1236
▁ᎭᏓᏯᏫᏍᎨᏍᏗ	-12.1236
▁ᏕᎰᏢᏔᏅᎭ	-12.1236
▁ᏕᎱᏓᏔᏅᎭ	-12.1236
▁ᏧᏮᏗ	-12.1236
ᎪᏪᎶ	-12.1236
ᏑᎴᎥᎯ	-12.1236
ᏦᏪᎵᏍ	-12.1236
ᏨᏏᏰᏍᎬ	-12.1236
▁ᎤᏍᎫᏓᏛᎢ	-12.1236
▁ᏂᏥᎦᏔᎿᎥᎾ	-12.1236
▁ᏂᏥᏂᎬᏎᎲᎾ	-12.1236
▁ᏗᏑᏫᏍᏗ	-12.1236
▁ᏚᏔᏪᏙᏁ	-12.1236
▁ᏧᏘᏲᏍᏗ	-12.1236
▁ᏳᏓᏑᏰ	-12.1236
ᎩᎾᏄᎪᏥᎸᎩ	-12.1236
ᏁᎩᏰᏍᏗ	-12.1236
▁ᎠᎾᏓᏙᎵᏍᏓᏁᎲ	-12.1236
▁ᎤᏂᎩᏌᏓ	-12.1236
▁ᎯᏁᏥᏱ	-12.1236
▁ᏅᏗᎠᏥᏪᏎ	-12.1236
▁ᏧᏃᎸᏔᏂᏙᎰ	-12.1236
▁ᏱᎬᏩᏲᎱᏎ	-12.1236
▁ᏱᏍᎩᎧᏁᎸ	-12.1236
ᏫᏍᏔᏁᎲ	-12.1236
▁ᎠᏂᏗᏢᏉ	-12.1236
▁ᎠᏆᏍᎪᏒᎯ	-12.1236
▁ᏧᎦᏔᏘ	-12.1236
▁ᏯᎦᏍᎬᎾ	-12.1236
▁ᎠᏓᎿᏍᏆᎶᏍᏗᏍᎩ	-12.1236
▁ᎤᏍᏆᏄᏤ	-12.1236
▁ᎦᏝᏛ	-12.1236
▁ᎻᏈᏌ	-12.1236
▁ᏙᏓᏰᏥᏲᏏ	-12.1236
▁ᏚᎾᏓᏟᏴᎲ	-12.1236
▁ᏧᎵᏯᏏ	-12.1236
▁ᏯᏆᎴᏂᏙᎸ	-12.1236
ᏂᏃᎩᏍᏗᏍᎬ	-12.1236
▁ᏅᏓᎦᏪᏏ	-12.1236
▁ᏥᏂᏨᏪᏏ	-12.1236
▁ᏦᎩᏂᎸᏫᏍᏓᏁᎯ	-12.1236
▁ᏳᏂᏗᏍᎩᏌ	-12.1236
ᏂᎭᎷᎥᏍ	-12.1236
▁ᎠᎩᎵᏴ	-12.1236
▁ᏂᏗᎪᏪᎸᎾ	-12.1236
▁ᏄᏍᏆᎸᎲᎾ	-12.1236
▁ᏗᏓᎢᏒᎢ	-12.1236
▁ᏮᏓᏥᎷᏤᎵ	-12.1236
▁ᏱᏓᏲᎩᏍᏆᏂᎪᏔᏂ	-12.1236
▁ᎣᏍᏗᏴᎩ	-12.1236
▁ᏗᎦᏯᎩᏍᏗ	-12.1236
▁ᎠᏂᏍᏙᏍᎨᏍᏗ	-12.1236
▁ᎢᏓᏓᏅᏓᏓ	-12.1236
▁ᎤᏂᏁᏉᏨᎯ	-12.1236
▁ᏑᏥᎶᏓ	-12.1236
▁ᏥᏓᏂᏰᎲᎩ	-12.1236
▁ᏥᏓᏓᏬᏍᎬᎩ	-12.1236
▁ᎤᎦᏙᏍᏔᏁᎢ	-12.1236
▁ᎤᎭᎨᏓ	-12.1236
▁ᏂᎨᎬᏁᎮ	-12.1236
ᏓᏅᎦᎸᎾ	-12.1236
▁ᎤᎾᎵᎮᎵᏨᎯ	-12.1236
▁ᎯᏯᎵᏍᎪᎸᏓᏁᎮᏍᏗ	-12.1236
▁ᏄᏬᎯᏨ	-12.1236
▁ᏦᎩᎸᏫᏍᏓᏁᎸᎯ	-12.1236
▁ᏯᎩᏲᏏᎭ	-12.1236
▁ᏱᏗᏓᏓᏂᎸᎦ	-12.1236
ᎧᎾᏬᎨ	-12.1236
▁ᎠᏲᏓᏒ	-12.1236
▁ᎤᎪᏐᏅ	-12.1236
▁ᎾᏏᎩᏯ	-12.1236
▁ᏚᏓᏅᎵᏰᎥ	-12.1236
▁ᏯᏃᎵᎨ	-12.1236
▁ᏳᏛᎦᎾ	-12.1236
▁ᏕᎦᏟᎶᏍᏗᏍᎬ	-12.1236
ᎭᎷᏁ	-12.1236
ᏋᎭᏂᏍᏔᏅ	-12.1236
▁ᎠᏍᎡᏃ	-12.1236
▁ᎢᏯᏟᎶᎥᎯ	-12.1236
▁ᎣᎦᏅᏗᏱ	-12.1236
▁ᎤᎵᎩᏳᏍ	-12.1236
▁ᎤᎶᏐᏂᏗ	-12.1236
▁ᎤᏄᏬᎯᏍᏗᏱ	-12.1236
▁ᎤᏍᏚᏔᏁᎢ	-12.1236
▁ᎭᏓᏬᏣ	-12.1236
▁ᏖᏲᎲᏍᎩ	-12.1236
▁ᏥᎦᎶᏒᏍᏗᎭ	-12.1236
▁ᏱᏄᎵᏍᏓᏁᎸ	-12.1236
▁ᎠᏆᏓᏅᏔᏩᏕᎬ	-12.1236
▁ᏣᏓᎨᏳᏒ	-12.1236
▁ᏫᏨᏲᎵᎦ	-12.1236
▁ᏱᏂᏙᎬᏩᏳᎪᏗ	-12.1236
ps	-12.1236
ᎾᏘᏃᎮᎸᎭ	-12.1236
ᏓᏅᎵᏰᎠ	-12.1236
ᏔᏕᎦᏅᎩ	-12.1236
ᏚᎾᏟᏯᏛ	-12.1236
▁ᏗᏦᏑᎵ	-12.1236
▁ᏣᏦᏔᏍᏔᏅ	-12.1236
▁ᏥᏕᏣᏓᏂᎸᏨ	-12.1236
ᏕᏯᏙᏔᏂ	-12.1236
▁ᏅᏓᏣᏄᎪᏫᏒᎯ	-12.1236
▁ᏓᏤᎴᏍᏗ	-12.1236
▁ᏭᏓᎩᏅᏒ	-12.1236
ᎨᎪᏪᎶᏔᏅᎯ	-12.1236
▁ᎤᏁᎳᏗᏙᎲ	-12.1236
▁ᏓᏂᎪᏩᏗᏍᎨ	-12.1236
▁ᎤᏰᎸᏕᏍᏗ	-12.1236
▁ᏄᏒᎴᎢ	-12.1236
▁ᏓᏂᎩᏍᎨᎢ	-12.1236
▁ᏗᏥᏃᏍᎦᎸᏛ	-12.1236
▁ᏚᏁᏲᏁ	-12.1236
▁ᏚᏴᏒᎩ	-12.1236
▁ᎠᏑᏰᏓ	-12.1237
▁ᎤᏘᏍᏛᎢ	-12.1237
▁ᏗᎬᏩᎾᏚᎪᏓᏁᏗ	-12.1237
▁ᏧᏃᏴᎪ	-12.1237
▁ᏗᏔᎸᎢ	-12.1237
ᏚᎾᏓᏩᏛᏔᏁᎢ	-12.1237
▁ᎠᏓᏙᎵᏍᏗᏍᎨᎢ	-12.1237
▁ᎤᎦᎶᎬ	-12.1237
▁ᎥᎶᏱ	-12.1237
▁ᏂᏨᏯᏛᏁᎸ	-12.1237
ᎳᏑᏠ	-12.1237
ᎵᎦᏲᏙᏗ	-12.1237
ᏄᎶᎴᎢ	-12.1237
ᏩᏍᎦᎳᏁ	-12.1237
▁ᎠᏆᏍᏗᎧᏂ	-12.1237
▁ᎤᏍᏆᏔ	-12.1237
▁ᏏᏂᎹᏂ	-12.1237
▁ᏓᎬᎾᏄᎪᏫᏎᎵ	-12.1237
▁ᏗᎩᎷᏫᏍᏔᏁᏗ	-12.1237
▁ᏫᏓᏂᏅᎨᎢ	-12.1237
ᏟᎶᏍᏓᏁᎭ	-12.1237
▁ᎤᎾᎦᏎᏍᏛ	-12.1237
▁ᎤᏴᏜ	-12.1237
▁ᎠᏂᎸᏉᏗᏍᎬ	-12.1237
▁ᏁᏥᎳᏫᏎᎲᎾ	-12.1237
▁ᎢᎬᏩᏍᏗᏰᏔᏁ	-12.1237
ᏍᎩᎧᏁᎸᎩ	-12.1237
ᏗᏫᏍᏗᏱ	-12.1237
▁ᎠᏗᏅᏗᏉ	-12.1237
▁ᎢᏥᎩᏒᎭ	-12.1237
▁ᎣᏣᎵᏍᏔᏴᎲᏍᎬ	-12.1237
▁ᎤᏄᏴᏕ	-12.1237
▁ᎤᏫᏒᏁᎢ	-12.1237
▁ᎬᏛᏍᎨᏍᏗ	-12.1237
▁ᏓᏥᏔᏲᏎᎵ	-12.1237
▁ᏗᎬᏩᏕᏲᏗ	-12.1237
▁ᏥᏕᏥᏙᎦ	-12.1237
▁ᏦᎩᏲᎱᎯᏍᏗᏱ	-12.1237
ᏚᏓᏍᏔᏅᏅ	-12.1237
ᏚᏔᎲᎢ	-12.1237
▁ᎰᎤᎬᏫᏳᎭ	-12.1237
▁ᏫᏰᏣᏓᎢ	-12.1237
ᏓᎦᏕᎶᎣᏏ	-12.1237
▁ᎡᏐᏏ	-12.1237
▁ᏗᏍᏛᏗᏍᏗᏍᎩ	-12.1237
▁ᏩᏂᎶᏒᎭ	-12.1237
▁ᏬᏤᎶᏏ	-12.1237
ᏄᏬᎯᏍᏔᏂ	-12.1237
▁ᎤᏛᏅᎢᏍᏕ	-12.1237
▁ᏗᎨᏍᎩᎥᏏᏉ	-12.1237
▁ᎠᏂᎫᏌ	-12.1237
▁ᎣᏣᎵᏥᏙᎲᏍᎬ	-12.1237
▁ᏓᎦᏥᏄᎪᏫᏏ	-12.1237
▁ᏕᎩᎾᏦᏒ	-12.1237
▁ᏗᏒᎾᏔᏅ	-12.1237
▁ᏣᏥᏰᎸᎾᏁᎴᎢ	-12.1237
▁ᏂᏕᎤᏍᏛᎩ	-12.1237
▁ᏛᏥᎸᏉᏔᏂ	-12.1237
▁ᏧᏍᎩᏃᎢ	-12.1237
▁ᏨᏛᏛᏔᏂ	-12.1237
ᎵᎦᎵᏴᏒ	-12.1237
ᏚᏂᏍᏔᏲᎳ	-12.1237
▁ᏍᎩᏯᎵᎡᎵᏍ	-12.1237
▁ᏥᏫᏨᏲᏪᎳᏁ	-12.1237
▁ᏧᏪᏲᏔ	-12.1237
▁ᏲᏢᎾᏏ	-12.1237
▁ᏄᎾᏓᏄᏴᏛᎾ	-12.1237
▁ᏅᏗᎦᏍᏙᏗᏍᎨ	-12.1237
ᎾᏩᎩᏍᎬ	-12.1237
▁ᏂᏓᏰᏙᎳᏛ	-12.1237
ᎾᏎᎵᏙᎲ	-12.1237
▁ᎤᏓᏦᎲ	-12.1237
▁ᏕᎬᏩᏓᏂᎸᏨᎩ	-12.1237
▁ᏓᏓᏌᎳᏗᏍ	-12.1237
▁ᏕᎯᎬᏍᎪᎸᎥᏍᎨᏍᏗ	-12.1237
▁ᏳᏂᎷᏤᎮ	-12.1237
▁ᎤᎬᎭᏓ	-12.1237
▁ᎠᏍᎪᎵᏰᏍᎨ	-12.1237
▁ᎤᎦᎾᏅ	-12.1237
▁ᎦᏰᎪᏎᏗ	-12.1237
▁ᏱᏓᏆᏁ	-12.1237
▁ᏳᏚᏓᎴᏍᏔᏁ	-12.1237
▁ᎠᎵᏌᎳᏛᎦ	-12.1237
▁ᏐᎣᏁᎳᏦᏁ	-12.1237
ᏍᎩᎾᏛᏂᏏ	-12.1237
▁ᎡᏂᎤ	-12.1237
▁ᏕᎤᏬᎡᎢ	-12.1237
▁ᏗᎾᎦᎴᏅᏗᏍᎩ	-12.1237
▁ᏥᏕᎦᎶᏄᎮ	-12.1237
▁ᏥᏰᎸᏍᎦ	-12.1237
▁ᏧᏕᏁᎢ	-12.1237
ᎨᏲᎲᏍᎦ	-12.1237
▁ᎦᏲᎩᏐᏢ	-12.1237
▁ᎨᎦᎨᏅᏴ	-12.1237
▁ᎹᏓᏯᏃ	-12.1237
▁ᏓᎾᎪᎲᏍᏗᏍᎨ	-12.1237
▁ᎤᎾᎴᎾᏫᏍ	-12.1237
▁ᏓᎾᏏᏔᏗᏍ	-12.1237
▁ᏕᎩᏂᏴᏎᏍᏗ	-12.1237
▁ᏚᏪᏌᏍᏔᏁ	-12.1237
▁ᏱᏙᎸᏫᏍᏓᏁᎭ	-12.1237
ᏃᎮᎵᏙᎲ	-12.1237
▁ᏣᎾᏛᎩᏍᎪ	-12.1237
ᏣᎵᏂᎪᎯᏍᏔᏂ	-12.1237
▁ᎠᏒᏨ	-12.1237
▁ᎤᎩᎵᏲᏤᎢ	-12.1237
▁ᎩᏯᏅᏓᏓ	-12.1237
▁ᏫᎬᏩᏘᏅᏍᏔᏅᎩ	-12.1237
▁ᏫᏗᎦᏅᎪ	-12.1237
▁ᎠᏍᏚᏟᏍᎩ	-12.1237
▁ᏅᏓᎬᏩᏪᏎᎵ	-12.1237
ᏓᏓᎴᏗᏍᎩ	-12.1237
▁ᎤᎾᎦᏎᏍᏕᎢ	-12.1237
▁ᎤᏣᏅᏕᎢ	-12.1237
▁ᎹᎩᏈᎳ	-12.1237
ᎵᏍᏕᎸᏙᏔᎾ	-12.1237
▁ᎤᎭᏲᎴ	-12.1237
▁ᎨᎶᎸᏗ	-12.1237
▁ᏒᎯᏰᏣ	-12.1237
▁ᏦᎦᏓᏂᎸᎢᏍᏗᏱ	-12.1237
▁ᎢᏤᏙᎯᏉ	-12.1237
▁ᎠᏂᏉᎵᏏ	-12.1237
▁ᏗᎦᎷᏫᏍᏔᏅᏗ	-12.1237
ᎦᎴᏅᏔᏂ	-12.1237
ᎵᏰᎡ	-12.1237
▁ᏩᎩᏴᏏ	-12.1237
▁ᎬᏩᏂᏁᎢᏍᏗ	-12.1237
▁ᏧᏔᏂᏛ	-12.1237
▁ᏫᏗᎦᎾᏄᎪᏩ	-12.1237
▁ᏓᏇᎷᎬ	-12.1237
ᏰᏲᏂ	-12.1237
▁ᎦᏲᎦᏙᎴᎰᎯᏍᏗ	-12.1237
▁ᎣᏣᏂᎩᏍᎬ	-12.1237
▁ᏗᎫᏢᏔᏅᎯ	-12.1237
ᏑᎦᎸᏙᏗ	-12.1237
▁ᎡᏥᏔᏲᏎᎮᏍᏗ	-12.1237
▁ᎬᏩᏕᎰᏔᏁᎢ	-12.1237
▁ᏂᏚᏁᎶᏛᎾ	-12.1237
▁ᏯᏆᏘᏝ	-12.1237
ᏏᎾᏏᏳ	-12.1237
▁ᏧᏓᎴᎾᎢ	-12.1237
▁ᎤᏬᏪᎶᏗ	-12.1237
▁ᎤᏮᏗ	-12.1237
ᏐᏢᎢᏍᏔᏁᎢ	-12.1237
▁ᎠᎫᎷᏤᏗ	-12.1237
▁ᎡᏣᎫᏴᏔᏅᎯ	-12.1237
▁ᎤᎶᎨᏛ	-12.1237
▁ᎤᏕᎯᏴ	-12.1237
▁ᎨᏣᏕᏯᏙᏗᏍᎩ	-12.1237
ᏄᏩᏂᏌᏁ	-12.1237
▁ᎠᎪᎲᏍᏙᏗᏱ	-12.1237
▁ᎤᏃᎱᏲᎵ	-12.1237
▁ᎥᏓᏗᏍᏕᎸᏗ	-12.1237
▁ᎬᎾᏍᏔ	-12.1237
▁ᎢᏳᏪᏅᏍᏘ	-12.1237
▁ᏅᏛᏅᏂᏌᏂ	-12.1237
▁ᏑᏕᏘᏴᏓ	-12.1237
▁ᏚᏅᏂᎦᎸᎲᎩ	-12.1237
▁ᏫᎫᏩᏂᎶᎯᏍᏗ	-12.1237
ᏰᏅᎡᎵ	-12.1237
ᏲᎮᏎᏗ	-12.1237
▁ᎢᏰᏣᏛᏁᏗ	-12.1237
▁ᏗᏍᏛᎬ	-12.1237
▁ᏫᏥᎾᏄᎪᎢᏍᏗᏱ	-12.1237
▁ᏗᏓᏚᏓᎳᎡᏗᏱ	-12.1237
▁ᎤᏔᎶᎩ	-12.1237
▁ᏂᏗᏍᎦᏅᎾ	-12.1237
▁ᏓᏢᎥᏍᎬ	-12.1237
▁ᏤᏥᎤᏍᏕᏎᎸᎯ	-12.1237
ᎵᏂᎬᏁᎭ	-12.1237
ᏊᎪᏓᏁᎸ	-12.1237
▁ᎡᎩᏁᏗᏱ	-12.1237
▁ᎤᏓᎾᏛᎢ	-12.1237
▁ᏓᎬᏁᏉᎢ	-12.1237
▁ᏗᏥᏌᎳᏛᎦ	-12.1237
ᎴᏲᎡᎸ	-12.1237
ᏢᏈᏍᏙᏗ	-12.1237
ᏯᎶᏘ	-12.1237
▁ᏗᏂᏅᏍᎨᏂ	-12.1237
▁ᏙᎩᎸᏫᏍᏓᏁᎸ	-12.1237
ᏨᏇᏍᎨ	-12.1237
▁ᏗᎾᏘᏂᏙᎯ	-12.1237
▁ᏚᏂᎵᏰᏗᏍᎬ	-12.1237
▁ᏧᏬᏚᏨ	-12.1237
▁ᏕᏥᎦᏌᏬᎢᎲᎢ	-12.1237
▁ᏚᏯᏅᎡᎴᎢ	-12.1237
▁ᎡᏧᎢᏍᏗ	-12.1237
▁ᏧᏛᏙᏗᏱ	-12.1237
▁ᏧᏭᎪᏓᏁᎯ	-12.1237
ᎾᎯᏍᏗᎭ	-12.1237
ᏂᎪᏁᎶᏍᎨᎢ	-12.1237
ᏣᎧᎾᏩᏗ	-12.1237
▁ᎡᎾᎢᏓᏍᏗᏱ	-12.1237
▁ᎯᏁᎨᏍᏗ	-12.1237
▁ᏄᎵᏂᎬᎦ	-12.1237
▁ᏗᎴᏁᎯ	-12.1237
▁ᏗᏛᏙᏗᏱ	-12.1237
▁ᏣᎦᎨᏅ	-12.1237
▁ᏧᏪᏟᏐᏗᏱ	-12.1237
ᏃᎮᎵᏙᎴ	-12.1237
▁ᎤᎾᏘᏰᎸᎯ	-12.1237
ᎫᏴᎯᏓᏍᏗ	-12.1237
▁ᏃᏤᎲᎾ	-12.1237
▁ᏍᎪᏂᏴ	-12.1237
ᏥᎶᏄᎡᎸ	-12.1237
▁ᎢᏣᏢᏆᏍᎬ	-12.1237
▁ᎤᏧᏗᎭ	-12.1237
▁ᏱᏗᏥᏬᏂᎭ	-12.1237
ᏃᎡᏔᏅ	-12.1237
▁ᎤᏪᎾᏪ	-12.1237
▁ᏥᏲᎵᎩ	-12.1237
ᏗᏁᎸᏙᏗ	-12.1237
▁ᎤᏪᏩᏒᏤ	-12.1237
▁ᏥᏯᎵᎡᎵᏤᎰ	-12.1237
▁ᏱᏅᏩᏍᏕ	-12.1237
ᏖᎸᎲᏍᎨ	-12.1237
▁ᏂᎦᏳᎪᏛᎾ	-12.1237
▁ᏴᎬᏓᏛᎦ	-12.1237
▁ᎪᏚᎢᏍᏛ	-12.1237
▁ᏰᏣᏛᏓ	-12.1237
ᎾᎵᏍᎪᎸᏗᏍᎨᎢ	-12.1237
ᎾᏢᏆ	-12.1237
▁ᏛᏂᏍᏗᏍᎩ	-12.1237
▁ᏴᏛᏂᎶᏐᏂ	-12.1237
▁ᎠᎩᏯᎣᏅ	-12.1237
▁ᎠᎾᏘᏲᎯᎲ	-12.1237
▁ᎤᏭᏌᎥ	-12.1237
▁ᏗᏍᎩᎾᏝᎢ	-12.1237
▁ᎠᏨᏏᏰᏍᎨ	-12.1237
▁ᎣᎦᏚᏓᏕᏫᏒ	-12.1237
▁ᏚᏓᎴᏅᏔᏅ	-12.1237
▁ᏪᏥᎷᏥᏏ	-12.1237
▁ᏱᎾᏆᎵᏍᏔᏁ	-12.1237
▁ᏪᏣᏚᎦ	-12.1237
ᎵᏍᏓᏱᏗᏍᏗ	-12.1237
ᏥᏢᎡᎵ	-12.1237
▁ᎠᎾᏓᏎᎪᎩᏍᎬᎩ	-12.1237
ᏅᎪᏣ	-12.1237
▁ᎠᎦᏠᏯᏍᏔᏅᎩ	-12.1237
▁ᎠᎾᏅᎥᏍᎨᏍᏗ	-12.1237
▁ᏙᏛᏕᏯᏙᏔᏂ	-12.1237
ᎩᎦᎷᏴ	-12.1237
▁ᎬᏩᏜᏫᏍᏗ	-12.1237
▁ᏗᎦᏃᏣᏢ	-12.1237
▁ᏚᏍᏓᏩᏛᏎ	-12.1237
ᏨᎿᏗ	-12.1237
▁ᎠᎾᏓᏛᏍᎬᎢ	-12.1237
▁ᎤᏲᏞᏒᎢ	-12.1237
▁ᏫᏘᏯᏅ	-12.1237
▁ᏧᏪᏚᏁᎯ	-12.1237
▁ᏭᎾᎦᏖ	-12.1237
ᎩᏲᎱᏎᎵ	-12.1237
ᏧᏘᏍᏓᏁᏗᏱ	-12.1237
ᏬᏢᎾᏁᎸᎩ	-12.1237
▁ᎠᏂᏒᎨ	-12.1237
▁ᏧᎵᏃᎯᏴᎯ	-12.1237
▁ᏫᎬᏯᏅᎲᎭ	-12.1237
▁ᏏᏱᏆ	-12.1237
▁ᏕᏨᏯᏬᏍᏗᎭ	-12.1237
▁ᏗᏃᏯᏗ	-12.1237
ᏍᏔᏩᏗᏎ	-12.1237
ᏑᎵᎪᏥ	-12.1237
▁ᎠᏔᎸᎦᏒ	-12.1237
▁ᎢᏧᎵᏍᏙᏗᏱ	-12.1237
▁ᏓᎬᏯᏛᏁᎵ	-12.1237
▁ᏓᏂᎶᏒᎭ	-12.1237
▁ᏕᏣᏓᎦᎵᏍᏓᏗᏍ	-12.1237
▁ᏯᏅᏗᎭ	-12.1237
oston	-12.1237
ᏚᎢᏍᏗᏍᎪ	-12.1237
ᏯᏠᏍᏔᏅᎭ	-12.1237
ᏴᏍᏔᎩᏍᏗ	-12.1237
▁ᎫᎭᏢ	-12.1237
▁ᎦᏯᎪᎦ	-12.1237
▁ᏕᎦᏓᏬᏍᏗᎭ	-12.1237
▁ᏰᏥᎦᏔᎮ	-12.1237
▁ᎢᏳᏩᏓᏗ	-12.1237
▁ᏗᏥᎳᏫᎢᏍᏗᏱ	-12.1237
▁ᏣᏉᏪᎳᏅ	-12.1237
▁ᏧᏚᎪᏙᏗ	-12.1237
ᏂᏉᏘ	-12.1237
▁ᏯᏆᎴᏫᏍᏔᎾ	-12.1237
▁ᎢᎦᏕᏗᏱ	-12.1237
▁ᏦᏨᏃᏛ	-12.1237
ᏁᏟᏴᏍᏓ	-12.1237
▁ᏱᎦᎳᏍᏢ	-12.1237
▁ᏳᎯᏐᏓᏁ	-12.1237
▁ᏭᏭᏍᏔᏁ	-12.1237
▁ᏳᏩᎾᏔ	-12.1237
▁ᎦᎦᎶᎢ	-12.1237
▁ᏫᎦᏥᎷᏤᎸ	-12.1237
▁ᎤᏓᏅᏓᏛᎢ	-12.1238
▁ᏳᎾᏓᏅᏔ	-12.1238
ᎳᏫᎡ	-12.1238
▁ᎣᎩᎦᏛᏂᏙᎯᏉ	-12.1238
▁ᎷᏏᏯ	-12.1238
▁ᏗᎦᎷᏥᏒ	-12.1238
▁ᏩᏂᏌᏙᏯ	-12.1238
ᏃᏨᏁᎭ	-12.1238
▁ᎤᏉᏌᏁ	-12.1238
▁ᏚᏃᎥᎩ	-12.1238
▁ᎬᏆᏕᏯᏙᏗ	-12.1238
▁ᏁᏣᏁᎸᎾ	-12.1238
▁ᏗᎬᏩᏂᏲᎱᎯᏎᎸᎯ	-12.1238
▁ᏥᏄᎾᏓᎴ	-12.1238
ᎦᎾᏏᏅᏍᏗ	-12.1238
ᏆᏁᏦᏅ	-12.1238
▁ᎣᎨᎵᏒ	-12.1238
▁ᏂᏨᏪᏎᎲ	-12.1238
▁ᏗᏓᏱᎵᏓᏍᏗᏱ	-12.1238
ᏩᏍᎦᎸᏁᎢ	-12.1238
▁ᏚᏳᎯᏛ	-12.1238
▁ᎾᏱᏍᎬᎾ	-12.1238
▁ᏗᎨᎦᎦᏅᏗ	-12.1238
ᎯᏯᎦᏎᏍᏕᏍᏗ	-12.1238
▁ᏃᎦᎵᏍᏔᏅ	-12.1238
▁ᏗᎬᏩᏂᏲᎱᎯᏍᏗ	-12.1238
▁ᎠᏂᏯᏫᏍᎬ	-12.1238
▁ᎨᏣᏈᏗ	-12.1238
▁ᎬᏩᏂᎷᏤᎸᎩ	-12.1238
▁ᏍᎩᎨᏳᎮᏍᏗ	-12.1238
▁ᏱᏅᎬᏛᎦ	-12.1238
▁ᎤᏓᎵᏗᎩᎡᎸ	-12.1238
▁ᏂᏣᏛᎩᏍᎬᎾ	-12.1238
▁ᏱᎨᎵᏍᎨ	-12.1238
ᎨᏦᏎᎰ	-12.1238
▁ᎨᏣᏔᏲᏎ	-12.1238
ᎬᏯᎧᏁᎵ	-12.1238
▁ᎢᏨᏰᎳᏗᏙᎮᏍᏗ	-12.1238
▁ᎤᏓᏠᏍᏔᏅᎩ	-12.1238
▁ᎪᎯᏳᎲᏍᎬ	-12.1238
▁ᎿᏛᏁᎮᏍᏗ	-12.1238
▁ᏗᏍᏆᎧ	-12.1238
▁ᎦᏂᎵᏳ	-12.1238
▁ᎦᏥᎨᎯᏓᏍᏗ	-12.1238
ᏲᎢᏎᎮᏍᏗ	-12.1238
▁ᎦᏂᏍᏚᎩ	-12.1238
▁ᎬᏉᏎᎮᏍᏗ	-12.1238
▁ᏕᏥᎦᏘᎸ	-12.1238
▁ᏗᎬᏩᎶᏒᎯ	-12.1238
▁ᏛᎪᎲᏍᏔᏂ	-12.1238
▁ᏱᏨᏃᏁᎴᎢ	-12.1238
ᏙᏩᏗᏍᎬ	-12.1238
▁ᎠᎾᏠᎾᏍᏗᏍᎬ	-12.1238
▁ᎤᏤᎸᎲ	-12.1238
▁ᎩᏃᎯᏳᏅ	-12.1238
▁ᏕᎤᎸᏫᏍᏓᏏ	-12.1238
▁ᎢᏧᏩᏁᎸᎯ	-12.1238
▁ᏓᏆᏠᎯᏍᏛᎢ	-12.1238
▁ᏥᏂᎨᏐ	-12.1238
▁ᎠᏛᏲᎱᏏ	-12.1238
▁ᏯᏂᏬᏂ	-12.1238
▁ᏱᏣᏤᎸᎮᏍᏗ	-12.1238
ᎩᏂᏴᏒ	-12.1238
▁ᏠᏗᏯ	-12.1238
▁ᏕᎨᏥᏲᎯᏏ	-12.1238
▁ᏭᏂᏌᏕ	-12.1238
ᏑᎴᎥᎾ	-12.1238
▁ᏄᎾᏚᎵᏍᎬᎾ	-12.1238
ᎵᏥᏙᎲᎦ	-12.1238
▁ᎦᏥᏲᏎᎸ	-12.1238
▁ᏛᎤᏨᏒᎩ	-12.1238
▁ᏟᏍᏆ	-12.1238
ᏥᎵᎥᏂᎮᏍᏗ	-12.1238
▁ᏥᏓᎦᏘᎴᎦ	-12.1238
ᎵᏐᏍᏔᏅ	-12.1238
▁ᏓᏘᏁᎮᎢ	-12.1238
▁ᏓᏰᏥᏄᎪᏫᏏ	-12.1238
▁ᏚᎷᏫᏍᏔᏁᎸ	-12.1238
ᏦᏪᎳᏁᎸ	-12.1238
▁ᎤᏄᏘ	-12.1238
tin	-12.1238
▁ᏚᎧᎿᏂᏙᎸ	-12.1238
▁ᏛᎾᏓᏅᏓᏗ	-12.1238
▁ᏫᎦᏓᎥ	-12.1238
ᏯᎵᏙᎴ	-12.1238
[...]
