<unk>	0
<s>	0
</s>	0
,	-2.70865
▁the	-2.9516
▁and	-3.30137
.	-3.3796
▁of	-3.63547
▁to	-4.13538
▁that	-4.29955
▁in	-4.34002
▁And	-4.37761
▁he	-4.394
▁a	-4.41423
▁I	-4.60195
;	-4.69768
:	-4.74856
▁unto	-4.75484
▁him	-4.84807
s	-4.84981
▁his	-4.85475
▁is	-4.9388
▁for	-4.96341
▁they	-4.99013
▁not	-5.00013
▁it	-5.00591
▁was	-5.05014
▁be	-5.05788
▁with	-5.06553
▁them	-5.12393
▁said	-5.18813
▁shall	-5.19446
▁all	-5.3904
▁you	-5.3935
▁God	-5.45892
▁me	-5.47088
▁	-5.48044
▁ye	-5.51612
▁as	-5.52786
’	-5.59857
▁from	-5.61035
▁thou	-5.6148
▁my	-5.68485
?	-5.70983
▁but	-5.73705
▁have	-5.73912
▁on	-5.7496
▁were	-5.76515
▁are	-5.76559
▁Lord	-5.80046
▁had	-5.80773
▁which	-5.8113
▁when	-5.84518
▁“	-5.86324
▁their	-5.87184
▁we	-5.89135
▁man	-5.90322
▁one	-5.90622
▁will	-5.93353
▁out	-5.93725
▁this	-5.94985
▁up	-6.00255
▁by	-6.01345
▁into	-6.02136
▁thy	-6.02993
▁thee	-6.04178
▁there	-6.04801
ed	-6.05753
▁But	-6.1095
▁came	-6.14286
▁s	-6.15147
▁The	-6.15157
▁Jesus	-6.15938
▁her	-6.18039
▁at	-6.20057
ing	-6.21622
▁things	-6.23827
▁also	-6.26894
▁upon	-6.28978
▁your	-6.29209
▁us	-6.29999
▁no	-6.30905
▁come	-6.32199
▁For	-6.34466
t	-6.36507
▁she	-6.36985
▁who	-6.36991
▁if	-6.42161
▁hath	-6.43002
▁so	-6.43638
▁He	-6.43647
▁do	-6.44948
▁made	-6.51038
▁an	-6.52707
▁went	-6.54768
re	-6.54908
▁day	-6.57473
▁saying	-6.58036
▁down	-6.58992
▁our	-6.60387
▁say	-6.60721
▁even	-6.62387
▁men	-6.62893
▁people	-6.63002
▁before	-6.64038
▁shalt	-6.67193
▁or	-6.67863
▁these	-6.68759
▁may	-6.68878
at	-6.69154
▁Christ	-6.69977
▁go	-6.70165
in	-6.71138
-	-6.7201
▁what	-6.73815
'	-6.75436
er	-6.76929
▁after	-6.78495
▁know	-6.79152
▁th	-6.80518
▁let	-6.81646
an	-6.831
▁every	-6.83666
▁land	-6.83934
▁make	-6.84637
▁Wilbur	-6.84682
▁son	-6.86107
▁good	-6.86412
▁therefore	-6.86479
▁then	-6.86544
▁would	-6.86685
▁away	-6.8809
▁hand	-6.8928
▁children	-6.89908
▁did	-6.90091
▁about	-6.93753
▁through	-6.94579
▁Moses	-6.9486
▁over	-6.95301
▁earth	-6.95985
▁two	-6.95995
▁called	-6.9634
▁because	-6.96856
▁am	-6.97441
▁should	-6.98831
▁house	-6.99018
▁any	-7.02252
▁father	-7.02335
,”	-7.02585
▁name	-7.02602
▁great	-7.02877
▁now	-7.04008
▁put	-7.04952
▁like	-7.05044
▁days	-7.06468
▁against	-7.07539
▁saw	-7.08087
▁been	-7.09186
▁heard	-7.0984
▁see	-7.1003
▁saith	-7.10065
▁more	-7.1108
▁whom	-7.11475
▁many	-7.12826
▁took	-7.14776
▁give	-7.15068
▁Israel	-7.17559
st	-7.18145
▁Now	-7.18654
▁forth	-7.18673
▁time	-7.19336
▁life	-7.20434
▁again	-7.20723
▁brethren	-7.21167
▁another	-7.21935
▁heaven	-7.22619
▁w	-7.24728
▁himself	-7.25289
▁own	-7.25302
▁A	-7.26377
▁word	-7.26864
.”	-7.27288
▁world	-7.28002
▁way	-7.28081
▁sons	-7.28764
▁Then	-7.29635
▁first	-7.29949
▁pass	-7.3026
▁other	-7.31265
▁how	-7.31435
▁b	-7.31564
▁take	-7.32362
▁might	-7.32448
▁behold	-7.32788
d	-7.33479
!	-7.33658
▁among	-7.33677
▁law	-7.34086
▁brought	-7.35336
▁Father	-7.35761
▁little	-7.37047
▁If	-7.38793
▁old	-7.40129
▁could	-7.40533
▁back	-7.40991
▁eat	-7.41162
▁where	-7.41338
▁place	-7.41996
▁Jacob	-7.42796
▁Egypt	-7.44171
▁sent	-7.44234
▁years	-7.44882
▁love	-7.44926
▁Spirit	-7.45567
ll	-7.45811
▁brother	-7.4604
▁Pharaoh	-7.46508
▁h	-7.48347
▁water	-7.48913
▁disciples	-7.48996
▁some	-7.49402
▁It	-7.49521
▁Abraham	-7.49874
▁faith	-7.5035
▁Mr	-7.50751
▁found	-7.50855
▁yet	-7.50972
▁wife	-7.51353
▁They	-7.51472
▁set	-7.51498
▁voice	-7.51597
▁according	-7.51892
▁gave	-7.52272
▁being	-7.52434
eth	-7.52711
▁under	-7.53378
▁glory	-7.53654
?”	-7.54897
!”	-7.55405
▁having	-7.55407
▁Charlotte	-7.55435
▁hast	-7.55819
▁heart	-7.55873
▁answered	-7.56481
▁done	-7.56494
▁can	-7.56656
▁dead	-7.56931
▁spake	-7.56969
▁Joseph	-7.57492
▁together	-7.58553
▁night	-7.58922
▁work	-7.59674
▁speak	-7.59818
▁city	-7.61814
ar	-7.61836
ly	-7.6234
▁Son	-7.62408
▁both	-7.62411
▁cast	-7.63075
▁eyes	-7.63096
▁f	-7.6411
▁only	-7.64924
▁neither	-7.65167
▁flesh	-7.66313
al	-7.6687
I	-7.67359
▁nor	-7.6746
▁thereof	-7.67486
▁bring	-7.67812
▁without	-7.68057
▁much	-7.68059
▁given	-7.6808
▁right	-7.68082
▁same	-7.68095
▁fire	-7.69287
▁What	-7.69342
m	-7.69446
en	-7.69685
▁long	-7.69724
▁This	-7.7166
▁hear	-7.71819
▁off	-7.72117
▁face	-7.7213
▁When	-7.72248
▁LORD	-7.72863
▁asked	-7.72982
on	-7.72999
▁thing	-7.73356
▁left	-7.74101
▁three	-7.74102
▁So	-7.74177
▁sea	-7.75075
▁words	-7.7531
▁evil	-7.75359
th	-7.75536
▁art	-7.76397
▁hands	-7.76867
▁well	-7.77015
▁blood	-7.77243
▁head	-7.77427
▁seven	-7.77864
▁death	-7.78566
▁light	-7.78607
it	-7.79062
▁kingdom	-7.79214
▁Thou	-7.80535
▁p	-7.80866
se	-7.813
▁Jews	-7.8132
▁while	-7.81877
▁mother	-7.81879
▁O	-7.81955
▁nothing	-7.83251
est	-7.84478
▁until	-7.84603
▁c	-7.85076
▁stood	-7.85298
▁lay	-7.86512
▁very	-7.86705
▁ever	-7.87467
▁themselves	-7.88125
▁Paul	-7.88125
▁gold	-7.88816
es	-7.89468
us	-7.89677
▁Let	-7.8973
▁Zuckerman	-7.90273
▁Behold	-7.91036
▁side	-7.91135
▁end	-7.91767
▁Fern	-7.91798
▁looked	-7.92677
▁Jerusalem	-7.93272
▁Peter	-7.93272
▁pig	-7.93281
▁seen	-7.9333
▁thine	-7.94821
▁cometh	-7.95019
▁hundred	-7.95563
▁woman	-7.9557
▁ground	-7.95572
▁bear	-7.95909
y	-7.96236
▁chief	-7.96339
▁body	-7.96341
▁She	-7.96377
▁In	-7.97205
▁fear	-7.9744
▁morning	-7.97907
▁feet	-7.97907
▁such	-7.97924
▁just	-7.98698
▁We	-7.99263
▁tree	-7.99552
▁knew	-8.00263
▁sheep	-8.00314
▁holy	-8.00319
▁whole	-8.00467
▁keep	-8.00851
▁bread	-8.01084
▁Aaron	-8.0112
▁began	-8.01124
▁power	-8.0116
▁must	-8.01941
▁those	-8.01944
▁S	-8.02259
▁John	-8.02766
▁servant	-8.02865
▁seed	-8.02952
▁live	-8.03056
▁receive	-8.03507
▁believe	-8.03508
▁multitude	-8.03684
▁told	-8.04026
▁toward	-8.0406
▁written	-8.04439
▁Ye	-8.04902
▁going	-8.0528
▁new	-8.0529
▁peace	-8.05686
ter	-8.0575
le	-8.05877
▁die	-8.05881
te	-8.06193
ir	-8.06312
▁There	-8.0654
▁servants	-8.06936
▁tabernacle	-8.07004
▁mouth	-8.0701
▁certain	-8.07818
un	-8.07984
▁works	-8.08214
▁truth	-8.08753
▁high	-8.09541
▁fell	-8.09623
▁spirit	-8.09768
▁grace	-8.10529
▁o	-8.11076
▁witness	-8.11389
▁web	-8.11481
▁four	-8.12303
▁hour	-8.12352
▁each	-8.14196
▁coming	-8.14201
ad	-8.14208
▁Isaac	-8.15116
▁commanded	-8.15184
▁sh	-8.15652
—	-8.15654
▁pray	-8.16408
▁Charley	-8.17012
▁concerning	-8.17019
▁five	-8.17033
▁C	-8.17047
▁tell	-8.17759
▁still	-8.17977
▁spoken	-8.17979
▁get	-8.18182
▁white	-8.18818
▁sight	-8.19015
▁part	-8.19629
▁laid	-8.19934
▁received	-8.19981
▁mine	-8.20006
▁though	-8.20767
▁temple	-8.20915
▁begat	-8.20924
▁round	-8.20948
▁l	-8.22135
▁r	-8.22456
▁altar	-8.22925
▁manner	-8.22932
▁never	-8.22936
nd	-8.23821
▁child	-8.2393
▁full	-8.23935
he	-8.2458
▁drink	-8.24709
▁river	-8.24863
▁d	-8.25774
▁become	-8.25988
▁righteousness	-8.26031
▁field	-8.26305
▁Holy	-8.28135
▁around	-8.28179
▁died	-8.28234
▁king	-8.28494
il	-8.28843
▁find	-8.28959
▁save	-8.29289
▁stone	-8.29497
▁daughter	-8.29543
▁stand	-8.30001
▁Wherefore	-8.30297
▁living	-8.30303
▁Arable	-8.30622
▁whose	-8.30696
▁angel	-8.30696
a	-8.31001
▁cried	-8.31413
▁near	-8.32462
▁send	-8.32472
▁judgment	-8.32853
▁priest	-8.32883
▁gospel	-8.3363
▁between	-8.33631
▁lord	-8.33644
▁few	-8.33648
▁taken	-8.33669
▁known	-8.33696
▁door	-8.3414
▁young	-8.34834
▁These	-8.35285
▁mind	-8.35675
▁mercy	-8.35916
▁Gentiles	-8.35921
▁blessed	-8.36018
▁As	-8.36076
▁think	-8.36795
e	-8.37026
or	-8.37054
▁All	-8.37292
▁walk	-8.377
▁bare	-8.3829
el	-8.38332
▁kill	-8.38897
▁call	-8.3899
▁hold	-8.39159
▁rest	-8.39245
▁look	-8.39419
▁money	-8.39446
▁believed	-8.39514
▁opened	-8.39549
▁second	-8.40653
▁Templeton	-8.40677
▁gone	-8.40733
▁hope	-8.41868
▁Pharisees	-8.41977
▁entered	-8.43325
ve	-8.4337
▁Go	-8.44244
▁My	-8.45457
▁Esau	-8.4562
▁last	-8.45664
▁gathered	-8.4571
▁don	-8.45768
▁daughters	-8.46507
▁got	-8.46518
▁twelve	-8.46903
▁born	-8.46905
▁wise	-8.47004
▁walked	-8.47173
▁able	-8.47318
▁too	-8.47703
am	-8.47797
▁cause	-8.48104
▁third	-8.48201
▁always	-8.48207
▁lest	-8.48278
▁none	-8.4833
▁delivered	-8.48358
▁sake	-8.48858
▁righteous	-8.49446
▁yourselves	-8.49517
▁country	-8.49522
▁Avery	-8.49526
▁cannot	-8.49526
▁became	-8.4953
▁raised	-8.49539
▁Be	-8.49866
▁prophets	-8.50147
▁un	-8.50272
▁above	-8.5085
▁barn	-8.50856
▁whether	-8.50859
▁followed	-8.51015
▁beast	-8.51612
▁dwell	-8.51741
▁priests	-8.51754
▁fine	-8.52233
▁mount	-8.52236
▁judge	-8.52627
▁offering	-8.52911
▁thought	-8.53021
▁cattle	-8.53573
▁angels	-8.54521
▁women	-8.54962
▁food	-8.54963
▁looking	-8.55217
▁fruit	-8.55595
▁enter	-8.55849
▁joy	-8.56362
▁midst	-8.56396
▁true	-8.56442
▁How	-8.56489
▁soul	-8.57079
and	-8.5736
ot	-8.57517
▁year	-8.5774
▁indeed	-8.57799
▁anything	-8.57825
▁filled	-8.57852
▁elders	-8.57923
▁ten	-8.59055
▁serve	-8.59151
ers	-8.59192
▁covenant	-8.59247
▁M	-8.60184
▁fall	-8.60434
▁seek	-8.60468
▁small	-8.60587
▁half	-8.60713
▁Simon	-8.60717
▁silver	-8.60717
▁sins	-8.60729
▁Egyptians	-8.60873
n	-8.61566
id	-8.61697
▁ask	-8.61852
▁Who	-8.62168
▁fish	-8.62175
▁returned	-8.62331
▁H	-8.62346
▁church	-8.63685
▁waters	-8.63722
▁Smith	-8.63725
▁sabbath	-8.63727
▁Lurvy	-8.63734
▁rose	-8.63737
▁lived	-8.63821
▁fathers	-8.6442
▁feast	-8.65295
▁One	-8.65495
et	-8.65575
im	-8.65619
▁thousand	-8.66056
▁far	-8.66298
▁dark	-8.66696
▁myself	-8.66839
▁turned	-8.67066
▁prophet	-8.67659
▁To	-8.67735
▁sign	-8.67735
▁P	-8.68241
▁kept	-8.68413
▁alone	-8.68413
▁darkness	-8.6843
▁Why	-8.68475
▁That	-8.68553
▁lo	-8.69611
▁show	-8.69714
▁home	-8.70033
▁whosoever	-8.70037
▁why	-8.70037
▁ready	-8.70043
▁ears	-8.70498
▁sp	-8.70513
▁turn	-8.71208
▁sleep	-8.71415
▁ran	-8.71507
▁eternal	-8.71666
▁didn	-8.71747
▁saved	-8.7183
▁B	-8.72088
▁g	-8.72361
ath	-8.7243
▁spider	-8.72564
nce	-8.72642
▁others	-8.73066
▁want	-8.73165
▁hard	-8.73222
▁big	-8.73326
▁straightway	-8.73334
▁T	-8.73341
▁most	-8.73359
▁along	-8.73425
▁departed	-8.73443
▁You	-8.73693
▁rat	-8.73817
ness	-8.74024
▁passed	-8.74371
▁seeing	-8.7439
▁write	-8.74833
▁strong	-8.74901
▁wilderness	-8.75027
▁Abram	-8.75027
▁wisdom	-8.75028
▁whatsoever	-8.75038
▁ark	-8.75171
▁wood	-8.76007
▁except	-8.76751
▁something	-8.76752
▁till	-8.7676
▁wine	-8.76796
▁better	-8.76942
▁need	-8.77005
▁co	-8.77622
▁commandment	-8.77749
▁wind	-8.77805
ent	-8.77988
▁n	-8.7807
▁linen	-8.78515
▁standing	-8.78841
▁doth	-8.78968
▁nations	-8.79107
▁leave	-8.7952
▁saints	-8.80291
▁beginning	-8.80292
▁goose	-8.80302
erily	-8.8031
▁sitting	-8.80313
▁His	-8.80338
▁appeared	-8.80379
▁help	-8.80811
▁mountains	-8.80889
▁tent	-8.81502
You	-8.817
▁top	-8.81802
▁destroy	-8.81858
▁deep	-8.82104
▁fulfilled	-8.82113
▁knowledge	-8.82124
▁Come	-8.82154
▁ought	-8.82189
▁loved	-8.8222
▁scribes	-8.82228
▁pa	-8.82936
ill	-8.83433
▁David	-8.83961
▁Laban	-8.83961
▁authority	-8.83962
▁wilt	-8.83963
▁thyself	-8.83964
▁rather	-8.83976
▁m	-8.84791
▁husband	-8.85062
▁yea	-8.85398
▁W	-8.85625
▁behind	-8.85848
▁wrath	-8.85848
▁pure	-8.85876
▁cut	-8.86103
▁meet	-8.86205
▁didst	-8.86409
▁minister	-8.86514
▁de	-8.87239
▁fast	-8.87478
▁Chap	-8.87769
▁afraid	-8.87771
▁congregation	-8.87771
▁baptized	-8.87778
▁foot	-8.87912
▁generations	-8.88282
▁leaves	-8.88595
▁L	-8.887
▁kind	-8.88869
▁throne	-8.88952
▁watch	-8.89255
▁apostles	-8.89996
▁se	-8.90062
▁woods	-8.90554
▁master	-8.90979
▁follow	-8.91193
ide	-8.91456
▁ba	-8.9156
▁has	-8.916
▁Canaan	-8.9168
▁Galilee	-8.91733
▁replied	-8.91733
▁blind	-8.91734
▁next	-8.91737
▁seemed	-8.9177
▁soldiers	-8.91894
▁sick	-8.91903
▁teaching	-8.91925
▁garments	-8.9211
▁wherein	-8.92282
red	-8.9254
▁friend	-8.93024
▁boy	-8.93035
▁At	-8.93178
▁knowing	-8.93479
▁present	-8.93505
▁deliver	-8.93522
▁arose	-8.93773
▁sockets	-8.93784
▁worthy	-8.93785
▁beloved	-8.93788
▁free	-8.93791
▁Take	-8.93806
▁knoweth	-8.94231
▁boys	-8.94543
ch	-8.94547
rs	-8.94785
▁nigh	-8.95714
▁hi	-8.95745
▁six	-8.95813
▁salvation	-8.95856
▁twenty	-8.95857
▁Noah	-8.95865
▁held	-8.96742
▁signs	-8.96859
ave	-8.96957
▁ma	-8.97876
▁clean	-8.97921
▁testimony	-8.97984
▁everything	-8.97985
▁firstborn	-8.97985
▁blue	-8.97985
▁straw	-8.97986
▁Bear	-8.98073
▁cubits	-8.98304
▁soon	-8.98579
ow	-8.98865
▁hearts	-8.98974
ither	-8.99179
▁bound	-8.99348
r	-8.99579
ge	-8.9973
▁Pilate	-9.00158
▁enough	-9.00158
▁Therefore	-9.00161
▁surely	-9.0019
▁lifted	-9.00281
ce	-9.00366
▁once	-9.0052
▁Indians	-9.00636
ay	-9.00786
▁doeth	-9.00846
▁demons	-9.00869
all	-9.01168
▁hair	-9.01507
▁nation	-9.01642
What	-9.01982
ne	-9.02143
▁abide	-9.02337
▁Rachel	-9.0238
▁throughout	-9.0238
▁since	-9.02381
▁Even	-9.02382
▁evening	-9.02416
▁Blessed	-9.02427
▁forty	-9.02713
▁named	-9.02733
▁red	-9.03457
▁sacrifice	-9.03837
▁court	-9.03855
▁sister	-9.03861
▁mountain	-9.03903
▁table	-9.03911
▁eye	-9.03958
▁suffer	-9.04105
▁Judah	-9.04661
▁moved	-9.04676
▁cup	-9.04678
▁alive	-9.04884
▁By	-9.04925
▁desire	-9.05023
▁G	-9.05252
▁dream	-9.0541
▁greater	-9.05587
ut	-9.05989
▁month	-9.06214
▁matter	-9.06266
▁honor	-9.06905
▁Every	-9.06981
▁Mary	-9.06982
▁verily	-9.06983
▁broken	-9.06987
▁No	-9.07598
ings	-9.0773
is	-9.07821
▁sound	-9.084
▁promise	-9.08527
▁boat	-9.08671
▁book	-9.08748
▁Yea	-9.09262
▁almost	-9.09359
▁dwelt	-9.09359
▁enemies	-9.09359
▁sword	-9.09361
▁crate	-9.09362
▁faithful	-9.09375
▁sought	-9.09468
▁mighty	-9.09531
▁F	-9.09886
rt	-9.09965
▁prison	-9.10811
▁tongue	-9.11036
▁kings	-9.11069
▁Of	-9.11315
▁multitudes	-9.11549
▁lie	-9.11621
▁presence	-9.11798
▁taught	-9.118
▁carried	-9.11801
▁grew	-9.11803
▁across	-9.11816
▁Do	-9.11976
▁preached	-9.11976
▁sold	-9.12006
It	-9.12141
▁walking	-9.12239
▁worship	-9.13041
▁journey	-9.13205
▁reason	-9.13432
▁cloud	-9.13478
▁synagogue	-9.13533
▁teach	-9.13814
▁camp	-9.14025
▁Sarah	-9.14298
▁purple	-9.14298
▁sweet	-9.14298
▁felt	-9.14299
▁service	-9.14302
▁thirty	-9.14326
▁times	-9.14527
▁E	-9.14677
ur	-9.14799
S	-9.14884
▁goeth	-9.14916
as	-9.16028
▁rich	-9.16076
▁stones	-9.1609
▁trees	-9.16703
▁please	-9.1683
▁Jud	-9.16833
▁After	-9.16851
▁resurrection	-9.16862
▁least	-9.16874
▁vain	-9.16893
▁early	-9.16923
▁eight	-9.16936
▁burnt	-9.16976
▁ear	-9.17499
nt	-9.18021
sh	-9.18056
▁fellow	-9.18702
▁egg	-9.18728
▁remember	-9.18944
ng	-9.19439
▁Littlefish	-9.19494
▁ourselves	-9.19494
▁brass	-9.19495
▁Herod	-9.19497
▁branches	-9.19508
▁rings	-9.1954
▁offer	-9.19611
▁Lot	-9.19652
▁speaketh	-9.19759
▁blessing	-9.19949
▁mi	-9.20646
▁souls	-9.20914
▁perfect	-9.21643
to	-9.21718
▁On	-9.21853
▁understand	-9.21875
▁number	-9.21945
▁loud	-9.22001
▁deal	-9.2211
▁else	-9.22197
▁herself	-9.222
▁wives	-9.22203
▁rulers	-9.22685
▁younger	-9.22752
▁boards	-9.22834
ward	-9.23182
▁wa	-9.23232
▁po	-9.23269
ake	-9.23285
sar	-9.23447
▁ch	-9.23664
▁bless	-9.24306
▁prayer	-9.24568
▁rain	-9.24728
▁strength	-9.2491
▁rock	-9.24927
▁beyond	-9.24974
▁milk	-9.24976
▁fifty	-9.24978
▁drew	-9.2498
▁Thus	-9.24988
▁healed	-9.2499
▁morrow	-9.25027
▁whe	-9.25072
▁killed	-9.25459
▁names	-9.26218
▁open	-9.27039
▁generation	-9.27074
▁run	-9.27232
able	-9.27453
▁visit	-9.27578
▁manifest	-9.27582
▁car	-9.27774
▁false	-9.27774
▁black	-9.2782
▁scarlet	-9.27832
▁apart	-9.27832
▁James	-9.27836
▁Teacher	-9.27837
▁spread	-9.27856
▁judged	-9.27959
▁fled	-9.2797
▁ha	-9.28285
▁point	-9.29684
ah	-9.29917
▁neck	-9.29931
▁gift	-9.30011
▁read	-9.30506
▁smoke	-9.30723
▁poor	-9.30733
▁wrought	-9.30773
▁Because	-9.30773
▁grey	-9.30775
▁buried	-9.30785
▁already	-9.30794
▁dry	-9.30811
▁means	-9.30812
▁front	-9.30821
▁abideth	-9.30832
▁Where	-9.30847
▁appointed	-9.30851
▁horses	-9.3098
▁soil	-9.31243
▁pillars	-9.31265
led	-9.31288
▁pieces	-9.31402
▁ca	-9.31742
▁friends	-9.31883
▁speaking	-9.32197
▁houses	-9.32384
ies	-9.32467
▁break	-9.32672
ns	-9.32843
▁apple	-9.33047
▁build	-9.33299
Well	-9.33403
▁return	-9.33556
▁measure	-9.33766
▁length	-9.33803
▁praise	-9.33803
▁Satan	-9.33804
▁Leah	-9.33805
▁Nation	-9.33807
▁Fair	-9.33807
▁making	-9.3381
▁Thy	-9.33816
▁gods	-9.34012
▁sinners	-9.34055
▁weak	-9.34079
▁mo	-9.34923
▁low	-9.35062
▁places	-9.35845
▁li	-9.36217
ri	-9.36244
▁gate	-9.3626
▁bo	-9.36333
▁care	-9.36853
▁corn	-9.36882
▁stopped	-9.3693
▁worshipped	-9.36935
▁heavens	-9.36962
▁fallen	-9.3705
▁vessels	-9.37208
▁taketh	-9.37271
▁giveth	-9.37336
▁thanks	-9.37426
▁sto	-9.37753
unt	-9.38271
▁sha	-9.38284
ight	-9.38729
▁tomb	-9.39552
▁warm	-9.39595
▁answer	-9.39638
▁stay	-9.39693
▁wait	-9.39737
▁cross	-9.3991
▁rejoice	-9.40053
▁close	-9.40075
▁unclean	-9.40146
▁Wolf	-9.40154
▁crucified	-9.40154
▁circumcision	-9.40154
▁ephod	-9.40154
▁trough	-9.40154
▁course	-9.4016
▁justified	-9.40162
▁cold	-9.40192
▁east	-9.40195
▁Or	-9.40197
▁shame	-9.402
▁Give	-9.40203
▁finished	-9.40207
▁climbed	-9.40215
▁King	-9.40296
▁Lo	-9.40298
▁lost	-9.40314
▁animals	-9.40443
ever	-9.40537
ate	-9.41295
▁dis	-9.41484
▁order	-9.42393
▁sho	-9.42505
▁famine	-9.42604
▁board	-9.42781
ha	-9.42913
ted	-9.42939
day	-9.43102
▁comfort	-9.43155
▁command	-9.43172
▁feel	-9.43267
▁exceeding	-9.43448
▁dust	-9.43468
▁Rebekah	-9.43487
▁abroad	-9.43487
▁Philip	-9.43487
▁wrong	-9.43491
▁devil	-9.43491
▁itself	-9.435
▁Judas	-9.43505
▁prepared	-9.43512
▁sure	-9.43513
▁rise	-9.43526
the	-9.43565
▁talked	-9.43627
▁seventh	-9.4372
▁offered	-9.43805
▁suffered	-9.43857
▁working	-9.43899
ment	-9.4407
one	-9.44128
▁past	-9.44225
ade	-9.4465
▁spe	-9.44923
▁commandments	-9.44964
▁crown	-9.45815
▁preach	-9.45978
▁sorrow	-9.46067
▁scripture	-9.46166
▁Indian	-9.46185
▁gather	-9.46424
▁Not	-9.46483
▁perish	-9.46619
▁shut	-9.46795
▁beautiful	-9.46872
▁foolish	-9.4692
▁grass	-9.46925
▁office	-9.46928
▁asleep	-9.46935
▁beseech	-9.46935
▁speech	-9.46935
▁From	-9.46936
▁reward	-9.46936
▁green	-9.46938
▁staves	-9.46939
▁passover	-9.46941
▁conceived	-9.46943
▁crowd	-9.46953
▁room	-9.46977
▁Amen	-9.46987
▁pleased	-9.47001
▁covered	-9.47116
▁believeth	-9.4713
me	-9.47152
▁understanding	-9.47203
▁wash	-9.47346
▁flocks	-9.47651
▁members	-9.47923
ine	-9.48025
▁tongues	-9.48029
▁hearing	-9.48168
▁season	-9.4945
▁counsel	-9.49625
▁image	-9.49683
▁captain	-9.49705
▁edge	-9.49706
▁parable	-9.49718
▁tribe	-9.4973
▁piece	-9.49796
▁D	-9.49862
ew	-9.50012
▁bow	-9.50411
▁sharp	-9.50452
▁bright	-9.50483
▁patience	-9.50507
▁fornication	-9.50507
▁beheld	-9.50507
▁Whosoever	-9.50509
ation	-9.50514
▁swim	-9.50517
▁buy	-9.50524
▁slay	-9.50529
▁writing	-9.50532
▁divided	-9.50533
▁sky	-9.50548
▁troubled	-9.5055
▁wept	-9.5058
▁started	-9.50626
▁crying	-9.50685
▁legs	-9.50766
▁arise	-9.50847
▁loveth	-9.50857
▁less	-9.50912
▁eaten	-9.50971
▁whence	-9.51014
▁wanted	-9.51055
▁forward	-9.51393
▁prayed	-9.51466
▁riches	-9.51547
less	-9.51796
ish	-9.52036
▁eating	-9.52211
▁la	-9.52439
▁smell	-9.52887
▁See	-9.53231
▁moment	-9.53336
▁duke	-9.53432
▁creature	-9.5344
▁flock	-9.53448
▁hanging	-9.53622
▁depart	-9.53626
▁ox	-9.54162
▁short	-9.54184
▁strange	-9.54189
▁forgive	-9.54193
▁rod	-9.54203
▁Lamb	-9.54211
▁Sodom	-9.54211
▁incense	-9.54211
ittim	-9.54211
▁truck	-9.54211
▁glorified	-9.54212
▁besought	-9.54212
▁summer	-9.54215
▁Adam	-9.54215
▁immediately	-9.54217
▁circumcised	-9.54224
▁often	-9.54245
▁yard	-9.5425
▁closed	-9.54281
▁churches	-9.54311
▁poured	-9.54338
▁touched	-9.54395
▁receiveth	-9.54411
▁clothes	-9.54416
▁breadth	-9.54416
▁pay	-9.5444
▁bowed	-9.54507
ame	-9.54702
▁raise	-9.54707
ous	-9.55143
A	-9.55207
p	-9.55309
▁disciple	-9.57304
▁stranger	-9.57315
▁sac	-9.57635
▁carry	-9.57853
▁pit	-9.5793
▁quiet	-9.5799
▁glad	-9.57995
▁council	-9.58056
▁Barnabas	-9.58057
▁garden	-9.58057
▁iniquity	-9.58057
▁hurt	-9.58057
▁lawful	-9.58058
▁Woe	-9.58059
▁cities	-9.58063
▁south	-9.58079
▁wherewith	-9.58082
▁state	-9.58082
▁tried	-9.58086
▁bought	-9.5809
▁pulled	-9.58101
▁hated	-9.58107
▁charged	-9.58107
ea	-9.58113
▁exceedingly	-9.58114
▁happened	-9.58171
▁hole	-9.58184
▁trying	-9.58249
▁manifested	-9.58396
em	-9.58449
▁worketh	-9.58449
▁greatly	-9.58694
▁knowest	-9.58701
▁longer	-9.5889
▁e	-9.59181
ind	-9.59843
les	-9.60871
▁breastplate	-9.61173
▁garment	-9.61308
▁lad	-9.61617
He	-9.61651
ant	-9.61771
▁obey	-9.61796
▁lead	-9.61805
▁multiply	-9.61811
▁gain	-9.61876
▁spiritual	-9.61997
▁trouble	-9.62009
ld	-9.6205
▁Jackson	-9.62057
▁taking	-9.62058
▁bondage	-9.62059
▁created	-9.6206
▁built	-9.62066
▁wherefore	-9.62067
▁quickly	-9.6207
▁brown	-9.62073
pe	-9.62076
▁spent	-9.62122
▁couldn	-9.62182
▁stretched	-9.62185
▁touching	-9.62232
▁burn	-9.623
▁wonders	-9.62358
▁stars	-9.62601
▁heads	-9.62801
▁gifts	-9.63112
ry	-9.63162
li	-9.63509
go	-9.63556
ity	-9.64188
▁afternoon	-9.65377
▁foundation	-9.65403
▁Jew	-9.65479
▁spirits	-9.65585
▁ways	-9.65845
▁guard	-9.65946
▁empty	-9.6595
▁try	-9.66021
▁cry	-9.66074
▁rule	-9.66113
▁smite	-9.66175
▁straight	-9.66222
▁Abimelech	-9.66223
▁conscience	-9.66223
▁Elijah	-9.66224
▁unleavened	-9.66224
▁sinned	-9.66224
▁winter	-9.66224
▁hungry	-9.66227
▁teeth	-9.66227
▁caught	-9.6623
▁quite	-9.66234
▁nine	-9.66238
▁risen	-9.66241
▁really	-9.66241
▁household	-9.66242
▁story	-9.66267
▁flee	-9.66271
▁With	-9.66276
▁sides	-9.6632
▁learned	-9.664
▁remembered	-9.66625
▁watched	-9.66765
▁bottom	-9.6694
▁curtains	-9.66962
▁calling	-9.6697
▁skins	-9.67076
▁faces	-9.67216
▁months	-9.67621
nger	-9.68196
▁sl	-9.68767
alt	-9.68915
▁maid	-9.69499
▁parts	-9.69557
▁wi	-9.69647
▁horse	-9.69671
▁Cherokee	-9.69759
▁creek	-9.69759
▁tail	-9.69763
▁curtain	-9.69805
▁ruler	-9.69818
ol	-9.70038
▁lift	-9.70104
Oh	-9.70162
▁hearken	-9.70321
ring	-9.70357
▁double	-9.70512
▁loose	-9.70528
▁wild	-9.70528
▁Levi	-9.70533
▁spoke	-9.70568
▁creep	-9.70571
▁raiment	-9.70571
▁vineyard	-9.70572
▁whither	-9.70573
▁suddenly	-9.70575
▁pigpen	-9.70577
▁wrote	-9.70581
▁forgiven	-9.70587
▁ends	-9.70588
▁afar	-9.70606
▁outside	-9.70723
▁witnesses	-9.70771
▁officers	-9.70781
▁goats	-9.7081
▁golden	-9.70924
▁birds	-9.71079
▁eateth	-9.7111
▁heavenly	-9.71164
▁maketh	-9.71353
▁mayest	-9.71383
▁synagogues	-9.71929
▁feared	-9.71994
▁count	-9.72161
▁st	-9.72422
▁beasts	-9.73097
▁J	-9.73454
own	-9.74091
▁charge	-9.7422
ion	-9.74268
▁Some	-9.74295
▁pleasure	-9.74319
▁pillar	-9.74355
▁skin	-9.74366
ful	-9.74437
▁draw	-9.74815
▁subject	-9.74843
▁deny	-9.74891
▁hang	-9.74948
▁shew	-9.74971
▁inherit	-9.75113
▁Benjamin	-9.75117
▁Isaiah	-9.75117
▁Timothy	-9.75117
▁haply	-9.75117
▁likewise	-9.75117
▁remembrance	-9.75117
▁mystery	-9.75117
▁daily	-9.75119
▁inheritance	-9.7512
▁tired	-9.75121
▁womb	-9.75128
▁during	-9.75129
▁arrived	-9.75129
▁Fear	-9.75131
▁whereof	-9.75147
▁giving	-9.75165
▁talking	-9.75278
▁reached	-9.75297
ic	-9.75391
▁Have	-9.75457
▁camels	-9.75462
▁lose	-9.75524
▁heareth	-9.75535
ather	-9.75711
▁inside	-9.75905
na	-9.75941
Yes	-9.76644
▁—	-9.7713
▁fight	-9.77471
▁fo	-9.77689
de	-9.7774
▁wor	-9.78491
▁K	-9.78571
▁Put	-9.78943
op	-9.79011
▁road	-9.79043
▁candlestick	-9.79075
▁village	-9.79095
▁finger	-9.79102
▁lamb	-9.79107
▁twin	-9.79157
▁thank	-9.79174
▁guess	-9.79599
▁establish	-9.79622
▁catch	-9.79651
▁bury	-9.79668
▁space	-9.79823
▁purpose	-9.79839
▁large	-9.79871
▁further	-9.79877
▁Perry	-9.79879
▁ashamed	-9.79879
▁begotten	-9.79879
▁dominion	-9.79879
▁marry	-9.79879
▁possible	-9.79879
▁smote	-9.79879
▁happy	-9.79879
▁knife	-9.79879
▁Saviour	-9.7988
▁bones	-9.7988
▁sware	-9.7988
▁precious	-9.7988
▁adultery	-9.79884
▁amazed	-9.79886
▁Neither	-9.79893
▁vail	-9.79904
▁elect	-9.79908
▁slowly	-9.79911
▁continued	-9.7992
▁borne	-9.7993
▁hardened	-9.79933
▁scattered	-9.79947
▁stumble	-9.7995
▁sixth	-9.79982
▁liveth	-9.80142
▁burned	-9.80181
▁destroyed	-9.80549
Good	-9.80751
▁strangers	-9.80865
ach	-9.81334
nto	-9.81468
▁late	-9.81618
ick	-9.81776
▁weight	-9.81907
ap	-9.81997
for	-9.82034
▁Ar	-9.82129
▁move	-9.82576
ts	-9.82608
ty	-9.82728
▁hence	-9.83661
▁Hebrew	-9.841
▁cubit	-9.8412
▁ship	-9.84122
▁appear	-9.84344
▁feed	-9.84399
▁abound	-9.84516
▁breath	-9.84678
▁fence	-9.84822
▁naked	-9.84869
▁Macedonia	-9.84879
▁Salute	-9.84879
▁Spearfinger	-9.84879
▁behalf	-9.84879
▁sanctify	-9.84879
▁ignorant	-9.84879
▁horns	-9.84879
▁bottle	-9.8488
▁Saul	-9.84882
▁supper	-9.84882
▁Arise	-9.84882
▁idea	-9.84883
▁loaves	-9.84888
▁decided	-9.8489
▁either	-9.84897
▁tidings	-9.84901
▁moon	-9.84947
▁fig	-9.8497
▁idols	-9.85098
▁touch	-9.85124
▁shoes	-9.8519
▁knees	-9.85216
▁washed	-9.85252
▁bonds	-9.85332
▁letters	-9.85456
▁thinking	-9.85804
▁Yet	-9.85815
▁eggs	-9.86371
▁form	-9.86564
▁tables	-9.86611
▁sacrifices	-9.86611
ph	-9.86735
▁casting	-9.86829
▁bearing	-9.86832
▁needs	-9.87152
▁An	-9.87911
▁demon	-9.88417
▁report	-9.88999
ia	-9.89139
▁affliction	-9.89257
▁Ridge	-9.89294
▁governor	-9.89294
▁possession	-9.89341
▁neighbor	-9.89354
▁host	-9.89422
▁feeling	-9.89499
▁afterward	-9.89528
▁arm	-9.89542
▁corner	-9.89584
▁play	-9.89623
▁account	-9.89624
But	-9.89746
How	-9.89746
▁repent	-9.8981
▁trail	-9.89892
▁glorify	-9.89908
▁worry	-9.89916
▁wicked	-9.90067
▁ram	-9.90071
▁confess	-9.90074
▁Cain	-9.90081
▁grievous	-9.90088
▁forbid	-9.90103
▁Claire	-9.90142
▁Jordan	-9.90142
▁abode	-9.90142
▁breakfast	-9.90142
▁business	-9.90142
▁centurion	-9.90142
▁marriage	-9.90142
▁neighbour	-9.90142
▁parents	-9.90142
▁company	-9.90142
▁struck	-9.90142
▁families	-9.90143
▁repentance	-9.90145
▁brake	-9.90148
▁subjection	-9.90149
▁committed	-9.90149
▁tiny	-9.90155
▁marvelled	-9.90164
▁flies	-9.90167
▁begin	-9.9017
▁direction	-9.90177
▁Make	-9.90185
▁secret	-9.9019
▁Most	-9.90212
▁reckoned	-9.90244
▁tied	-9.90249
▁joined	-9.90271
▁hate	-9.90277
▁nought	-9.90293
▁kissed	-9.90299
▁robe	-9.90316
▁served	-9.9041
▁covering	-9.90429
▁fully	-9.9044
▁Her	-9.90442
▁preaching	-9.90482
▁journeyed	-9.90685
▁lusts	-9.90792
▁falling	-9.90912
▁cock	-9.90923
▁seeking	-9.90936
▁corners	-9.90962
ail	-9.90984
ak	-9.91293
▁scriptures	-9.91338
▁gates	-9.91465
ab	-9.91732
ash	-9.923
▁voices	-9.92924
▁grave	-9.93417
ig	-9.93595
▁da	-9.93942
▁pr	-9.94245
ive	-9.94346
▁labor	-9.94357
▁tribulation	-9.9481
▁flood	-9.94813
▁apostle	-9.94979
The	-9.95077
▁treasure	-9.95142
▁cover	-9.95228
▁cl	-9.95295
now	-9.95313
That	-9.95322
▁grow	-9.95434
▁leaven	-9.95487
▁Asia	-9.95571
▁refuse	-9.95648
▁natural	-9.95655
ug	-9.95659
▁swear	-9.95664
▁plain	-9.95666
▁chose	-9.95686
▁commit	-9.95693
▁Again	-9.95697
▁Brethren	-9.95697
▁Nazareth	-9.95697
▁geese	-9.95697
▁beneath	-9.95698
▁middle	-9.95698
▁Grace	-9.95698
▁Know	-9.95703
▁abundantly	-9.95707
▁swam	-9.95712
▁lying	-9.95713
▁self	-9.95718
▁Nay	-9.9572
▁woe	-9.95725
▁perceived	-9.95732
▁arrayed	-9.95748
▁revealed	-9.95777
▁rolled	-9.95792
▁hardly	-9.9587
▁remained	-9.9588
▁clothed	-9.95882
▁fourth	-9.95978
▁talents	-9.95986
▁stop	-9.96021
ink	-9.96105
▁stayed	-9.9614
ush	-9.96163
▁persons	-9.96169
▁north	-9.96197
▁bringeth	-9.96231
▁following	-9.96297
▁drove	-9.96404
ear	-9.96529
▁wouldest	-9.96578
▁showed	-9.96601
ud	-9.96679
▁creatures	-9.96875
▁drive	-9.96881
ho	-9.9706
la	-9.97202
▁rocks	-9.97281
▁nights	-9.98056
age	-9.9834
▁passing	-9.98758
ris	-9.98799
aved	-9.98966
hi	-9.99218
ma	-9.99779
als	-9.99876
lo	-10.0029
▁fi	-10.0044
▁root	-10.0046
▁vision	-10.0073
▁miracle	-10.0075
▁fowl	-10.0076
▁serpent	-10.0077
▁widow	-10.008
▁border	-10.0081
ned	-10.0101
▁faint	-10.0105
▁learn	-10.0111
▁talk	-10.012
▁regard	-10.0123
▁redeem	-10.0132
▁curse	-10.0149
▁several	-10.0153
▁escape	-10.0153
▁bitter	-10.0156
▁Antioch	-10.0158
▁Crockett	-10.0158
▁Howbeit	-10.0158
▁Ishmael	-10.0158
▁Reuben	-10.0158
▁Sarai	-10.0158
▁Shechem	-10.0158
▁Sinai	-10.0158
▁Washington	-10.0158
▁While	-10.0158
▁astray	-10.0158
▁baptism	-10.0158
▁cunning	-10.0158
▁everlasting	-10.0158
▁language	-10.0158
▁sanctified	-10.0158
▁sitteth	-10.0158
▁truly	-10.0158
▁tarried	-10.0158
▁nature	-10.0158
▁dawn	-10.0158
▁colonel	-10.0159
▁sanctuary	-10.0159
▁slew	-10.0159
▁grain	-10.0161
▁sorry	-10.0162
▁farm	-10.0167
▁star	-10.0167
▁oxen	-10.0167
▁loosed	-10.0168
▁pail	-10.017
▁exalted	-10.017
▁waxed	-10.0173
▁weeping	-10.0173
▁threw	-10.0173
▁fishes	-10.0174
▁gr	-10.0175
▁nearly	-10.0185
▁calleth	-10.0186
▁sailed	-10.0187
▁counted	-10.0191
▁tears	-10.0192
▁hearkened	-10.0192
▁Look	-10.0196
▁beareth	-10.0201
▁comforted	-10.0203
▁noise	-10.021
▁lines	-10.0234
▁borders	-10.0236
▁turning	-10.0236
▁yellow	-10.0266
No	-10.0277
▁doest	-10.03
▁line	-10.0314
eat	-10.0377
ast	-10.0388
▁spiders	-10.044
▁le	-10.0449
om	-10.0498
▁offerings	-10.0505
▁thoughts	-10.0505
▁Me	-10.0525
▁spring	-10.058
▁question	-10.0646
▁Mo	-10.0652
our	-10.0657
▁handmaid	-10.0685
▁cabin	-10.0694
▁lust	-10.0708
▁clear	-10.0727
▁fashion	-10.0727
▁Can	-10.0729
▁exhort	-10.0731
aw	-10.0732
▁building	-10.0742
Charlotte	-10.0743
Now	-10.0743
▁profit	-10.0747
▁respect	-10.075
ra	-10.0763
▁salute	-10.0773
ched	-10.0777
▁overcome	-10.078
▁dirt	-10.0781
▁Asmeret	-10.0783
▁Ephesus	-10.0783
▁Hittite	-10.0783
▁Simeon	-10.0783
▁cellar	-10.0783
▁insomuch	-10.0783
▁Nahor	-10.0783
▁godliness	-10.0783
▁thorns	-10.0783
▁chains	-10.0783
▁Damascus	-10.0783
▁different	-10.0783
▁running	-10.0783
▁drank	-10.0783
▁common	-10.0783
▁putting	-10.0784
▁compassion	-10.0784
▁beaten	-10.0784
▁rope	-10.0784
▁chosen	-10.0785
▁shook	-10.0785
▁noticed	-10.0785
▁Bring	-10.0787
▁possessed	-10.079
▁tempted	-10.0794
▁jumped	-10.0794
▁mourning	-10.0795
▁Did	-10.0797
▁Say	-10.0799
▁anointing	-10.0803
▁asses	-10.0809
▁herds	-10.0819
▁goodness	-10.0824
do	-10.0826
▁smelled	-10.0827
▁breaking	-10.0828
▁reproach	-10.0836
▁visited	-10.084
▁bowls	-10.0841
▁lamps	-10.0846
▁Oh	-10.0846
▁pale	-10.0849
row	-10.0852
▁ministered	-10.0868
light	-10.0871
▁arms	-10.0874
▁je	-10.0881
▁lambs	-10.0886
▁sayest	-10.0912
▁drinking	-10.0916
ard	-10.0925
▁di	-10.0933
▁Sh	-10.0938
ul	-10.0948
▁prayers	-10.0975
ught	-10.0976
▁bringing	-10.1019
up	-10.1032
▁glorying	-10.1056
ound	-10.1069
▁Shem	-10.1076
be	-10.1086
di	-10.111
▁judges	-10.1135
▁fruits	-10.1141
ca	-10.1181
ang	-10.1214
▁change	-10.122
▁sc	-10.1234
ro	-10.1247
▁j	-10.1257
▁haste	-10.1265
▁seeth	-10.1312
▁desert	-10.1331
▁leaving	-10.1352
▁interpretation	-10.1353
▁flat	-10.1353
▁girdle	-10.1362
▁week	-10.1372
▁Greek	-10.1372
▁bird	-10.1373
▁anoint	-10.1403
▁fill	-10.1422
▁render	-10.1423
▁reach	-10.1425
▁watching	-10.1426
▁accord	-10.1429
▁sail	-10.143
▁R	-10.1438
▁continue	-10.144
▁fair	-10.1447
▁prove	-10.1448
▁race	-10.1448
▁stumbling	-10.1449
▁Almighty	-10.145
▁anxious	-10.145
▁bodies	-10.145
▁bridegroom	-10.145
▁disobedient	-10.145
▁necessary	-10.145
▁obedience	-10.145
▁screamed	-10.145
▁silence	-10.145
▁honey	-10.145
▁uncircumcision	-10.145
▁damsel	-10.145
▁diligence	-10.145
▁Nancy	-10.145
▁Haran	-10.145
▁Stephen	-10.145
▁rising	-10.145
▁steal	-10.145
▁iron	-10.145
▁harvest	-10.145
▁divers	-10.145
▁slain	-10.145
▁acceptable	-10.145
▁boldness	-10.1451
▁lips	-10.1451
▁overlay	-10.1451
▁temptation	-10.1451
▁bigger	-10.1451
▁removed	-10.1452
▁defiled	-10.1452
▁ceased	-10.1454
▁Your	-10.1457
▁hypocrites	-10.1458
▁shortly	-10.146
▁letter	-10.1461
▁sacrificed	-10.1464
▁obtained	-10.1465
▁soft	-10.1465
ck	-10.1467
▁goslings	-10.1469
▁henceforth	-10.1472
▁stared	-10.1479
ble	-10.1482
▁log	-10.1487
▁wo	-10.149
▁frogs	-10.1517
▁reasoned	-10.152
▁Greeks	-10.1528
▁widows	-10.1539
▁shouldest	-10.1544
▁needed	-10.155
▁liked	-10.1558
▁fro	-10.1572
▁pe	-10.1609
▁Sir	-10.1621
▁holding	-10.1636
we	-10.1687
▁act	-10.1701
ite	-10.1706
▁ho	-10.1728
▁ga	-10.1735
old	-10.1738
owed	-10.1752
▁cha	-10.1757
men	-10.1797
ke	-10.1861
ft	-10.1874
▁N	-10.1888
ain	-10.1895
▁pri	-10.1901
ling	-10.1923
▁stick	-10.2056
not	-10.2056
▁harlot	-10.2067
▁pool	-10.2072
▁occasion	-10.2074
▁revelation	-10.2075
way	-10.2078
▁region	-10.2079
▁supplication	-10.2082
▁shepherd	-10.2084
▁dog	-10.2085
▁blanket	-10.2087
▁Egyptian	-10.2088
▁powers	-10.2113
▁reign	-10.2132
▁consider	-10.2136
▁spoil	-10.2136
▁condemn	-10.2138
▁interest	-10.2142
▁beside	-10.2146
▁pour	-10.215
▁release	-10.2159
▁declare	-10.2159
▁taste	-10.2159
▁Except	-10.2164
▁Lazarus	-10.2164
▁Manasseh	-10.2164
▁Sadducees	-10.2164
▁Sequoyah	-10.2164
▁awoke	-10.2164
▁confidence	-10.2164
▁countenance	-10.2164
▁married	-10.2164
▁multiplied	-10.2164
▁ointment	-10.2164
▁overlaid	-10.2164
▁pretty	-10.2164
▁substance	-10.2164
▁tarry	-10.2164
▁threescore	-10.2164
▁understood	-10.2164
▁ungodly	-10.2164
▁THE	-10.2164
▁digged	-10.2164
▁Surely	-10.2164
▁Hagar	-10.2164
▁fellowship	-10.2164
▁Zion	-10.2164
▁loins	-10.2164
ncle	-10.2164
▁continually	-10.2164
▁contrary	-10.2165
▁putteth	-10.2165
▁dying	-10.2165
▁dumb	-10.2165
▁unrighteousness	-10.2165
▁exactly	-10.2165
▁Many	-10.2166
▁wickedness	-10.2166
▁rebuked	-10.2166
▁stedfastly	-10.2166
▁loss	-10.2167
▁carefully	-10.2167
▁rejected	-10.2167
▁fruitful	-10.2169
▁stirred	-10.2169
▁bars	-10.2169
▁kindness	-10.217
▁descended	-10.2171
▁doorway	-10.2171
▁prevailed	-10.2172
▁Tell	-10.2173
▁quietly	-10.2173
ance	-10.2174
▁rejoiced	-10.2175
▁manure	-10.2176
▁hunger	-10.2176
▁slow	-10.218
▁promised	-10.2182
▁loops	-10.2185
▁reigned	-10.2189
▁condemned	-10.2194
▁desired	-10.2196
read	-10.2204
▁chariots	-10.2207
▁vine	-10.2208
▁despise	-10.2214
▁fl	-10.2237
▁dreamed	-10.2246
▁town	-10.2249
▁passeth	-10.2266
ee	-10.228
▁Je	-10.2286
▁hangings	-10.232
▁Well	-10.2322
▁seasons	-10.2324
▁praying	-10.2331
▁laugh	-10.2346
▁parted	-10.2359
▁laying	-10.239
▁divide	-10.2401
wn	-10.2469
▁sa	-10.2473
▁burden	-10.2509
▁sw	-10.257
▁lives	-10.2572
▁heap	-10.2607
ds	-10.2613
▁Dr	-10.2628
ped	-10.269
ass	-10.269
▁trap	-10.2696
ool	-10.2719
▁rivers	-10.2726
▁remain	-10.2785
rn	-10.2793
oth	-10.2802
fo	-10.2803
▁stream	-10.2815
man	-10.2816
oke	-10.2823
▁trumpet	-10.2836
▁custom	-10.2848
▁frog	-10.2856
▁lamp	-10.2858
▁reap	-10.2867
▁prophesy	-10.2873
▁trust	-10.2895
▁favor	-10.2902
▁mark	-10.2904
▁fetch	-10.2905
▁stretch	-10.2908
▁v	-10.291
▁Rabbi	-10.2917
▁content	-10.292
▁hung	-10.2925
▁endure	-10.2926
▁proud	-10.2927
▁eleven	-10.2928
▁couple	-10.2928
▁fourteen	-10.2928
▁perceive	-10.2929
▁branch	-10.2929
ief	-10.2931
▁Babylon	-10.2933
▁Capernaum	-10.2933
▁Edom	-10.2933
▁English	-10.2933
▁Moreover	-10.2933
▁Nevertheless	-10.2933
▁Remember	-10.2933
▁enemy	-10.2933
▁ghost	-10.2933
▁Festus	-10.2933
▁Titus	-10.2933
▁beforehand	-10.2933
▁bidden	-10.2933
▁crept	-10.2933
▁prophecy	-10.2933
▁travail	-10.2933
▁cousin	-10.2933
▁famous	-10.2933
▁hunting	-10.2933
▁gotten	-10.2933
▁shaken	-10.2933
▁family	-10.2933
▁calf	-10.2933
▁Two	-10.2933
▁Which	-10.2933
▁broad	-10.2934
▁anybody	-10.2934
▁jealousy	-10.2934
▁void	-10.2934
▁portion	-10.2934
▁determined	-10.2934
▁husbandmen	-10.2935
▁excellent	-10.2935
▁required	-10.2935
▁Abel	-10.2936
▁Everyone	-10.2936
▁Send	-10.2936
▁driven	-10.2936
▁everywhere	-10.2936
▁cherubims	-10.2937
▁Hello	-10.2937
▁kindred	-10.2938
▁Homer	-10.2938
▁remaineth	-10.2939
▁withered	-10.2939
▁start	-10.2939
▁hateth	-10.294
▁seventy	-10.294
▁hooks	-10.2942
▁increased	-10.2947
▁planted	-10.2947
▁pitched	-10.2947
▁heavy	-10.2947
▁betrayed	-10.2953
▁stool	-10.2957
▁everyone	-10.2958
▁youngest	-10.2961
▁Zuckermans	-10.2962
▁seeketh	-10.2963
▁caused	-10.2963
▁pipe	-10.2965
▁publicans	-10.2968
▁standeth	-10.2974
▁findeth	-10.2974
▁likeness	-10.2976
▁fugitives	-10.298
▁answering	-10.2985
▁shoulders	-10.2987
ver	-10.2988
▁waited	-10.2996
▁builded	-10.3
▁tall	-10.3001
mer	-10.3002
▁numbered	-10.3008
▁reading	-10.3026
▁sounded	-10.3028
▁sleeping	-10.3037
▁greatest	-10.3039
▁Ha	-10.3045
▁hosts	-10.3049
▁entering	-10.3054
▁Hebrews	-10.3056
that	-10.3074
▁meeting	-10.3076
▁tribes	-10.3106
um	-10.3114
▁pro	-10.312
elah	-10.3132
▁bl	-10.3145
▁Se	-10.3199
ac	-10.3212
▁spare	-10.3245
▁masters	-10.3248
ey	-10.3278
▁thousands	-10.3335
▁burdens	-10.3345
▁ra	-10.3356
ries	-10.3397
▁accuse	-10.3463
▁sta	-10.3491
no	-10.351
▁add	-10.3615
▁happen	-10.3625
its	-10.3651
▁paper	-10.3682
▁shadow	-10.3686
▁price	-10.3688
▁animal	-10.369
▁vessel	-10.369
▁bowl	-10.3691
▁Pharisee	-10.3691
▁elder	-10.3693
▁bond	-10.3694
▁sack	-10.3697
▁shekel	-10.3697
Do	-10.3725
▁herb	-10.3726
Can	-10.3734
▁prisoner	-10.3738
▁kiss	-10.3742
▁doubt	-10.3745
orn	-10.3758
▁weep	-10.376
▁recompense	-10.376
▁observe	-10.3762
▁America	-10.3765
▁broke	-10.3766
▁buttermilk	-10.3766
pleasing	-10.3766
▁Calhoun	-10.3766
▁Dorian	-10.3766
▁Ephraim	-10.3766
▁Finally	-10.3766
▁Gomorrah	-10.3766
▁Lichen	-10.3766
▁Solomon	-10.3766
▁denied	-10.3766
▁female	-10.3766
▁forehead	-10.3766
▁longsuffering	-10.3766
▁school	-10.3766
▁Goshen	-10.3766
▁inhabitants	-10.3767
▁warned	-10.3767
▁slept	-10.3767
▁creation	-10.3767
▁hidden	-10.3767
▁alms	-10.3767
▁idle	-10.3767
▁memorial	-10.3767
▁cows	-10.3767
▁thanksgiving	-10.3767
▁getting	-10.3767
▁destruction	-10.3767
▁forget	-10.3767
▁twice	-10.3767
▁pasture	-10.3767
▁corruption	-10.3767
▁hiding	-10.3767
▁awake	-10.3767
▁tender	-10.3768
▁wroth	-10.3768
▁colt	-10.3768
▁astonished	-10.3768
▁crawled	-10.3768
▁kine	-10.3768
▁Shall	-10.3768
▁High	-10.3768
▁ministration	-10.3769
▁merciful	-10.3769
▁crieth	-10.3769
▁persuaded	-10.3769
▁trespasses	-10.377
▁whereunto	-10.3771
▁dirty	-10.3771
▁drunken	-10.3771
▁dried	-10.3771
▁drawn	-10.3771
▁worth	-10.3772
▁coupled	-10.3772
▁Everybody	-10.3772
▁whispered	-10.3772
▁pitcher	-10.3774
▁ex	-10.3774
▁string	-10.3775
▁floor	-10.3776
▁cleanse	-10.378
▁swing	-10.3781
▁Our	-10.3782
▁Ham	-10.3783
▁ro	-10.3784
aves	-10.379
▁wonderful	-10.3792
▁Just	-10.3793
▁partakers	-10.3793
▁dump	-10.3795
▁asunder	-10.3802
▁dwelleth	-10.3802
▁Canaanites	-10.3805
▁anointed	-10.3805
▁attention	-10.3806
▁highest	-10.3806
▁reported	-10.3808
▁belly	-10.381
▁burning	-10.3812
▁carrying	-10.3814
▁separate	-10.3815
▁sufferings	-10.3816
▁certainly	-10.3818
▁Don	-10.3818
▁dealt	-10.3819
▁Andrew	-10.382
▁keepeth	-10.3826
▁shekels	-10.3845
▁West	-10.3874
▁beholdeth	-10.3884
▁rams	-10.3892
▁finding	-10.394
▁ta	-10.3948
▁dukes	-10.3949
▁rested	-10.3954
▁Th	-10.3969
▁avenge	-10.3973
uck	-10.3979
bee	-10.3996
▁minded	-10.4
▁color	-10.4048
▁trade	-10.4127
rch	-10.4295
▁tra	-10.4297
bye	-10.4431
▁person	-10.4486
▁cloth	-10.4547
ny	-10.4567
▁epistle	-10.4578
▁trial	-10.4579
ice	-10.4583
▁doctrine	-10.4587
▁hatchet	-10.4596
▁sinner	-10.4599
igh	-10.4604
▁soldier	-10.4606
side	-10.4607
▁lack	-10.4619
▁post	-10.4632
with	-10.4633
minded	-10.4633
▁interpret	-10.4634
Look	-10.4635
which	-10.4636
Let	-10.4637
▁teacher	-10.4645
And	-10.4645
▁veil	-10.4648
▁appoint	-10.4658
od	-10.466
▁pleasant	-10.467
▁fifteen	-10.467
▁humble	-10.467
▁cease	-10.4671
▁prepare	-10.4671
▁nice	-10.4672
▁unrighteous	-10.4674
▁resist	-10.4676
▁Agrippa	-10.4676
▁Baptist	-10.4676
▁Enoch	-10.4676
▁Featherstone	-10.4676
▁Iscariot	-10.4676
▁Lamech	-10.4676
▁Martha	-10.4676
▁Wasseton	-10.4676
▁Zebedee	-10.4676
▁betwixt	-10.4676
▁crucify	-10.4676
▁desolate	-10.4676
▁distance	-10.4676
▁laurel	-10.4676
▁perhaps	-10.4676
▁smooth	-10.4676
▁trembling	-10.4676
▁Sidon	-10.4676
▁absent	-10.4676
▁atonement	-10.4676
▁fulness	-10.4676
▁shouted	-10.4676
▁abiding	-10.4676
▁Ross	-10.4676
▁merry	-10.4676
▁Also	-10.4676
▁Ephron	-10.4676
▁Master	-10.4676
▁uttermost	-10.4676
▁strive	-10.4676
▁defence	-10.4676
▁dragon	-10.4676
▁planned	-10.4676
▁snare	-10.4676
▁somewhat	-10.4676
▁roof	-10.4676
▁savour	-10.4676
▁walls	-10.4676
▁moving	-10.4676
▁swine	-10.4676
▁everybody	-10.4676
▁Before	-10.4676
▁Wayah	-10.4676
▁horsemen	-10.4676
▁condemnation	-10.4677
▁yourself	-10.4677
▁trip	-10.4677
▁dinner	-10.4678
▁fact	-10.4678
▁radiant	-10.4678
▁prize	-10.4678
▁sixty	-10.4678
▁Hamor	-10.4678
▁stead	-10.4678
▁whereby	-10.4679
▁wiped	-10.4679
▁grown	-10.4679
▁puffed	-10.4679
▁stepped	-10.4679
▁whomsoever	-10.468
▁Axe	-10.468
▁peradventure	-10.468
▁sober	-10.4681
▁consumed	-10.4681
▁quit	-10.4682
▁cleansed	-10.4682
of	-10.4682
▁refused	-10.4684
▁murmured	-10.4684
▁chair	-10.4685
▁robbers	-10.4687
▁rushed	-10.4689
▁Edith	-10.469
▁terrific	-10.469
▁Abi	-10.469
▁favoured	-10.4692
▁token	-10.4693
▁pressed	-10.4694
▁Rabbit	-10.4694
▁failed	-10.4696
▁wondered	-10.4699
▁Lest	-10.4699
▁party	-10.4705
▁laughed	-10.4707
▁plagues	-10.4725
▁established	-10.4726
▁dish	-10.4734
▁shewed	-10.4736
▁Beth	-10.475
▁glass	-10.4765
▁blankets	-10.4777
▁pile	-10.4791
ank	-10.4791
▁showing	-10.48
wi	-10.4813
▁villages	-10.483
▁fingers	-10.483
▁asking	-10.4835
▁dr	-10.4844
▁goest	-10.4852
▁telling	-10.489
▁bi	-10.492
▁apples	-10.4939
mp	-10.4974
▁ride	-10.4988
ni	-10.5
wer	-10.5069
▁husbands	-10.5074
ery	-10.5078
ord	-10.5093
ged	-10.5115
tic	-10.5168
thirst	-10.5242
use	-10.5307
▁Re	-10.5313
▁fulfil	-10.5342
▁fields	-10.5404
ily	-10.5417
▁wonder	-10.552
hot	-10.5555
ung	-10.5559
co	-10.5573
▁steward	-10.5578
▁error	-10.5579
▁size	-10.5581
▁earthquake	-10.5586
▁healing	-10.5591
▁minute	-10.5593
▁knop	-10.5595
under	-10.5595
▁ordinance	-10.5596
▁basket	-10.5596
▁prince	-10.5598
▁window	-10.5601
uch	-10.5606
▁proceed	-10.5616
C	-10.562
▁proclaim	-10.5623
▁sav	-10.5625
▁fighting	-10.5633
if	-10.5634
Why	-10.5636
Don	-10.5636
▁join	-10.5637
▁consent	-10.5643
▁wax	-10.5644
▁betray	-10.5644
▁accept	-10.5647
▁suck	-10.565
▁corrupt	-10.5651
▁intend	-10.5653
▁lower	-10.5665
▁restore	-10.5666
▁earnest	-10.5668
eloved	-10.5669
There	-10.567
▁suppose	-10.5671
▁increase	-10.5671
eradventure	-10.5671
▁approved	-10.5675
▁Amalek	-10.5676
▁Ananias	-10.5676
▁Bethany	-10.5676
▁Jethro	-10.5676
▁Magdalene	-10.5676
▁Peace	-10.5676
▁Philadelphia	-10.5676
▁Philistines	-10.5676
▁Samaria	-10.5676
▁barren	-10.5676
▁believing	-10.5676
▁coupling	-10.5676
▁dishonor	-10.5676
▁firmament	-10.5676
▁hickory	-10.5676
▁liberty	-10.5676
▁lieutenant	-10.5676
▁ministry	-10.5676
▁plenty	-10.5676
▁stolen	-10.5676
▁stomach	-10.5676
▁tribute	-10.5676
▁underneath	-10.5676
sheba	-10.5676
▁Hivite	-10.5676
▁Silas	-10.5676
▁bacon	-10.5676
▁remission	-10.5676
▁thrice	-10.5676
▁Speak	-10.5676
▁bosom	-10.5676
▁testified	-10.5676
▁Mamre	-10.5676
▁busy	-10.5676
▁Terah	-10.5676
▁George	-10.5676
▁JE	-10.5676
▁darkened	-10.5676
▁thunders	-10.5676
▁staff	-10.5676
▁bunch	-10.5676
▁taches	-10.5676
▁dropped	-10.5676
▁shining	-10.5676
▁meekness	-10.5676
▁butler	-10.5676
▁apparel	-10.5677
▁nobody	-10.5677
▁ninety	-10.5677
▁OF	-10.5677
▁moreover	-10.5677
▁armies	-10.5677
▁thrown	-10.5677
▁wrapped	-10.5678
▁sometimes	-10.5678
▁Having	-10.5678
ueen	-10.5679
▁exhortation	-10.5679
▁nakedness	-10.5679
▁agreed	-10.5679
▁godly	-10.5679
▁deeds	-10.5679
▁fog	-10.568
▁boldly	-10.568
▁supposed	-10.5681
▁decomposers	-10.5682
▁endureth	-10.5682
▁Perhaps	-10.5682
▁Henry	-10.5682
▁accomplished	-10.5682
▁overcometh	-10.5683
▁separated	-10.5683
▁bank	-10.5684
▁escaped	-10.5686
▁pushed	-10.5688
▁upper	-10.5688
▁listening	-10.569
▁searched	-10.5691
▁someone	-10.5695
▁spices	-10.5697
▁Whence	-10.5698
▁instead	-10.5698
▁devoured	-10.5699
▁”	-10.5699
▁Though	-10.57
▁proclaimed	-10.5702
▁anyone	-10.5703
wels	-10.5705
▁mostly	-10.5708
▁tenth	-10.571
▁wooden	-10.5711
▁judgeth	-10.5713
▁lieth	-10.5713
▁curious	-10.5714
▁falleth	-10.5715
▁tale	-10.5718
▁hoped	-10.5723
▁bloody	-10.5725
▁formed	-10.5734
▁br	-10.5741
▁waiting	-10.5745
▁streets	-10.5747
▁leg	-10.5753
▁perished	-10.5753
▁crossed	-10.5759
▁teachers	-10.5771
▁sacks	-10.5773
her	-10.5774
▁ministering	-10.5794
▁neighbors	-10.5831
▁fr	-10.5836
hu	-10.5847
ie	-10.5848
▁Ma	-10.586
bu	-10.5877
der	-10.59
Run	-10.5924
▁dwelling	-10.5975
oven	-10.6022
▁guide	-10.6023
▁promises	-10.6025
▁matters	-10.6033
▁dreams	-10.6038
▁kinds	-10.6101
▁thrones	-10.6102
ti	-10.6118
▁winds	-10.6122
O	-10.613
elves	-10.6185
▁blow	-10.6261
▁sakes	-10.6309
▁exalt	-10.6426
▁va	-10.6439
ions	-10.6452
time	-10.6475
▁simple	-10.648
▁desir	-10.6518
▁marvel	-10.6548
oman	-10.6557
▁rode	-10.6559
ction	-10.659
▁yo	-10.6594
lace	-10.6626
▁spi	-10.6647
mi	-10.6657
▁choice	-10.6689
▁lawyer	-10.6698
▁captive	-10.6701
▁girl	-10.6701
▁habitation	-10.6702
▁effort	-10.6704
▁virgin	-10.6705
▁street	-10.6708
▁knee	-10.6709
▁drop	-10.671
▁flower	-10.6713
ps	-10.6713
▁scribe	-10.6714
▁chamber	-10.6725
▁travel	-10.673
▁mourn	-10.6738
rim	-10.6747
irs	-10.6751
▁prosper	-10.6753
▁commend	-10.6753
▁harm	-10.6753
▁devour	-10.6754
▁danger	-10.6756
▁discern	-10.6758
▁distress	-10.676
▁stuff	-10.6761
▁obtain	-10.6761
▁delight	-10.6762
▁drunk	-10.6763
▁testify	-10.6764
▁Am	-10.6765
▁Bless	-10.6768
▁public	-10.6775
▁tight	-10.678
▁preserve	-10.6781
▁particular	-10.6781
▁entire	-10.6782
▁consume	-10.6782
▁trespass	-10.6783
▁real	-10.6784
▁principal	-10.6787
▁Charleston	-10.6787
▁Midian	-10.6787
▁guile	-10.6787
▁Beaver	-10.6787
▁Bilhah	-10.6787
▁Japheth	-10.6787
▁Joppa	-10.6787
▁Joshua	-10.6787
▁Padan	-10.6787
▁People	-10.6787
▁Zacharias	-10.6787
▁although	-10.6787
▁altogether	-10.6787
▁brimstone	-10.6787
▁choose	-10.6787
▁devout	-10.6787
▁diligently	-10.6787
▁disobedience	-10.6787
▁especially	-10.6787
▁fifth	-10.6787
▁furnace	-10.6787
▁grieved	-10.6787
▁hunters	-10.6787
▁indignation	-10.6787
▁iniquities	-10.6787
▁kitchen	-10.6787
▁midnight	-10.6787
▁nevertheless	-10.6787
▁offended	-10.6787
▁practise	-10.6787
▁privily	-10.6787
▁sanctification	-10.6787
▁smitten	-10.6787
▁unbelief	-10.6787
▁venison	-10.6787
▁violence	-10.6787
▁bundle	-10.6787
▁slops	-10.6787
▁Apollos	-10.6787
▁Charlie	-10.6787
▁committeth	-10.6787
▁future	-10.6787
▁mingled	-10.6787
▁withdrew	-10.6787
▁abyss	-10.6787
▁sprang	-10.6787
▁Everything	-10.6787
▁angry	-10.6787
▁easier	-10.6787
▁speckled	-10.6787
▁magicians	-10.6787
▁sighed	-10.6787
▁boots	-10.6787
▁degree	-10.6787
▁Bethuel	-10.6787
▁assembly	-10.6787
▁issue	-10.6787
▁leaf	-10.6787
▁trick	-10.6787
▁slaves	-10.6787
▁Follow	-10.6787
▁sentence	-10.6787
▁innocent	-10.6788
▁blew	-10.6788
▁New	-10.6788
▁confession	-10.6788
▁laver	-10.6788
▁lightning	-10.6788
▁silk	-10.6788
▁bride	-10.6788
▁wages	-10.6789
▁Chapman	-10.6789
▁miles	-10.6789
▁somewhere	-10.6789
▁utterly	-10.679
▁coats	-10.679
▁Anah	-10.6791
▁Seir	-10.6791
▁honorable	-10.6792
▁muskets	-10.6792
▁bondservant	-10.6792
▁crickets	-10.6792
▁foolishness	-10.6792
▁earnestly	-10.6792
▁communed	-10.6793
▁unbelieving	-10.6793
▁lots	-10.6793
▁due	-10.6794
▁beating	-10.6795
▁declared	-10.6795
▁Seven	-10.6795
▁persecuted	-10.6795
▁City	-10.6795
▁changed	-10.6796
▁bold	-10.6797
▁swallowed	-10.6798
▁accused	-10.6798
▁Way	-10.6798
fresh	-10.6799
▁mention	-10.6799
▁locusts	-10.6801
▁ariseth	-10.6801
▁below	-10.6806
▁afflicted	-10.6807
▁upright	-10.6807
▁mocked	-10.6808
▁listened	-10.6809
▁entreated	-10.681
▁Doth	-10.681
▁maybe	-10.681
▁beans	-10.6811
Will	-10.6817
▁kindly	-10.6817
▁interpreted	-10.6819
▁tu	-10.6822
ci	-10.6827
▁pocket	-10.6831
▁stoned	-10.6843
▁walketh	-10.6843
▁leavened	-10.6843
▁breasts	-10.6848
▁Fer	-10.6849
▁Seeing	-10.6854
▁...	-10.6859
▁gathering	-10.686
▁soever	-10.6865
▁worm	-10.6867
▁baskets	-10.6876
▁cloths	-10.6886
right	-10.6895
ably	-10.6896
▁prisoners	-10.6907
▁besides	-10.6914
▁Wil	-10.6976
▁gavest	-10.6984
▁cr	-10.702
▁Ch	-10.7041
▁parables	-10.7046
k	-10.7063
▁bu	-10.7065
▁reasoning	-10.7075
▁tombs	-10.7085
ys	-10.7093
▁keeping	-10.7109
wa	-10.7147
▁clouds	-10.7161
▁wasn	-10.7176
▁fearful	-10.7223
▁ministers	-10.7279
▁Du	-10.7295
ag	-10.7315
▁flow	-10.7321
doing	-10.7328
▁pi	-10.7331
che	-10.7332
ull	-10.7439
▁ki	-10.7463
shed	-10.7468
ought	-10.753
h	-10.7567
▁vi	-10.7574
▁looks	-10.758
▁mad	-10.7588
ding	-10.7616
▁doors	-10.7621
▁judgments	-10.7634
▁Arables	-10.7653
▁ri	-10.7681
pen	-10.7692
▁rid	-10.7702
▁ke	-10.7707
▁kn	-10.7781
▁salutation	-10.7794
aid	-10.7827
live	-10.7855
▁plow	-10.7859
▁cove	-10.7878
▁step	-10.7918
▁strife	-10.7939
▁fault	-10.7939
▁shirt	-10.7939
▁ru	-10.7939
▁flame	-10.7943
▁tradition	-10.7947
▁trunk	-10.7956
▁fugitive	-10.7959
▁chariot	-10.7959
▁camel	-10.7966
▁reckon	-10.7988
▁press	-10.7989
▁climb	-10.7991
▁fail	-10.7994
ments	-10.7995
K	-10.7996
Fern	-10.7997
This	-10.7998
like	-10.7998
fe	-10.8001
We	-10.8002
you	-10.8002
unto	-10.8007
▁torment	-10.801
▁dress	-10.8011
▁entreat	-10.8011
asmuch	-10.8013
▁defile	-10.8015
▁grant	-10.8019
▁murder	-10.8021
▁baptize	-10.8026
▁lodge	-10.803
▁equal	-10.803
▁patient	-10.8031
eg	-10.8031
▁provoke	-10.8031
▁blank	-10.8035
▁hills	-10.8036
▁strike	-10.8036
▁Bethlehem	-10.8037
▁Caiaphas	-10.8037
▁Cephas	-10.8037
▁Cilicia	-10.8037
▁Dinah	-10.8037
▁Major	-10.8037
▁Naphtali	-10.8037
▁Rejoice	-10.8037
▁Return	-10.8037
▁Stretch	-10.8037
▁Zebulun	-10.8037
▁abundance	-10.8037
▁advantage	-10.8037
▁almonds	-10.8037
▁anguish	-10.8037
▁attempt	-10.8037
▁beauty	-10.8037
▁brasen	-10.8037
▁capital	-10.8037
▁coffee	-10.8037
▁courage	-10.8037
▁dancing	-10.8037
▁example	-10.8037
▁expedient	-10.8037
▁experience	-10.8037
▁miserable	-10.8037
▁necessity	-10.8037
▁ouches	-10.8037
▁perdition	-10.8037
▁redemption	-10.8037
▁tunnel	-10.8037
▁uncircumcised	-10.8037
▁valley	-10.8037
▁wolf	-10.8037
▁wreathen	-10.8037
▁Honor	-10.8037
▁pattern	-10.8037
▁perils	-10.8037
▁Barabbas	-10.8037
▁easy	-10.8037
▁doesn	-10.8037
▁fillets	-10.8037
▁conversation	-10.8037
▁Gerar	-10.8037
▁impossible	-10.8037
▁Tyre	-10.8037
▁cloak	-10.8037
▁calm	-10.8037
▁abomination	-10.8037
▁supply	-10.8037
▁babes	-10.8037
▁narrow	-10.8037
▁Mark	-10.8037
▁blameless	-10.8037
▁Great	-10.8037
▁bugs	-10.8037
▁Rome	-10.8037
▁disgust	-10.8037
▁blasphemy	-10.8037
▁nets	-10.8037
▁Six	-10.8037
▁Adah	-10.8037
▁covetousness	-10.8037
▁Think	-10.8038
▁pledge	-10.8038
▁seized	-10.8038
▁stories	-10.8038
▁baby	-10.8038
▁farther	-10.8038
▁Eber	-10.8038
▁privately	-10.8038
▁profitable	-10.8039
▁sorrowful	-10.8039
▁townhouse	-10.8039
▁weakness	-10.8039
▁yelled	-10.804
▁Lowan	-10.804
▁howbeit	-10.804
▁Jake	-10.804
▁coals	-10.8041
▁chance	-10.8041
▁lump	-10.8042
▁grabbed	-10.8042
▁ordained	-10.8042
▁kindled	-10.8042
▁entirely	-10.8043
down	-10.8043
▁tin	-10.8043
▁clay	-10.8043
▁firstfruits	-10.8043
▁uncleanness	-10.8044
▁becoming	-10.8044
▁hopeless	-10.8045
▁endured	-10.8045
▁suggested	-10.8045
▁arrows	-10.8046
▁saluteth	-10.8046
▁proved	-10.8047
▁descending	-10.8047
▁clearly	-10.8048
▁songs	-10.8048
▁vast	-10.8048
▁spies	-10.8049
▁crow	-10.8051
▁zealous	-10.8051
▁disappeared	-10.8052
▁chickens	-10.8053
▁anyway	-10.8055
▁stripes	-10.8057
▁signet	-10.8057
▁health	-10.8059
▁openly	-10.8061
▁porch	-10.8062
▁perfectly	-10.8062
▁dressed	-10.8063
▁granted	-10.8063
▁teacheth	-10.8067
▁Pr	-10.8067
▁pearls	-10.8067
▁clothing	-10.8068
▁corrupted	-10.807
▁freely	-10.807
▁island	-10.8074
▁diseases	-10.8074
▁ridges	-10.8075
▁discover	-10.8083
▁limbs	-10.8085
▁asketh	-10.8087
▁quarter	-10.8092
▁barely	-10.8095
▁wagons	-10.8095
▁transgressions	-10.8096
▁becometh	-10.8096
▁Red	-10.8098
▁thinketh	-10.8101
▁repented	-10.8101
cy	-10.8105
▁seem	-10.8105
ip	-10.8108
ook	-10.8114
▁Wi	-10.8115
▁gained	-10.8122
▁obeyed	-10.8122
▁drops	-10.8128
▁ordinances	-10.8139
▁princes	-10.8139
▁judgest	-10.8153
▁smaller	-10.8155
▁Write	-10.8156
ould	-10.8163
▁perfected	-10.8165
reby	-10.8176
▁tear	-10.8178
▁towns	-10.8178
▁El	-10.8179
▁shepherds	-10.8182
▁weeks	-10.8192
▁preacher	-10.8204
▁sawest	-10.8209
▁snake	-10.8209
▁opening	-10.8241
ards	-10.8241
nother	-10.826
▁cheek	-10.8295
▁goodly	-10.8306
▁rods	-10.832
aking	-10.8336
▁rail	-10.836
ved	-10.8414
▁ti	-10.842
▁Z	-10.848
ms	-10.8503
▁thro	-10.8506
▁sisters	-10.8508
▁stra	-10.8562
ise	-10.8574
▁inward	-10.8585
av	-10.8651
mah	-10.87
▁acknowledge	-10.8701
lot	-10.8751
▁Jo	-10.8807
▁rec	-10.8845
dd	-10.8856
lit	-10.8889
tion	-10.8907
▁su	-10.896
lly	-10.9104
Get	-10.9119
▁gets	-10.9161
So	-10.9191
ough	-10.9225
ked	-10.9231
af	-10.9254
vil	-10.9257
ished	-10.9288
pro	-10.9297
ttach	-10.9306
▁god	-10.9326
house	-10.9337
▁strip	-10.9343
▁roll	-10.9353
▁bullock	-10.9367
▁platter	-10.9368
lt	-10.9369
▁plant	-10.9369
▁envy	-10.9372
pon	-10.9373
▁blade	-10.9378
▁harp	-10.9379
▁plague	-10.9381
▁Roman	-10.9381
▁palm	-10.9384
▁clothe	-10.9386
▁mock	-10.9389
▁talent	-10.939
▁breast	-10.9391
▁shoe	-10.9391
skins	-10.9391
▁Pig	-10.9398
W	-10.9405
▁listen	-10.9418
work	-10.9423
Just	-10.9424
Where	-10.9425
deep	-10.9426
My	-10.9427
mount	-10.943
▁pick	-10.943
stool	-10.9438
▁afflict	-10.9438
▁favour	-10.944
▁compass	-10.944
▁jump	-10.944
▁finish	-10.944
but	-10.9448
▁agree	-10.9448
▁persecute	-10.9452
▁complete	-10.9455
▁stedfast	-10.9458
▁withstand	-10.9459
▁gracious	-10.9459
▁silent	-10.946
▁rebuke	-10.946
▁quick	-10.9461
▁potato	-10.9461
▁careful	-10.9463
▁birth	-10.9464
▁affection	-10.9464
▁Galil	-10.9465
▁Achaia	-10.9465
▁Aholibamah	-10.9465
▁Arphaxad	-10.9465
▁Beelzebub	-10.9465
▁Children	-10.9465
▁Cornelius	-10.9465
▁Cyprus	-10.9465
▁Eliphaz	-10.9465
▁Elisabeth	-10.9465
▁Faithful	-10.9465
▁Felix	-10.9465
▁Fussy	-10.9465
▁Hezron	-10.9465
▁Korah	-10.9465
▁Lieutenant	-10.9465
▁Melchizedek	-10.9465
▁Milcah	-10.9465
▁Zilpah	-10.9465
▁Zoar	-10.9465
▁adversaries	-10.9465
▁adversary	-10.9465
▁enormous	-10.9465
▁finally	-10.9465
▁fourscore	-10.9465
▁freedom	-10.9465
▁frozen	-10.9465
▁furniture	-10.9465
▁grandchildren	-10.9465
▁grapes	-10.9465
▁hundredfold	-10.9465
▁incorruptible	-10.9465
▁infirmity	-10.9465
▁mediator	-10.9465
▁midwives	-10.9465
▁mischief	-10.9465
▁obedient	-10.9465
▁opportunity	-10.9465
▁outdoors	-10.9465
▁perceiving	-10.9465
▁pertain	-10.9465
▁refuge	-10.9465
▁regular	-10.9465
▁ringstraked	-10.9465
▁sinneth	-10.9465
▁stockade	-10.9465
▁supposing	-10.9465
▁Beware	-10.9465
▁Galatia	-10.9465
▁occupied	-10.9465
▁offspring	-10.9465
▁sixteen	-10.9465
▁tithes	-10.9465
▁aloud	-10.9465
▁carnal	-10.9465
▁gnash	-10.9465
▁selfsame	-10.9465
▁useful	-10.9465
▁Olives	-10.9465
▁reins	-10.9465
▁solid	-10.9465
▁various	-10.9465
▁wolves	-10.9465
▁Grounds	-10.9465
▁punishment	-10.9465
▁steep	-10.9465
▁Cyren	-10.9465
▁Hades	-10.9465
▁Enos	-10.9465
▁soweth	-10.9465
▁Nobody	-10.9465
▁shineth	-10.9465
▁runners	-10.9465
▁beware	-10.9465
▁important	-10.9465
▁managed	-10.9465
▁slaughter	-10.9465
▁myrrh	-10.9465
▁imagination	-10.9465
▁birthright	-10.9466
▁Those	-10.9466
▁leaned	-10.9466
▁value	-10.9466
▁consecrate	-10.9466
▁shapes	-10.9466
▁storm	-10.9466
▁mercies	-10.9466
▁surnamed	-10.9466
▁comment	-10.9467
▁rejecteth	-10.9467
▁strove	-10.9467
▁stuck	-10.9467
▁holiness	-10.9467
▁forsake	-10.9467
▁crawling	-10.9467
▁thrust	-10.9467
▁perplexed	-10.9468
▁clever	-10.9468
▁poked	-10.9468
▁evermore	-10.9469
▁southward	-10.9469
▁onyx	-10.9469
▁pursued	-10.947
▁deceived	-10.947
▁specially	-10.947
▁eastward	-10.947
▁grate	-10.947
▁box	-10.9471
▁swarm	-10.9471
▁rubbed	-10.9471
▁gladness	-10.9472
▁ascended	-10.9473
▁restored	-10.9473
▁proceedeth	-10.9474
▁hatch	-10.9474
▁observed	-10.9474
▁settled	-10.9475
▁menservants	-10.9475
▁refreshed	-10.9475
▁scratched	-10.9475
▁Watch	-10.9477
▁strengthened	-10.9479
▁loaded	-10.9479
▁flight	-10.948
▁doves	-10.948
▁sweareth	-10.9481
▁human	-10.9482
▁whensoever	-10.9482
▁Hereby	-10.9483
▁passage	-10.9483
▁sealed	-10.9484
▁cla	-10.9486
▁tasted	-10.9486
▁gladly	-10.9486
▁scared	-10.9486
▁seats	-10.9486
▁weary	-10.9487
bsta	-10.9489
▁leadeth	-10.949
▁sickle	-10.9491
▁climbing	-10.9491
▁teachest	-10.9491
▁err	-10.9492
▁answereth	-10.9492
▁flowing	-10.9492
▁Only	-10.9495
▁wondering	-10.9498
earing	-10.9498
▁Cainan	-10.9499
ove	-10.95
dy	-10.9504
▁tempt	-10.9513
▁learning	-10.9521
▁Amorites	-10.9522
▁Whose	-10.9528
▁growing	-10.9528
▁redeemed	-10.9532
▁fainted	-10.9533
▁suffering	-10.9535
▁plans	-10.9537
▁drawing	-10.9538
▁added	-10.9543
▁doctor	-10.9545
▁wouldn	-10.955
▁trunks	-10.9559
▁steps	-10.9559
▁bur	-10.9571
fully	-10.9584
▁coast	-10.9592
▁ne	-10.9601
▁pitch	-10.9605
▁upward	-10.9606
▁convict	-10.9607
▁feeding	-10.9608
▁shadows	-10.9611
▁herbs	-10.9617
more	-10.9621
▁mightest	-10.9622
▁casteth	-10.9623
ort	-10.9628
▁lovely	-10.9638
▁placed	-10.9642
▁dogs	-10.9654
▁killing	-10.9655
tch	-10.9676
ls	-10.969
▁possessions	-10.9697
ram	-10.9703
▁Bar	-10.9721
▁candlesticks	-10.9723
▁com	-10.974
ger	-10.9743
most	-10.9753
▁blaspheme	-10.9764
▁captains	-10.9811
▁butter	-10.983
ai	-10.9864
ba	-10.9869
▁books	-10.9874
bo	-10.9886
▁castle	-10.9891
▁plan	-10.9929
dding	-10.9929
ving	-10.9967
▁cri	-10.997
▁boats	-10.9987
▁sounds	-10.9997
da	-11.0005
▁courts	-11.0015
▁hairs	-11.0086
gs	-11.0107
▁cru	-11.0112
▁tents	-11.0166
gers	-11.0217
▁Na	-11.0231
▁Pa	-11.0243
ale	-11.0249
▁scar	-11.025
▁liken	-11.0258
ep	-11.0288
uth	-11.0328
▁blo	-11.0373
ct	-11.0388
oo	-11.0404
ann	-11.042
ect	-11.0422
lic	-11.0507
▁Hast	-11.0518
▁Ad	-11.055
pho	-11.059
ron	-11.0598
rr	-11.0639
pl	-11.0661
pa	-11.0667
rah	-11.0751
gate	-11.0794
rist	-11.0805
▁Ne	-11.0855
xe	-11.0887
ile	-11.0904
▁im	-11.0906
▁i	-11.091
rk	-11.0932
owest	-11.0954
▁stir	-11.0956
uel	-11.0968
▁ea	-11.097
servant	-11.0977
▁claim	-11.1008
▁sum	-11.1019
▁idol	-11.1031
▁balloon	-11.1034
▁labour	-11.1034
▁scatter	-11.1039
▁sepulchre	-11.1043
▁group	-11.1043
▁figure	-11.1044
▁brick	-11.1044
▁statute	-11.1047
▁persecution	-11.1047
▁provision	-11.1047
▁messenger	-11.1049
▁dozen	-11.1049
▁maidservant	-11.1051
▁transgression	-11.1052
▁Canaanite	-11.1058
▁officer	-11.1059
▁fool	-11.106
▁murderer	-11.1065
H	-11.1072
▁publican	-11.1072
control	-11.1079
Go	-11.1083
Please	-11.1085
▁search	-11.1085
chamber	-11.109
workers	-11.1091
Templeton	-11.1092
Come	-11.1092
▁utter	-11.1093
Some	-11.1093
▁Si	-11.1095
▁rush	-11.1099
▁gird	-11.1101
▁confirm	-11.1103
▁enjoy	-11.1104
▁attain	-11.1104
▁admonish	-11.1105
▁reveal	-11.1107
▁bark	-11.1112
▁serv	-11.1115
▁eviden	-11.1116
She	-11.1118
▁Er	-11.1119
▁exercise	-11.1121
All	-11.1122
▁deceive	-11.1124
▁befall	-11.1125
▁desperate	-11.1126
▁provide	-11.1126
▁music	-11.1126
▁assured	-11.1126
urthermore	-11.1126
▁fierce	-11.1126
▁inquire	-11.1127
▁remove	-11.1127
ollow	-11.1129
▁require	-11.1129
▁special	-11.1129
▁gentle	-11.1129
▁De	-11.113
▁Reu	-11.113
▁glorious	-11.113
▁Syria	-11.1131
▁correct	-11.1131
▁effect	-11.1132
▁magic	-11.1132
torium	-11.1132
▁Alexander	-11.1132
▁Aquila	-11.1132
▁Bashemath	-11.1132
▁Believe	-11.1132
▁Bezaleel	-11.1132
▁Creek	-11.1132
▁Eleazar	-11.1132
▁Iconium	-11.1132
▁Issachar	-11.1132
▁Jericho	-11.1132
▁KING	-11.1132
▁Laodicea	-11.1132
▁Lystra	-11.1132
▁Machpelah	-11.1132
▁Mahalaleel	-11.1132
▁Methuselah	-11.1132
▁Nazarene	-11.1132
▁Peleg	-11.1132
▁Suffer	-11.1132
▁Tennessee	-11.1132
▁Troas	-11.1132
▁Whether	-11.1132
▁Without	-11.1132
▁Zibeon	-11.1132
▁aforetime	-11.1132
▁audience	-11.1132
▁autumn	-11.1132
▁baptizing	-11.1132
▁blemish	-11.1132
▁bracelets	-11.1132
▁ceiling	-11.1132
▁conditions	-11.1132
▁desolation	-11.1132
▁doughnut	-11.1132
▁eldest	-11.1132
▁enmity	-11.1132
▁ensample	-11.1132
▁existence	-11.1132
▁foreordained	-11.1132
▁hindered	-11.1132
▁hypocrisy	-11.1132
▁jasper	-11.1132
▁merchandise	-11.1132
▁mirror	-11.1132
▁newspaper	-11.1132
▁opinion	-11.1132
▁pervert	-11.1132
▁plenteous	-11.1132
▁prophesied	-11.1132
▁queer	-11.1132
▁receiving	-11.1132
▁rejoicing	-11.1132
▁relief	-11.1132
▁reprobate	-11.1132
▁rotten	-11.1132
▁shield	-11.1132
▁situation	-11.1132
▁sniffed	-11.1132
▁stricken	-11.1132
▁tetrarch	-11.1132
▁tobacco	-11.1132
▁unprofitable	-11.1132
▁vinegar	-11.1132
▁Hebron	-11.1132
▁Salah	-11.1132
▁Sunday	-11.1132
▁Tamar	-11.1132
▁cleave	-11.1132
▁distant	-11.1132
▁foreskin	-11.1132
▁overshadow	-11.1132
▁reserved	-11.1132
▁taskmasters	-11.1132
▁triumph	-11.1132
▁Eden	-11.1132
▁durst	-11.1132
▁lonely	-11.1132
▁serious	-11.1132
▁downhill	-11.1132
▁herdmen	-11.1132
▁ignorance	-11.1132
▁magnified	-11.1132
▁message	-11.1132
▁extra	-11.1132
▁majesty	-11.1132
▁needlework	-11.1132
▁paused	-11.1132
▁estate	-11.1132
▁sinful	-11.1132
▁limit	-11.1132
▁breeze	-11.1132
▁dragged	-11.1132
▁unfruitful	-11.1132
▁Government	-11.1132
▁nurse	-11.1132
▁Army	-11.1132
▁proving	-11.1132
▁squatted	-11.1132
▁tenons	-11.1132
▁treasury	-11.1132
▁realized	-11.1132
▁foursquare	-11.1132
▁Rise	-11.1133
▁government	-11.1133
art	-11.1133
▁hogs	-11.1133
▁Repent	-11.1133
▁Alph	-11.1133
▁paths	-11.1133
▁object	-11.1133
▁readiness	-11.1133
▁barnyard	-11.1133
▁ripe	-11.1133
▁wagon	-11.1133
▁Jared	-11.1133
▁Syrian	-11.1133
▁eighth	-11.1133
▁dashed	-11.1134
▁Shelah	-11.1134
▁rattling	-11.1134
▁purchased	-11.1134
iness	-11.1134
iel	-11.1134
▁belongeth	-11.1135
▁somebody	-11.1135
▁fixed	-11.1135
▁Reuel	-11.1135
▁cupped	-11.1135
▁stink	-11.1135
▁recover	-11.1135
▁larger	-11.1135
▁reproved	-11.1135
▁pounds	-11.1135
▁surety	-11.1135
▁sprinkled	-11.1135
▁emptied	-11.1136
▁spotted	-11.1136
▁study	-11.1136
▁sufficient	-11.1136
▁inquired	-11.1137
▁Rain	-11.1137
▁nodded	-11.1137
▁setting	-11.1137
▁squash	-11.1138
▁usual	-11.1138
▁edifying	-11.1138
▁completely	-11.1138
▁defileth	-11.1138
▁constrained	-11.1139
▁repeated	-11.1139
▁vexed	-11.1139
▁begged	-11.114
▁whoso	-11.114
▁whiskers	-11.114
▁direct	-11.114
▁convert	-11.1141
aving	-11.1141
▁Judge	-11.1142
▁examined	-11.1142
▁unless	-11.1143
▁justice	-11.1143
▁partake	-11.1144
▁released	-11.1145
▁softly	-11.1146
▁sickness	-11.1147
▁despised	-11.1147
▁cursed	-11.1148
▁evident	-11.1148
▁plainly	-11.1149
▁instructed	-11.1149
▁collected	-11.1149
▁yielding	-11.115
▁groweth	-11.115
▁Cast	-11.115
▁success	-11.1152
▁rocky	-11.1152
▁toucheth	-11.1152
▁leaped	-11.1154
▁sojourned	-11.1154
▁searching	-11.1154
▁Old	-11.1157
▁pots	-11.1157
▁hairy	-11.1157
ounded	-11.1158
▁engrav	-11.1158
pers	-11.1158
▁laden	-11.1159
▁uttered	-11.1159
mon	-11.1161
▁riding	-11.1163
▁compassed	-11.1164
▁picked	-11.1164
▁measured	-11.1165
▁groaning	-11.1166
▁testifying	-11.1166
▁openeth	-11.1168
▁actually	-11.1171
▁range	-11.1172
▁backward	-11.1173
▁distressed	-11.1173
▁melt	-11.1175
▁accepted	-11.1178
lations	-11.118
▁dangerous	-11.1182
▁fountains	-11.1184
▁murmurings	-11.1185
pensation	-11.1193
▁clearing	-11.1196
▁Samaritans	-11.1199
▁marketplaces	-11.1199
cted	-11.1201
▁covet	-11.1201
▁questionings	-11.1203
▁exhorted	-11.1208
▁dec	-11.1208
▁appearing	-11.1212
▁maidservants	-11.1215
▁burying	-11.1215
▁labored	-11.1218
▁armed	-11.122
▁sendeth	-11.1225
▁palms	-11.1229
▁plants	-11.123
▁Eli	-11.1231
▁drinketh	-11.1234
ure	-11.1234
▁subjected	-11.1237
▁housetop	-11.124
▁smelling	-11.1245
▁workers	-11.1246
▁coves	-11.1247
▁fasting	-11.1253
▁virgins	-11.1259
▁knops	-11.1274
▁speakest	-11.1275
▁stronger	-11.1275
▁rained	-11.1306
▁du	-11.1308
▁Jes	-11.1311
corn	-11.1325
▁supplications	-11.1334
▁occasions	-11.1335
uff	-11.1343
gg	-11.1351
▁helping	-11.1358
eak	-11.1361
▁presented	-11.1371
▁track	-11.1372
▁ax	-11.1374
▁serpents	-11.138
▁roots	-11.1381
▁mu	-11.143
”	-11.1469
▁Cherokees	-11.147
▁creeks	-11.147
og	-11.1491
▁Al	-11.1493
▁Ja	-11.1519
▁dreaming	-11.1543
ges	-11.1543
▁bla	-11.1569
miss	-11.1576
Hur	-11.1617
ants	-11.1626
▁fa	-11.1659
▁tempera	-11.1677
lu	-11.1687
some	-11.1763
▁process	-11.1769
aven	-11.1772
sc	-11.1787
rink	-11.1805
vi	-11.1824
L	-11.194
tars	-11.1946
bah	-11.198
lk	-11.1991
▁prop	-11.2021
ob	-11.2023
tern	-11.2041
hew	-11.2057
▁cur	-11.2114
▁execute	-11.2174
▁Le	-11.2215
colored	-11.2255
▁imp	-11.2261
ches	-11.2276
mo	-11.2277
ber	-11.2284
cked	-11.2292
hog	-11.2364
T	-11.2388
▁whi	-11.2446
▁chi	-11.2455
ga	-11.2475
va	-11.249
ping	-11.2528
▁member	-11.2535
ue	-11.2543
ary	-11.2598
block	-11.2632
▁treasures	-11.2686
king	-11.2686
ried	-11.2703
atch	-11.2726
per	-11.2727
aked	-11.2751
ace	-11.2759
lee	-11.2798
▁nuts	-11.28
night	-11.2821
ff	-11.2864
ran	-11.2867
long	-11.289
ou	-11.2898
morrow	-11.2905
▁tea	-11.2909
▁pie	-11.2909
▁litt	-11.2931
Not	-11.2932
ailed	-11.2939
▁vo	-11.2945
arn	-11.2951
▁twist	-11.2979
▁Ca	-11.2986
umb	-11.2987
▁Bu	-11.2994
ccording	-11.3009
▁motion	-11.302
cut	-11.3027
hold	-11.3027
▁tumult	-11.3034
▁candle	-11.3034
▁instruction	-11.3034
▁Sheba	-11.3035
▁view	-11.3042
▁division	-11.3043
▁clerk	-11.3048
▁skull	-11.3048
▁chestnut	-11.3049
▁eunuch	-11.3049
▁shilling	-11.3049
▁Samaritan	-11.305
▁marketplace	-11.305
▁Amorite	-11.3051
▁plate	-11.3052
▁Day	-11.306
▁sojourn	-11.3061
▁En	-11.3062
ith	-11.3062
▁limb	-11.3068
cre	-11.3077
▁pluck	-11.3078
▁expect	-11.3079
▁disappear	-11.3079
▁yield	-11.3083
Of	-11.3092
When	-11.3092
Wilbur	-11.3092
▁handful	-11.3096
threw	-11.3096
▁tw	-11.3098
▁pull	-11.3099
midst	-11.3103
▁prevail	-11.3107
▁zeal	-11.3108
▁possess	-11.3108
▁lunch	-11.3109
▁appeal	-11.311
Bee	-11.3112
▁treat	-11.3116
▁push	-11.3116
▁confident	-11.3126
▁fervent	-11.3126
▁scourge	-11.3126
▁imagine	-11.3127
▁deceitful	-11.3127
▁brief	-11.3127
▁circumcise	-11.3127
▁conceive	-11.3127
▁recent	-11.3128
▁difficult	-11.3129
▁decide	-11.3129
▁questioning	-11.3129
ump	-11.313
▁leap	-11.313
▁overthrow	-11.3131
▁deceit	-11.3131
▁conf	-11.3131
▁Corinth	-11.3132
▁Bethsaida	-11.3132
▁Boudinot	-11.3132
▁Capitol	-11.3132
▁Chedorlaomer	-11.3132
▁Deliver	-11.3132
▁Depart	-11.3132
▁Diana	-11.3132
▁Friend	-11.3132
▁Gaius	-11.3132
▁Hosanna	-11.3132
▁Like	-11.3132
▁Nadab	-11.3132
▁Nathanael	-11.3132
▁Next	-11.3132
▁Pamphylia	-11.3132
▁Suddenly	-11.3132
▁Tarsus	-11.3132
▁Thomas	-11.3132
▁Tychicus	-11.3132
▁Whither	-11.3132
▁YHWH	-11.3132
▁accompanied	-11.3132
▁accurately	-11.3132
▁affrighted	-11.3132
▁amazement	-11.3132
▁argument	-11.3132
▁attitude	-11.3132
▁babies	-11.3132
▁betrothed	-11.3132
▁carriage	-11.3132
▁confusion	-11.3132
▁cornmeal	-11.3132
▁corruptible	-11.3132
▁cotton	-11.3132
▁decision	-11.3132
▁declaring	-11.3132
▁dissolved	-11.3132
▁excess	-11.3132
▁filthy	-11.3132
▁furlongs	-11.3132
▁grandmother	-11.3132
▁grandstand	-11.3132
▁grinned	-11.3132
▁hemlock	-11.3132
▁heretofore	-11.3132
▁hospitality	-11.3132
▁hurry	-11.3132
▁imitators	-11.3132
▁including	-11.3132
▁indoors	-11.3132
▁infirmities	-11.3132
▁insurrection	-11.3132
▁intrusted	-11.3132
▁invisible	-11.3132
▁kinsmen	-11.3132
▁lascivious	-11.3132
▁mandrakes	-11.3132
▁manifold	-11.3132
▁nutrients	-11.3132
▁organisms	-11.3132
▁powder	-11.3132
▁pretend	-11.3132
▁profane	-11.3132
▁progress	-11.3132
▁property	-11.3132
▁racket	-11.3132
▁religion	-11.3132
▁rumor	-11.3132
▁sincerity	-11.3132
▁spinnerets	-11.3132
▁stiffnecked	-11.3132
▁straitened	-11.3132
▁studied	-11.3132
▁stunned	-11.3132
▁support	-11.3132
▁swollen	-11.3132
▁terrified	-11.3132
▁thieves	-11.3132
▁thoroughly	-11.3132
▁ungodliness	-11.3132
▁vanity	-11.3132
▁whisky	-11.3132
▁beguile	-11.3132
▁charging	-11.3132
▁consecration	-11.3132
▁difference	-11.3132
▁flavor	-11.3132
▁magazine	-11.3132
▁memory	-11.3132
▁otherwise	-11.3132
▁provender	-11.3132
▁riverboat	-11.3132
▁sprinkling	-11.3132
▁swelling	-11.3132
▁trodden	-11.3132
▁Aholi	-11.3132
▁Serug	-11.3132
▁avoid	-11.3132
▁scales	-11.3132
▁Herodias	-11.3132
▁sweep	-11.3132
▁upstairs	-11.3132
▁citizenship	-11.3132
▁heavily	-11.3132
▁period	-11.3132
▁Jason	-11.3132
▁attack	-11.3132
▁gravity	-11.3132
▁ransom	-11.3132
▁vengeance	-11.3132
▁Three	-11.3132
▁carton	-11.3132
▁muttered	-11.3132
▁seventeen	-11.3132
▁throwing	-11.3132
▁trimmed	-11.3132
▁spilled	-11.3132
▁crumbs	-11.3132
▁darts	-11.3132
▁potter	-11.3132
▁shortened	-11.3132
Humble	-11.3132
▁Stand	-11.3132
▁Zerah	-11.3132
▁envie	-11.3132
▁odor	-11.3132
▁orchard	-11.3132
▁Philippi	-11.3132
▁wheels	-11.3132
▁barley	-11.3132
▁capture	-11.3132
▁tag	-11.3132
▁urgent	-11.3132
▁Through	-11.3132
▁stewardship	-11.3132
▁westward	-11.3132
▁divine	-11.3132
▁accusation	-11.3132
▁consolation	-11.3132
▁Deep	-11.3132
▁probably	-11.3132
▁fables	-11.3132
▁liquor	-11.3132
▁task	-11.3132
▁excellency	-11.3132
▁victory	-11.3132
▁tares	-11.3132
▁dollar	-11.3132
▁gentlemen	-11.3132
▁utterance	-11.3132
▁delay	-11.3132
▁firm	-11.3132
▁worried	-11.3133
▁borrow	-11.3133
▁Chief	-11.3133
▁stripped	-11.3133
▁displeased	-11.3133
▁tangled	-11.3133
▁White	-11.3133
▁Duke	-11.3133
▁duty	-11.3133
▁expectation	-11.3133
▁Scotch	-11.3133
▁forsook	-11.3133
▁offence	-11.3133
▁friendship	-11.3133
▁bucket	-11.3133
▁damp	-11.3133
▁grief	-11.3133
▁spinning	-11.3133
▁landscape	-11.3133
▁brook	-11.3133
▁thrashing	-11.3134
▁appearance	-11.3134
▁cutting	-11.3134
▁leftover	-11.3134
▁uncertain	-11.3134
▁shamefully	-11.3134
▁signified	-11.3134
▁deaf	-11.3134
▁bowels	-11.3134
▁motionless	-11.3134
▁distinction	-11.3135
▁cruel	-11.3135
▁continuing	-11.3135
▁election	-11.3135
▁relieved	-11.3135
▁frightened	-11.3135
▁punished	-11.3135
▁gnawed	-11.3135
▁trash	-11.3135
▁trembled	-11.3136
▁dipped	-11.3137
▁kneeled	-11.3137
▁ladies	-11.3137
▁priesthood	-11.3137
▁Keep	-11.3137
▁Jonah	-11.3137
▁slumber	-11.3138
▁square	-11.3138
▁purse	-11.3138
▁potatoes	-11.3138
▁vile	-11.3138
▁directly	-11.3138
▁graven	-11.3139
▁gainsaying	-11.314
▁dung	-11.314
▁mixed	-11.3141
▁weighed	-11.3141
▁lodged	-11.3141
▁chuckled	-11.3141
▁explained	-11.3141
▁inhabited	-11.3141
▁brushed	-11.3141
▁closer	-11.3142
▁squirrels	-11.3142
▁Sometimes	-11.3143
▁comfortable	-11.3144
▁chastening	-11.3145
▁fourteenth	-11.3145
▁humbled	-11.3147
▁Jose	-11.3147
▁forgotten	-11.3147
▁position	-11.3147
▁gree	-11.3148
▁blasphemed	-11.315
▁forthwith	-11.3152
▁severally	-11.3152
▁Over	-11.3152
▁Heaven	-11.3152
▁published	-11.3153
▁stooped	-11.3153
▁bestowed	-11.3153
▁fasten	-11.3153
▁assembled	-11.3153
▁grievously	-11.3154
▁pulling	-11.3155
▁informed	-11.3156
▁stage	-11.3156
▁smiteth	-11.3157
▁bells	-11.3158
▁moth	-11.3158
▁fastened	-11.3159
▁yielded	-11.3159
▁barking	-11.316
▁warriors	-11.316
▁idolaters	-11.316
▁harden	-11.3163
▁rushing	-11.3165
▁whispering	-11.3166
land	-11.3167
▁Nothing	-11.3167
servants	-11.3167
▁laborers	-11.3168
▁closely	-11.3168
▁mighti	-11.3168
▁perisheth	-11.3169
cker	-11.3171
▁girded	-11.3171
▁claimed	-11.3171
▁failing	-11.3174
▁pur	-11.3174
▁rust	-11.3174
Thank	-11.3175
▁tormented	-11.3177
▁Jebusites	-11.3179
▁Perizzites	-11.3179
▁fornicators	-11.3179
▁shelters	-11.3179
▁however	-11.3181
▁delighted	-11.3183
▁treated	-11.3184
▁lowered	-11.319
▁proceeded	-11.319
▁fatherless	-11.3191
▁passions	-11.3193
▁veiled	-11.3195
▁crack	-11.3197
▁droppings	-11.3197
▁sparrows	-11.3197
▁joints	-11.3199
▁filling	-11.3205
▁interesting	-11.3206
▁scattering	-11.3206
iest	-11.3206
▁needeth	-11.3207
▁Once	-11.3207
▁upside	-11.3209
▁exhorting	-11.321
▁serveth	-11.3213
▁thinkest	-11.3214
▁considered	-11.3214
▁gi	-11.3214
▁plates	-11.3216
▁shillings	-11.3216
▁chestnuts	-11.3216
▁eunuchs	-11.3216
▁mocking	-11.3219
▁whatever	-11.322
▁sailing	-11.3223
▁entereth	-11.3225
▁fashioned	-11.3226
▁breathing	-11.3228
▁dozens	-11.3234
▁messengers	-11.3234
▁accounted	-11.3245
times	-11.3245
▁breathed	-11.3248
▁strips	-11.3253
▁highly	-11.3267
where	-11.3273
▁efforts	-11.329
▁notice	-11.3299
▁prophesying	-11.33
ally	-11.3303
▁minutes	-11.3309
▁windows	-11.3309
II	-11.3309
lings	-11.3319
▁hatchets	-11.3328
▁pointed	-11.3338
▁firstling	-11.3347
▁ver	-11.3348
▁deadly	-11.3362
how	-11.3387
▁personal	-11.3399
▁questions	-11.3423
▁fowls	-11.344
▁miracles	-11.344
bout	-11.345
ious	-11.3463
▁starv	-11.3466
▁helped	-11.3471
▁afterwards	-11.3478
fi	-11.3504
▁pleasures	-11.3535
▁trou	-11.3535
ez	-11.355
▁inn	-11.3553
ub	-11.3553
▁tails	-11.3553
hai	-11.3611
▁Te	-11.3635
▁tre	-11.3637
ky	-11.3638
▁Bo	-11.3638
arm	-11.3642
▁Ph	-11.3645
▁images	-11.3649
cur	-11.3666
▁Tem	-11.3682
itting	-11.3688
▁orders	-11.3689
yed	-11.3722
arted	-11.3748
▁points	-11.3764
cession	-11.3796
ipped	-11.3801
ift	-11.3815
▁gra	-11.383
wed	-11.3852
▁whit	-11.3902
ves	-11.4029
ection	-11.4055
▁pl	-11.4066
kes	-11.4077
▁Gr	-11.4117
▁Gree	-11.4151
▁y	-11.4158
▁overtake	-11.4169
▁helps	-11.4174
▁kno	-11.4197
bas	-11.4201
▁Ho	-11.4227
▁jo	-11.4235
irst	-11.4255
▁k	-11.4269
ooked	-11.428
ani	-11.4326
fore	-11.435
▁peaceful	-11.4351
ta	-11.4359
ome	-11.442
ross	-11.4481
nic	-11.4487
▁Co	-11.4488
▁lu	-11.4495
▁trans	-11.4554
▁beg	-11.4558
▁Pi	-11.4573
han	-11.4608
nat	-11.4637
ple	-11.4697
ks	-11.4717
uc	-11.4782
br	-11.4851
os	-11.4853
ently	-11.4864
▁stro	-11.4902
rb	-11.4934
amo	-11.4986
kim	-11.5003
rew	-11.5072
wel	-11.5088
bel	-11.5151
▁prefer	-11.5162
ians	-11.5208
cu	-11.5213
F	-11.5268
liness	-11.5295
▁pu	-11.5303
▁Fa	-11.5371
pan	-11.5376
ying	-11.538
hath	-11.5412
▁decompos	-11.5422
his	-11.5434
mong	-11.5481
board	-11.5481
dge	-11.5489
gi	-11.5491
atchet	-11.5496
soever	-11.5506
ye	-11.551
▁swallow	-11.5521
▁quail	-11.5534
▁depth	-11.5535
▁folk	-11.5535
bag	-11.5539
▁deceiver	-11.5544
▁debtor	-11.5545
▁pomegranate	-11.5547
▁weapon	-11.5547
▁rank	-11.5547
▁sparrow	-11.555
▁dropping	-11.555
▁fountain	-11.555
▁disease	-11.5552
▁gosling	-11.5555
▁partaker	-11.5555
▁groan	-11.556
▁ridge	-11.5563
▁Bela	-11.5564
▁loop	-11.5566
urn	-11.5568
▁murmuring	-11.5574
▁gorge	-11.5574
Th	-11.5576
▁load	-11.5578
M	-11.558
▁invent	-11.5582
▁murmur	-11.5583
▁railing	-11.5583
Maybe	-11.5585
qui	-11.5586
▁descend	-11.5586
Stop	-11.5587
Nothing	-11.5588
full	-11.5589
Edith	-11.559
terrific	-11.559
Did	-11.5591
front	-11.5592
Who	-11.5593
▁knock	-11.5594
▁joint	-11.5595
If	-11.5595
ope	-11.5598
▁judg	-11.5598
▁collect	-11.5599
▁encamp	-11.56
kill	-11.56
▁entertain	-11.56
▁intreat	-11.5603
▁oppress	-11.5603
▁nourish	-11.5604
▁renew	-11.5604
▁instruct	-11.5605
▁publish	-11.5605
▁forbear	-11.5605
▁despair	-11.5605
▁bestow	-11.5606
Then	-11.5606
▁array	-11.5607
▁purify	-11.5608
They	-11.5609
▁stoop	-11.561
▁concern	-11.5612
▁grea	-11.5618
▁welcome	-11.5626
▁awful	-11.5626
▁cheerful	-11.5626
▁vague	-11.5626
▁surprise	-11.5627
▁arrange	-11.5627
▁tremble	-11.5627
▁reprove	-11.5627
▁sprinkle	-11.5627
▁abundant	-11.5627
▁approve	-11.5627
▁immediate	-11.5627
▁exact	-11.5627
▁adulter	-11.5628
▁transgress	-11.5628
▁cherub	-11.5629
▁debt	-11.5629
stitute	-11.563
kay	-11.5631
▁covetous	-11.5631
Listen	-11.5632
Terrific	-11.5632
▁Amminadab	-11.5632
▁Aristarchus	-11.5632
▁Comforter	-11.5632
▁Concerning	-11.5632
▁Congress	-11.5632
▁Consider	-11.5632
▁Cranshaw	-11.5632
▁Cursed	-11.5632
▁Derbe	-11.5632
▁Dishon	-11.5632
▁Ephrath	-11.5632
▁Euphrates	-11.5632
▁GOD	-11.5632
▁Gilead	-11.5632
▁Havilah	-11.5632
▁Hearken	-11.5632
▁Hogsucker	-11.5632
▁Ishmeelites	-11.5632
▁Ithamar	-11.5632
▁Kohath	-11.5632
▁Likewise	-11.5632
▁Michael	-11.5632
▁Nicodemus	-11.5632
▁PIG	-11.5632
▁Succoth	-11.5632
▁Zohar	-11.5632
▁absence	-11.5632
▁adjure	-11.5632
▁adoption	-11.5632
▁afford	-11.5632
▁assurance	-11.5632
▁beckoned	-11.5632
▁bleeding	-11.5632
▁blowgun	-11.5632
▁bodily	-11.5632
▁cabbage	-11.5632
▁century	-11.5632
▁chapiters	-11.5632
▁cinnamon	-11.5632
▁current	-11.5632
▁demanded	-11.5632
▁emerald	-11.5632
▁energy	-11.5632
▁engine	-11.5632
▁enquire	-11.5632
▁entrance	-11.5632
▁excitement	-11.5632
▁expounded	-11.5632
▁fraction	-11.5632
▁glutton	-11.5632
▁handkerchief	-11.5632
▁incorruption	-11.5632
▁instruments	-11.5632
▁leprosy	-11.5632
▁level	-11.5632
▁malice	-11.5632
▁mammon	-11.5632
▁millstone	-11.5632
▁mysteries	-11.5632
▁necessities	-11.5632
▁nostrils	-11.5632
▁obeisance	-11.5632
▁oracles	-11.5632
▁paddle	-11.5632
▁palsied	-11.5632
▁perform	-11.5632
▁perpetual	-11.5632
▁perverse	-11.5632
▁pilgrims	-11.5632
▁praising	-11.5632
▁president	-11.5632
▁pretence	-11.5632
▁proconsul	-11.5632
▁propitiation	-11.5632
▁province	-11.5632
▁pumpkins	-11.5632
▁queen	-11.5632
▁refrain	-11.5632
▁reproof	-11.5632
▁request	-11.5632
▁response	-11.5632
▁restitution	-11.5632
▁restrained	-11.5632
▁reverence	-11.5632
▁reviling	-11.5632
▁revived	-11.5632
▁sapphire	-11.5632
▁sardius	-11.5632
▁scrivener	-11.5632
▁sheepfold	-11.5632
▁showbread	-11.5632
▁shrank	-11.5632
▁slopes	-11.5632
▁smiled	-11.5632
▁terrible	-11.5632
▁terribly	-11.5632
▁terror	-11.5632
▁unloose	-11.5632
▁unmarried	-11.5632
▁unusual	-11.5632
▁whiskey	-11.5632
▁winepress	-11.5632
▁wondrous	-11.5632
▁Brother	-11.5632
▁Goodbye	-11.5632
▁Render	-11.5632
▁Salmon	-11.5632
▁Servant	-11.5632
▁belief	-11.5632
▁concubine	-11.5632
▁diminish	-11.5632
▁discreet	-11.5632
▁dodging	-11.5632
▁fungus	-11.5632
▁grinding	-11.5632
▁grunted	-11.5632
▁management	-11.5632
▁midday	-11.5632
▁mortal	-11.5632
▁mysterious	-11.5632
▁occur	-11.5632
▁picture	-11.5632
▁supplieth	-11.5632
▁Abib	-11.5632
▁Annas	-11.5632
▁forgave	-11.5632
▁foxes	-11.5632
▁greasy	-11.5632
▁insects	-11.5632
▁overmuch	-11.5632
▁thicket	-11.5632
▁turban	-11.5632
▁Shinar	-11.5632
▁Wendy	-11.5632
▁buryingplace	-11.5632
▁overtook	-11.5632
▁riverbank	-11.5632
▁visible	-11.5632
▁adulteress	-11.5632
▁framed	-11.5632
▁greeting	-11.5632
▁Haden	-11.5632
▁beggar	-11.5632
▁bondwoman	-11.5632
▁exchange	-11.5632
▁sackcloth	-11.5632
▁foggy	-11.5632
▁shovel	-11.5632
▁workmanship	-11.5632
▁Potiph	-11.5632
▁crouched	-11.5632
▁befell	-11.5632
▁particle	-11.5632
▁title	-11.5632
▁enchantments	-11.5632
▁hereafter	-11.5632
▁Preparation	-11.5632
▁liberality	-11.5632
▁overhead	-11.5632
▁ugly	-11.5632
▁crystal	-11.5632
▁Tears	-11.5632
▁middling	-11.5632
▁occupation	-11.5632
▁boughs	-11.5632
▁crisp	-11.5632
▁dances	-11.5632
▁games	-11.5632
▁noodle	-11.5632
▁southern	-11.5632
▁digging	-11.5632
▁Little	-11.5632
▁Italy	-11.5632
▁freewoman	-11.5632
▁imitate	-11.5632
▁cursing	-11.5632
▁principalities	-11.5632
▁communion	-11.5632
▁kicked	-11.5632
▁dragging	-11.5632
▁Buddy	-11.5632
▁marvellous	-11.5632
▁ribs	-11.5632
▁swift	-11.5632
▁thighs	-11.5632
▁thistles	-11.5632
▁clipping	-11.5632
▁liars	-11.5632
▁crushed	-11.5632
▁devise	-11.5632
▁announcement	-11.5632
▁guns	-11.5632
▁style	-11.5632
▁stacked	-11.5632
▁blasphemies	-11.5632
▁guilty	-11.5632
▁bereaved	-11.5632
▁stumblingblock	-11.5632
▁Christmas	-11.5633
▁justify	-11.5633
▁communicate	-11.5633
▁nests	-11.5633
▁propped	-11.5633
▁remainder	-11.5633
▁job	-11.5633
▁previous	-11.5633
▁tempest	-11.5633
▁arrival	-11.5633
▁satisfied	-11.5633
▁Walk	-11.5633
▁sworn	-11.5633
▁awkwardly	-11.5633
▁Wheresoever	-11.5633
▁flying	-11.5633
▁apostleship	-11.5633
▁hugged	-11.5633
▁oppose	-11.5633
▁package	-11.5633
▁simply	-11.5633
▁agreement	-11.5634
▁Draw	-11.5634
▁flour	-11.5634
▁contend	-11.5634
▁overthrown	-11.5634
▁gently	-11.5634
▁countries	-11.5634
▁cleansing	-11.5634
▁Back	-11.5634
▁circled	-11.5634
▁reconciled	-11.5634
▁conceal	-11.5634
▁disputed	-11.5634
▁Moab	-11.5634
▁flick	-11.5635
Wait	-11.5635
▁flew	-11.5635
inning	-11.5635
▁Pray	-11.5635
▁Drink	-11.5635
▁nearby	-11.5635
▁stedfastness	-11.5635
▁forsaken	-11.5636
▁favorable	-11.5636
▁difficulty	-11.5636
▁grafted	-11.5636
▁neglected	-11.5636
▁abolished	-11.5636
▁adorned	-11.5636
▁crooked	-11.5637
▁letting	-11.5637
▁rep	-11.5637
▁secretary	-11.5637
▁Whatsoever	-11.5637
▁Elam	-11.5637
▁polished	-11.5637
▁Shur	-11.5637
▁rehearsed	-11.5637
▁arranged	-11.5637
▁cheerfully	-11.5637
▁vaguely	-11.5637
▁general	-11.5638
▁husbandman	-11.5638
▁Eph	-11.5638
▁Weep	-11.5638
▁giant	-11.5639
▁accusers	-11.5639
▁embraced	-11.5639
▁briefly	-11.5639
they	-11.5639
▁easily	-11.5639
▁thirsty	-11.5639
▁deceitfully	-11.5639
▁fancy	-11.5639
▁bounty	-11.564
▁rows	-11.564
▁fiercely	-11.5641
nswere	-11.5641
▁cakes	-11.5641
▁coastal	-11.5642
▁element	-11.5642
▁furthermore	-11.5642
▁silently	-11.5642
▁steady	-11.5642
▁needful	-11.5643
▁candy	-11.5643
▁forbidding	-11.5643
▁imagined	-11.5643
▁whiteman	-11.5643
▁vanished	-11.5644
▁roasted	-11.5644
▁particularly	-11.5645
▁blossoms	-11.5646
▁magistrates	-11.5646
▁Else	-11.5646
▁completed	-11.5646
▁commendeth	-11.5647
ttention	-11.5647
▁figured	-11.5648
tained	-11.5648
▁pillow	-11.5648
▁betrayeth	-11.5648
▁impart	-11.5649
▁persecutest	-11.565
▁bruise	-11.5651
▁tip	-11.5653
▁packed	-11.5653
▁rig	-11.5653
▁continueth	-11.5653
▁ability	-11.5654
▁raced	-11.5655
▁saluted	-11.5656
▁blame	-11.5656
▁Never	-11.5656
▁actions	-11.5657
▁filleth	-11.5657
▁naturally	-11.5659
▁nourished	-11.566
▁oppressed	-11.566
▁renewed	-11.566
▁invented	-11.566
▁groaned	-11.566
▁trapper	-11.566
▁stumbleth	-11.5661
▁fastening	-11.5662
▁parties	-11.5662
▁pushing	-11.5662
▁sojourning	-11.5662
▁expecting	-11.5662
▁endless	-11.5664
In	-11.5665
▁stroke	-11.5665
▁appeareth	-11.5666
▁pronounce	-11.5666
▁quake	-11.5667
▁wildly	-11.5667
▁appealed	-11.5668
▁plucked	-11.5668
▁purposed	-11.5668
ngel	-11.5668
uz	-11.5669
▁cloudy	-11.5669
▁muscles	-11.5669
▁physicians	-11.5669
▁strengthen	-11.5671
my	-11.5671
▁burneth	-11.5673
▁Forasmuch	-11.5675
lessly	-11.5675
ities	-11.5675
▁melted	-11.5675
▁confirmed	-11.5676
▁enjoyed	-11.5676
▁faithless	-11.5681
▁barbarian	-11.5681
▁gathereth	-11.5681
▁manservant	-11.5681
▁preacheth	-11.5681
▁reckoning	-11.5682
▁pressing	-11.5682
▁commandeth	-11.5683
▁smoked	-11.5683
▁hatched	-11.5683
▁killers	-11.5684
▁needy	-11.5685
ified	-11.5686
▁Others	-11.5693
▁richly	-11.5693
▁transgressors	-11.5693
▁earrings	-11.5693
▁lepers	-11.5694
▁weaving	-11.5694
▁intending	-11.5695
▁sojourners	-11.5696
▁forced	-11.5699
ual	-11.5699
▁port	-11.5699
▁stuffed	-11.57
▁commended	-11.57
▁mourned	-11.57
▁sucked	-11.5708
▁desireth	-11.5708
▁Stop	-11.5715
▁lacked	-11.5717
▁pomegranates	-11.5718
▁deeply	-11.5718
▁weapons	-11.5719
▁swallows	-11.5722
▁Herm	-11.5741
▁spoiled	-11.5747
▁standest	-11.5747
▁righteously	-11.5754
▁worrying	-11.5755
▁glorifying	-11.5755
▁profited	-11.5756
kins	-11.5759
▁regarded	-11.5764
tory	-11.5766
▁fools	-11.5767
▁provisions	-11.5767
▁statutes	-11.5767
▁persecutions	-11.5767
bi	-11.577
▁murderers	-11.5771
▁lovedst	-11.5771
▁denying	-11.5776
▁killeth	-11.5777
▁louder	-11.5778
▁decompose	-11.5779
▁lifting	-11.5783
▁Jam	-11.5785
▁knewest	-11.5788
▁Romans	-11.5791
▁owners	-11.5795
▁glori	-11.5796
▁leading	-11.5796
▁guessed	-11.5796
ack	-11.5801
lushed	-11.5808
▁extortioner	-11.5809
▁guarded	-11.5821
yss	-11.5832
▁tro	-11.5835
▁Ah	-11.5837
▁seems	-11.584
▁staying	-11.584
▁captives	-11.5841
▁girls	-11.5841
▁habitations	-11.5841
▁warming	-11.5845
▁flowers	-11.5846
▁seasoned	-11.5855
▁crowned	-11.5872
▁tomorrow	-11.5874
▁remembering	-11.5886
▁hereby	-11.5896
ging	-11.5904
▁colors	-11.5906
▁papers	-11.5917
For	-11.5923
ounds	-11.5935
▁customs	-11.594
▁streams	-11.5941
▁cu	-11.5942
▁Ju	-11.5943
compelled	-11.5946
▁acts	-11.5947
▁camped	-11.5953
▁earthy	-11.5961
▁fe	-11.5965
▁regions	-11.5965
▁sticks	-11.597
sk	-11.5971
▁former	-11.598
fts	-11.5982
ups	-11.5994
agging	-11.6007
pringtime	-11.6023
lac	-11.6026
▁buildings	-11.6028
▁visions	-11.604
by	-11.6043
ncy	-11.6046
talk	-11.608
▁Christian	-11.6086
▁governors	-11.609
▁Ridges	-11.609
ose	-11.6098
▁ships	-11.6116
▁roads	-11.614
ailing	-11.6158
ntil	-11.6162
▁charges	-11.6166
ano	-11.6213
▁afternoons	-11.6216
▁smells	-11.6294
range	-11.6312
▁edges	-11.6316
duc	-11.6344
▁crowns	-11.6347
rm	-11.6353
ship	-11.6368
omb	-11.6384
▁Ki	-11.6387
ature	-11.6399
tery	-11.6401
ork	-11.6407
rd	-11.6421
hing	-11.6437
▁crea	-11.6461
▁necks	-11.647
▁emerge	-11.6505
ttle	-11.6508
▁str	-11.6517
▁def	-11.6543
pt	-11.6552
▁Za	-11.6554
▁fellows	-11.6572
alutations	-11.6579
▁ag	-11.6597
▁struggle	-11.6602
round	-11.6623
▁journeys	-11.6627
ption	-11.6636
▁prisons	-11.6653
ied	-11.6658
are	-11.6683
▁Ze	-11.6717
bl	-11.6725
ther	-11.6745
▁pearl	-11.6757
▁bounds	-11.6783
have	-11.6829
app	-11.6874
▁dro	-11.6906
ore	-11.6908
vo	-11.6933
▁u	-11.6996
ttered	-11.703
tab	-11.7062
rth	-11.7078
oking	-11.7089
pr	-11.7116
so	-11.7156
mmed	-11.716
▁qui	-11.7166
N	-11.7191
▁tri	-11.7206
▁curl	-11.7213
l	-11.7245
▁companions	-11.7252
uit	-11.7252
face	-11.7282
eh	-11.7363
▁trac	-11.7414
▁remark	-11.7425
cr	-11.7433
ounty	-11.7475
bed	-11.7483
pot	-11.7498
cting	-11.75
bits	-11.7529
eal	-11.7534
▁lea	-11.7542
ture	-11.7571
▁flip	-11.7613
rrow	-11.7613
hen	-11.7614
▁distribute	-11.7619
each	-11.7635
f	-11.7679
▁wh	-11.7699
z	-11.7704
lies	-11.7734
eb	-11.7749
tr	-11.7765
ivers	-11.7829
▁entice	-11.7938
ration	-11.8003
table	-11.8007
▁pla	-11.8048
ced	-11.806
▁rattle	-11.809
▁convenient	-11.8129
ooking	-11.8158
ations	-11.8163
pus	-11.8203
ocia	-11.8285
ning	-11.8307
▁Da	-11.8325
▁squ	-11.8364
anging	-11.8368
ives	-11.8427
ugh	-11.8436
ese	-11.8477
llows	-11.8479
roi	-11.8482
May	-11.8489
tops	-11.8491
sp	-11.8497
mm	-11.8511
ui	-11.8514
rable	-11.855
▁gl	-11.858
log	-11.8635
wood	-11.8638
tching	-11.865
oasting	-11.8661
▁resid	-11.8674
ER	-11.8678
aul	-11.87
iv	-11.8703
damn	-11.8713
agg	-11.8718
ev	-11.872
posed	-11.8723
▁extortion	-11.8724
omen	-11.8725
▁scrap	-11.8752
▁glo	-11.8752
treated	-11.8765
ole	-11.8786
▁compel	-11.8788
master	-11.8792
mb	-11.8799
▁hum	-11.88
▁twi	-11.8812
▁Cana	-11.8813
oe	-11.8827
nceforth	-11.8839
ife	-11.8841
▁conte	-11.8846
come	-11.8866
▁benefit	-11.8867
▁bishop	-11.8867
▁bridle	-11.8867
▁guest	-11.8867
▁patriarch	-11.8867
▁result	-11.8867
▁partner	-11.8871
▁faction	-11.8871
Ho	-11.8871
▁eagle	-11.8876
▁psalm	-11.8876
▁pigeon	-11.8876
▁whisper	-11.888
ati	-11.888
▁leper	-11.8881
▁Jebusite	-11.8883
▁Perizzite	-11.8883
▁fornicator	-11.8883
▁shelter	-11.8883
▁transgressor	-11.8884
▁Alexandria	-11.8888
▁earring	-11.8889
▁Other	-11.8894
Sure	-11.8896
▁spice	-11.8902
▁sojourner	-11.8906
▁chasten	-11.8908
ner	-11.8911
▁Levite	-11.8911
quench	-11.8913
Y	-11.8914
TH	-11.8914
▁shift	-11.8915
Be	-11.8917
Certainly	-11.8918
▁scratch	-11.8918
stroke	-11.8921
▁sub	-11.8921
Pig	-11.8923
hooks	-11.8924
Tell	-11.8924
giving	-11.8924
piece	-11.8925
break	-11.8925
floor	-11.8926
looking	-11.8926
thirty	-11.8926
little	-11.8927
blood	-11.8927
Take	-11.8928
five	-11.893
act	-11.8931
▁encounter	-11.8933
ground	-11.8935
▁affirm	-11.8936
▁buffet	-11.8936
▁dizzy	-11.8939
▁accomplish	-11.8939
▁suggest	-11.8939
▁refresh	-11.8939
▁scorch	-11.8941
▁loos	-11.8942
▁unbeliev	-11.8944
yard	-11.8947
▁passion	-11.8949
lab	-11.895
▁strang	-11.8954
will	-11.8954
▁needle	-11.8955
▁uncle	-11.8956
▁delicate	-11.8959
▁excuse	-11.8959
▁perfume	-11.8959
▁nervous	-11.896
▁enlarge	-11.896
▁pierce	-11.896
▁relieve	-11.896
▁purchase	-11.896
▁determine	-11.896
▁pursue	-11.8961
▁Y	-11.8961
olonel	-11.8961
▁arrive	-11.8961
▁examine	-11.8961
▁commune	-11.8961
▁private	-11.8961
fire	-11.8962
▁broth	-11.8962
▁jealous	-11.8962
▁Scot	-11.8964
▁settle	-11.8964
▁author	-11.8965
ciples	-11.8965
▁Timna	-11.8965
clock	-11.8965
▁captivity	-11.8965
▁major	-11.8965
circling	-11.8965
zziah	-11.8965
▁Adullamite	-11.8965
▁Balaam	-11.8965
▁Bartholomew	-11.8965
▁Bernice	-11.8965
▁Bethphage	-11.8965
▁Breakfast	-11.8965
▁Chaldees	-11.8965
▁Chesapeake	-11.8965
▁Crawdaddy	-11.8965
▁Creator	-11.8965
▁Decapolis	-11.8965
▁Demetrius	-11.8965
▁Echota	-11.8965
▁Eliezer	-11.8965
▁Epaphras	-11.8965
▁Erastus	-11.8965
▁Galway	-11.8965
▁Gennesaret	-11.8965
▁Gershon	-11.8965
▁Glory	-11.8965
▁Golgotha	-11.8965
▁Hallelujah	-11.8965
▁Hezekiah	-11.8965
▁Horeb	-11.8965
▁Jehovah	-11.8965
▁Jeremiah	-11.8965
▁Joktan	-11.8965
▁Jotham	-11.8965
▁Jupiter	-11.8965
▁Kadesh	-11.8965
▁Kenaz	-11.8965
▁Merari	-11.8965
▁Nahshon	-11.8965
▁Nebajoth	-11.8965
▁Nellie	-11.8965
▁Peabody	-11.8965
▁Pentecost	-11.8965
▁Perez	-11.8965
▁Perga	-11.8965
▁Pharez	-11.8965
▁Phoenicia	-11.8965
▁Phrygia	-11.8965
▁Pontus	-11.8965
▁Possum	-11.8965
▁Praise	-11.8965
▁Prince	-11.8965
▁Prisca	-11.8965
▁Priscilla	-11.8965
▁Psalms	-11.8965
▁Rehoboth	-11.8965
▁Rephidim	-11.8965
▁Salvation	-11.8965
▁Samuel	-11.8965
▁Sardis	-11.8965
▁Shealtiel	-11.8965
▁Shobal	-11.8965
▁Shuah	-11.8965
▁Siddim	-11.8965
▁Silvanus	-11.8965
▁Street	-11.8965
▁Symeon	-11.8965
▁Tarshish	-11.8965
▁Thessalonica	-11.8965
▁Trophimus	-11.8965
▁Twelve	-11.8965
▁Worthy	-11.8965
▁Yankee	-11.8965
▁Zillah	-11.8965
▁Zipporah	-11.8965
▁achieve	-11.8965
▁addition	-11.8965
▁adventure	-11.8965
▁aeronaut	-11.8965
▁affairs	-11.8965
▁alienated	-11.8965
▁anchors	-11.8965
▁anxiety	-11.8965
▁apprecia	-11.8965
▁approaching	-11.8965
▁basons	-11.8965
▁behavior	-11.8965
▁beheaded	-11.8965
▁beryl	-11.8965
▁bonnets	-11.8965
▁bountifully	-11.8965
▁bristles	-11.8965
▁ceasing	-11.8965
▁chickadee	-11.8965
▁circumstances	-11.8965
▁colours	-11.8965
▁column	-11.8965
▁conclusion	-11.8965
▁conflict	-11.8965
▁conformed	-11.8965
▁congealed	-11.8965
▁conquer	-11.8965
▁constructed	-11.8965
▁contrariwise	-11.8965
▁convoluted	-11.8965
▁corpse	-11.8965
▁curiosity	-11.8965
▁custard	-11.8965
▁deacons	-11.8965
▁deferred	-11.8965
▁desperation	-11.8965
▁destiny	-11.8965
▁disorderly	-11.8965
▁disputing	-11.8965
▁disquieted	-11.8965
▁dissension	-11.8965
▁district	-11.8965
▁draught	-11.8965
▁dungeon	-11.8965
▁edifieth	-11.8965
▁enabled	-11.8965
▁excited	-11.8965
▁exhausted	-11.8965
▁exotic	-11.8965
▁farewell	-11.8965
▁fascinating	-11.8965
▁feeble	-11.8965
▁fetters	-11.8965
▁fifties	-11.8965
▁forefinger	-11.8965
▁fragments	-11.8965
▁frankincense	-11.8965
▁gambling	-11.8965
▁garnet	-11.8965
▁handbreadth	-11.8965
▁hayloft	-11.8965
▁hoisted	-11.8965
▁hollered	-11.8965
▁immortality	-11.8965
▁increasing	-11.8965
▁injury	-11.8965
▁jailor	-11.8965
▁journals	-11.8965
▁kinsfolk	-11.8965
▁knothole	-11.8965
▁leanfleshed	-11.8965
▁lodging	-11.8965
▁lofty	-11.8965
▁machine	-11.8965
▁maintain	-11.8965
▁marrieth	-11.8965
▁matrix	-11.8965
▁meditate	-11.8965
▁midway	-11.8965
▁midwife	-11.8965
▁miraculous	-11.8965
▁mistress	-11.8965
▁moisture	-11.8965
▁molten	-11.8965
▁mosquitoes	-11.8965
▁nobleman	-11.8965
▁observation	-11.8965
▁opposition	-11.8965
▁pilgrimage	-11.8965
▁pistol	-11.8965
▁pitfall	-11.8965
▁possibly	-11.8965
▁possum	-11.8965
▁pouches	-11.8965
▁poverty	-11.8965
▁prophesieth	-11.8965
▁quantity	-11.8965
▁rabbit	-11.8965
▁rebelled	-11.8965
▁recognize	-11.8965
▁reference	-11.8965
▁remnant	-11.8965
▁remote	-11.8965
▁removing	-11.8965
▁representatives	-11.8965
▁safely	-11.8965
▁safety	-11.8965
▁satisfy	-11.8965
▁sceptre	-11.8965
▁sedentary	-11.8965
▁senators	-11.8965
▁sevenfold	-11.8965
▁shewbread	-11.8965
▁shotgun	-11.8965
▁shoulderpieces	-11.8965
▁slanderers	-11.8965
▁smiting	-11.8965
▁spaniel	-11.8965
▁striking	-11.8965
▁subsistence	-11.8965
▁superscription	-11.8965
▁tavern	-11.8965
▁terrain	-11.8965
▁territory	-11.8965
▁threatening	-11.8965
▁titmouse	-11.8965
▁unawares	-11.8965
▁undefiled	-11.8965
▁undressed	-11.8965
▁unlearned	-11.8965
▁unloaded	-11.8965
▁unreasonable	-11.8965
▁unveiled	-11.8965
▁vapor	-11.8965
▁vehemently	-11.8965
▁vertical	-11.8965
▁virtue	-11.8965
▁voyage	-11.8965
▁wrestled	-11.8965
▁yesterday	-11.8965
▁yesternight	-11.8965
▁Aranea	-11.8965
▁Asshur	-11.8965
▁Boston	-11.8965
▁Ethiopia	-11.8965
▁Welch	-11.8965
▁antichrist	-11.8965
▁congress	-11.8965
▁distinguish	-11.8965
▁hireling	-11.8965
▁predator	-11.8965
▁replenish	-11.8965
▁saddlebag	-11.8965
▁swoop	-11.8965
▁unceasing	-11.8965
▁unexpected	-11.8965
▁waterproof	-11.8965
Congratu	-11.8965
angular	-11.8965
▁Demas	-11.8965
▁Dishan	-11.8965
▁ancient	-11.8965
▁balsam	-11.8965
▁danced	-11.8965
▁draped	-11.8965
▁eighteen	-11.8965
▁extent	-11.8965
▁philosoph	-11.8965
▁poison	-11.8965
▁resolv	-11.8965
▁royal	-11.8965
▁secure	-11.8965
▁skillet	-11.8965
▁stiff	-11.8965
▁tanner	-11.8965
▁watercourses	-11.8965
▁Olivet	-11.8965
▁Several	-11.8965
▁Territories	-11.8965
▁busily	-11.8965
▁confused	-11.8965
▁forewarn	-11.8965
▁mixture	-11.8965
▁pardon	-11.8965
▁roamed	-11.8965
▁roughly	-11.8965
▁sponge	-11.8965
▁spoons	-11.8965
▁withstood	-11.8965
Play	-11.8965
▁Although	-11.8965
▁Zeboi	-11.8965
▁consult	-11.8965
▁filleted	-11.8965
▁hymn	-11.8965
▁printed	-11.8965
▁modest	-11.8965
▁outline	-11.8965
▁striving	-11.8965
obably	-11.8965
▁unimaginably	-11.8965
dopted	-11.8965
▁agony	-11.8965
▁abated	-11.8965
▁heritage	-11.8965
▁vows	-11.8965
▁canvas	-11.8965
▁Besides	-11.8965
▁Happy	-11.8965
▁nails	-11.8965
▁uproar	-11.8965
▁Boaz	-11.8965
▁Notwithstanding	-11.8965
▁Straightway	-11.8965
▁costly	-11.8965
▁crazy	-11.8965
▁responsibilit	-11.8965
▁strands	-11.8965
▁suited	-11.8965
▁authorities	-11.8965
▁lucre	-11.8965
▁referr	-11.8965
▁rifle	-11.8965
▁swimming	-11.8965
▁Ahaz	-11.8965
▁Arabia	-11.8965
▁Still	-11.8965
▁attire	-11.8965
▁fadeth	-11.8965
▁Luke	-11.8965
▁enrolled	-11.8965
▁epic	-11.8965
▁oaks	-11.8965
▁Drops	-11.8965
▁dusk	-11.8966
▁rainbow	-11.8966
▁advance	-11.8966
▁visitors	-11.8966
▁Ireland	-11.8966
▁folds	-11.8966
▁meadow	-11.8966
▁assistance	-11.8966
▁matched	-11.8966
▁pestilence	-11.8966
▁Jobab	-11.8966
▁Tiberias	-11.8966
▁furnished	-11.8966
▁Dedan	-11.8966
▁River	-11.8966
OM	-11.8966
▁huge	-11.8966
▁sprawled	-11.8966
▁grownups	-11.8966
▁western	-11.8966
▁curved	-11.8966
▁unjust	-11.8966
▁unknown	-11.8966
▁unworthy	-11.8966
▁threads	-11.8966
▁regretted	-11.8966
▁slipping	-11.8966
▁Marah	-11.8966
▁Matthew	-11.8966
▁forbearance	-11.8966
▁muddy	-11.8966
▁memorialize	-11.8966
berries	-11.8966
▁variet	-11.8966
▁Whereupon	-11.8966
▁oaths	-11.8966
▁proverb	-11.8966
▁contentious	-11.8966
▁quiver	-11.8966
▁choked	-11.8966
▁jerky	-11.8966
▁raspberry	-11.8966
▁tipped	-11.8966
▁sections	-11.8966
▁chaff	-11.8966
▁shuffled	-11.8966
▁crafti	-11.8966
▁prophetess	-11.8966
▁device	-11.8966
▁delicious	-11.8966
▁whithersoever	-11.8966
▁adulterous	-11.8966
▁forgot	-11.8966
▁pottage	-11.8967
▁entangled	-11.8967
▁urged	-11.8967
▁Paradise	-11.8967
▁straddled	-11.8967
▁snows	-11.8967
▁stubble	-11.8967
▁lowliness	-11.8967
▁correction	-11.8967
▁freeze	-11.8967
▁oftentimes	-11.8967
ruly	-11.8967
▁stairs	-11.8967
▁topaz	-11.8967
▁mumbled	-11.8967
▁huddled	-11.8967
▁Repe	-11.8967
▁purser	-11.8967
▁Herodians	-11.8967
▁bondman	-11.8967
▁departure	-11.8967
▁favorite	-11.8967
congratu	-11.8967
▁stopping	-11.8967
▁destitute	-11.8967
▁hardship	-11.8967
▁justification	-11.8967
▁Luz	-11.8968
▁desk	-11.8968
▁birthday	-11.8968
▁Swear	-11.8968
▁ladder	-11.8968
▁advertisement	-11.8968
▁imprisonment	-11.8968
▁sideboards	-11.8968
▁reflect	-11.8968
▁boundary	-11.8968
▁mistake	-11.8968
▁desirous	-11.8968
▁transformed	-11.8968
ifty	-11.8968
▁equality	-11.8968
▁Dog	-11.8968
▁meek	-11.8968
penny	-11.8968
▁Ezer	-11.8968
▁decked	-11.8969
▁strictly	-11.8969
▁lawlessness	-11.8969
▁Tomorrow	-11.8969
▁reviled	-11.8969
▁mounds	-11.8969
▁stank	-11.8969
▁moonlight	-11.8969
▁trading	-11.8969
▁womenservants	-11.8969
▁Abide	-11.8969
balance	-11.897
wept	-11.897
▁trapping	-11.897
▁Hoe	-11.897
▁First	-11.897
▁hateful	-11.897
▁possessor	-11.897
▁Timnath	-11.897
▁lashed	-11.8971
▁worshipping	-11.8971
▁sobbed	-11.8971
▁enlarged	-11.8971
▁pierced	-11.8971
▁nervously	-11.8971
▁outwardly	-11.8971
▁errand	-11.8971
▁...”	-11.8971
▁treaty	-11.8971
▁Right	-11.8972
▁platted	-11.8972
▁Zeal	-11.8972
▁enlightened	-11.8972
▁expressed	-11.8972
▁fashionable	-11.8972
▁kneeling	-11.8972
▁admiring	-11.8972
▁thoughtfully	-11.8972
▁hallowed	-11.8973
▁awfully	-11.8973
▁trance	-11.8973
▁deliverance	-11.8973
lute	-11.8974
▁poking	-11.8974
▁Much	-11.8974
▁knocketh	-11.8974
▁rubber	-11.8974
▁tempered	-11.8974
▁locks	-11.8975
holy	-11.8975
▁scourged	-11.8975
▁confidently	-11.8976
▁fervently	-11.8976
▁Obed	-11.8976
▁barrel	-11.8976
▁smoking	-11.8976
▁claws	-11.8976
▁ridden	-11.8976
▁population	-11.8976
▁Really	-11.8976
▁Bethel	-11.8977
▁halfway	-11.8977
▁Inasmuch	-11.8978
▁exercised	-11.8978
▁bitterness	-11.8978
▁tie	-11.8978
▁usually	-11.8978
▁joyful	-11.8978
▁admired	-11.8979
▁lounge	-11.8979
▁uttereth	-11.8979
▁searcheth	-11.8979
▁drift	-11.8979
▁weaknesses	-11.8979
▁Amram	-11.898
▁surprised	-11.898
▁bruised	-11.898
▁signifying	-11.898
▁containing	-11.898
▁reg	-11.898
▁farmer	-11.8981
▁Down	-11.8981
▁Corn	-11.8981
▁Elon	-11.8981
ubtle	-11.8982
▁brushing	-11.8982
▁plantation	-11.8982
▁Afterward	-11.8982
▁disturbed	-11.8982
▁equally	-11.8982
▁patiently	-11.8982
▁blasphemeth	-11.8983
▁seemly	-11.8983
▁inwardly	-11.8983
▁inclosed	-11.8983
▁quenched	-11.8983
▁assigned	-11.8983
▁contained	-11.8983
▁confounded	-11.8983
▁reminded	-11.8983
eeze	-11.8984
▁roasting	-11.8984
izz	-11.8984
▁collection	-11.8984
▁seemeth	-11.8984
▁preserved	-11.8984
▁quietness	-11.8984
▁uprightly	-11.8985
▁Horites	-11.8985
▁Ephesians	-11.8985
▁knuckles	-11.8985
▁malefactors	-11.8985
▁ornaments	-11.8985
▁buttocks	-11.8985
▁decrees	-11.8985
▁forgiveness	-11.8985
▁driving	-11.8986
▁Cush	-11.8986
▁compact	-11.8987
▁provoked	-11.8989
▁hastily	-11.8989
▁pleasantly	-11.8989
▁scorching	-11.899
▁squat	-11.8991
▁eleventh	-11.8991
▁acc	-11.8993
▁childish	-11.8993
▁blackness	-11.8993
▁Sleep	-11.8994
▁piped	-11.8994
▁affirmed	-11.8994
▁buffeted	-11.8994
▁shifted	-11.8994
▁consideration	-11.8995
▁builders	-11.8995
▁chastened	-11.8995
▁scraped	-11.8995
▁workman	-11.8995
▁certainty	-11.8996
▁faithfulness	-11.8996
▁trusteth	-11.8997
▁reapeth	-11.8997
▁engraver	-11.8997
▁Summer	-11.8997
▁fairly	-11.8998
▁childless	-11.8999
▁purifying	-11.8999
▁curseth	-11.8999
▁Phil	-11.9
▁defilement	-11.9
▁Eve	-11.9001
▁dusty	-11.9005
▁covereth	-11.9009
▁passway	-11.9009
▁hardness	-11.901
▁followers	-11.901
▁confesseth	-11.9012
▁lapped	-11.9013
lapped	-11.9013
▁rainy	-11.9014
▁ruleth	-11.9014
▁feedeth	-11.9014
▁doubled	-11.9016
▁Certainly	-11.9016
▁peaceable	-11.9017
▁expected	-11.9018
▁motioned	-11.9018
▁tast	-11.9018
▁features	-11.902
▁peppers	-11.902
▁sorcerers	-11.902
▁ruled	-11.9021
▁fishers	-11.9025
▁interpreter	-11.9026
▁rejoiceth	-11.9028
▁picking	-11.9028
▁decease	-11.9029
▁Maybe	-11.9031
▁contention	-11.9032
ign	-11.9038
▁lowly	-11.9038
▁Hemp	-11.9043
▁falsely	-11.9045
▁lawless	-11.9047
ucking	-11.905
east	-11.9052
▁Levites	-11.9055
▁psalms	-11.9055
▁eagles	-11.9055
▁pigeons	-11.9055
▁understandeth	-11.9057
▁scraps	-11.9057
▁circu	-11.906
▁remembereth	-11.906
▁scraping	-11.906
▁attained	-11.9063
▁remarks	-11.9064
nc	-11.9064
▁discerned	-11.9064
▁traveled	-11.9065
▁Canaanit	-11.9065
▁lacking	-11.9068
▁farmers	-11.9069
▁Please	-11.9069
▁honoreth	-11.9072
▁suffereth	-11.9075
▁belong	-11.9075
▁swinging	-11.9076
▁doubting	-11.9077
gr	-11.908
▁loads	-11.9089
▁followeth	-11.909
▁debtors	-11.9091
▁harmless	-11.9094
▁deceivers	-11.9095
▁sticking	-11.9097
▁cont	-11.9105
▁favored	-11.9111
▁fetched	-11.9111
▁marked	-11.9111
▁burdened	-11.9113
bba	-11.9114
RE	-11.9115
sized	-11.9117
houses	-11.9117
▁showeth	-11.9118
▁springing	-11.9118
▁walkest	-11.9122
▁causeth	-11.9125
▁clerks	-11.9126
▁skulls	-11.9126
▁handfuls	-11.9127
▁Days	-11.9127
▁divisions	-11.9127
kel	-11.9131
▁reform	-11.9134
▁deserted	-11.9136
▁ob	-11.9139
lapping	-11.914
▁reproached	-11.9146
▁accounting	-11.9147
▁playing	-11.9147
▁cleared	-11.9148
▁questioned	-11.9149
▁bricks	-11.9162
▁sepulchres	-11.9162
▁figures	-11.9162
▁groups	-11.9162
▁intreated	-11.9166
▁catching	-11.9167
▁und	-11.9168
▁gla	-11.918
pping	-11.9182
▁played	-11.9183
Egg	-11.9189
▁fastings	-11.9193
▁abounded	-11.9194
▁blades	-11.9198
▁Pigs	-11.9198
▁multiplying	-11.9206
ory	-11.9206
▁harps	-11.9209
▁envying	-11.921
▁departing	-11.9233
▁traditions	-11.9235
▁inwards	-11.9236
▁emotion	-11.9255
pots	-11.9264
▁chambers	-11.9271
▁lawyers	-11.9271
▁guides	-11.9286
agged	-11.9303
▁earthquakes	-11.9307
▁healings	-11.9308
mma	-11.9319
▁ordered	-11.932
▁fightings	-11.932
balls	-11.9329
▁perfecting	-11.9331
▁warmed	-11.9334
▁posts	-11.9341
▁doctrines	-11.9344
hy	-11.9368
▁stirr	-11.9373
▁happens	-11.9383
▁outward	-11.9392
ways	-11.9416
▁remains	-11.9421
▁Ram	-11.9447
eady	-11.9451
▁revelations	-11.9453
▁app	-11.9465
▁fu	-11.9488
oom	-11.9489
▁girdles	-11.9492
▁deserts	-11.9492
▁tim	-11.9492
▁changes	-11.9508
ich	-11.9508
▁cabins	-11.9527
▁gro	-11.9527
ere	-11.955
▁flatter	-11.9591
▁floods	-11.9601
▁tribulations	-11.9601
▁labors	-11.9605
▁plows	-11.9609
oon	-11.9622
▁Syr	-11.9632
ipping	-11.9636
▁afflictions	-11.9639
▁reports	-11.964
eel	-11.9653
port	-11.9655
▁mul	-11.9668
u	-11.9691
az	-11.9692
him	-11.9761
rin	-11.9792
allowed	-11.9811
▁foundations	-11.9834
rough	-11.9838
sparag	-11.9845
▁breastplates	-11.9863
changers	-11.9879
par	-11.9881
▁needles	-11.9914
po	-11.9915
ban	-11.9926
bby	-11.9927
cob	-11.9934
▁moments	-11.9942
▁compa	-11.995
▁reput	-11.9961
▁counsels	-11.9976
fa	-11.9982
xa	-12.0002
▁sorrows	-12.0014
over	-12.0036
ead	-12.0054
▁famines	-12.0056
udd	-12.007
ze	-12.0093
▁admire	-12.0117
hich	-12.0125
ON	-12.0151
rio	-12.0168
▁breaks	-12.0172
▁ab	-12.0185
▁workings	-12.0191
▁ac	-12.0198
▁mini	-12.0206
ult	-12.0265
str	-12.0353
lip	-12.041
Joy	-12.0426
uni	-12.0431
rance	-12.0439
▁chil	-12.0481
adness	-12.0509
▁distribut	-12.0518
rate	-12.0528
even	-12.0529
iver	-12.0637
nah	-12.0686
▁comp	-12.0697
ude	-12.07
▁class	-12.0741
tting	-12.0751
▁backbit	-12.0807
ples	-12.0841
other	-12.0871
hite	-12.0894
▁companion	-12.1028
▁qu	-12.1164
orr	-12.1167
ven	-12.1181
attered	-12.1283
▁announce	-12.1298
pared	-12.1305
▁produce	-12.1307
enc	-12.1329
MO	-12.1331
R	-12.1369
▁bro	-12.1441
aps	-12.1511
ips	-12.1516
run	-12.1594
rks	-12.166
mak	-12.1663
▁ascend	-12.1666
tening	-12.1732
▁ja	-12.1781
ieth	-12.1784
owl	-12.1856
▁Eu	-12.1892
lor	-12.1914
pas	-12.1943
bs	-12.2043
lm	-12.2087
sses	-12.2116
top	-12.2122
eek	-12.2126
aughter	-12.2136
bon	-12.2225
rong	-12.2235
merged	-12.2247
alk	-12.2285
bb	-12.2294
rib	-12.2331
wreck	-12.2342
▁spa	-12.2363
shells	-12.2366
si	-12.2387
ex	-12.2398
lott	-12.2459
Are	-12.249
ords	-12.2495
▁Command	-12.2498
low	-12.2499
ib	-12.2523
llo	-12.2531
▁repute	-12.2542
B	-12.2622
oked	-12.264
tation	-12.264
cum	-12.2662
hab	-12.2695
▁blasphem	-12.2724
vice	-12.2748
bak	-12.2797
rily	-12.2825
Isn	-12.2827
▁Pu	-12.2867
▁elevate	-12.2875
anted	-12.2911
▁interrupt	-12.2915
lv	-12.2936
aph	-12.2938
La	-12.2969
wear	-12.2989
wl	-12.2995
hol	-12.3001
rl	-12.303
yp	-12.3031
came	-12.3035
rv	-12.3046
▁rais	-12.3072
▁Fe	-12.3122
thy	-12.3168
roth	-12.3208
▁driv	-12.3216
▁lov	-12.3224
▁tr	-12.3229
▁Sy	-12.323
ivity	-12.3242
lim	-12.3246
▁Ra	-12.3282
Hey	-12.3324
llowed	-12.3328
▁tow	-12.335
An	-12.3352
stead	-12.3376
▁convi	-12.3391
▁rob	-12.343
spir	-12.3459
ctors	-12.3475
cel	-12.3486
oasty	-12.3559
▁Ba	-12.356
iz	-12.3562
lay	-12.3614
▁Miz	-12.3635
▁spr	-12.3638
E	-12.3684
ously	-12.3687
▁magn	-12.3708
owled	-12.3708
covered	-12.3717
AR	-12.3727
▁Lib	-12.3729
ately	-12.373
upp	-12.3742
pped	-12.378
prisoner	-12.3792
hon	-12.3795
cc	-12.3801
▁revile	-12.3805
▁wrap	-12.3817
qu	-12.3819
vy	-12.3826
field	-12.3829
lowing	-12.3832
ctually	-12.3833
umber	-12.3838
▁Gi	-12.3841
▁pack	-12.3843
nything	-12.3844
wo	-12.3846
umbled	-12.3847
▁control	-12.386
▁dispute	-12.3863
kle	-12.3865
umped	-12.3865
warm	-12.3865
Che	-12.3868
▁skirt	-12.3868
▁poplar	-12.3868
▁scorpion	-12.3868
▁elbow	-12.3868
▁merchant	-12.3868
ledge	-12.3873
▁flo	-12.3874
▁hillside	-12.3876
▁pepper	-12.3877
▁sorcerer	-12.3877
▁feature	-12.3877
▁muscle	-12.3881
coming	-12.3882
▁physician	-12.3883
▁warrior	-12.3883
col	-12.3884
▁payment	-12.3885
▁department	-12.3886
▁locust	-12.3887
▁citizen	-12.3887
▁stripe	-12.3888
▁robber	-12.3888
▁idolater	-12.3889
▁chicken	-12.3889
▁hypocrite	-12.389
keep	-12.3892
AN	-12.3897
▁succ	-12.3898
whe	-12.3898
▁highway	-12.3904
▁complain	-12.3907
▁belonging	-12.3911
▁conce	-12.3913
▁contain	-12.3914
flo	-12.3914
draft	-12.3914
At	-12.3914
rawl	-12.3915
Wash	-12.3916
IS	-12.3918
nigh	-12.3918
▁roast	-12.3919
Sleep	-12.3919
Summer	-12.3919
limb	-12.3919
▁slap	-12.392
▁brush	-12.3922
forgotten	-12.3922
Never	-12.3923
box	-12.3923
position	-12.3924
Watch	-12.3924
Henry	-12.3924
Perhaps	-12.3924
soldier	-12.3924
nuts	-12.3924
Everybody	-12.3924
shekel	-12.3924
condemned	-12.3925
consider	-12.3925
spect	-12.3925
pleasure	-12.3925
Homer	-12.3925
▁rubb	-12.3925
Seven	-12.3925
sorry	-12.3925
Give	-12.3925
friend	-12.3926
perfect	-12.3926
knowledge	-12.3926
Lurvy	-12.3926
myself	-12.3926
while	-12.3926
With	-12.3926
ix	-12.3926
whether	-12.3926
spread	-12.3927
Avery	-12.3927
please	-12.3927
burnt	-12.3927
nothing	-12.3927
▁Matt	-12.3928
stones	-12.3928
horse	-12.3929
push	-12.393
motion	-12.393
▁glanc	-12.3931
bia	-12.3932
▁represent	-12.3933
Put	-12.3933
▁persecut	-12.3933
back	-12.3933
▁impress	-12.3934
fish	-12.3934
▁reject	-12.3935
Me	-12.3936
▁gaz	-12.3936
▁remind	-12.3936
One	-12.3937
▁dismiss	-12.3937
▁commun	-12.3937
kip	-12.3937
▁examin	-12.3937
never	-12.3938
▁confound	-12.3938
▁vanish	-12.3938
▁inhabit	-12.3938
▁chuckl	-12.3939
▁constrain	-12.3939
▁explain	-12.3939
▁vex	-12.394
▁ordain	-12.394
See	-12.394
▁repeat	-12.394
▁grabb	-12.394
Al	-12.3941
▁inclos	-12.3942
▁signify	-12.3942
▁import	-12.3943
after	-12.3943
▁gainsay	-12.3943
▁edify	-12.3943
▁exceed	-12.3945
▁buri	-12.3948
▁sufficien	-12.3949
▁Israelite	-12.3951
angel	-12.3954
▁assign	-12.3955
ertainly	-12.3957
▁differ	-12.3957
▁distinct	-12.3958
Your	-12.3959
lattering	-12.3959
▁solemn	-12.3959
▁snatch	-12.3959
▁Receive	-12.3959
▁argue	-12.3959
▁survive	-12.3959
move	-12.3959
▁Teach	-12.3959
▁strict	-12.396
▁violent	-12.396
▁circle	-12.396
▁reconcile	-12.396
▁flourish	-12.396
▁surname	-12.396
▁persuade	-12.396
▁sudden	-12.396
erceive	-12.396
▁merci	-12.3961
▁embrace	-12.3961
▁Hori	-12.3961
igure	-12.3961
▁actual	-12.3961
ontrary	-12.3961
nches	-12.3961
▁genealog	-12.3962
ograph	-12.3962
▁puff	-12.3962
▁gaze	-12.3962
eously	-12.3962
▁seize	-12.3962
egion	-12.3962
polis	-12.3962
▁dippe	-12.3962
▁continual	-12.3963
urmur	-12.3963
aradise	-12.3963
arvel	-12.3963
▁trump	-12.3963
▁Remov	-12.3964
▁happi	-12.3964
▁Amra	-12.3964
▁permit	-12.3964
▁disappoint	-12.3964
▁abomina	-12.3964
▁regret	-12.3964
▁chaste	-12.3964
▁Govern	-12.3964
▁habit	-12.3964
▁snar	-12.3964
saddle	-12.3965
▁subtil	-12.3965
licious	-12.3965
▁Ponti	-12.3965
▁create	-12.3965
▁valu	-12.3965
▁enchant	-12.3965
▁attract	-12.3965
▁Girgas	-12.3965
▁correspond	-12.3965
▁Ancih	-12.3965
▁Frankl	-12.3965
▁Nico	-12.3965
▁Supreme	-12.3965
▁employ	-12.3965
▁promptly	-12.3965
▁sandwich	-12.3965
Jump	-12.3965
Phoebe	-12.3965
cientist	-12.3965
consequen	-12.3965
continency	-12.3965
determinate	-12.3965
evolution	-12.3965
gullible	-12.3965
hippoorwill	-12.3965
languish	-12.3965
petitions	-12.3965
proachable	-12.3965
spouts	-12.3965
substantial	-12.3965
ympathetic	-12.3965
▁Achbor	-12.3965
▁Agabus	-12.3965
▁Apparently	-12.3965
▁Areopag	-12.3965
▁Assyria	-12.3965
▁Atlantic	-12.3965
▁August	-12.3965
▁Baalzephon	-12.3965
▁Baptizer	-12.3965
▁Beautiful	-12.3965
▁Beriah	-12.3965
▁Beroea	-12.3965
▁Beyond	-12.3965
▁Bigfish	-12.3965
▁Bithynia	-12.3965
▁Circumcision	-12.3965
▁Continue	-12.3965
▁Cooper	-12.3965
▁Cotton	-12.3965
▁Cowee	-12.3965
▁Crispus	-12.3965
▁Crucify	-12.3965
▁Decomposers	-12.3965
▁Destroy	-12.3965
▁Dispersion	-12.3965
▁Dorcas	-12.3965
▁Dozens	-12.3965
▁Ellasar	-12.3965
▁Epaphroditus	-12.3965
▁Extort	-12.3965
▁Federal	-12.3965
▁Florida	-12.3965
▁French	-12.3965
▁Gabriel	-12.3965
▁Gallio	-12.3965
▁Gaza	-12.3965
▁Gerasenes	-12.3965
▁Gershom	-12.3965
▁Gethsemane	-12.3965
▁Houston	-12.3965
▁Husham	-12.3965
▁Increase	-12.3965
▁Izhar	-12.3965
▁Jechoniah	-12.3965
▁Jehoshaphat	-12.3965
▁Jenny	-12.3965
▁Jersey	-12.3965
▁Joanna	-12.3965
▁Jokshan	-12.3965
▁Josiah	-12.3965
▁Julius	-12.3965
▁Lebanon	-12.3965
▁Lucius	-12.3965
▁Lydda	-12.3965
▁Lydia	-12.3965
▁Matthias	-12.3965
▁Mehujael	-12.3965
▁Melchi	-12.3965
▁Messiah	-12.3965
▁Methusael	-12.3965
▁Miletus	-12.3965
▁Millipede	-12.3965
▁Miriam	-12.3965
▁Mississippi	-12.3965
▁Mizraim	-12.3965
▁Nantayale	-12.3965
▁Nimrod	-12.3965
▁Ohio	-12.3965
▁Onesiphorus	-12.3965
▁Pergamum	-12.3965
▁Pisidia	-12.3965
▁Poor	-12.3965
▁Potomac	-12.3965
▁Pretty	-12.3965
▁Prophesy	-12.3965
▁Publius	-12.3965
▁Rabboni	-12.3965
▁Radiant	-12.3965
▁Rameses	-12.3965
▁Rephaims	-12.3965
▁Righteous	-12.3965
▁Rufus	-12.3965
▁Sabaoth	-12.3965
▁Sacrifice	-12.3965
▁Samlah	-12.3965
▁Sanctify	-12.3965
▁School	-12.3965
▁September	-12.3965
▁Shaveh	-12.3965
▁Shepherd	-12.3965
▁Siloam	-12.3965
▁Smyrna	-12.3965
▁Soldiers	-12.3965
▁Sosthenes	-12.3965
▁Spiders	-12.3965
▁Squirrel	-12.3965
▁Sufficient	-12.3965
▁Theophilus	-12.3965
▁Thessalonians	-12.3965
▁Tubalcain	-12.3965
▁Zachariah	-12.3965
▁Zerubbabel	-12.3965
▁abandoned	-12.3965
▁absolute	-12.3965
▁accompany	-12.3965
▁acquired	-12.3965
▁admonition	-12.3965
▁ambassage	-12.3965
▁ammunition	-12.3965
▁apothecary	-12.3965
▁appetizing	-12.3965
▁approached	-12.3965
▁appropriate	-12.3965
▁arguing	-12.3965
▁armpits	-12.3965
▁assault	-12.3965
▁assumption	-12.3965
▁attendance	-12.3965
▁attending	-12.3965
▁bayonet	-12.3965
▁beckoning	-12.3965
▁beefsteak	-12.3965
▁behooved	-12.3965
▁boyhood	-12.3965
▁bravely	-12.3965
▁breeches	-12.3965
▁brilliant	-12.3965
▁brimming	-12.3965
▁britches	-12.3965
▁busybodies	-12.3965
▁calico	-12.3965
▁caution	-12.3965
▁celestial	-12.3965
▁charcoal	-12.3965
▁choosing	-12.3965
▁chryso	-12.3965
▁cigars	-12.3965
▁clusters	-12.3965
▁clutter	-12.3965
▁companies	-12.3965
▁complicated	-12.3965
▁concourse	-12.3965
▁conferred	-12.3965
▁configuration	-12.3965
▁consist	-12.3965
▁conspiracy	-12.3965
▁convocation	-12.3965
▁cookery	-12.3965
▁cornbread	-12.3965
▁craftsmen	-12.3965
▁crafty	-12.3965
▁crawfish	-12.3965
▁daubed	-12.3965
▁decline	-12.3965
▁dedicated	-12.3965
▁delusion	-12.3965
▁denarius	-12.3965
▁dictionary	-12.3965
▁dignities	-12.3965
▁disannul	-12.3965
▁disbelieved	-12.3965
▁discarded	-12.3965
▁display	-12.3965
▁divinity	-12.3965
▁divorcement	-12.3965
▁dizzier	-12.3965
▁doorframes	-12.3965
▁downstream	-12.3965
▁dramatic	-12.3965
▁elaborate	-12.3965
▁eloquent	-12.3965
▁emperor	-12.3965
▁enjoin	-12.3965
▁evangelist	-12.3965
▁exclusively	-12.3965
▁excusing	-12.3965
▁exhibited	-12.3965
▁expanse	-12.3965
▁experiment	-12.3965
▁expert	-12.3965
▁extensive	-12.3965
▁extreme	-12.3965
▁eyewitnesses	-12.3965
▁fatfleshed	-12.3965
▁fathoms	-12.3965
▁fatigue	-12.3965
▁feigned	-12.3965
▁filthiness	-12.3965
▁forefather	-12.3965
▁foreknew	-12.3965
▁forepart	-12.3965
▁fullgrown	-12.3965
▁fumbling	-12.3965
▁futile	-12.3965
▁gallery	-12.3965
▁galloped	-12.3965
▁generosity	-12.3965
▁gesture	-12.3965
▁gloomily	-12.3965
▁gloomy	-12.3965
▁goddess	-12.3965
▁grandfather	-12.3965
▁grandson	-12.3965
▁grisled	-12.3965
▁gulped	-12.3965
▁gunfire	-12.3965
▁gutted	-12.3965
▁gutters	-12.3965
▁hairline	-12.3965
▁hazard	-12.3965
▁hesitated	-12.3965
▁hominy	-12.3965
▁horizon	-12.3965
▁humiliation	-12.3965
▁humility	-12.3965
▁immutab	-12.3965
▁impediment	-12.3965
▁impenetrable	-12.3965
▁impotent	-12.3965
▁inaccessible	-12.3965
▁inclined	-12.3965
▁ingathering	-12.3965
▁interlocked	-12.3965
▁interlude	-12.3965
▁involved	-12.3965
▁kinswoman	-12.3965
▁kneadingtroughs	-12.3965
▁lamentation	-12.3965
▁lawgiver	-12.3965
▁legitima	-12.3965
▁leisure	-12.3965
▁license	-12.3965
▁lobbyists	-12.3965
▁lovingkindness	-12.3965
▁luminous	-12.3965
▁magnificen	-12.3965
▁material	-12.3965
▁medicine	-12.3965
▁meditation	-12.3965
▁millipedes	-12.3965
▁moccasins	-12.3965
▁monkey	-12.3965
▁moodily	-12.3965
▁muzzle	-12.3965
▁napkin	-12.3965
▁network	-12.3965
▁nipple	-12.3965
▁nursing	-12.3965
▁observing	-12.3965
▁oilcloth	-12.3965
▁opposing	-12.3965
▁overhearing	-12.3965
▁pallets	-12.3965
▁parallel	-12.3965
▁pedestrian	-12.3965
▁pellets	-12.3965
▁penknife	-12.3965
▁persuading	-12.3965
▁persuasion	-12.3965
▁phrase	-12.3965
▁piercing	-12.3965
▁pleated	-12.3965
▁plosive	-12.3965
▁policy	-12.3965
▁popover	-12.3965
▁popular	-12.3965
▁portrait	-12.3965
▁precede	-12.3965
▁precepts	-12.3965
▁preeminence	-12.3965
▁prejudice	-12.3965
▁preparing	-12.3965
▁provocation	-12.3965
▁rabble	-12.3965
▁railhead	-12.3965
▁rebuking	-12.3965
▁rectangle	-12.3965
▁relics	-12.3965
▁religious	-12.3965
▁reluctant	-12.3965
▁removal	-12.3965
▁resembled	-12.3965
▁resorted	-12.3965
▁resources	-12.3965
▁restraineth	-12.3965
▁ribbon	-12.3965
▁ridiculous	-12.3965
▁sanctifieth	-12.3965
▁scalded	-12.3965
▁scalp	-12.3965
▁scooped	-12.3965
▁scrambled	-12.3965
▁scrubbed	-12.3965
▁scruples	-12.3965
▁seldom	-12.3965
▁situated	-12.3965
▁slothful	-12.3965
▁smiling	-12.3965
▁snapped	-12.3965
▁snapping	-12.3965
▁sniffing	-12.3965
▁snuffdishes	-12.3965
▁sobriety	-12.3965
▁sorceries	-12.3965
▁sorcery	-12.3965
▁sparingly	-12.3965
▁specific	-12.3965
▁specimen	-12.3965
▁splendid	-12.3965
▁spoonful	-12.3965
▁staggered	-12.3965
▁stimulate	-12.3965
▁stoppered	-12.3965
▁stupor	-12.3965
▁subdue	-12.3965
▁subverting	-12.3965
▁suffice	-12.3965
▁superior	-12.3965
▁superlative	-12.3965
▁supreme	-12.3965
▁surpass	-12.3965
▁survival	-12.3965
▁television	-12.3965
▁terrestrial	-12.3965
▁testifieth	-12.3965
▁theoretical	-12.3965
▁thistledown	-12.3965
▁timbrel	-12.3965
▁tomatoes	-12.3965
▁tragic	-12.3965
▁tranquil	-12.3965
▁trench	-12.3965
▁trinket	-12.3965
▁troubling	-12.3965
▁turkey	-12.3965
▁unaccountabl	-12.3965
▁uneasy	-12.3965
▁unfeigned	-12.3965
▁unsatisfactory	-12.3965
▁unsearchable	-12.3965
▁unspeakable	-12.3965
▁unstedfast	-12.3965
▁unthankful	-12.3965
▁unwashen	-12.3965
▁vagabond	-12.3965
▁vesture	-12.3965
▁victim	-12.3965
▁waistcoat	-12.3965
▁welfare	-12.3965
▁whistling	-12.3965
▁woodpile	-12.3965
▁wrestling	-12.3965
▁yawned	-12.3965
▁zero	-12.3965
▁Padanaram	-12.3965
▁Salome	-12.3965
▁clamor	-12.3965
▁garner	-12.3965
▁stanched	-12.3965
constituted	-12.3965
ietly	-12.3965
ique	-12.3965
qualified	-12.3965
▁Lysias	-12.3965
▁Naaman	-12.3965
▁Purge	-12.3965
▁Search	-12.3965
▁Silver	-12.3965
▁Tavern	-12.3965
▁accommodat	-12.3965
▁apprehend	-12.3965
▁braided	-12.3965
▁butchered	-12.3965
▁centipede	-12.3965
▁copies	-12.3965
▁daddy	-12.3965
▁expense	-12.3965
▁funny	-12.3965
▁grasshopper	-12.3965
▁horizontal	-12.3965
▁lantern	-12.3965
▁lucky	-12.3965
▁mudflat	-12.3965
▁narrat	-12.3965
▁negotiat	-12.3965
▁oysters	-12.3965
▁persuasive	-12.3965
▁plotting	-12.3965
▁porcupine	-12.3965
▁rapid	-12.3965
▁refined	-12.3965
▁rescue	-12.3965
▁revelling	-12.3965
▁scourging	-12.3965
▁soothsay	-12.3965
▁speedily	-12.3965
▁straitly	-12.3965
▁suitable	-12.3965
▁surmis	-12.3965
▁suspicio	-12.3965
▁thunderings	-12.3965
▁untimely	-12.3965
▁unwilling	-12.3965
▁victual	-12.3965
▁vomit	-12.3965
▁wafers	-12.3965
▁wakeful	-12.3965
▁wariness	-12.3965
▁wilfully	-12.3965
Anybody	-12.3965
ibrated	-12.3965
shrunk	-12.3965
▁Beersheba	-12.3965
▁Carmi	-12.3965
▁Galeed	-12.3965
▁ambush	-12.3965
▁availeth	-12.3965
▁bolted	-12.3965
▁confusing	-12.3965
▁drowned	-12.3965
▁flags	-12.3965
▁initial	-12.3965
▁knelt	-12.3965
▁marching	-12.3965
▁organ	-12.3965
▁pastille	-12.3965
▁peaches	-12.3965
▁problem	-12.3965
▁regeneration	-12.3965
▁sustained	-12.3965
▁tinkling	-12.3965
▁traitor	-12.3965
▁uniform	-12.3965
▁Carry	-12.3965
▁Midianites	-12.3965
▁Nineveh	-12.3965
▁adjo	-12.3965
▁amazing	-12.3965
▁basketfuls	-12.3965
▁correspondence	-12.3965
▁detail	-12.3965
▁floating	-12.3965
▁garnish	-12.3965
▁marched	-12.3965
▁passenger	-12.3965
▁pollut	-12.3965
▁reclin	-12.3965
▁wealthy	-12.3965
▁severity	-12.3965
▁Edomites	-12.3965
▁Rahab	-12.3965
▁befitting	-12.3965
▁flaming	-12.3965
▁implements	-12.3965
▁invited	-12.3965
▁lamented	-12.3965
▁overflow	-12.3965
▁phoe	-12.3965
▁sentiment	-12.3965
▁social	-12.3965
▁supplied	-12.3965
xplosion	-12.3965
▁conceded	-12.3965
▁foreship	-12.3965
▁fragran	-12.3965
▁gabbl	-12.3965
▁imaginary	-12.3965
▁relation	-12.3965
zziel	-12.3965
▁Hadad	-12.3965
▁assessment	-12.3965
▁loyal	-12.3965
▁panteth	-12.3965
▁useless	-12.3965
culture	-12.3965
▁enact	-12.3965
▁forgetteth	-12.3965
▁riotous	-12.3965
▁unfair	-12.3965
Crunchy	-12.3965
efraud	-12.3965
▁glazed	-12.3965
▁indigo	-12.3965
▁protest	-12.3965
▁roaring	-12.3965
▁terms	-12.3965
▁Towers	-12.3965
▁presumptuous	-12.3965
▁settling	-12.3965
▁Hadar	-12.3965
▁birches	-12.3965
▁tamed	-12.3965
▁turtle	-12.3965
▁purification	-12.3965
▁Babel	-12.3965
▁ownership	-12.3965
▁translat	-12.3965
▁squeal	-12.3965
▁Calah	-12.3965
▁enforc	-12.3965
▁flax	-12.3965
▁outfit	-12.3965
▁peaks	-12.3965
▁usury	-12.3965
▁variance	-12.3965
▁vicinity	-12.3965
▁fireworks	-12.3965
▁Obey	-12.3965
▁State	-12.3965
▁Hirah	-12.3965
▁backbone	-12.3965
▁lungs	-12.3965
▁sailors	-12.3965
▁composition	-12.3966
▁crashed	-12.3966
▁expression	-12.3966
▁juice	-12.3966
▁plots	-12.3966
▁Rhod	-12.3966
▁allotted	-12.3966
▁noisy	-12.3966
▁spelling	-12.3966
▁Amoz	-12.3966
▁edified	-12.3966
▁rhythmic	-12.3966
iggled	-12.3966
▁forgetting	-12.3966
▁superfluity	-12.3966
▁planning	-12.3966
▁guiltless	-12.3966
▁missing	-12.3966
▁Apoll	-12.3966
▁bedtime	-12.3966
▁enrolment	-12.3966
▁Corinthians	-12.3966
▁explod	-12.3966
▁effectual	-12.3966
▁twigs	-12.3966
acqu	-12.3966
▁excel	-12.3966
▁prospect	-12.3966
▁supplies	-12.3966
Slowly	-12.3966
▁scabb	-12.3966
▁ewes	-12.3966
▁acquaintance	-12.3966
▁radiance	-12.3966
▁Raamah	-12.3966
courag	-12.3966
mission	-12.3966
▁twirl	-12.3966
pproximately	-12.3966
▁chamberpots	-12.3966
▁dragline	-12.3966
tenance	-12.3966
▁Pontiac	-12.3966
▁billows	-12.3966
▁enduring	-12.3966
▁tittle	-12.3966
NK	-12.3966
▁cripple	-12.3966
▁suggestions	-12.3966
olitary	-12.3966
▁handmaidens	-12.3966
▁dazzling	-12.3966
▁eastern	-12.3966
▁reconciling	-12.3966
azily	-12.3966
▁palaces	-12.3966
▁spectac	-12.3966
▁teasing	-12.3966
jah	-12.3966
▁persistent	-12.3966
▁subtilty	-12.3966
Nice	-12.3966
▁councillor	-12.3966
▁charred	-12.3966
▁eventide	-12.3966
▁horseback	-12.3966
▁maidens	-12.3966
▁Bridge	-12.3966
▁compound	-12.3966
▁contra	-12.3966
▁kidding	-12.3966
▁community	-12.3966
▁partiality	-12.3966
▁representation	-12.3966
▁attachment	-12.3966
▁encourage	-12.3966
▁trample	-12.3966
▁disappointment	-12.3966
▁lidded	-12.3966
▁permitted	-12.3966
▁mossy	-12.3966
▁factious	-12.3966
▁muffled	-12.3966
▁pitieth	-12.3966
▁bidding	-12.3966
▁Tryph	-12.3966
▁babblings	-12.3966
nfluential	-12.3966
▁blackberry	-12.3966
▁gravy	-12.3966
▁Irad	-12.3967
▁unseemly	-12.3967
ignity	-12.3967
▁Root	-12.3967
▁Seba	-12.3967
▁worshippeth	-12.3967
berry	-12.3967
▁communicat	-12.3967
▁troop	-12.3967
▁Setting	-12.3967
▁accomplishment	-12.3967
Easy	-12.3967
▁oppression	-12.3967
▁mills	-12.3967
▁Somewhere	-12.3967
▁lightened	-12.3967
▁Claudius	-12.3967
ilbur	-12.3967
▁tailboard	-12.3967
▁pathetic	-12.3967
▁Sabt	-12.3967
▁newborn	-12.3967
▁Remove	-12.3967
▁rambl	-12.3967
▁happiness	-12.3967
▁thankfulness	-12.3967
▁runneth	-12.3967
▁traffic	-12.3967
raggle	-12.3967
▁cautiously	-12.3967
▁contribution	-12.3967
▁crashing	-12.3967
▁cruelty	-12.3967
▁instant	-12.3967
▁collapsed	-12.3968
▁engaged	-12.3968
▁retrieved	-12.3968
▁scarcely	-12.3968
▁politely	-12.3968
▁similarly	-12.3968
▁steadily	-12.3968
▁Job	-12.3968
▁Zac	-12.3968
▁esteemeth	-12.3968
▁justifieth	-12.3968
▁injuri	-12.3968
▁affectionately	-12.3968
▁matching	-12.3968
▁jelly	-12.3968
▁tripod	-12.3968
▁considerably	-12.3968
▁purified	-12.3968
▁composed	-12.3968
quality	-12.3968
scouring	-12.3968
abbas	-12.3968
hredded	-12.3968
ummim	-12.3968
AT	-12.3968
▁twent	-12.3968
▁Naph	-12.3968
▁Whereby	-12.3968
▁confirmation	-12.3969
▁AND	-12.3969
▁movements	-12.3969
▁Mib	-12.3969
▁bondmen	-12.3969
▁bacteria	-12.3969
▁bridge	-12.3969
▁airy	-12.3969
▁dazed	-12.3969
▁occasionally	-12.3969
ography	-12.3969
▁decade	-12.3969
▁genealogy	-12.3969
▁suppertime	-12.3969
Say	-12.3969
▁wrongfully	-12.397
▁unruly	-12.397
kah	-12.397
▁striker	-12.397
▁vowed	-12.397
▁struggling	-12.397
oneliness	-12.397
▁hencefor	-12.397
▁esc	-12.397
▁prosperity	-12.397
▁Slug	-12.397
apolis	-12.397
▁prosperous	-12.397
▁dooryard	-12.397
▁tackl	-12.397
▁homeland	-12.397
▁summertime	-12.3971
▁licked	-12.3971
▁doubleminded	-12.3971
▁advise	-12.3971
addled	-12.3971
▁embroiderer	-12.3971
▁copy	-12.3971
▁acceptation	-12.3971
▁Received	-12.3971
▁argued	-12.3971
▁dividing	-12.3971
▁survived	-12.3971
▁solemnly	-12.3972
▁violently	-12.3972
▁roadway	-12.3972
▁earshot	-12.3972
▁Death	-12.3972
▁Byron	-12.3972
▁differeth	-12.3972
▁flourisheth	-12.3972
▁snatcheth	-12.3972
▁sodden	-12.3972
▁underwear	-12.3972
▁Baal	-12.3972
▁gentleness	-12.3973
▁Mana	-12.3973
▁hastened	-12.3973
▁thankful	-12.3973
▁willingly	-12.3973
▁Americans	-12.3974
▁trott	-12.3974
homsoever	-12.3974
guiltiness	-12.3974
▁okay	-12.3974
mock	-12.3974
▁locked	-12.3975
▁calculat	-12.3975
bakers	-12.3975
▁wrapping	-12.3975
▁concluding	-12.3975
▁fixing	-12.3975
▁overwhelming	-12.3975
▁professing	-12.3975
▁surrounding	-12.3975
▁terrifying	-12.3975
▁adorning	-12.3975
▁gnawing	-12.3975
▁existing	-12.3975
▁perfumed	-12.3975
▁normal	-12.3975
▁excused	-12.3975
▁meekly	-12.3976
▁delicately	-12.3976
▁attraction	-12.3976
▁ju	-12.3976
▁flapped	-12.3976
▁mockers	-12.3976
▁skirmish	-12.3976
▁test	-12.3976
▁fearfulness	-12.3976
▁dreamily	-12.3976
▁rusty	-12.3976
▁chasteneth	-12.3977
▁gloriest	-12.3977
brimmed	-12.3977
▁waterpots	-12.3977
▁addressed	-12.3977
▁blinked	-12.3977
▁conducted	-12.3977
▁embalmed	-12.3977
▁embarrassed	-12.3977
▁succeeded	-12.3977
▁alternate	-12.3977
▁Haz	-12.3978
bsolution	-12.3978
▁approvedness	-12.3978
▁earnestness	-12.3978
▁defende	-12.3979
▁Matthan	-12.3979
▁welcomed	-12.3979
▁soberness	-12.3979
▁axle	-12.3979
▁travers	-12.398
▁generally	-12.398
actic	-12.398
▁flushed	-12.398
▁transit	-12.398
▁Dead	-12.398
▁Hermon	-12.3981
▁Dalma	-12.3981
burger	-12.3982
bber	-12.3982
▁alongside	-12.3982
▁perfection	-12.3983
▁--	-12.3983
zal	-12.3984
▁acquaint	-12.3984
▁familiar	-12.3984
▁ordinary	-12.3984
▁husks	-12.3984
▁blaze	-12.3984
▁Almost	-12.3985
▁expl	-12.3985
▁recently	-12.3985
▁exerciseth	-12.3986
▁partaketh	-12.3986
▁sojourneth	-12.3986
upon	-12.3986
▁joyfully	-12.3986
▁rattled	-12.3986
versatile	-12.3987
▁boxes	-12.3987
▁musical	-12.3987
▁provided	-12.3987
▁stew	-12.3988
▁assuredly	-12.3988
▁desperately	-12.3988
bur	-12.3988
▁gloriously	-12.3988
▁accusing	-12.3988
ilacs	-12.3989
▁heights	-12.399
▁scattereth	-12.399
▁watchful	-12.399
▁befallen	-12.3991
▁plagued	-12.3992
▁complaining	-12.3992
▁packing	-12.3992
▁graciously	-12.3992
Goodness	-12.3992
▁skinned	-12.3992
▁lodgeth	-12.3993
▁baptizeth	-12.3993
▁overboard	-12.3994
▁withstandeth	-12.3994
▁skip	-12.3995
▁becomingly	-12.3996
oops	-12.3997
▁trotted	-12.3997
▁dismissed	-12.3997
▁impressed	-12.3997
▁represented	-12.3997
▁complained	-12.3997
▁tee	-12.3997
▁clos	-12.3998
▁Elim	-12.3998
▁anywhere	-12.3999
▁faileth	-12.3999
▁glanced	-12.3999
▁lackest	-12.4
▁restoreth	-12.4
vah	-12.4001
▁balloonists	-12.4001
▁endeavors	-12.4001
▁politics	-12.4001
▁proselytes	-12.4001
▁symbols	-12.4001
every	-12.4002
▁devoureth	-12.4004
ymen	-12.4004
▁fifteenth	-12.4004
▁gazed	-12.4005
▁tighten	-12.4006
▁renounce	-12.4006
rubs	-12.4007
▁waxeth	-12.4008
▁heartily	-12.4008
▁nicely	-12.4009
▁dizzying	-12.4009
▁scratching	-12.4009
▁shifting	-12.4009
▁cleanseth	-12.4009
▁dealings	-12.4009
▁tracing	-12.4011
▁dripping	-12.4011
▁recompensed	-12.4011
azed	-12.4012
▁partial	-12.4012
umming	-12.4013
▁lacketh	-12.4013
▁flattering	-12.4013
opy	-12.4014
▁accuseth	-12.4014
▁Toward	-12.4014
trong	-12.4015
▁traded	-12.4015
ssy	-12.4015
▁soaked	-12.4015
▁Matth	-12.4016
▁proudly	-12.4017
▁draft	-12.4017
▁encountered	-12.4018
▁cobbler	-12.4018
▁project	-12.402
urned	-12.402
▁lifetime	-12.402
▁quench	-12.4021
▁outhouses	-12.4022
▁forbidd	-12.4023
▁mouthful	-12.4023
fields	-12.4023
▁remarked	-12.4023
▁appetite	-12.4024
▁firelight	-12.4025
▁powerful	-12.4026
▁reigneth	-12.4026
▁despairing	-12.4026
▁inventing	-12.4026
stalks	-12.4028
▁included	-12.4028
▁radi	-12.403
▁Wash	-12.4034
▁grassy	-12.4035
▁profiteth	-12.4035
roduction	-12.4035
ouched	-12.4036
▁impos	-12.4036
▁driveth	-12.4037
lands	-12.4038
▁encamped	-12.4039
▁knocked	-12.4039
▁regardeth	-12.404
▁secretly	-12.4041
▁wickedly	-12.4042
▁powerless	-12.4042
▁hardening	-12.4043
▁fenced	-12.4044
▁disappearing	-12.4044
▁entertained	-12.4044
▁plucking	-12.4044
▁twisting	-12.4045
▁torches	-12.4045
sion	-12.4046
ouching	-12.4047
▁spaced	-12.4048
▁repenteth	-12.4049
ium	-12.4051
▁aboundeth	-12.4053
▁fastness	-12.4055
▁decomposed	-12.4055
rom	-12.4056
▁brightest	-12.4056
armen	-12.4056
legations	-12.4058
▁TH	-12.4058
▁forbearing	-12.406
▁twisted	-12.406
▁coveting	-12.4061
▁admonishing	-12.4061
▁draweth	-12.4062
▁hillsides	-12.4063
▁elbows	-12.4063
▁merchants	-12.4063
▁poplars	-12.4063
▁scorpions	-12.4063
▁disputes	-12.4063
made	-12.4063
▁Israelites	-12.4064
▁packs	-12.4065
▁drunkard	-12.4066
▁belongings	-12.4066
▁spiritually	-12.4067
▁payments	-12.4068
▁departments	-12.4068
▁Doctor	-12.4068
▁laborer	-12.4068
▁highways	-12.4069
▁topic	-12.407
▁readest	-12.4076
aa	-12.4077
▁missionar	-12.4078
▁agreeing	-12.4079
▁sharply	-12.4079
lunchtime	-12.4079
▁warmth	-12.408
▁citizens	-12.4082
▁skirts	-12.4082
▁beautifully	-12.4083
▁dwellers	-12.4086
▁departeth	-12.4086
▁understandest	-12.4086
eased	-12.4087
▁kin	-12.4088
woods	-12.4089
▁Alexandrian	-12.4093
▁gorgeous	-12.4098
▁comforteth	-12.4099
▁weakly	-12.41
elect	-12.41
▁legion	-12.4102
▁poorly	-12.4104
▁someday	-12.4106
▁lawfully	-12.4106
▁striped	-12.4109
▁carcase	-12.4109
▁breaketh	-12.4113
▁sleepy	-12.4114
▁traveling	-12.4115
▁loudly	-12.4117
▁consol	-12.412
▁reviler	-12.4122
▁weigh	-12.4122
▁ev	-12.4123
▁benefits	-12.4127
▁bishops	-12.4127
▁bridles	-12.4127
▁guests	-12.4127
▁patriarchs	-12.4127
▁results	-12.4127
▁partners	-12.4127
▁factions	-12.4129
▁lowering	-12.4132
▁proclaiming	-12.4133
▁proceeding	-12.4133
▁stepp	-12.4134
▁navigati	-12.4139
▁prospered	-12.4144
affl	-12.4148
boards	-12.4149
▁num	-12.4165
▁consented	-12.4166
▁happening	-12.4171
▁darkest	-12.4176
▁sucking	-12.418
▁reaping	-12.4187
umm	-12.4189
▁remaining	-12.4191
▁laughing	-12.4191
▁folks	-12.4191
▁depths	-12.4192
▁quails	-12.4192
▁ranks	-12.4197
▁railings	-12.4199
▁weakling	-12.4203
▁killedst	-12.4206
▁rendering	-12.4221
▁trusted	-12.4231
▁darkly	-12.4231
▁reaped	-12.4232
▁streamed	-12.4232
jack	-12.4233
▁fashioning	-12.4241
air	-12.4252
▁candles	-12.4257
▁views	-12.4257
▁tumults	-12.4257
▁instructions	-12.4257
▁twists	-12.4259
▁motions	-12.4259
▁fainting	-12.4259
earth	-12.4265
lack	-12.4276
ormwood	-12.4286
Cause	-12.4294
▁trailing	-12.4294
practical	-12.4296
▁respected	-12.4296
▁dispos	-12.4299
▁tracks	-12.4313
worm	-12.4313
▁labours	-12.4322
▁rooted	-12.4322
▁claims	-12.4323
▁balloons	-12.4326
za	-12.4332
ification	-12.4338
pat	-12.4355
▁hop	-12.4356
zzling	-12.4365
rg	-12.4386
▁rolls	-12.4387
▁bullocks	-12.4388
▁platters	-12.4389
▁emptying	-12.4389
nstead	-12.4425
▁oblig	-12.4436
▁procur	-12.4436
TER	-12.4451
urning	-12.4453
▁shirts	-12.4453
▁flames	-12.4454
▁faults	-12.4454
▁strifes	-12.4454
▁residen	-12.446
pring	-12.446
▁flows	-12.4461
avy	-12.4466
rite	-12.4469
▁killings	-12.4481
▁Lyc	-12.4487
▁choices	-12.4521
rning	-12.4527
dded	-12.4559
gging	-12.4582
▁sizes	-12.4585
▁errors	-12.4587
▁stewards	-12.4587
nish	-12.4594
uits	-12.4609
oz	-12.462
▁carrie	-12.4633
▁epistles	-12.4654
spi	-12.4655
▁trials	-12.4656
sions	-12.4672
▁attach	-12.4702
▁writ	-12.4708
▁summ	-12.472
▁prices	-12.472
▁comm	-12.4724
gre	-12.4736
▁activit	-12.4757
▁Majest	-12.4769
utteth	-12.4773
tions	-12.4773
▁trumpets	-12.479
oliness	-12.4828
▁seedling	-12.4854
▁harlots	-12.4854
▁pools	-12.4858
pples	-12.4872
▁hobbl	-12.4891
orseshoe	-12.4907
▁sacr	-12.4916
▁leavings	-12.4927
▁interpretations	-12.4928
▁Pau	-12.4957
bes	-12.4961
▁squa	-12.4968
▁wobbl	-12.4973
▁abhorre	-12.4987
▁watchings	-12.4989
▁executi	-12.4993
▁handmaids	-12.5001
▁springs	-12.5011
▁protecti	-12.5055
ize	-12.5085
escend	-12.5087
zo	-12.5116
ost	-12.5119
▁preferr	-12.512
last	-12.5128
obs	-12.5145
▁decrease	-12.5167
ysia	-12.5179
▁interrupti	-12.5181
▁elevat	-12.5185
ppl	-12.5212
▁feelings	-12.5243
▁constant	-12.526
cal	-12.529
ffer	-12.5317
hereabouts	-12.5331
▁twins	-12.534
▁disc	-12.5344
▁marvell	-12.5358
▁roo	-12.5388
kin	-12.5403
▁Di	-12.5416
AB	-12.5438
hole	-12.5535
abb	-12.5565
▁stubb	-12.5579
mpl	-12.5603
conveniently	-12.563
ello	-12.5636
asses	-12.5637
”.	-12.5655
zar	-12.5687
utting	-12.5704
▁dissipat	-12.571
ages	-12.5743
hip	-12.5872
▁entic	-12.5902
▁Revi	-12.5944
▁Ab	-12.5966
lat	-12.5966
city	-12.612
jected	-12.6125
plac	-12.6165
▁dri	-12.6166
▁furious	-12.6172
▁clo	-12.6332
▁simpl	-12.6343
arrow	-12.6352
azy	-12.6413
com	-12.6416
year	-12.6456
▁unsettle	-12.6644
oh	-12.6646
rds	-12.6677
thi	-12.6731
ssi	-12.6738
ession	-12.6764
emarkable	-12.6825
▁conc	-12.6841
▁adv	-12.6842
▁sai	-12.6876
controlled	-12.6916
sa	-12.6929
▁Hi	-12.6958
dl	-12.6982
scending	-12.6987
j	-12.6991
▁gravel	-12.7011
trap	-12.7066
ashed	-12.7073
ka	-12.7115
make	-12.7138
course	-12.7166
oc	-12.7221
attle	-12.7222
pent	-12.7266
rue	-12.7289
ocked	-12.7321
lah	-12.7422
tude	-12.7433
fly	-12.747
▁prom	-12.7473
fighters	-12.753
▁crunch	-12.7554
hor	-12.7588
▁accus	-12.7592
tations	-12.7667
ken	-12.769
▁acknowledg	-12.7991
ef	-12.8202
bid	-12.8203
hav	-12.8218
lves	-12.8229
non	-12.8251
aby	-12.8321
west	-12.8419
formation	-12.8472
lasses	-12.8492
very	-12.8494
Try	-12.8579
▁plu	-12.8615
mpli	-12.8618
Ti	-12.862
▁til	-12.8703
▁guid	-12.8762
rie	-12.8805
hings	-12.8901
riest	-12.8921
eph	-12.8948
hanging	-12.9029
ock	-12.903
▁si	-12.9058
ric	-12.9086
settled	-12.9108
ren	-12.9174
urv	-12.9208
▁char	-12.9259
ru	-12.927
early	-12.9285
▁controll	-12.9306
▁Sp	-12.938
▁blu	-12.9438
zy	-12.9508
AM	-12.9638
iving	-12.9671
fr	-12.9786
tched	-12.9854
▁Elisha	-12.9906
lar	-12.993
aba	-12.9954
▁temper	-12.9955
fin	-13.0066
LO	-13.0079
▁admir	-13.0104
To	-13.0133
ym	-13.0179
hin	-13.0224
ok	-13.0294
vity	-13.031
ckets	-13.0326
pos	-13.0344
▁defe	-13.0351
ightier	-13.0449
oic	-13.0489
dges	-13.0494
sipate	-13.0509
ubby	-13.069
▁sumptuous	-13.0707
yr	-13.0725
ept	-13.0836
▁ignore	-13.0985
cle	-13.1006
body	-13.1029
▁Ro	-13.1092
▁Jac	-13.1168
heeky	-13.1194
nstantly	-13.1228
ereabouts	-13.1236
eri	-13.1249
▁Char	-13.126
oni	-13.126
ely	-13.1281
▁assembl	-13.1322
gree	-13.1333
vious	-13.1382
lation	-13.1407
creased	-13.1411
scend	-13.1462
tracked	-13.1489
tie	-13.1549
▁protect	-13.1604
▁practice	-13.1632
gat	-13.166
die	-13.1713
▁abhor	-13.1726
ec	-13.175
evil	-13.1799
view	-13.181
alo	-13.1821
rust	-13.1844
nation	-13.1856
▁appl	-13.2015
▁liv	-13.2024
▁nu	-13.2024
salutations	-13.2027
born	-13.2033
▁reproaches	-13.2046
lli	-13.2079
moth	-13.2093
num	-13.2093
au	-13.2125
▁accu	-13.2166
win	-13.2187
gy	-13.2235
hould	-13.2364
pti	-13.2431
unk	-13.2466
▁hu	-13.2538
pple	-13.2586
▁Writ	-13.2588
gged	-13.264
unta	-13.2731
fer	-13.274
place	-13.2812
cracks	-13.2829
▁oblige	-13.2849
▁procure	-13.2851
evi	-13.289
tl	-13.2895
▁despis	-13.2895
▁simpli	-13.2944
▁compelle	-13.2976
▁separat	-13.2992
coa	-13.3019
arthworm	-13.3047
IL	-13.3052
▁convers	-13.309
▁Immediate	-13.3119
tu	-13.3126
▁temp	-13.3158
tention	-13.3162
ickly	-13.3167
istened	-13.318
fied	-13.3186
▁Fulfil	-13.3216
far	-13.3248
nload	-13.3256
▁ref	-13.3262
▁hav	-13.3279
ality	-13.329
quarters	-13.33
significan	-13.331
gn	-13.3318
▁spo	-13.3341
P	-13.3342
shoe	-13.3345
▁peri	-13.3354
yway	-13.3357
▁mids	-13.3373
pockets	-13.3381
ify	-13.3384
ensation	-13.343
ause	-13.3483
su	-13.3512
fle	-13.3519
gel	-13.3527
▁naviga	-13.3533
cular	-13.355
lessness	-13.3567
mbered	-13.3586
rus	-13.3596
▁engrave	-13.36
▁carcas	-13.3606
isi	-13.361
▁conver	-13.361
▁withdraw	-13.3623
rches	-13.3626
ecrets	-13.3627
▁emb	-13.3648
feasts	-13.3656
hn	-13.3676
▁inconvenient	-13.368
arbarians	-13.3686
icked	-13.3696
▁significa	-13.3702
mouths	-13.3707
▁cons	-13.3722
put	-13.3746
ju	-13.3784
about	-13.3787
citizen	-13.3793
rooms	-13.3793
▁bruis	-13.3794
cluded	-13.3804
venge	-13.381
formed	-13.3811
cross	-13.3812
Pre	-13.3814
lp	-13.3816
ppetite	-13.3816
elf	-13.3824
self	-13.383
▁cobble	-13.3832
bility	-13.3836
▁Step	-13.3838
umans	-13.3839
ssembled	-13.3839
▁fac	-13.384
pic	-13.3841
eneration	-13.3842
bearing	-13.3843
▁despi	-13.3844
ppoint	-13.3847
nointed	-13.3848
lines	-13.3848
postle	-13.3848
▁mission	-13.385
▁divi	-13.3852
lready	-13.3852
crumb	-13.3858
▁measur	-13.3862
cation	-13.3869
ruption	-13.3871
▁politic	-13.3874
▁proselyte	-13.3874
▁symbol	-13.3874
▁balloonist	-13.3874
▁endeavor	-13.3874
cause	-13.3875
cakes	-13.3877
Salu	-13.3882
▁Ephesian	-13.3882
▁knuckle	-13.3882
▁malefactor	-13.3882
▁ornament	-13.3883
▁buttock	-13.3883
give	-13.3884
▁decree	-13.3885
▁Hog	-13.3885
cloth	-13.3886
▁magistrate	-13.3886
▁squirrel	-13.3888
▁whisker	-13.389
▁purpos	-13.389
▁firstfruit	-13.3891
▁cricket	-13.3892
▁musket	-13.3892
rics	-13.3894
▁socket	-13.3895
▁Gentile	-13.3895
▁gener	-13.3896
▁alway	-13.3896
speak	-13.3896
Ever	-13.3897
▁Horite	-13.3897
ox	-13.3899
blossom	-13.39
maids	-13.39
continu	-13.39
▁Sometime	-13.3903
address	-13.3904
Ro	-13.3904
ersatile	-13.391
cover	-13.391
inners	-13.3911
▁cherubim	-13.3912
Jac	-13.3914
▁gnaw	-13.3915
repute	-13.3916
Co	-13.3917
fastness	-13.3917
familiar	-13.3917
ordinary	-13.3917
skinned	-13.3917
▁adorn	-13.3917
skirts	-13.3917
acquaint	-13.3917
blaze	-13.3917
husks	-13.3917
figure	-13.3918
Almost	-13.3918
ympa	-13.3919
expl	-13.3919
D	-13.3919
rapped	-13.392
▁kneel	-13.392
fruits	-13.3921
barrel	-13.3921
claws	-13.3921
disturbed	-13.3921
Amram	-13.3921
drift	-13.3922
Really	-13.3922
smoking	-13.3922
ridden	-13.3923
what	-13.3923
crowned	-13.3923
De	-13.3923
spoiled	-13.3923
collect	-13.3924
judg	-13.3924
easily	-13.3924
jo	-13.3924
Pr	-13.3924
fancy	-13.3924
claimed	-13.3924
pulations	-13.3924
interesting	-13.3924
girded	-13.3925
Jonah	-13.3925
comfortable	-13.3925
priesthood	-13.3925
mixed	-13.3925
▁appea	-13.3925
Keep	-13.3925
fruitful	-13.3925
smelling	-13.3925
emptied	-13.3925
glorious	-13.3925
spotted	-13.3925
Ga	-13.3925
change	-13.3926
study	-13.3926
clerk	-13.3926
justice	-13.3926
growing	-13.3926
compass	-13.3926
worthy	-13.3926
packed	-13.3926
flame	-13.3926
howbeit	-13.3926
Lowan	-13.3926
certain	-13.3926
bow	-13.3926
scribe	-13.3926
drop	-13.3926
breast	-13.3926
drive	-13.3926
Day	-13.3927
corrupt	-13.3927
radiant	-13.3927
skull	-13.3927
merciful	-13.3927
ministration	-13.3927
persuaded	-13.3927
partakers	-13.3927
point	-13.3927
Many	-13.3927
prize	-13.3927
promised	-13.3927
known	-13.3927
natural	-13.3928
direction	-13.3928
Neither	-13.3928
Indian	-13.3928
lawful	-13.3928
charged	-13.3928
built	-13.3928
believeth	-13.3928
prepared	-13.3928
fellow	-13.3928
flies	-13.3928
walking	-13.3928
members	-13.3928
rulers	-13.3928
leadeth	-13.3928
faithful	-13.3928
broken	-13.3928
whose	-13.3928
next	-13.3928
birds	-13.3928
white	-13.3928
why	-13.3928
Zuckerman	-13.3928
woman	-13.3928
web	-13.3928
spoken	-13.3928
second	-13.3928
whatsoever	-13.3928
glass	-13.3928
Israel	-13.3928
children	-13.3929
glory	-13.3929
people	-13.3929
Jesus	-13.3929
disciples	-13.3929
offer	-13.3929
race	-13.3929
during	-13.3929
Re	-13.3929
because	-13.3929
country	-13.3929
excellent	-13.3929
Z	-13.3929
wrote	-13.3929
brother	-13.3929
Behold	-13.3929
je	-13.393
served	-13.393
would	-13.393
Bring	-13.393
first	-13.393
garment	-13.393
from	-13.393
Hello	-13.393
ridge	-13.393
agree	-13.3931
coats	-13.3931
lodge	-13.3931
looked	-13.3932
divid	-13.3932
▁tiding	-13.3932
boys	-13.3932
father	-13.3933
Every	-13.3933
solution	-13.3933
behold	-13.3934
figured	-13.3934
brown	-13.3935
onyx	-13.3935
▁alternat	-13.3935
Le	-13.3935
Mr	-13.3935
someone	-13.3936
▁embarrass	-13.3936
▁conduct	-13.3936
▁embalm	-13.3936
▁imagin	-13.3936
▁succeed	-13.3936
▁justifi	-13.3936
Over	-13.3936
harps	-13.3936
▁surpris	-13.3937
▁provok	-13.3937
▁rehears	-13.3937
kirmish	-13.3938
▁express	-13.3938
▁arriv	-13.3938
▁embrac	-13.3938
entered	-13.3938
▁fix	-13.3938
▁disturb	-13.3938
▁enlighten	-13.3938
▁Ob	-13.3939
▁guilt	-13.3939
▁abolish	-13.3939
▁polish	-13.394
▁pursu	-13.394
▁punish	-13.394
▁frighten	-13.394
▁circumcis	-13.394
traction	-13.394
▁profess	-13.3941
▁terrify	-13.3941
▁overwhelm	-13.3941
▁exist	-13.3941
▁surround	-13.3941
▁consum	-13.3941
▁perplex	-13.3941
ecretary	-13.3941
culation	-13.3941
▁astonish	-13.3942
▁crawl	-13.3942
cratch	-13.3942
▁conclud	-13.3942
▁neglect	-13.3942
ojourn	-13.3942
pecial	-13.3942
wiped	-13.3942
▁promis	-13.3943
▁crook	-13.3943
hadows	-13.3943
▁escap	-13.3943
wallows	-13.3943
life	-13.3943
anctuary	-13.3944
▁graft	-13.3944
tranger	-13.3944
eparate	-13.3944
informed	-13.3945
dged	-13.3945
ptu	-13.3946
▁complet	-13.3947
▁requi	-13.3947
Or	-13.3947
raversing	-13.3947
rashing	-13.3948
deeds	-13.3949
Have	-13.3949
▁mix	-13.395
▁embroider	-13.3951
▁innocen	-13.3951
nclosing	-13.3951
ticks	-13.3951
▁Zuck	-13.3952
▁uncerta	-13.3953
lossom	-13.3953
nyx	-13.3953
▁Eb	-13.3953
scape	-13.3954
truth	-13.3954
▁imprison	-13.3954
possess	-13.3954
▁advertise	-13.3955
flected	-13.3955
▁guar	-13.3955
▁blink	-13.3956
hortly	-13.3956
pra	-13.3956
acteria	-13.3956
alloons	-13.3956
reached	-13.3956
▁sym	-13.3956
ND	-13.3957
His	-13.3957
▁disgu	-13.3957
rupted	-13.3958
▁govern	-13.3958
▁esteem	-13.3959
etween	-13.3959
usbands	-13.3959
isdom	-13.3959
▁similar	-13.3959
corners	-13.3959
pig	-13.3959
▁polite	-13.3959
▁urge	-13.3959
▁collapse	-13.396
▁engage	-13.396
▁retrieve	-13.396
▁purifie	-13.396
undred	-13.396
hysician	-13.396
▁contributi	-13.396
autiously	-13.396
elo	-13.396
▁Certain	-13.396
▁entangle	-13.396
▁straddle	-13.396
▁awkward	-13.396
▁affect	-13.396
▁satisfie	-13.396
oursquare	-13.396
▁discipl	-13.396
▁compose	-13.396
▁tangle	-13.396
ifteen	-13.3961
rovision	-13.3961
ottage	-13.3961
▁Claudi	-13.3961
rivate	-13.3961
amilies	-13.3961
onsecrate	-13.3961
ossession	-13.3961
▁destructi	-13.3961
herubims	-13.3961
onfess	-13.3961
▁signifie	-13.3961
▁tarrie	-13.3961
▁hypocri	-13.3961
▁realize	-13.3962
craft	-13.3962
speaking	-13.3962
▁Ez	-13.3962
q	-14.762
x	-14.7621
“	-14.7622
J	-14.7623
G	-14.7624
v	-14.7625
b	-14.7626
g	-14.7627
c	-14.7628
w	-14.7629
i	-14.763
o	-14.7631
