{
  "src_word2id": {
    "<pad>": 0,
    "<s>": 1,
    "</s>": 2,
    "<unk>": 3,
    ",": 4,
    ".": 5,
    "\u2581\u13a0\u13b4": 6,
    "\u2581\u13be\u13cd\u13a9": 7,
    ";": 8,
    "\u2581\u13af\u13a0": 9,
    "\u2581\u13a4": 10,
    "\u2581\u13a8\u13d2": 11,
    "\u2581\u13a0": 12,
    "\u13c3": 13,
    "\u2581\u13a8\u13d2\u13a2": 14,
    "\u13a2": 15,
    "\u2581": 16,
    "\u2581\u13a5\u13dd": 17,
    "\u13cd\u13d7": 18,
    "\u2581\u13a8\u13ce\u13cd\u13d7": 19,
    "\u2581\u13a4\u13c1\u13b3\u13c5\u13af": 20,
    "\u2581\u13c3\u13b4": 21,
    "\u13f0\u13c3": 22,
    "?": 23,
    "\u2581\u13f4\u13eb": 24,
    "\u2581\u13be": 25,
    "\u2581\u13a2\u13f3\u13cd\u13d7": 26,
    "\u2581\u13be\u13cd\u13c9": 27,
    "\u2581\u13a9\u13b6": 28,
    "\u2581\u13be\u13cd\u13a9\u13ef": 29,
    "\u2060": 30,
    "\u2581\u13a0\u13ce\u13c3": 31,
    "\u2581\u13a0\u13f4": 32,
    "-": 33,
    "\u2581\u13e7": 34,
    "\u13c9": 35,
    "\u2581\u13be\u13bf": 36,
    "\u2581\u13f1\u13a9": 37,
    "\u2581\u13d7": 38,
    "\u2581\u13c2\u13af": 39,
    "\u2581\u13e5": 40,
    "\u2581\u13e5\u13a9": 41,
    "\u2581\u13aa\u13b1\u13cd\u13d7": 42,
    "\u13a9": 43,
    "\u13cd\u13a9": 44,
    "\u2581\u13a2\u13a6": 45,
    "\u2581\u13a4\u13ac\u13eb\u13f3\u13af": 46,
    "\u2581\u13c2\u13a8\u13d2\u13be": 47,
    "\u2581\u13e5\u13cc": 48,
    "\u2581\u201c": 49,
    "\u2581\u13c2\u13a6\u13db": 50,
    "\u2581\u13a2": 51,
    "\u2581\u13f1\u13b0\u13e9": 52,
    "\u2581\u13af\u13a0\u13c3": 53,
    "\u13cd\u13a9\u13c2": 54,
    "\u2581\u13a3\u13cd\u13db": 55,
    "\u2581\u13be\u13cd\u13a9\u13c3": 56,
    "\u2581\u13f1": 57,
    "\u2581\u13a0\u13c2": 58,
    "\u2581\u13a4\u13ea\u13e5": 59,
    "\u2581\u13e3": 60,
    "\u2581\u13da": 61,
    "\u2581\u13a2\u13f3\u13c3": 62,
    "\u2581\u13e7\u13ea\u13e5": 63,
    "\u13ad": 64,
    "\u2581\u13a6\u13b6\u13c1\u13db": 65,
    "\u2581\u13c4\u13ea\u13ce\u13a2": 66,
    "\u13af": 67,
    "\u2581\u13a1\u13b6\u13af": 68,
    "\u2581\u13bf\u13c9": 69,
    "\u2581\u13d3": 70,
    "\u2581\u13de\u13cd\u13d7": 71,
    "\u2581\u13af": 72,
    "\u2581\u13a8\u13cd\u13d7": 73,
    "\u2581\u13a6": 74,
    "\u13d7": 75,
    "\u2581\u13bf\u13c9\u13c3": 76,
    "\u2581\u13a4\u13c2": 77,
    "\u2581\u13a4\u13f2": 78,
    "\u2581\u13a4\u13db\u13c1": 79,
    "\u13f1": 80,
    "\u2581\u201d": 81,
    "\u2581\u13a0\u13e5\u13b8": 82,
    "\u2581\u13a4\u13e3\u13d8": 83,
    "\u2581\u13a1\u13af": 84,
    "\u2581\u13c2\u13a6\u13a5": 85,
    "\u2581\u13eb\u13b5\u13bb": 86,
    ",\u201d": 87,
    "\u13be": 88,
    "\u2581\u13a6\u13b8\u13c9\u13d7\u13f3": 89,
    "\u2581\u13ac\u13c2\u13a8\u13d2": 90,
    "\u2581\u13c4\u13cd\u13db": 91,
    "\u2581\u13a0\u13cd\u13a6\u13ef": 92,
    "\u2581\u13a6\u13d9": 93,
    "\u2581\u13ac\u13c2\u13f3\u13c9": 94,
    "\u2581\u13a4\u13e9\u13d2": 95,
    "\u2581\u13a7\u13c3\u13ae\u13db": 96,
    "\u13cd\u13aa": 97,
    "\u2581\u13be\u13af\u13f3": 98,
    "\u2581\u13a0\u13c1\u13af": 99,
    "\u2581\u13a6\u13b8\u13b3\u13d7": 100,
    "\u2581\u13a0\u13f0\u13b5": 101,
    "\u2581\u13a0\u13d5\u13b8": 102,
    "\u2581\u13a2\u13e3": 103,
    "\u2581\u13a8\u13ce\u13a2": 104,
    "\u13d7\u13f1": 105,
    "\u2581\u13a4\u13e4\u13b5": 106,
    "\u2581\u13a4\u13e4\u13b5\u13a6": 107,
    "\u2581\u13f0\u13b5": 108,
    "\u2581\u13a0\u13b9": 109,
    "\u2581\u13eb": 110,
    "\u2581\u13a2\u13f4\u13db": 111,
    "\u2581\u13ac\u13e9": 112,
    "\u2581\u13a0\u13ce": 113,
    "\u2581\u13a3\u13cf\u13f3": 114,
    "\u2581\u13cc\u13c9": 115,
    "\u2581\u13a6\u13d9\u13af": 116,
    "\u13a6": 117,
    "\u2581\u13f3": 118,
    "\u2581\u13be\u13c2\u13a5": 119,
    "\u2581[": 120,
    "]": 121,
    "\u2581\u13aa\u13af": 122,
    "\u2581\u13d7\u13a7\u13bf\u13e9\u13db\u13cd\u13d7": 123,
    "\u2581\u13c2": 124,
    "\u2581\u13d4\u13b5": 125,
    "\u2581\u13a8": 126,
    "\u2581\u13c4": 127,
    "\u2581\u13a0\u13d3\u13c5\u13d9": 128,
    "\u2581\u13a3\u13cd\u13d3": 129,
    "\u2581\u13a0\u13c2\u13cd\u13a6\u13ef": 130,
    "\u2581\u13a8\u13ce": 131,
    "\u2581\u13a1": 132,
    ".\u201d": 133,
    "\u2581\u13a4\u13df": 134,
    "\u2581\u13a4\u13be": 135,
    "\u2581\u13a2\u13e5\u13c8\u13f1": 136,
    "\u2581\u13a2\u13cf\u13b5": 137,
    "\u2581\u13d4\u13b5\u13c1": 138,
    "\u2581\u13bc\u13cf": 139,
    "\u2581\u13a8\u13d2\u13a9": 140,
    "\u2581\u13d5": 141,
    "\u2581\u13ac": 142,
    "\u2581\u13a0\u13eb": 143,
    "\u13d3": 144,
    "\u2581\u2060": 145,
    "\u13db": 146,
    "\u2581\u13ed": 147,
    "\u2581\u13da\u13f3\u13aa\u13db": 148,
    "\u2581\u13ef": 149,
    "\u2581\u13a0\u13a9": 150,
    "!": 151,
    "\u2581\u13a1\u13b3\u13d7": 152,
    "\u2581\u13a6\u13d9\u13c3": 153,
    "\u13c2": 154,
    "\u2581\u13a2\u13f3\u13b5\u13cd\u13d9\u13d7\u13f1": 155,
    "\u13cd\u13ac": 156,
    ":": 157,
    "\u2581\u13a2\u13d7\u13e2": 158,
    "\u2581\u13e9\u13a6": 159,
    "\u2581\u13cf\u13c6": 160,
    "\u13d9\u13d7": 161,
    "\u2581\u13f2\u13be": 162,
    "\u2581\u13a2\u13ac\u13f1": 163,
    "\u2581\u13a2\u13e5": 164,
    "\u2581\u13a0\u13cf": 165,
    "\u13a0": 166,
    "\u2581\u13cc\u13b3\u13d3": 167,
    "!\u201d": 168,
    "\u2581\u13c4\u13ea\u13d2\u13a9": 169,
    "\u13cd\u13d3": 170,
    "\u13b5": 171,
    "\u2581\u13a4\u13c2\u13e3\u13d8": 172,
    "?\u201d": 173,
    "\u2581\u13c4\u13ea\u13ce\u13b4\u13a2": 174,
    "\u2581\u13a2\u13f3": 175,
    "\u2581\u13c2\u13a6\u13d3": 176,
    "\u2581\u13a0\u13a8\u13f4": 177,
    "\u13cd\u13a6": 178,
    "\u2581\u13e7\u13d3\u13b4\u13c5\u13db": 179,
    "\u13cf": 180,
    "\u2581\u13a0\u13c6": 181,
    "\u2581\u13e5\u13cc\u13c3": 182,
    "\u2581\u13be\u13a5": 183,
    "\u2581\u13f1\u13a8\u13ce\u13cd\u13d7": 184,
    "\u2581\u13da\u13c2": 185,
    "\u13b4": 186,
    "\u2581\u13a4\u13d9\u13af\u13f3\u13af\u13ef": 187,
    "\u13cd\u13db": 188,
    "\u2581\u13a3": 189,
    "\u2581\u13c5\u13ef": 190,
    "\u2581\u13c5\u13a9": 191,
    "\u13a8\u13cd\u13d7": 192,
    "\u2581\u13e7\u13c2": 193,
    "\u2581\u13a0\u13c2\u13e7\u13cf": 194,
    "\u2581\u13c2\u13da\u13ea\u13ce\u13b4\u13a2": 195,
    "\u2581\u13d0\u13c8\u13b5": 196,
    "\u2581\u13dd\u13cd\u13aa": 197,
    "\u2581\u13a6\u13da": 198,
    "\u2581\u13d9": 199,
    "\u2581\u13e6\u13a2": 200,
    "\u2581\u13a0\u13d3": 201,
    "\u2581\u13e3\u13ac\u13eb\u13f3\u13af": 202,
    "\u2581\u13a1\u13c6\u13ad\u13bb": 203,
    "\u2581\u13a4\u13ac\u13e9\u13b5": 204,
    "\u2581\u13e7\u13e4\u13b5": 205,
    "\u2581\u13d3\u13b6\u13c2\u13a8": 206,
    "\u2581\u13a6\u13aa": 207,
    "\u2581\u13c4\u13ea\u13ce\u13b8\u13a9": 208,
    "\u2581\u13a3\u13c2": 209,
    "\u2581\u13a2\u13e7\u13b3\u13ad": 210,
    "\u2581\u13e7\u13be": 211,
    "\u13c1\u13a2": 212,
    "\u2581\u13ac\u13d7": 213,
    "\u13c5": 214,
    "\u2581\u13c7\u13b5\u13f2": 215,
    "\u13d4\u13c5": 216,
    "\u2581\u13e9": 217,
    "\u2581\u13f0\u13b5\u13c9": 218,
    "\u13c1\u13b8": 219,
    "\u2581\u13a6\u13d3": 220,
    "\u2581\u13e4\u13a6\u13c8": 221,
    "\u13a8": 222,
    "\u13b8": 223,
    "\u2581\u13a4\u13d9\u13d3": 224,
    "\u2581\u13c4\u13ea\u13ce\u13b4": 225,
    "\u13d2": 226,
    "\u2581\u13a4\u13e4\u13cd\u13d9": 227,
    "\u2581\u13cd\u13a9": 228,
    "\u13b2\u13a2": 229,
    "\u2581\u13a6\u13b5\u13c9\u13a9": 230,
    "\u2581\u13c2\u13da\u13ea\u13ce\u13b8\u13a9": 231,
    "\u2581\u13a2\u13a9": 232,
    "\u2581\u13c2\u13a6\u13d7\u13f3": 233,
    "\u2581\u13a6\u13da\u13b2": 234,
    "\u2581\u13c5\u13d7\u13a6\u13b5\u13cd\u13d9\u13d7\u13ad": 235,
    "\u2581\u13a5": 236,
    "\u2581\u13ac\u13c2": 237,
    "\u2581\u13a0\u13c2\u13a8\u13f4": 238,
    "\u2581\u13f1\u13b0\u13e9\u13c3": 239,
    "\u2581\u13d7\u13a6": 240,
    "\u2581\u13c2\u13aa\u13af\u13b8": 241,
    "\u13b8\u13a9": 242,
    "\u2581\u13aa\u13ea\u13b5": 243,
    "\u2581\u13e5\u13b7\u13cf\u13b5\u13bb": 244,
    "\u2581\u13e3\u13c2": 245,
    "\u2581\u13e7\u13be\u13d3\u13b4\u13c5\u13db": 246,
    "\u2581\u13f1\u13a8\u13ce": 247,
    "\u2581\u13a2\u13ef\u13c2\u13db": 248,
    "\u2581\u13a1\u13d9\u13d3": 249,
    "\u2581\u13ac\u13c2\u13db": 250,
    "\u2581\u13c9\u13b3": 251,
    "\u2581\u13ad": 252,
    "\u2581\u13a2\u13a6\u13a2": 253,
    "\u2581\u13be\u13cd\u13a9\u13ef\u13a2": 254,
    "\u2581\u13c2\u13ac\u13be\u13db": 255,
    "\u13ce\u13a2": 256,
    "\u2581\u13e6\u13e9": 257,
    "\u13c5\u13af": 258,
    "\u2581\u13ac\u13e9\u13cd\u13d3\u13e9\u13d7\u13d9\u13af": 259,
    "\u13b2": 260,
    "\u2581\u13a0\u13c2\u13d4\u13b5": 261,
    "\u13b4\u13a2": 262,
    "\u2581\u13a4\u13c5\u13d2": 263,
    "\u2581\u13e3\u13b5": 264,
    "\u2581\u13be\u13a5\u13c2": 265,
    "\u2581\u13bc\u13cf\u13c3": 266,
    "\u2581\u13a2\u13f4": 267,
    "\u13cd\u13d7\u13f1": 268,
    "\u2581\u13c4\u13b5\u13cd\u13d4\u13c1\u13a2": 269,
    "\u2581\u13a5\u13dd\u13f0\u13c3": 270,
    "\u2581\u13d0\u13c9": 271,
    "\u2581\u13aa\u13af\u13f3\u13d7": 272,
    "\u2581\u13a4\u13c1\u13e8": 273,
    "\u13cd\u13a8\u13cd\u13d7": 274,
    "\u2581\u13d7\u13a6\u13b3\u13eb\u13a2\u13cd\u13d7\u13f1": 275,
    "\u2581\u13c4\u13ac\u13eb\u13f3\u13d2": 276,
    "\u13e5": 277,
    "\u2581\u13a2\u13ac\u13f1\u13d7\u13e2": 278,
    "\u2581\u13c4\u13c2\u13ea\u13ce\u13a2": 279,
    "\u2581\u13a0\u13cf\u13c9": 280,
    "\u2581\u13a0\u13e3\u13d7": 281,
    "\u2581\u13a4\u13d3\u13d9\u13b5\u13cd\u13d7": 282,
    "\u2581\u13a2\u13a8\u13ce\u13cd\u13d7": 283,
    "\u13ef": 284,
    "\u2581\u13a4\u13d9\u13af\u13f3\u13af": 285,
    "\u2581\u13a4\u13d3\u13b5\u13a2": 286,
    "\u13ae\u13cd\u13d7": 287,
    "\u13c5\u13a9": 288,
    "\u2581\u13c8\u13d3": 289,
    "\u2581\u13a4\u13e5": 290,
    "\u2581\u13a4\u13b5\u13c2\u13a9\u13db": 291,
    "\u13d9\u13af": 292,
    "\u2581\u13d7\u13a6\u13b8\u13eb\u13cd\u13d3\u13c1\u13d7": 293,
    "\u2581\u13a1\u13cd\u13a6\u13c9": 294,
    "\u2581\u13a9\u13a6\u13a8": 295,
    "\u2581\u13a4\u13db\u13c5": 296,
    "\u13d2\u13a9": 297,
    "\u2581\u13cc\u13cc": 298,
    "\u2581\u13a0\u13b5\u13cd\u13d3\u13f4\u13d7": 299,
    "\u2581\u13c5\u13e9\u13d3\u13b4": 300,
    "\u2581\u13a4\u13d3": 301,
    "\u2581\u13ad\u13eb\u13c2": 302,
    "\u13d2\u13a2": 303,
    "\u2581\u13b0\u13bb": 304,
    "\u2581\u13a6\u13b6\u13af\u13cd\u13d7\u13f1": 305,
    "\u13cd\u13d9\u13d7": 306,
    "\u2581\u13a2\u13be\u13a8": 307,
    "\u2581\u13db": 308,
    "\u2581\u13cd\u13a9\u13be\u13be": 309,
    "\u2581\u13d1\u13be\u13b4": 310,
    "\u2581\u13e5\u13aa": 311,
    "\u2581\u13a7": 312,
    "\u2581\u13d2\u13c3\u13f1": 313,
    "\u2581\u13a2\u13e7\u13b3": 314,
    "\u13b8\u13af": 315,
    "\u2581\u13a4\u13c3\u13d5\u13be": 316,
    "\u2581\u13a0\u13e7\u13e3": 317,
    "\u2581\u13ac\u13e9\u13a6\u13d8\u13ef": 318,
    "\u2581\u13d7\u13e3": 319,
    "\u2581\u13a4\u13e9\u13cc": 320,
    "\u2581\u13a0\u13be\u13b5\u13c5\u13df": 321,
    "\u13aa\u13a2": 322,
    "\u2581\u13a6\u13b8\u13b6\u13a2": 323,
    "\u2581\u13f1\u13a8\u13ce\u13a2": 324,
    "\u13c9\u13cd\u13a9\u13c2": 325,
    "\u2581\u13a2\u13e4": 326,
    "\u2581\u13da\u13d9\u13a5": 327,
    "\u2581\u13e7\u13ac\u13e9\u13b6\u13d7": 328,
    "\u2581\u13c5\u13d9": 329,
    "\u2581\u13a9\u13b6\u13c3": 330,
    "\u2581\u13be\u13bf\u13c3": 331,
    "\u2581\u13da\u13be": 332,
    "\u2581\u13d4\u13b3\u13da": 333,
    "\u2581\u13c5\u13e9\u13d9\u13af\u13ef\u13db": 334,
    "\u2581\u13a2\u13ac\u13f1\u13f1": 335,
    "\u13cd\u13a8": 336,
    "\u2581\u13a3\u13a9": 337,
    "\u2581\u13a9\u13b3": 338,
    "\u13f3": 339,
    "\u2581\u13a2\u13b8\u13af\u13f3": 340,
    "\u2581\u13a2\u13d3\u13b5\u13c5\u13df": 341,
    "\u2581\u13e7\u13be\u13c1\u13b6\u13d7": 342,
    "\u2581\u13a4\u13be\u13e4\u13b5\u13a6": 343,
    "\u2581\u13a0\u13cf\u13f4\u13eb": 344,
    "\u2581\u13a1\u13b3\u13c2": 345,
    "\u13b3": 346,
    "\u2581\u13f1\u13a8\u13d2\u13be": 347,
    "\u13aa": 348,
    "\u2581\u13c2\u13a6\u13db\u13c3": 349,
    "\u2581\u13a4\u13cd\u13c6\u13c2\u13aa\u13d7": 350,
    "\u13cd\u13ac\u13a2": 351,
    "\u2581\u13a4\u13da\u13a9": 352,
    "\u13c1": 353,
    "\u13cd": 354,
    "\u2581\u13c4\u13b5\u13cd\u13d4\u13c5": 355,
    "\u2581\u13a1\u13c6": 356,
    "\u2581\u13a0\u13c6\u13e4\u13b5": 357,
    "\u2581\u13a0\u13ac\u13f1": 358,
    "\u2581\u13a2\u13aa\u13af\u13db": 359,
    "\u2581\u13ad\u13eb\u13c2\u13d7\u13e2": 360,
    "\u2581\u13a0\u13c7\u13e5": 361,
    "\u2581\u13e7\u13e4\u13b5\u13a6": 362,
    "\u2581\u13d7\u13a7\u13bf\u13e9\u13d7\u13d9\u13af": 363,
    "\u2581\u13d5\u13a6": 364,
    "\u2581\u13c5\u13d3\u13f3\u13d3\u13b4\u13c5\u13af": 365,
    "\u2581\u13c2\u13e8\u13ea\u13ce\u13ad": 366,
    "\u2581\u13c4\u13c2\u13ea\u13d2\u13a9": 367,
    "\u2581\u13a4\u13c1": 368,
    "\u2581\u13a6\u13d3\u13ad": 369,
    "\u13a5": 370,
    "\u2581\u13a9\u13b3\u13c9": 371,
    "\u2581\u13a4\u13c7\u13d3\u13b5": 372,
    "\u2581\u13a0\u13f0\u13b8": 373,
    "\u2581\u13a4\u13be\u13d3\u13c5\u13d8": 374,
    "\u2581\u13a2\u13f3\u13f0\u13c3": 375,
    "\u2581\u13a2\u13f3\u13e9\u13c2\u13cc\u13db": 376,
    "\u13ae\u13a2": 377,
    "\u2581\u13a4\u13db\u13db\u13c1": 378,
    "\u2581\u13c3\u13d7": 379,
    "\u2581\u13e4\u13a6\u13c8\u13c3": 380,
    "\u2581\u13e7\u13d9\u13a2\u13db": 381,
    "\u2581\u13a4\u13d5\u13b5\u13db": 382,
    "\u2581\u13a4\u13c1\u13b3\u13a9": 383,
    "\u2581\u13a0\u13c1\u13b2": 384,
    "\u2581\u13c4\u13ea\u13d2": 385,
    "\u13a8\u13a2": 386,
    "\u13d4\u13c5\u13af": 387,
    "\u2581\u13a2\u13ef\u13a6\u13f4\u13b5": 388,
    "\u2581\u13e7\u13cd\u13c6\u13f4\u13cd\u13d7": 389,
    "\u2581\u13c3\u13c9": 390,
    "\u13ac": 391,
    "\u2581\u13d7\u13aa\u13e2\u13d4\u13c5\u13af": 392,
    "\u2581\u13e5\u13f3": 393,
    "\u13a6\u13d4": 394,
    "\u2581\u13a1\u13cf\u13a9": 395,
    "\u2581\u13a6\u13f3\u13b3": 396,
    "\u2581\u13a0\u13be": 397,
    "\u2581\u13a6\u13b5\u13e6\u13db": 398,
    "\u2581\u13a0\u13ef": 399,
    "\u2581\u13c4\u13b5\u13cd\u13d4\u13c1": 400,
    "\u2581\u13a2\u13e8": 401,
    "\u2581\u13cd\u13c9": 402,
    "\u2581\u13a0\u13c1\u13b2\u13a2": 403,
    "\u2581\u13d3\u13c2": 404,
    "\u13d7\u13ad": 405,
    "\u2581\u13e6\u13e9\u13c3": 406,
    "\u13ce": 407,
    "\u2581\u13a0\u13cd\u13d3\u13ef": 408,
    "\u2581\u13a0\u13e5": 409,
    "\u2581\u13a6\u13f2\u13df": 410,
    "\u2581\u13a2\u13f3\u13b5\u13cd\u13d9\u13d7": 411,
    "\u13a8\u13b6\u13af": 412,
    "\u2581\u13a0\u13be\u13d9\u13b4\u13b0\u13cd\u13a9": 413,
    "\u2581\u13a4\u13be\u13e4\u13b5": 414,
    "\u13c1\u13af": 415,
    "\u2581\u13e6": 416,
    "\u2581\u13a4\u13c1\u13b3\u13c5\u13af\u13c3": 417,
    "\u13af\u13cd\u13d7": 418,
    "\u2581\u13a0\u13a6": 419,
    "\u13cd\u13aa\u13a2": 420,
    "\u13ac\u13e9": 421,
    "\u2581\u13a6\u13c1\u13b8": 422,
    "\u2581\u13a1\u13b3\u13c6\u13d7": 423,
    "\u2581\u13e7\u13c5\u13cf\u13d3\u13cd\u13d7": 424,
    "\u13b8\u13a2": 425,
    "\u2581\u13c4\u13b5\u13cd\u13d4\u13c5\u13a9": 426,
    "\u2581\u13e5\u13f3\u13af": 427,
    "\u2581\u13c4\u13d3\u13b4\u13d2": 428,
    "\u2581\u13e0\u13a8\u13cf": 429,
    "\u2581\u13a0\u13f2\u13b1\u13af\u13cd\u13d7": 430,
    "\u13ae": 431,
    "\u2581\u13a7\u13c5\u13c2\u13cd\u13a9": 432,
    "\u2581\u13a2\u13a6\u13db": 433,
    "\u13b0": 434,
    "\u2581\u13a4\u13c2\u13c3\u13d5\u13be": 435,
    "\u2581\u13e7\u13d5\u13d8\u13f4\u13db": 436,
    "\u13a4": 437,
    "\u13c1\u13b3": 438,
    "\u2581\u13a4\u13c1\u13ac": 439,
    "\u2581\u13a4\u13ea": 440,
    "\u2581\u13a4\u13d2\u13af": 441,
    "\u2581\u13a0\u13cd\u13aa\u13af\u13e7\u13c8": 442,
    "\u2581\u13a2\u13a6\u13e4\u13b5": 443,
    "\u2581\u13c2\u13a6": 444,
    "\u2581\u13a4\u13c2\u13ac\u13eb\u13f3\u13af": 445,
    "\u2581\u13a4\u13c3\u13b4": 446,
    "\u13cd\u13a8\u13a2": 447,
    "\u2581\u13a0\u13cd\u13a6\u13c2": 448,
    "\u2581\u13a0\u13d9\u13b4\u13b0\u13cd\u13a9": 449,
    "\u2581\u13c2\u13ac": 450,
    "\u2581\u13a0\u13cd\u13aa\u13b5": 451,
    "\u2581\u13a9\u13ac": 452,
    "\u2581\u13c2\u13ac\u13c5": 453,
    "\u2581\u13d8": 454,
    "\u2581\u13f4": 455,
    "\u13a0\u13c1\u13b6\u13af": 456,
    "\u2581\u13a0\u13d3\u13c1\u13b8": 457,
    "\u2581\u13d7\u13c2\u13a7\u13bf\u13e9\u13d7\u13d9\u13af": 458,
    "\u2581\u13e3\u13c4\u13cf": 459,
    "\u2581\u13a0\u13ba\u13c9\u13af": 460,
    "\u2581\u13c2\u13af\u13cd\u13a9\u13c2": 461,
    "\u2581\u13c5\u13e9\u13be\u13d3\u13b4": 462,
    "\u2581\u13d5\u13e5": 463,
    "\u13a8\u13d2": 464,
    "\u2581\u13a5\u13dd\u13c3": 465,
    "\u13d7\u13cd\u13ac": 466,
    "\u2581\u13be\u13bf\u13c2": 467,
    "\u2581\u13a2\u13d0": 468,
    "\u2581\u13aa": 469,
    "\u2581\u13a2\u13d7": 470,
    "\u13a6\u13db": 471,
    "\u2581\u13a5\u13a5": 472,
    "\u2581\u13e7\u13c2\u13cd\u13c6\u13c2\u13aa\u13d9\u13d7": 473,
    "\u2581\u13d4\u13b5\u13c1\u13c3": 474,
    "\u2581\u13a4\u13d3\u13c5\u13d8": 475,
    "\u13d3\u13c1\u13d7": 476,
    "\u2581\u13e4": 477,
    "\u13b5\u13cd\u13d7": 478,
    "\u2581\u13a1\u13dd\u13ea\u13af": 479,
    "\u2581\u13d7\u13c2": 480,
    "\u2581\u13a0\u13a6\u13f4\u13b5\u13a8\u13a2": 481,
    "\u13d4\u13c5\u13a9": 482,
    "\u13d9": 483,
    "\u2581\u13aa\u13b0\u13cd\u13d7": 484,
    "\u2581\u13a0\u13f2\u13b5": 485,
    "\u2581\u13a0\u13c4\u13ec": 486,
    "\u2581\u13c4\u13c2\u13ac\u13eb\u13f3\u13d2": 487,
    "\u2581\u13a6\u13b8\u13b6": 488,
    "\u13c1\u13d7\u13f1": 489,
    "\u2581\u13e4\u13e5": 490,
    "\u2581\u13a8\u13b5\u13b5": 491,
    "\u2581\u13a6\u13be\u13dd\u13a2": 492,
    "\u13f4": 493,
    "\u2581\u13a0\u13d3\u13a8\u13f3\u13d7": 494,
    "\u2581\u13a4\u13b5": 495,
    "\u2581\u13e5\u13a8\u13d2\u13a9": 496,
    "\u13c1\u13d7": 497,
    "\u2581\u13a8\u13d0\u13a2": 498,
    "\u2581\u13e5\u13a8\u13ce\u13a2": 499,
    "\u2581\u13c5": 500,
    "\u2581\u13a2\u13ef\u13a9\u13f3\u13cd\u13c8\u13db": 501,
    "\u2581\u13a4\u13b5\u13cf\u13a9": 502,
    "\u2581\u13a1\u13e5": 503,
    "\u2581\u13d7\u13c2\u13f2\u13b5": 504,
    "\u13c1\u13b5": 505,
    "\u13cd\u13d9": 506,
    "\u13d3\u13b5": 507,
    "\u13ac\u13a2": 508,
    "\u2581\u13a0\u13c2\u13c6\u13b5\u13cf": 509,
    "\u2581\u13d7\u13e5": 510,
    "\u2581\u13a4\u13ec\u13f0\u13c2": 511,
    "\u13be\u13d3": 512,
    "\u2581\u13a4\u13e4\u13b5\u13aa\u13af": 513,
    "\u2581\u13e8\u13d2": 514,
    "\u2581\u13a1\u13e3": 515,
    "\u13a6\u13b5": 516,
    "\u2581\u13a4\u13c5\u13cf\u13d3\u13cd\u13d7": 517,
    "\u2581\u13a6\u13f0\u13aa\u13a9": 518,
    "\u2581\u13a2\u13aa\u13af\u13d3": 519,
    "\u2581\u13a0\u13c2\u13f4\u13eb\u13ef": 520,
    "\u13cd\u13d4": 521,
    "\u2581\u13a0\u13a6\u13d4\u13b2\u13a2": 522,
    "\u13cc": 523,
    "\u13d7\u13cd\u13a9": 524,
    "\u2581\u13a4\u13f4\u13cd\u13d7": 525,
    "\u2581\u13a0\u13db": 526,
    "\u2581\u13cc\u13e9\u13c2": 527,
    "\u13c1\u13ad": 528,
    "\u2581\u13a3\u13d3\u13b8": 529,
    "\u2581\u13e6\u13a2\u13c1": 530,
    "\u2581(": 531,
    "\u2581\u13c7\u13b5\u13f2\u13c3": 532,
    "\u2581\u13a3\u13a6": 533,
    "\u2581\u13a0\u13a9\u13be": 534,
    "\u2581\u13a4\u13c1\u13b3\u13c5\u13af\u13f0\u13c3": 535,
    "\u2581\u13cf": 536,
    "\u2581\u13dd": 537,
    "\u2581\u13d7\u13c6\u13e4\u13b5": 538,
    "\u2581\u13a0\u13c3\u13af\u13f3\u13b2\u13cd\u13a9": 539,
    "\u2581\u13d3\u13c6\u13b4\u13b3": 540,
    "\u2581\u13e5\u13cd\u13d5\u13e5": 541,
    "\u2581\u13a4\u13ac\u13eb\u13f3\u13cc\u13d5\u13a9": 542,
    "\u2581\u13a7\u13c1\u13cc\u13a2": 543,
    "\u2581\u13c4\u13cd\u13d5\u13cd\u13d7": 544,
    "\u2581\u13e8": 545,
    "\u2581\u13a0\u13a6\u13f4\u13b5\u13a8": 546,
    "\u2581\u13a4\u13b5\u13c2\u13a9\u13d7\u13f3": 547,
    "\u2581\u13e5\u13da": 548,
    "\u2581\u13e3\u13e4\u13b5": 549,
    "\u13b0\u13a2": 550,
    "\u2581\u13a8\u13d0": 551,
    "\u2581\u13a7\u13c1\u13cd\u13a6": 552,
    "\u2581\u13a0\u13c2\u13cd\u13a9\u13be": 553,
    "\u2581\u13c2\u13af\u13c3": 554,
    "\u2581\u13a6\u13b8\u13c9\u13d7": 555,
    "\u2581\u13a4\u13f0\u13b8\u13d7": 556,
    "\u2581\u13a8\u13b3\u13cd\u13d7\u13f1": 557,
    "\u2581\u13c2\u13da": 558,
    "\u2581\u13a2\u13a6\u13db\u13c3": 559,
    "\u2581\u13a0\u13cd\u13a9\u13be": 560,
    "\u2581\u13a6\u13da\u13b2\u13a2": 561,
    "\u2581\u13a2\u13e8\u13d2": 562,
    "\u2581\u13a0\u13cc\u13bb\u13d3": 563,
    "\u2581\u13a0\u13ef\u13d9\u13b8\u13a2": 564,
    "\u2581\u13d7\u13c2\u13f2\u13df": 565,
    "\u2581\u13a0\u13c2\u13cf\u13f4\u13eb\u13ad": 566,
    "\u2581\u13e7\u13c1\u13e5": 567,
    "\u2581\u13a0\u13d7\u13be": 568,
    "\u2581\u13a1\u13c6\u13ad\u13bb\u13c3": 569,
    "\u2581\u13eb\u13e5": 570,
    "\u13ac\u13a9": 571,
    "\u13eb": 572,
    "\u13ac\u13be": 573,
    "\u2581\u13b1": 574,
    "\u13d9\u13d7\u13f1": 575,
    "\u2581\u13a8\u13e5": 576,
    "\u2581\u13a4\u13f2\u13b1\u13d2": 577,
    "\u2581\u13f1\u13da": 578,
    "\u2581\u13a4\u13f0\u13b8\u13db": 579,
    "\u2581\u13c4\u13d3\u13b4": 580,
    "\u2581\u13d7\u13e3\u13e4\u13b5": 581,
    "\u2581\u13a6\u13e9\u13d2\u13a9": 582,
    "\u2581\u13a2\u13f3\u13d5\u13d8\u13f4\u13db": 583,
    "\u2581\u13a4\u13d5\u13c1\u13b4\u13a2": 584,
    "\u2581\u13aa\u13e2\u13d4\u13c5\u13af": 585,
    "\u13d4\u13c2": 586,
    "\u2581\u13f1\u13d3": 587,
    "\u13db\u13a2": 588,
    "\u2581\u13a0\u13ce\u13c9": 589,
    "\u2581\u13e5\u13a8\u13d2": 590,
    "\u2581\u13f1\u13a6": 591,
    "\u2581\u13c2\u13aa\u13af\u13b8\u13a2": 592,
    "\u2581\u13d7\u13c3\u13ea\u13b5\u13cd\u13a9": 593,
    "\u2581\u13a4\u13e3\u13d4\u13c5\u13af": 594,
    "\u2581\u13a4\u13db\u13a6\u13c5": 595,
    "\u13d4\u13c1\u13a2": 596,
    "\u2581\u13e5\u13a8\u13ce": 597,
    "\u2581\u13c5\u13d3\u13ac\u13e9\u13d3\u13b4\u13c5\u13db": 598,
    "\u2581\u13a2\u13f3\u13cd\u13a9\u13c2": 599,
    "\u2581\u13a2\u13f3\u13be\u13cd\u13d7": 600,
    "\u2581\u13e3\u13c1\u13b3\u13c5\u13af": 601,
    "\u13d8": 602,
    "\u13e3": 603,
    "\u13a3": 604,
    "\u13cd\u13ac\u13be": 605,
    "\u2581\u13d7\u13a6\u13d9\u13b5": 606,
    "\u13d7\u13a6\u13b3\u13eb\u13a2\u13cd\u13d7\u13f1": 607,
    "\u13cd\u13d4\u13c5": 608,
    "\u13db\u13a9": 609,
    "\u13d3\u13c1": 610,
    "\u2581\u13a4\u13be\u13d3\u13e1\u13ac": 611,
    "\u2581\u13aa\u13a2": 612,
    "\u13a9\u13cd\u13d7": 613,
    "\u2581\u13a0\u13a6\u13d9\u13a5\u13af\u13cd\u13d7": 614,
    "\u2581-": 615,
    "\u2581\u13d7\u13d3\u13cd\u13da\u13d7\u13f1": 616,
    "\u2581\u13a1\u13cd\u13a6": 617,
    "\u2581\u13a0\u13f0\u13b3\u13cd\u13d7": 618,
    "\u2581\u13a6\u13b5": 619,
    "\u2581\u13c5\u13f2\u13af": 620,
    "\u13e9\u13db": 621,
    "\u2581\u13d3\u13a6": 622,
    "\u2581\u13a4\u13e9": 623,
    "\u2581\u13a0\u13f4\u13c3": 624,
    "\u2581\u13c5\u13d7\u13a6\u13b5\u13cd\u13d9\u13d7\u13cd\u13a8": 625,
    "\u2581\u13f1\u13e3": 626,
    "\u2581\u13e7\u13c2\u13f2\u13b1\u13d2\u13af": 627,
    "\u2581\u13c4\u13ea\u13ce": 628,
    "\u13c8": 629,
    "\u2581\u13a4\u13c5\u13d7": 630,
    "\u13d4\u13c1": 631,
    "\u13d3\u13c5": 632,
    "\u2581\u13a8\u13f4": 633,
    "\u2581\u13a4\u13be\u13d3": 634,
    "\u13ce\u13cd\u13d7": 635,
    "\u2581\u13d4\u13d5\u13f2\u13b2\u13cd\u13a9": 636,
    "\u2581\u13d7\u13c5\u13c3\u13db": 637,
    "\u2581\u13a5\u13e3\u13f1": 638,
    "\u2581\u13a4\u13be\u13e4\u13b5\u13aa\u13af": 639,
    "\u2581\u13d7\u13e4\u13e5": 640,
    "\u13c1\u13b4": 641,
    "\u13b2\u13be": 642,
    "\u13cd\u13d8": 643,
    "\u2581\u13d5\u13eb": 644,
    "\u2581\u13d7\u13be\u13d3\u13c5\u13df": 645,
    "\u2581\u13d7\u13c4\u13ec": 646,
    "\u2581\u13ad\u13be": 647,
    "\u2581\u13ad\u13c2": 648,
    "\u13c5\u13a2": 649,
    "\u2581\u13a0\u13cd\u13aa\u13af": 650,
    "\u13ad\u13e9": 651,
    "\u2581\u13ac\u13c5": 652,
    "\u2581\u13a4\u13f2\u13a2\u13f3": 653,
    "\u2581\u13c5\u13d3\u13a6\u13b5\u13cd\u13d9\u13d7\u13cd\u13ac\u13a9": 654,
    "\u2581\u13a4\u13b4\u13c5\u13ae": 655,
    "\u2581\u13da\u13ec\u13a1\u13a2": 656,
    "\u2581\u13ac\u13d8": 657,
    "\u2581\u13a3\u13c2\u13c3": 658,
    "\u2581\u13a4\u13c5": 659,
    "\u2581\u13a0\u13b3\u13c2": 660,
    "\u2581\u13a6\u13b5\u13e6\u13db\u13a2": 661,
    "\u2581\u13a6\u13c1\u13b8\u13a2": 662,
    "\u13d2\u13be": 663,
    "\u13c1\u13b3\u13c5\u13af": 664,
    "\u2581\u13a4\u13d0\u13c5": 665,
    "\u13b8\u13c9\u13d7": 666,
    "\u2581\u13a4\u13e0\u13f1": 667,
    "\u2581\u13a0\u13c2\u13ef\u13eb\u13cd\u13a9": 668,
    "\u13b2\u13a9": 669,
    "\u2581\u13a4\u13a7\u13db": 670,
    "\u2581\u13a1\u13ba\u13c5": 671,
    "\u2581\u13a0\u13c2\u13e7\u13e3": 672,
    "\u2581\u13a9\u13b3\u13c8\u13f4": 673,
    "\u2581\u13a0\u13ac\u13f1\u13e3": 674,
    "\u2581\u13ad\u13eb\u13c2\u13e3": 675,
    "\u2581\u13a3\u13af\u13cd\u13d9\u13d7": 676,
    "\u2581\u13ac\u13d4\u13c5\u13af": 677,
    "\u13aa\u13e9\u13db\u13d7": 678,
    "\u2581\u13a4\u13b7\u13e8": 679,
    "\u2581\u13a8\u13e5\u13c5\u13cf\u13db": 680,
    "\u2581\u13c2\u13da\u13ea\u13ce\u13b4": 681,
    "\u2581\u13cc\u13c9\u13c9": 682,
    "\u13e9": 683,
    "\u2581\u13a4\u13d9\u13b4\u13b0\u13d2": 684,
    "\u2581\u13a4\u13e3\u13b4\u13cd\u13d7": 685,
    "\u2581\u13ac\u13a9": 686,
    "\u2581\u13a6\u13b8\u13b3\u13d7\u13e2": 687,
    "\u2581\u13c3": 688,
    "\u2581\u13ac\u13c2\u13a8": 689,
    "\u2581\u13eb\u13da": 690,
    "\u13a8\u13b3\u13cd\u13d7\u13f1": 691,
    "\u2581\u13e5\u13a8\u13d0": 692,
    "\u13d7\u13cd\u13a8\u13cd\u13d7": 693,
    "\u2581\u13eb\u13be\u13cd\u13db\u13be": 694,
    "\u2581\u13e7\u13d2\u13af\u13db": 695,
    "\u2581\u13a4\u13b5\u13ae\u13b5\u13cd\u13d7": 696,
    "\u2581\u13a4\u13d3\u13c5\u13d9": 697,
    "\u2581\u13e4\u13af": 698,
    "\u2581\u13a0\u13b5": 699,
    "\u2581\u13a7\u13c1\u13ac": 700,
    "\u13be\u13cd\u13a9": 701,
    "\u2581\u13ac\u13e9\u13da\u13eb\u13db": 702,
    "\u2581\u13a2\u13ef\u13c2": 703,
    "\u13a6\u13d4\u13ad": 704,
    "\u2581\u13d6\u13b8\u13b3\u13d7": 705,
    "\u2581\u13be\u13c2\u13ea\u13cd\u13a8\u13a2": 706,
    "\u2581\u13d4\u13b7\u13a9\u13cd\u13a9": 707,
    "\u2581\u13a0\u13c6\u13e4\u13b5\u13a6": 708,
    "\u2581\u13ac\u13c2\u13f3\u13c9\u13c3": 709,
    "\u2581\u13a1\u13ad": 710,
    "\u2581\u13a4\u13aa\u13b2": 711,
    "\u2581\u13a4\u13be\u13db\u13a6\u13c5": 712,
    "\u2581\u13a2\u13b8\u13af\u13e2": 713,
    "\u13cd\u13c6": 714,
    "\u2581\u13a0\u13cb\u13d2": 715,
    "\u2581\u13a0\u13b2": 716,
    "\u13d5": 717,
    "\u13e7": 718,
    "\u2581\u13a0\u13c2\u13d0\u13a2": 719,
    "\u2581\u13d3\u13f3": 720,
    "\u2581\u13a8\u13be\u13c2": 721,
    "\u2581\u13ad\u13eb\u13ef": 722,
    "\u2581\u13a2\u13f3\u13df\u13b6\u13db": 723,
    "\u2581\u13c3\u13c8\u13cf": 724,
    "\u2581\u13c2\u13ac\u13e9\u13ea\u13ce\u13b4\u13a2": 725,
    "\u2581\u13a4\u13cf\u13d9\u13b5": 726,
    "\u2581\u13aa\u13f1\u13c1\u13a2": 727,
    "\u2581\u13a6\u13da\u13cf": 728,
    "\u2581\u13d1\u13d3\u13b5": 729,
    "\u2581\u13d4": 730,
    "\u2581\u13a2\u13be\u13a8\u13a2": 731,
    "\u2581\u13e4\u13cd\u13d7": 732,
    "\u2581\u13a6\u13cd\u13a9\u13b8": 733,
    "\u13e4\u13b5": 734,
    "\u2581\u13a6\u13b8": 735,
    "\u2581\u13ad\u13e2": 736,
    "\u2581\u13a0\u13c2\u13a6\u13d4\u13b2": 737,
    "\u2581\u13da\u13cf\u13b3\u13db": 738,
    "\u2581\u13a2\u13ef": 739,
    "\u13af\u13cd\u13d7\u13f1": 740,
    "\u2581\u13e5\u13a6\u13d4\u13ad": 741,
    "\u2581\u13ed\u13d5\u13b5\u13ac": 742,
    "\u2581\u13d1\u13be\u13d3\u13e1\u13a9": 743,
    "\u2581\u13d7\u13e8\u13cd\u13d9\u13d7": 744,
    "\u2581\u13e7\u13c2\u13b8\u13eb\u13cd\u13d3\u13c1\u13af": 745,
    "\u2581\u13f1\u13d7": 746,
    "\u2581\u13d5\u13e3": 747,
    "\u13af\u13f3": 748,
    "\u2581\u13e5\u13a8\u13d0\u13a2": 749,
    "\u13d4": 750,
    "\u2581\u13c5\u13d7\u13a6\u13b5\u13cd\u13d9\u13d7\u13cd\u13a8\u13cd\u13d7": 751,
    "\u13c1\u13b2": 752,
    "\u2581\u13a8\u13e3": 753,
    "\u2581\u13d7\u13ac": 754,
    "\u2581\u13a1\u13c9\u13c2": 755,
    "\u2581\u13c5\u13a6\u13cd\u13aa\u13af": 756,
    "\u13af\u13a0": 757,
    "\u2581\u13a4\u13c1\u13b3\u13c5\u13af\u13cd\u13a9\u13c2": 758,
    "\u2581\u13c4\u13be\u13cd\u13db": 759,
    "\u2581\u13cd\u13a9\u13f4": 760,
    "\u2581\u13a3\u13ad\u13c1": 761,
    "\u2581\u13ac\u13c3\u13db": 762,
    "\u2581\u13a0\u13e5\u13b8\u13c9\u13d7\u13f3": 763,
    "\u2581\u13d7\u13b5\u13cd\u13d3\u13f4\u13d7\u13f1": 764,
    "\u13a6\u13b8": 765,
    "\u13be\u13db": 766,
    "\u13d2\u13af": 767,
    "\u13e5\u13b8": 768,
    "\u2581\u13a4\u13ea\u13b5\u13ce": 769,
    "\u2581\u13c2\u13e3": 770,
    "\u2581\u13d3\u13d4\u13b4\u13d2": 771,
    "\u13c1\u13b8\u13af": 772,
    "\u2581\u13c2\u13d3": 773,
    "\u2581\u13ba\u13b5": 774,
    "\u2581\u13a1\u13c6\u13bb": 775,
    "\u2581\u13c2\u13a6\u13ea\u13cd\u13ac": 776,
    "\u2581\u13a4\u13b5\u13cf\u13ac": 777,
    "\u2581\u13a4\u13ea\u13b7\u13c1": 778,
    "\u2581\u13c4\u13db\u13c1\u13b4": 779,
    "\u2581\u13a0\u13c6\u13d3\u13c5\u13d9": 780,
    "\u2581\u13d3\u13be": 781,
    "\u2581\u13a1\u13b6": 782,
    "\u13cd\u13d5": 783,
    "\u2581\u13c2\u13a6\u13ea\u13ad": 784,
    "\u2581\u13a5\u13de\u13cd\u13d7": 785,
    "\u2581\u13ae\u13be": 786,
    "\u2581\u13a0\u13ce\u13c9\u13c9": 787,
    "\u13b4\u13cd\u13d7": 788,
    "\u13b3\u13d7": 789,
    "\u2581\u13a0\u13f0\u13b8\u13a2": 790,
    "\u2581\u13d1\u13be\u13b4\u13a2": 791,
    "\u2581\u13c4\u13be": 792,
    "\u2581\u13a6\u13b5\u13e6\u13d5": 793,
    "\u2581\u13a9\u13b6\u13cd\u13a9\u13c2": 794,
    "\u2581\u13a0\u13d3\u13c5\u13d6\u13cd\u13ac": 795,
    "\u2581\u13a9\u13a6\u13a8\u13a2": 796,
    "\u2581\u13a0\u13b5\u13cd\u13aa\u13b8\u13d9\u13d7": 797,
    "\u13c9\u13c3": 798,
    "\u2581\u13d7\u13c2\u13b3\u13eb\u13a9": 799,
    "\u2581\u13e7\u13c6\u13b6\u13a6": 800,
    "\u2581\u13e7\u13be\u13e4\u13b5\u13a6": 801,
    "\u13aa\u13d7": 802,
    "\u2581\u13e3\u13c1\u13ad": 803,
    "\u2581\u13d5\u13a4": 804,
    "\u13d2\u13c3": 805,
    "\u2581\u13a4\u13e9\u13d2\u13c9": 806,
    "\u13f0\u13b8": 807,
    "\u13a1": 808,
    "\u13a6\u13d8": 809,
    "\u2581\u13c2\u13e5\u13a5": 810,
    "\u2581\u13a4\u13c1\u13e4\u13b4": 811,
    "\u2581\u13c8\u13d3\u13c3": 812,
    "\u2581\u13cd\u13a9\u13be": 813,
    "\u2581\u13be\u13cd\u13c9\u13cd\u13a9\u13c2": 814,
    "\u2581\u13c5\u13d7\u13a6\u13b5\u13cd\u13d9\u13d7\u13cd\u13ac": 815,
    "\u2581\u13a4\u13c1\u13e4": 816,
    "\u2581\u13a4\u13d9": 817,
    "\u2581\u13a2\u13e3\u13b5\u13cd\u13d3\u13c1\u13d7": 818,
    "\u2581\u13e9\u13ad\u13ef": 819,
    "\u2581\u13d7\u13a7\u13b8\u13ac": 820,
    "\u2581\u13d9\u13f1\u13d7\u13e2": 821,
    "\u2581\u13a0\u13b0\u13b5": 822,
    "\u2581\u13e3\u13b3\u13a9": 823,
    "\u2581\u13a1\u13b6\u13d7": 824,
    "\u2581\u13a4\u13cd\u13aa\u13b8": 825,
    "\u2581\u13a4\u13e0\u13f1\u13c9": 826,
    "\u2581\u13e7\u13d3": 827,
    "\u2581\u13a2\u13b8\u13cd\u13a9": 828,
    "\u13dd": 829,
    "\u2581\u13a8\u13b5": 830,
    "\u13c5\u13d7": 831,
    "\u2581\u13a4\u13be\u13d9\u13d3\u13c6\u13cd\u13ac": 832,
    "\u2581\u13d7\u13a8": 833,
    "\u13db\u13a6": 834,
    "\u13cd\u13a9\u13c2\u13c3\u13c5": 835,
    "\u2581\u13a4\u13c2\u13b7\u13e4": 836,
    "\u2581\u13a4\u13c1\u13a6": 837,
    "\u2581\u13ac\u13e9\u13cd\u13d3\u13e9\u13d7\u13d9\u13af\u13c3": 838,
    "\u13f0\u13b5": 839,
    "\u2581\u13e3\u13e5": 840,
    "\u2581\u13a4\u13e3\u13d8\u13c2": 841,
    "\u2581\u13ce\u13b5": 842,
    "\u2581\u13a2\u13f3\u13be\u13b5\u13cd\u13d3\u13c1\u13d7": 843,
    "\u2581\u13a2\u13f3\u13be\u13db\u13c1\u13d7": 844,
    "\u2581\u13c2\u13da\u13f3\u13aa\u13db\u13be": 845,
    "\u2581\u13a0\u13c2\u13f2\u13cd\u13a9": 846,
    "\u2581\u13e7\u13ec\u13f0\u13c2": 847,
    "\u2581\u13e3\u13c1\u13e2\u13d4\u13c5\u13af": 848,
    "\u2581\u13a4\u13a9\u13ac": 849,
    "\u2581\u13f1\u13e5\u13a6\u13d4\u13ad": 850,
    "\u2581\u13a4\u13b5\u13cd\u13d3\u13f4\u13d7": 851,
    "\u2581\u13a0\u13c2\u13c5": 852,
    "\u2581\u13a4\u13c2\u13d9\u13d3": 853,
    "\u2581\u13a4\u13cd\u13c6\u13c2\u13a9\u13d7": 854,
    "\u2581\u13e9\u13cd\u13db": 855,
    "\u2581\u13be\u13af\u13f3\u13c3": 856,
    "\u2581\u13e5\u13bb": 857,
    "\u13b6": 858,
    "\u2581\u13a1\u13b6\u13db": 859,
    "\u2581\u13a2\u13cf\u13b5\u13c3": 860,
    "\u2581\u13d3\u13e5": 861,
    "\u2581\u13a4\u13b5\u13cd\u13c6\u13b8\u13d7": 862,
    "\u2581\u13a4\u13ec\u13e2": 863,
    "\u2581\u13a9": 864,
    "\u2581\u13e7\u13be\u13e4\u13b5": 865,
    "\u2581\u13a6\u13b6\u13af\u13cd\u13d7": 866,
    "\u2581\u13f1\u13a6\u13b5\u13cd\u13d9\u13d3": 867,
    "\u13d5\u13cd\u13d7": 868,
    "\u2581\u13a2\u13e5\u13cd\u13a6\u13ef": 869,
    "\u13a7": 870,
    "\u2581\u13a4\u13a7\u13b5\u13e8\u13af": 871,
    "\u2581\u13a4\u13ea\u13d8": 872,
    "\u2581\u13a2\u13e4\u13b2\u13a2": 873,
    "\u13db\u13be": 874,
    "\u2581\u13a4\u13d9\u13af\u13f3": 875,
    "\u2581\u13a4\u13be\u13b5": 876,
    "\u13f1\u13a9": 877,
    "\u13cd\u13d4\u13c1\u13a2": 878,
    "\u2581\u13f2": 879,
    "\u2581\u13a0\u13a6\u13d4\u13b2": 880,
    "\u2581\u13a2\u13c5": 881,
    "\u2581\u13a0\u13f4\u13cd\u13a9\u13c2": 882,
    "\u2581\u13e6\u13a0\u13cd\u13aa\u13af": 883,
    "\u2581\u13a4\u13b7\u13e4": 884,
    "\u13cd\u13d4\u13c1": 885,
    "\u2581\u13d0\u13a2": 886,
    "\u2581\u13a2\u13e4\u13b2": 887,
    "\u2581\u13c4\u13ea\u13ce\u13b8": 888,
    "\u2581\u13ac\u13e9\u13c2": 889,
    "\u2581\u13a0\u13d7\u13d4\u13cd\u13d7": 890,
    "\u2581\u13da\u13c5\u13d3\u13d2": 891,
    "\u2581\u13d2\u13a6\u13d4": 892,
    "\u2581\u13a6\u13b6\u13c7": 893,
    "\u2581\u13da\u13be\u13d9\u13a5": 894,
    "\u2581\u13a6\u13b8\u13b3\u13d7\u13e3": 895,
    "\u2581\u13e5\u13c4\u13cd\u13d7": 896,
    "\u2581\u13db\u13a6": 897,
    "\u13c1\u13ae": 898,
    "\u13c6": 899,
    "\u2581\u13be\u13a5\u13c2\u13a8": 900,
    "\u2581\u13ac\u13d9\u13d7": 901,
    "\u13e9\u13db\u13d7": 902,
    "\u2581\u13a3\u13e5": 903,
    "\u13b2\u13a6": 904,
    "\u13e3\u13d3": 905,
    "\u2581\u13c3\u13ef": 906,
    "\u2581\u13ab\u13e9": 907,
    "\u2581\u13b4\u13c6\u13c2": 908,
    "\u2581\u13c6\u13b4\u13d7": 909,
    "\u2581\u13e3\u13d9\u13d3": 910,
    "\u13a6\u13d9": 911,
    "\u13a8\u13e5": 912,
    "\u2581\u13e1\u13ac": 913,
    "\u2581\u13a1\u13b2": 914,
    "\u2581\u13a2\u13ef\u13db\u13c1\u13d7": 915,
    "\u2581\u13d4\u13b4\u13b2\u13a6": 916,
    "\u2581\u13ce\u13d3\u13c2": 917,
    "\u2581\u13a0\u13c2\u13f3\u13e9\u13c1\u13a6": 918,
    "\u2581\u13e7\u13d3\u13c6\u13d9\u13a9": 919,
    "\u2581\u13a6\u13da\u13a2\u13e3": 920,
    "\u2581\u13a2\u13ac\u13c1\u13b8\u13af": 921,
    "\u2581\u13e5\u13aa\u13ea\u13b3": 922,
    "\u2581\u13a4\u13f2\u13b1\u13ce\u13a2": 923,
    "\u2581\u13a0\u13c2\u13f4\u13eb": 924,
    "\u2581\u13ed\u13b7\u13e4": 925,
    "\u2581\u13d0\u13a2\u13c3": 926,
    "\u2581\u13ac\u13c5\u13a2": 927,
    "\u2581\u13a4\u13c2\u13e3\u13d8\u13c3": 928,
    "\u2581\u13b0": 929,
    "\u2581\u13e5\u13d5": 930,
    "\u2581\u13e5\u13cd\u13c6": 931,
    "\u2581\u13a6\u13da\u13a2": 932,
    "\u2581\u13a4\u13b5\u13cd\u13c8\u13d7": 933,
    "\u2581\u13af\u13cd\u13a6\u13cd\u13aa\u13af": 934,
    "o": 935,
    "\u2581\u13a4\u13c2\u13cd\u13a6\u13c5\u13e8": 936,
    "\u2581\u13a4\u13db\u13a6\u13c1": 937,
    "\u2581\u13a2\u13be\u13db": 938,
    "\u2581\u13c5\u13d3": 939,
    "\u2581\u13e7\u13b8\u13eb\u13cd\u13d3\u13c1\u13af": 940,
    "\u2581\u13d4\u13b3\u13cd\u13aa\u13af": 941,
    "\u2581\u13c5\u13d3\u13a6\u13b5\u13cd\u13d4\u13c2": 942,
    "\u2581\u13be\u13d1\u13f4\u13be": 943,
    "\u2581\u13a2\u13e3\u13b5\u13c5\u13df": 944,
    "\u2581\u13a4\u13be\u13d3\u13e4\u13b5\u13db": 945,
    "\u2581\u13e7\u13be\u13db\u13d0\u13c5\u13af": 946,
    "\u2581\u13d5\u13e7\u13ac": 947,
    "\u2581\u13a2\u13e3\u13db\u13c1\u13d7\u13f1": 948,
    "\u2581\u13af\u13c5\u13cf\u13d3\u13cd\u13d7": 949,
    "\u2581\u13a9\u13a6": 950,
    "\u13d2\u13ad": 951,
    "\u2581\u13d5\u13af": 952,
    "\u13f2": 953,
    "\u2581\u13ce\u13a6": 954,
    "\u2581\u13a0\u13b9\u13f1": 955,
    "\u2581\u13eb\u13d3": 956,
    "\u2581\u13d9\u13f1": 957,
    "\u13b6\u13af": 958,
    "\u13b5\u13cd\u13d9\u13d7": 959,
    "\u13cd\u13ac\u13a9": 960,
    "\u13e2": 961,
    "\u2581\u13c1": 962,
    "\u13d7\u13cd\u13a8": 963,
    "\u13c1\u13b4\u13a2": 964,
    "\u2581\u13a4\u13da\u13b5\u13cd\u13ac": 965,
    "\u13c4\u13ec": 966,
    "\u2581\u13a4\u13d2": 967,
    "\u2581\u13c2\u13a6\u13a5\u13c9": 968,
    "\u2581\u13d9\u13d3": 969,
    "\u13c5\u13df": 970,
    "\u2581\u13ac\u13d7\u13cd\u13ac": 971,
    "\u2581\u13e5\u13c2\u13ac\u13c5": 972,
    "\u2581\u13a2\u13ef\u13db\u13c1\u13af": 973,
    "\u2581\u13a6\u13f0": 974,
    "\u2581\u13c2\u13a6\u13b5\u13cd\u13d7\u13ad": 975,
    "\u2581\u13a4\u13b4\u13c2\u13d9\u13b4\u13a2": 976,
    "\u2581\u13a0\u13c2\u13a8\u13ef": 977,
    "\u2581\u13a6\u13b8\u13c9\u13d9\u13d7": 978,
    "\u2581\u13a0\u13d5\u13b3": 979,
    "\u2581\u13ed\u13b6\u13ce\u13a2": 980,
    "\u2581\u13a4\u13ac\u13eb\u13f3": 981,
    "\u2581\u13b0\u13e9\u13c3": 982,
    "\u2581\u13a4\u13b7\u13e8\u13a9": 983,
    "\u2581\u13a1\u13ae\u13a2": 984,
    "\u2581\u13a2\u13ef\u13cd\u13d7": 985,
    "\u2581\u13a6\u13c1\u13a6": 986,
    "\u13cd\u13d9\u13d7\u13f1": 987,
    "\u2581\u13a4\u13db\u13be": 988,
    "\u2581\u13c2\u13ac\u13be\u13db\u13a2": 989,
    "\u2581\u13a1\u13b3\u13c2\u13c3": 990,
    "\u2581\u13ab": 991,
    "\u2581\u13a4\u13ea\u13c5\u13ce": 992,
    "\u13c5\u13be": 993,
    "\u2581\u13a4\u13aa\u13ae": 994,
    "\u2581\u13c5\u13e9\u13d3\u13b4\u13c3": 995,
    "\u2581\u13b4\u13e5\u13b5": 996,
    "\u13d9\u13d3": 997,
    "\u2581\u13d7\u13a9": 998,
    "\u2581\u13a4\u13a6\u13be\u13cd\u13db": 999,
    "\u2581\u13c4\u13b5\u13cd\u13d4\u13c2\u13d9\u13b8": 1000,
    "\u2581\u13a6\u13ec\u13c2\u13cd\u13ac": 1001,
    "\u13a0\u13d7\u13d4\u13cd\u13d7": 1002,
    "\u13b4\u13c5": 1003,
    "\u2581\u13a4\u13c1\u13e4\u13b8": 1004,
    "\u13e2\u13d7": 1005,
    "\u13db\u13d7": 1006,
    "\u2581\u13a4\u13b5\u13cd\u13c6\u13d7\u13cd\u13d7": 1007,
    "\u2581\u13e7\u13c2\u13be\u13eb": 1008,
    "\u2581\u13a4\u13cd\u13aa\u13cd\u13db": 1009,
    "\u2581\u13c5\u13ac\u13e9\u13ea\u13ce\u13b8\u13a9": 1010,
    "\u2581\u13cf\u13d3\u13c1\u13b8\u13af": 1011,
    "\u2581\u13cd\u13d3\u13ef": 1012,
    "\u13b6\u13d7": 1013,
    "\u2581\u13d9\u13db": 1014,
    "\u2581\u13a0\u13d3\u13c1\u13af": 1015,
    "\u2581\u13a4\u13be\u13eb": 1016,
    "\u2581\u13a0\u13e4\u13af": 1017,
    "\u2581\u13a6\u13db\u13a6": 1018,
    "\u2581\u13e4\u13ad": 1019,
    "\u2581\u13a6\u13d9\u13ac": 1020,
    "\u2581\u13a0\u13c2\u13a6\u13d4\u13b2\u13a2": 1021,
    "\u13c5\u13ce": 1022,
    "\u2581\u13a6\u13d9\u13a8": 1023,
    "\u2581\u13a4\u13f2\u13a2": 1024,
    "\u2581\u13a4\u13d5\u13ef\u13d9\u13d7": 1025,
    "\u2581\u13a1\u13cf\u13a9\u13c3": 1026,
    "\u2581\u13be\u13cd\u13a9\u13ef\u13c9": 1027,
    "\u13c1\u13ae\u13cd\u13d7": 1028,
    "\u2581\u13a8\u13bb\u13b5": 1029,
    "\u2581\u13a0\u13e5\u13c5\u13cf\u13d3\u13cd\u13d7": 1030,
    "\u2581\u13aa\u13ea\u13b8": 1031,
    "\u2581\u13c4\u13e9\u13c1\u13b4": 1032,
    "\u2581\u13a2\u13f3\u13b5\u13cd\u13d3\u13c1\u13d7": 1033,
    "\u2581\u13c2\u13a6\u13b5\u13cd\u13d7\u13cd\u13ac": 1034,
    "\u2581\u13d3\u13bf\u13e9": 1035,
    "\u2581\u13a0\u13e0\u13c1\u13d7": 1036,
    "\u2581\u13a7\u13c3\u13af\u13f0\u13a9": 1037,
    "\u2581\u13c5\u13d3\u13f3\u13b6\u13d2\u13af": 1038,
    "\u2581\u13e7\u13f3\u13aa\u13d7": 1039,
    "\u2581\u13a1\u13c9\u13af\u13f3": 1040,
    "\u2581\u13a0\u13a6\u13d8\u13cf\u13d7\u13e2": 1041,
    "\u2581\u13a6\u13b7\u13e8\u13ad": 1042,
    "\u2581\u13a0\u13b9\u13df": 1043,
    "\u2581\u13c5\u13c3\u13af": 1044,
    "\u2581\u13d7\u13f0\u13b8\u13af": 1045,
    "\u2581\u13e5\u13d3": 1046,
    "\u2581\u13aa\u13ea\u13b8\u13a2": 1047,
    "\u2581\u13a0\u13c6\u13db\u13c5": 1048,
    "\u2581\u13f4\u13eb\u13c9": 1049,
    "\u2581\u13a4\u13c1\u13e8\u13a9": 1050,
    "\u13c1\u13b8\u13a9": 1051,
    "\u13c2\u13b8": 1052,
    "\u13c2\u13cf": 1053,
    "---": 1054,
    "\u2581\u13a6\u13cd\u13a9\u13b6": 1055,
    "\u2581\u13a2\u13a6\u13d3": 1056,
    "\u2581\u13a2\u13e5\u13d9\u13d3": 1057,
    "\u2581\u13c4\u13cd\u13d5": 1058,
    "\u2581\u13a0\u13c2\u13c3\u13af\u13b5\u13d9\u13af": 1059,
    "\u13e8": 1060,
    "\u2581\u13c4\u13db\u13c1\u13b8": 1061,
    "\u2581\u13a4\u13d4\u13b3\u13ec\u13af\u13cd\u13d7": 1062,
    "\u2581\u13a0\u13c2\u13cd\u13a6\u13be": 1063,
    "\u2581\u13d5\u13a4\u13d9\u13a5": 1064,
    "\u2581\u13a4\u13d5\u13d8\u13f4\u13cc\u13d7\u13d2": 1065,
    "\u2581\u13a4\u13d0\u13f1": 1066,
    "\u2581\u13d3\u13f3\u13d3\u13b4\u13c5": 1067,
    "\u2581\u13d3\u13c6\u13b4\u13b7": 1068,
    "\u13a6\u13d4\u13b2": 1069,
    "\u2581\u13d7\u13cf\u13d3\u13b5": 1070,
    "\u2581\u13af\u13b8\u13a2\u13f4": 1071,
    "\u2581\u13e4\u13a9\u13cf\u13c2": 1072,
    "\u2581\u13a3\u13e3\u13b5\u13c5\u13df": 1073,
    "\u2581\u13e6\u13f0\u13c2": 1074,
    "\u2581\u13d7\u13a8\u13a6\u13c1\u13b6\u13d7": 1075,
    "\u2581\u13a4\u13be\u13dd\u13a2": 1076,
    "\u2581\u13a2\u13d3\u13d3\u13c5\u13df": 1077,
    "\u2581\u13d7\u13c7\u13e5": 1078,
    "\u2581\u13a8\u13e5\u13b8\u13c9\u13d7": 1079,
    "\u2581\u13be\u13a9\u13ea\u13ce\u13b8\u13a9": 1080,
    "\u13d9\u13b5": 1081,
    "\u2581\u13ac\u13e9\u13d5\u13c1\u13b4\u13a2": 1082,
    "\u2581\u13d5\u13e3\u13d3\u13c5\u13db\u13a2": 1083,
    "\u2581\u13e7\u13ac": 1084,
    "\u2581\u13aa\u13ea\u13b5\u13af": 1085,
    "\u2581\u13a0\u13c2\u13aa\u13a2": 1086,
    "\u2581\u13f1\u13c2": 1087,
    "\u2581\u13c6": 1088,
    "\u2581\u13aa\u13b3": 1089,
    "\u2581\u13d3\u13a9": 1090,
    "\u2581\u13a4\u13c2\u13aa\u13b2": 1091,
    "\u13cd\u13d4\u13c2": 1092,
    "\u2581\u13a4\u13c2\u13f2": 1093,
    "\u201d": 1094,
    "\u13a6\u13d8\u13ef": 1095,
    "\u2581\u13c8\u13b5\u13a9": 1096,
    "\u2581\u13a0\u13c2\u13ec\u13c2\u13cd\u13ac": 1097,
    "\u2581\u13f1\u13e5": 1098,
    "\u13d7\u13a6\u13c5\u13cc\u13d7": 1099,
    "\u13c5\u13d2": 1100,
    "\u13a3\u13cd\u13d3": 1101,
    "\u2581\u13d3\u13ac": 1102,
    "\u2581\u13d5\u13e3\u13d9\u13a5": 1103,
    "\u13ea": 1104,
    "\u2581\u13a4\u13df\u13af\u13f3": 1105,
    "\u2581\u13a0\u13d3\u13c5\u13d3\u13d7\u13cd\u13d7": 1106,
    "\u2581\u13d8\u13c5\u13cf\u13d3\u13cd\u13d7": 1107,
    "\u2581\u13a2\u13b3\u13ef": 1108,
    "\u2581\u13d7\u13d8\u13c2\u13d9\u13af": 1109,
    "\u2581\u13a4\u13be\u13b5\u13cd\u13d5\u13b8\u13d9\u13d7": 1110,
    "\u2581\u13a2\u13e3\u13e4\u13b5": 1111,
    "\u2581\u13a5\u13d3\u13b5": 1112,
    "\u2581\u13d7\u13e3\u13e4\u13b5\u13a6": 1113,
    "\u2581\u13a4\u13d5\u13c5\u13af": 1114,
    "\u2581\u13a4\u13e9\u13d2\u13af\u13f3": 1115,
    "\u2581\u13ce\u13a6\u13e8": 1116,
    "\u2581\u13a4\u13d9\u13af\u13f3\u13d2": 1117,
    "\u13d5\u13a2": 1118,
    "\u13db\u13c5": 1119,
    "\u2581\u13a3\u13d3\u13b8\u13a2": 1120,
    "\u13a1\u13af": 1121,
    "\u2581\u13a0\u13c2\u13d3": 1122,
    "\u2581\u13ac\u13d7\u13cd\u13a9": 1123,
    "\u13d0": 1124,
    "\u2581\u13e5\u13a6": 1125,
    "\u2581\u13d7\u13ac\u13e9": 1126,
    "\u2581\u13af\u13aa": 1127,
    "\u13a2\u13f3\u13cd\u13d7": 1128,
    "\u2581\u13e9\u13b6\u13cf": 1129,
    "\u2581\u13e7\u13d3\u13cf": 1130,
    "\u2581\u13a0\u13cd\u13a6\u13be": 1131,
    "\u13cd\u13c9": 1132,
    "\u13b5\u13aa": 1133,
    "\u2581\u13e9\u13cf\u13d3\u13c2": 1134,
    "\u2581\u13da\u13ec\u13e2\u13d4\u13c5\u13a9": 1135,
    "\u13d9\u13a2\u13f3\u13cd\u13d7": 1136,
    "\u2581\u13e7\u13c2\u13b8\u13eb\u13cd\u13d3\u13c1\u13d7\u13f1": 1137,
    "\u2581\u13c4\u13e9\u13c1\u13b8": 1138,
    "\u2581\u13a0\u13a8\u13f3\u13e3": 1139,
    "\u2581\u13d7\u13d3\u13c5\u13d9": 1140,
    "\u2581\u13d3\u13cf\u13b3\u13db": 1141,
    "\u2581\u13a0\u13b9\u13f0\u13b5": 1142,
    "\u2581\u13f0": 1143,
    "\u2581\u13f1\u13c4\u13cd\u13d7": 1144,
    "\u2581\u13e5\u13c1\u13ac\u13a2": 1145,
    "\u2581\u13a4\u13f2\u13b1\u13d2\u13af": 1146,
    "\u13b5\u13a6": 1147,
    "\u2581\u13a4\u13b6\u13d0\u13c5": 1148,
    "\u2581\u13a4\u13d3\u13c5": 1149,
    "\u2581\u13a7\u13c1\u13ac\u13a2": 1150,
    "\u2581\u13a2\u13f3\u13cd\u13d7\u13c9": 1151,
    "\u2581\u13c2\u13d7": 1152,
    "\u2581\u13c2\u13a8": 1153,
    "\u13d3\u13d9\u13b5\u13cd\u13d7": 1154,
    "\u2581\u13da\u13d9\u13a5\u13a2": 1155,
    "\u13c2\u13a6": 1156,
    "\u13be\u13cf": 1157,
    "\u2581\u13d7\u13a7\u13bf\u13e9\u13d7\u13d9\u13af\u13c3": 1158,
    "\u2581\u13a0\u13e4": 1159,
    "\u2581\u13cd\u13c6": 1160,
    "\u2581\u13da\u13c1\u13e4\u13b4": 1161,
    "\u2581\u13d7\u13a6\u13b8\u13c9\u13d7": 1162,
    "\u2581\u13a0\u13a6\u13f4\u13b5": 1163,
    "\u2581\u13c4\u13c2\u13ac\u13eb\u13f3\u13cc\u13d5\u13a9": 1164,
    "\u2581\u13a0\u13cf\u13c9\u13c3": 1165,
    "\u2581\u13c6\u13c2\u13c6": 1166,
    "\u13da": 1167,
    "\u2581\u13b5\u13a0": 1168,
    "\u2581\u13a0\u13e6\u13f4": 1169,
    "\u2581\u13a2\u13ac": 1170,
    "\u13d7\u13cd\u13a8\u13a2": 1171,
    "\u2581\u13d7\u13a6\u13ab\u13cd\u13db\u13d7": 1172,
    "\u2581\u13a2\u13e8\u13a8\u13f3\u13a2": 1173,
    "\u2581\u13cd\u13c8\u13cd\u13d3": 1174,
    "\u2581\u13da\u13ec\u13e2\u13c5\u13a9": 1175,
    "\u2581\u13a8\u13e5\u13c5\u13cf\u13d3\u13cd\u13d7": 1176,
    "\u2581\u13a0\u13c2\u13b3\u13cd\u13d3\u13b8": 1177,
    "\u2581\u13a0\u13cd\u13c6\u13a8\u13c2": 1178,
    "\u2581\u13a7\u13c2\u13a9\u13d3": 1179,
    "\u2581\u13be\u13cd\u13a6\u13c5\u13be": 1180,
    "\u13aa\u13af": 1181,
    "\u2581\u13a4\u13be\u13c1\u13b3\u13a9": 1182,
    "\u2581\u13cd\u13d4\u13ef": 1183,
    "\u2581\u13e7\u13e9": 1184,
    "\u2581\u13a2\u13a9\u13d9\u13d3": 1185,
    "\u2581\u13a2\u13ac\u13f1\u13e2": 1186,
    "\u2581\u13a7\u13c3\u13ae\u13cd\u13a9": 1187,
    "\u2581\u13a6\u13ec\u13c2\u13cd\u13a9": 1188,
    "\u2581\u13a6\u13b6\u13d9\u13d7": 1189,
    "\u2581\u13a4\u13c5\u13cc": 1190,
    "\u2581\u13a0\u13e2\u13d7\u13f1": 1191,
    "\u2581\u13a6\u13b6": 1192,
    "\u2581\u13a0\u13f2\u13a9": 1193,
    "\u2581\u13a4\u13ec\u13b8": 1194,
    "\u2581\u13b6\u13d7": 1195,
    "\u2581\u13a6\u13c5\u13af\u13db": 1196,
    "\u13b6\u13af\u13cd\u13d7": 1197,
    "\u13a9\u13c3": 1198,
    "\u13c6\u13b5": 1199,
    "\u2581\u13a1\u13b2\u13a2": 1200,
    "\u2581\u13a0\u13bc": 1201,
    "\u2581\u13a3\u13cf": 1202,
    "\u13cd\u13db\u13a2": 1203,
    "\u13b8\u13ad": 1204,
    "\u13db\u13c2": 1205,
    "\u13db\u13c1": 1206,
    "\u2581\u13f1\u13ac": 1207,
    "\u2581\u13a0\u13f0\u13d9\u13b3\u13db\u13d7": 1208,
    "\u2581\u13cd": 1209,
    "\u13af\u13ef": 1210,
    "\u13b2\u13cf": 1211,
    "\u2581\u13e9\u13ef": 1212,
    "\u13e4\u13cd\u13d7": 1213,
    "\u2581\u13a6\u13c5\u13cd\u13d9\u13d7": 1214,
    "\u13e7\u13cf": 1215,
    "\u13b7": 1216,
    "\u2581\u13c9\u13b3\u13c3": 1217,
    "\u13e3\u13d7": 1218,
    "\u2581\u13a0\u13d4\u13b4\u13d2": 1219,
    "\u2581\u13d3\u13d3\u13bf\u13e9\u13cd\u13db": 1220,
    "\u2581\u13d3\u13c6\u13d9\u13a5": 1221,
    "\u2581\u13a0\u13a9\u13cf": 1222,
    "\u2581\u13a2\u13e5\u13a6\u13d4\u13ad": 1223,
    "\u2581\u13a0\u13c1\u13d9\u13af": 1224,
    "\u13a0\u13b4": 1225,
    "\u2581\u13d7\u13a7\u13c3\u13d7": 1226,
    "\u2581\u13e7\u13b8\u13eb\u13cd\u13d3\u13c1\u13d7": 1227,
    "\u2581\u13e9\u13da\u13b5\u13cf": 1228,
    "\u2581\u13e7\u13c3\u13f0\u13c2": 1229,
    "\u2581\u13a6\u13b7\u13ef\u13cd\u13d7": 1230,
    "\u2581\u13af\u13b8\u13af\u13f3": 1231,
    "\u2581\u13d3\u13a6\u13b7\u13e5": 1232,
    "\u2581\u13be\u13ce\u13b5\u13d7": 1233,
    "\u2581\u13e7\u13c2\u13e2\u13a9": 1234,
    "\u2581\u13aa\u13a9": 1235,
    "\u2581\u13c2\u13a6\u13ea\u13cd\u13a8\u13a2": 1236,
    "\u2581\u13a0\u13a9\u13c5\u13cf\u13d9\u13af": 1237,
    "\u2581\u13d7\u13ab\u13aa\u13d9\u13d7\u13f1": 1238,
    "\u2581\u13a4\u13e5\u13b8\u13a2": 1239,
    "\u2581\u13d7\u13a7\u13c3\u13d7\u13f1": 1240,
    "\u2581\u13d7\u13c2\u13a6\u13d9\u13b5": 1241,
    "\u2581\u13a0\u13c2\u13a9\u13cf": 1242,
    "\u2581\u13a4\u13c2\u13e5": 1243,
    "\u2581\u13ad\u13be\u13be": 1244,
    "\u2581\u13a2\u13a6\u13a6\u13db": 1245,
    "\u13cd\u13d4\u13c5\u13af": 1246,
    "\u2581\u13a4\u13cd\u13c6\u13b8\u13b2": 1247,
    "\u2581\u13eb\u13e3": 1248,
    "\u13d5\u13b5": 1249,
    "\u2581\u13ed\u13b7\u13e4\u13a2": 1250,
    "\u2581\u13da\u13ef": 1251,
    "\u13a1\u13a2": 1252,
    "\u2581\u13be\u13c2\u13a5\u13a2": 1253,
    "\u2581\u13a2\u13a6\u13d8": 1254,
    "\u13cd\u13da": 1255,
    "\u13f2\u13af": 1256,
    "\u13aa\u13b2": 1257,
    "\u2581\u13a1\u13c6\u13bb\u13c3": 1258,
    "\u2581\u13ed\u13c2": 1259,
    "\u2581\u13a0\u13e5\u13b8\u13f1": 1260,
    "\u2581\u13a2\u13e4\u13be": 1261,
    "\u13db\u13af": 1262,
    "\u2581\u13a2\u13ac\u13c1\u13d7": 1263,
    "\u2581\u13d1": 1264,
    "\u2581\u13a0\u13aa": 1265,
    "\u2581\u13a0\u13b4\u13ec": 1266,
    "\u13f4\u13eb": 1267,
    "\u2581\u13c4\u13cd\u13db\u13a2": 1268,
    "\u2581\u13a6\u13e5": 1269,
    "\u2581\u13d7\u13d3": 1270,
    "\u2581\u13d5\u13a8": 1271,
    "\u2581\u13eb\u13a6": 1272,
    "\u2581\u13b5\u13c7\u13a9": 1273,
    "\u2581\u13e6\u13a9": 1274,
    "\u2581\u13d7\u13d3\u13b4\u13c2\u13cd\u13ac": 1275,
    "\u2581\u13d7\u13a8\u13eb": 1276,
    "\u2581\u13be\u13c2\u13a5\u13c9": 1277,
    "\u2581\u13a6\u13b3\u13a8\u13f4": 1278,
    "\u2581\u13d5\u13a6\u13da\u13b2": 1279,
    "\u2581\u13d7\u13a9\u13a6\u13f4\u13b5\u13a8": 1280,
    "\u2581\u13da\u13be\u13d3\u13c5\u13db": 1281,
    "\u2581\u13a6\u13db\u13ac": 1282,
    "\u2581\u13a4\u13d3\u13c5\u13d8\u13f3": 1283,
    "\u13cd\u13c6\u13c2\u13aa\u13d9\u13d7": 1284,
    "\u2581\u13a4\u13cd\u13a6\u13ce\u13d7": 1285,
    "\u2581\u13c7\u13c2": 1286,
    "\u13c5\u13cf\u13db": 1287,
    "\u2581\u13a4\u13cd\u13a6\u13c5\u13e8": 1288,
    "\u2581\u13a2\u13f3\u13e9\u13ab\u13d7": 1289,
    "\u2581\u13a2\u13e5\u13e1\u13f1": 1290,
    "\u2581\u13a0\u13b5\u13cd\u13c6\u13d7\u13cd\u13a9": 1291,
    "\u2581\u13a2\u13f3\u13d3\u13b4\u13a9": 1292,
    "\u2581\u13a6\u13b5\u13c6\u13cd\u13aa\u13af": 1293,
    "\u2581\u13a2\u13e4\u13ef\u13d4\u13ae\u13cd\u13d7": 1294,
    "\u2581\u13c4\u13c3\u13af\u13f3\u13d2\u13be": 1295,
    "\u2581\u13d2\u13a7\u13d4": 1296,
    "\u2581\u13a2\u13cc\u13ef": 1297,
    "\u2581\u13eb\u13e5\u13a2\u13a6": 1298,
    "\u2581\u13c5\u13d3\u13f3\u13b5\u13cd\u13d9\u13d4\u13c5\u13a9": 1299,
    "\u2581\u13da\u13d9\u13a1\u13a2": 1300,
    "\u2581\u13c4\u13ac\u13eb\u13f3\u13cc\u13d5\u13a9": 1301,
    "\u2581\u13ce\u13b7": 1302,
    "\u2581\u13a2\u13e8\u13f2\u13ce\u13ad": 1303,
    "\u2581\u13a0\u13c2\u13aa\u13d5\u13cd\u13a9": 1304,
    "\u2581\u13e7\u13d9\u13d3\u13c6\u13d3": 1305,
    "\u2581\u13a0\u13c2\u13e3\u13b3\u13a9": 1306,
    "\u2581\u13a4\u13d7\u13b4\u13a9": 1307,
    "\u2581\u13a0\u13cf\u13be\u13cc\u13c2": 1308,
    "\u2581\u13d7\u13e6\u13e2\u13d7": 1309,
    "\u2581\u13d7\u13a6\u13aa\u13d7\u13f1": 1310,
    "\u2581\u13a4\u13be\u13b5\u13cd\u13d3\u13f4\u13d7": 1311,
    "\u2581\u13a4\u13be\u13eb\u13f1": 1312,
    "\u2581\u13a2\u13e5\u13c8": 1313,
    "\u2581\u13a4\u13af\u13d0\u13d7": 1314,
    "\u2581\u13af\u13ef": 1315,
    "\u2581\u13a6\u13be\u13f0\u13af\u13cd\u13d7": 1316,
    "\u2581\u13ed\u13f4\u13b4\u13a2": 1317,
    "\u2581\u13a4\u13be\u13c4\u13aa\u13eb\u13d2\u13af": 1318,
    "\u2581\u13a0\u13ab\u13f4\u13d9\u13d7": 1319,
    "\u13b4\u13c3": 1320,
    "\u2581\u13a8\u13b3": 1321,
    "\u2581\u13e7\u13be\u13d3": 1322,
    "\u2581\u13a2\u13e4\u13af": 1323,
    "\u13b2\u13cd\u13a9": 1324,
    "\u2581\u13e5\u13c2": 1325,
    "\u2581\u13f4\u13a9": 1326,
    "\u2581\u13a4\u13d5\u13c5": 1327,
    "\u13d0\u13a2": 1328,
    "\u2581\u13b4\u13c6\u13c2\u13c3": 1329,
    "\u13ca": 1330,
    "\u2581\u13a5\u13a9": 1331,
    "\u2581\u13a0\u13a7\u13b5\u13a2": 1332,
    "\u13cc\u13db": 1333,
    "\u2581\u13ef\u13a9": 1334,
    "\u13cd\u13d7\u13c9": 1335,
    "\u2581\u13e5\u13e3": 1336,
    "\u2581\u13f1\u13d7\u13e5": 1337,
    "\u2581\u13c5\u13db": 1338,
    "\u2581\u13be\u13cd\u13a9\u13f4": 1339,
    "\u2581\u13a4\u13ec": 1340,
    "\u2581\u13a1\u13d8": 1341,
    "\u2581\u13a4\u13c2\u13b7\u13e8\u13a9": 1342,
    "\u13be\u13b5": 1343,
    "\u2581\u13e7\u13ea\u13c5\u13d2": 1344,
    "\u2581\u13c5\u13d7\u13a6\u13b5\u13cd\u13d9\u13d7\u13cd\u13aa": 1345,
    "\u2581\u13da\u13aa\u13ae": 1346,
    "\u2581\u13a4\u13c3\u13f4\u13ac": 1347,
    "\u2581\u13a0\u13c2\u13c3\u13ae\u13cd\u13ac": 1348,
    "\u2581\u13d3\u13d3\u13c1\u13b8": 1349,
    "\u2581\u13aa\u13cd\u13da": 1350,
    "\u2581\u13c5\u13db\u13a9\u13c5\u13cf\u13db": 1351,
    "\u2581\u13ac\u13c2\u13d7\u13f3": 1352,
    "\u2581\u13a4\u13c2\u13ec\u13c2\u13af\u13cd\u13d7": 1353,
    "\u2581\u13a2\u13f3\u13be\u13db\u13bf\u13d5\u13a9": 1354,
    "\u2581\u13cd\u13a6\u13da\u13a9": 1355,
    "\u2581\u13ce\u13a9\u13b5": 1356,
    "\u2581\u13d7\u13c2\u13ad\u13c4\u13b8\u13af": 1357,
    "\u2581\u13a4\u13c2\u13ac\u13eb\u13f3\u13cc\u13d5\u13a9": 1358,
    "\u2581\u13cc\u13aa\u13c2\u13a8": 1359,
    "\u2581\u13a2\u13b3\u13aa": 1360,
    "\u13e4": 1361,
    "\u2581\u13c2\u13e5\u13ea\u13ad": 1362,
    "\u2581\u13a2\u13f3\u13e9\u13c2\u13d0\u13d7\u13f1": 1363,
    "\u2581\u13cd\u13a9\u13c3\u13b2\u13cf": 1364,
    "\u2581\u13a2\u13f3\u13e9\u13c1\u13d7\u13f1": 1365,
    "\u2581\u13a0\u13a9\u13b5\u13ef": 1366,
    "\u2581\u13a2\u13f3\u13d3\u13b4\u13c5\u13db": 1367,
    "\u2581\u13cf\u13cc": 1368,
    "\u2581\u13a4\u13e9\u13d9\u13af\u13f4\u13d3": 1369,
    "\u2581\u13d9\u13f0": 1370,
    "\u2581\u13a0\u13e6\u13ad\u13f4": 1371,
    "\u2581\u13d2\u13ae\u13f1\u13e3": 1372,
    "\u2581\u13a2\u13ac\u13c1\u13af": 1373,
    "\u2581\u13a0\u13a6\u13d7\u13d3": 1374,
    "\u2581\u13a4\u13ec\u13d7\u13a8": 1375,
    "\u13a6\u13b5\u13cd\u13d7": 1376,
    "\u2581\u13a4\u13cd\u13a6\u13c3\u13b5": 1377,
    ")": 1378,
    "\u2581\u13da\u13b8\u13eb\u13cd\u13d3\u13c1\u13b2\u13a2": 1379,
    "\u2581\u13d3\u13ef\u13a2": 1380,
    "\u2581\u13a7\u13b8\u13a2": 1381,
    "\u2581\u13a0\u13cd\u13d3\u13f1\u13f3": 1382,
    "\u13c2\u13a9": 1383,
    "\u13c1\u13b8\u13a2": 1384,
    "\u2581\u13da\u13be\u13d3\u13c5\u13db\u13a2": 1385,
    "\u2581\u13a6\u13b8\u13b3\u13d7\u13f3": 1386,
    "\u2581\u13a4\u13f0\u13af": 1387,
    "\u2581\u13a8\u13c2": 1388,
    "\u2581\u13a4\u13be\u13b5\u13a2": 1389,
    "\u13c9\u13f0\u13c3": 1390,
    "\u2581\u13aa\u13af\u13d3": 1391,
    "\u2581\u13c4\u13db\u13c1\u13b4\u13a2": 1392,
    "\u13d9\u13a9": 1393,
    "\u2581\u13a4\u13be\u13d3\u13e1\u13ac\u13a2": 1394,
    "\u2581\u13e7\u13d3\u13c3": 1395,
    "\u2581\u13e3\u13e4\u13b5\u13a6": 1396,
    "\u13cd\u13d5\u13b8\u13d7": 1397,
    "\u2581\u13d7\u13a7\u13bf\u13e9\u13db\u13cd\u13d7\u13f1": 1398,
    "\u13a5\u13a2": 1399,
    "\u2581\u13d3\u13c6": 1400,
    "\u2581\u13c5\u13d3\u13f3": 1401,
    "\u2581\u13c2\u13e5": 1402,
    "\u13f0": 1403,
    "e": 1404,
    "\u2581\u13a4\u13d3\u13c5\u13d6\u13d7": 1405,
    "\u13a6\u13c5\u13af\u13db": 1406,
    "\u13c2\u13ef": 1407,
    "\u13c3\u13b4": 1408,
    "\u2581\u13a4\u13c2\u13c1": 1409,
    "\u13cd\u13d4\u13c5\u13a9": 1410,
    "\u2581\u13a4\u13b6\u13a9\u13b8": 1411,
    "\u13ef\u13a0": 1412,
    "\u13c1\u13b2\u13a2": 1413,
    "\u13a9\u13ce": 1414,
    "\u2581\u13a4\u13c2\u13e3\u13d6": 1415,
    "\u13cc\u13b3\u13d3": 1416,
    "\u13e5\u13cc": 1417,
    "\u2581\u13c2\u13da\u13a9\u13e8\u13c2\u13d2": 1418,
    "\u2581\u13a4\u13c5\u13d2\u13c9": 1419,
    "\u2581\u13a6\u13d3\u13c5\u13d6\u13cd\u13ac": 1420,
    "\u2581\u13d9\u13b4\u13db": 1421,
    "\u2581\u13d7\u13b9\u13d7": 1422,
    "\u2581\u13d7\u13a6\u13da\u13b2": 1423,
    "\u2581\u13e7\u13ef\u13d6\u13be": 1424,
    "\u13a4\u13c1\u13b3\u13c5\u13af": 1425,
    "\u2581\u13a0\u13d3\u13eb": 1426,
    "\u2581\u13a7\u13b3\u13e9\u13d7\u13d2": 1427,
    "\u2581\u13a2\u13e6\u13af\u13f3\u13d2": 1428,
    "\u2581\u13a0\u13e4\u13b5\u13cd\u13db": 1429,
    "\u2581\u13a0\u13c6\u13da\u13b5": 1430,
    "\u13e4\u13b8": 1431,
    "\u2581\u13ed\u13b6\u13d2": 1432,
    "\u2581\u13a4\u13aa\u13cf\u13d3": 1433,
    "\u2581\u13e8\u13d7\u13d3\u13b4\u13b2\u13cd\u13a6": 1434,
    "\u2581\u13f1\u13c5\u13d7\u13a6\u13b5\u13cd\u13d9\u13d7\u13ad": 1435,
    "\u2581\u13a2\u13e5\u13cf\u13f4\u13eb\u13ad": 1436,
    "\u2581\u13d7\u13df\u13b6\u13cd\u13d4\u13c5\u13af": 1437,
    "\u2581\u13a2\u13f3\u13be\u13b5\u13cd\u13d9\u13d7\u13f1": 1438,
    "\u2581\u13a2\u13ef\u13be\u13db\u13c1\u13af": 1439,
    "\u2581\u13aa\u13cd\u13d3\u13f1": 1440,
    "\u2581\u13e6\u13d3\u13c2": 1441,
    "\u2581\u13e7\u13d5\u13d8\u13f4\u13d3": 1442,
    "\u2581\u13d7\u13d6\u13b5\u13d9": 1443,
    "\u2581\u13ac\u13e9\u13df\u13cd\u13d7": 1444,
    "\u2581\u13a0\u13cd\u13a6\u13c5\u13a2\u13cd\u13d7": 1445,
    "\u2581\u13a0\u13cb\u13cc": 1446,
    "\u2581\u13aa\u13af\u13d7\u13f3": 1447,
    "\u2581\u13a4\u13a6\u13be\u13cd\u13d3": 1448,
    "\u2581\u13cc": 1449,
    "\u2581\u13a2\u13e3\u13e4\u13b5\u13a6": 1450,
    "\u2581\u13e7\u13aa\u13b3": 1451,
    "\u2581\u13d7\u13c6\u13e4\u13b5\u13a6": 1452,
    "\u2581\u13a0\u13b5\u13cd\u13d5\u13b8\u13d9\u13d7": 1453,
    "\u2581\u13a4\u13da\u13b5\u13cd\u13a8\u13cd\u13d7": 1454,
    "\u2581\u13a2\u13a6\u13a6\u13d8": 1455,
    "\u2581\u13a2\u13e7": 1456,
    "\u13c6\u13c2": 1457,
    "\u2581\u13c2\u13a6\u13d7": 1458,
    "\u2581\u13a6\u13ec\u13c2\u13af\u13cd\u13d7": 1459,
    "\u2581\u13a1\u13b5\u13cd\u13d7": 1460,
    "\u13c7": 1461,
    "\u2581\u13a4\u13d3\u13c5\u13d6\u13b4": 1462,
    "\u2581\u13e3\u13c1\u13b3": 1463,
    "c": 1464,
    "\u2581\u13a1\u13d7": 1465,
    "\u13a9\u13b6": 1466,
    "\u13b5\u13f0": 1467,
    "\u2581\u13a0\u13d3\u13c1\u13b8\u13a2": 1468,
    "\u2581\u13c4\u13ea\u13d2\u13a2": 1469,
    "\u2581\u13de\u13a6": 1470,
    "\u2581\u13c4\u13b5\u13cd\u13d4\u13c5\u13a2": 1471,
    "\u13a6\u13b6": 1472,
    "\u13e8\u13a9": 1473,
    "\u13c4": 1474,
    "\u13c5\u13c3": 1475,
    "\u13b8\u13be": 1476,
    "\u2581\u13a6\u13c2": 1477,
    "\u2581\u13a4\u13c1\u13e8\u13a2": 1478,
    "\u13a6\u13b3": 1479,
    "\u2581\u13a4\u13e3\u13d8\u13f0\u13c3": 1480,
    "\u2581\u13da\u13be\u13d3": 1481,
    "\u2581\u13c3\u13e5": 1482,
    "\u2581\u13a0\u13cf\u13f4\u13eb\u13c3": 1483,
    "\u2581\u13a6\u13c4\u13b8": 1484,
    "\u13ac\u13c2": 1485,
    "\u13bb": 1486,
    "\u13ef\u13a2": 1487,
    "\u2581\u13da\u13b4\u13c5": 1488,
    "\u13b8\u13c9\u13d7\u13f3": 1489,
    "\u2581\u13da\u13c2\u13b8\u13eb\u13cd\u13d3\u13c1\u13b2": 1490,
    "\u2581\u13ab\u13e2\u13d7": 1491,
    "\u2581\u13a2\u13f3\u13a2": 1492,
    "\u2581\u13a1\u13c8\u13cc": 1493,
    "\u2581\u13a4\u13db": 1494,
    "\u2581\u13be\u13be\u13db\u13c1\u13b2": 1495,
    "\u2581\u13d7\u13aa\u13ea\u13b5\u13cd\u13a9": 1496,
    "\u2581\u13a0\u13b5\u13cd\u13da\u13b6": 1497,
    "\u2581\u13a6\u13c1\u13b2": 1498,
    "\u2581\u13b5\u13eb": 1499,
    "\u13a8\u13d2\u13a2": 1500,
    "\u2581\u13be\u13a5\u13a2": 1501,
    "\u2581\u13a4\u13a8\u13d3\u13b5\u13f4": 1502,
    "\u2581\u13a4\u13c5\u13cf\u13f4": 1503,
    "\u2581\u13a0\u13be\u13a2\u13d2": 1504,
    "\u2581\u13a2\u13d7\u13a6\u13d4\u13ad": 1505,
    "\u13db\u13c3": 1506,
    "\u2581\u13a6\u13c5\u13c5": 1507,
    "\u13c1\u13b6": 1508,
    "\u2581\u13d0\u13d3\u13bb": 1509,
    "\u2581\u13ed\u13b7\u13e8": 1510,
    "\u2581\u13a3\u13c1": 1511,
    "\u2581\u13ac\u13c6": 1512,
    "\u2581\u13d7\u13e5\u13be\u13eb": 1513,
    "\u13d7\u13e3": 1514,
    "\u13a2\u13cd\u13d7\u13f1": 1515,
    "\u2581\u13a0\u13f0\u13d9\u13b3\u13db": 1516,
    "\u2581\u13da\u13f3\u13aa\u13db\u13a2": 1517,
    "\u2581\u13a4\u13c2\u13b7\u13e8": 1518,
    "\u2581Perry": 1519,
    "\u2581\u13e7\u13a6\u13be\u13ee": 1520,
    "\u2581\u13a4\u13c1\u13ab\u13e5\u13db": 1521,
    "\u2581\u13a5\u13f3\u13a9": 1522,
    "\u2581\u13a4\u13a9\u13e8\u13d3": 1523,
    "\u2581\u13d7\u13b4\u13af\u13d0\u13d7": 1524,
    "\u2581\u13a7\u13c2\u13a9\u13db": 1525,
    "\u2581\u13a0\u13a6\u13d8\u13cf": 1526,
    "\u2581\u13d7\u13d5\u13f2\u13d7": 1527,
    "\u2581\u13a4\u13ec\u13e2\u13d4\u13c5\u13a9": 1528,
    "\u2581\u13e7\u13be\u13a9\u13b8\u13d7": 1529,
    "\u2581\u13a4\u13c2\u13a9\u13ac": 1530,
    "\u2581\u13d7\u13d3\u13d8\u13c2\u13d9\u13af": 1531,
    "\u2581\u13ef\u13c6": 1532,
    "\u2581\u13a0\u13b5\u13cd\u13d4\u13f4\u13d7": 1533,
    "\u2581\u13c2\u13d7\u13a5": 1534,
    "\u2581\u13f3\u13da\u13b5\u13cd\u13a8": 1535,
    "\u2581\u13da\u13d3\u13d8\u13be\u13a5\u13a2": 1536,
    "\u2581\u13a4\u13c2\u13cd\u13c6\u13c2\u13aa\u13ce\u13a2": 1537,
    "\u2581\u13a0\u13c6\u13c1\u13b3\u13c5\u13af": 1538,
    "\u2581\u13a4\u13b7\u13af\u13cd\u13d7": 1539,
    "\u2581\u13a4\u13eb\u13ef": 1540,
    "\u2581\u13a0\u13cd\u13da\u13d7": 1541,
    "\u2581\u13a2\u13f3\u13be\u13db\u13c1\u13d7\u13f1": 1542,
    "\u2581\u13c4\u13db\u13c1\u13b8\u13a9": 1543,
    "\u2581\u13a4\u13be\u13f0\u13af\u13cd\u13d7": 1544,
    "\u2581\u13a4\u13cd\u13c6\u13c2\u13aa\u13d7\u13f3": 1545,
    "\u13cd\u13d5\u13cd\u13d7": 1546,
    "\u2581\u13a4\u13c2\u13f4\u13cd\u13d7": 1547,
    "\u2581\u13a0\u13b5\u13cd\u13aa\u13b8\u13d4\u13c5\u13af": 1548,
    "\u2581\u13a1\u13b5": 1549,
    "\u13c2\u13d7": 1550,
    "\u2581\u13c2\u13d9": 1551,
    "\u2581\u13c2\u13a6\u13ea\u13cd\u13ac\u13a2": 1552,
    "\u2581\u13a2\u13d3": 1553,
    "\u13d3\u13d3": 1554,
    "\u13aa\u13d9\u13d7": 1555,
    "\u2581\u13a0\u13eb\u13c5": 1556,
    "\u13a7\u13c2": 1557,
    "\u2581\u13af\u13b8": 1558,
    "\u13b5\u13cd\u13a9": 1559,
    "\u13a9\u13cd\u13d7\u13f1": 1560,
    "\u2581\u13a4\u13c1\u13e8\u13af": 1561,
    "\u2581\u13f1\u13d7\u13e3": 1562,
    "\u13a8\u13ce\u13a2": 1563,
    "\u13b5\u13cf": 1564,
    "\u13a9\u13ef": 1565,
    "\u2581\u13e6\u13a2\u13c1\u13c3": 1566,
    "\u13f2\u13b5": 1567,
    "\u2581\u13d5\u13e3\u13d3": 1568,
    "\u2581\u13a2\u13d0\u13c3": 1569,
    "\u13be\u13dd\u13a2": 1570,
    "\u2581\u13a4\u13ea\u13b5\u13af\u13cd\u13d7": 1571,
    "\u2581\u13a2\u13f3\u13c9": 1572,
    "\u13b5\u13cd": 1573,
    "\u13a1\u13b5": 1574,
    "\u2581\u13f4\u13ac": 1575,
    "\u13c1\u13e5": 1576,
    "\u13d7\u13cd\u13aa": 1577,
    "\u13f0\u13ac": 1578,
    "\u2581\u13be\u13c2\u13a5\u13c3": 1579,
    "\u2581\u13a6\u13c1\u13cc\u13a2": 1580,
    "\u2581\u13a6\u13c3\u13b8\u13a5\u13cd\u13ac": 1581,
    "\u2581\u13a1\u13c9\u13d7": 1582,
    "\u2581\u13e7\u13d3\u13d5\u13d2\u13db": 1583,
    "\u2581\u13cc\u13c9\u13c3": 1584,
    "\u13df": 1585,
    "\u2581\u13a0\u13d3\u13af": 1586,
    "\u2581\u13a4\u13d5\u13c1\u13b8": 1587,
    "\u2581\u13f1\u13e8": 1588,
    "\u2581\u13a1\u13d9\u13b2": 1589,
    "\u2581\u13d0\u13b3": 1590,
    "\u2581\u13a0\u13c6\u13db\u13a6\u13c5\u13a9": 1591,
    "\u13cd\u13d5\u13b8\u13d7\u13f1": 1592,
    "\u2581\u13d3\u13c1\u13e9\u13d7\u13d2": 1593,
    "\u2581\u13d5\u13a8\u13cc\u13d7\u13d2": 1594,
    "\u2581\u13d5\u13e1\u13ac": 1595,
    "\u13db\u13c1\u13b8": 1596,
    "\u2581\u13d7\u13ab\u13aa\u13d9\u13d7": 1597,
    "\u2581\u13a4\u13d3\u13f4\u13cd\u13d7": 1598,
    "\u2581\u13d7\u13c2\u13b5\u13a0\u13c5\u13af\u13db": 1599,
    "\u2581\u13a2\u13c8\u13ac\u13a2": 1600,
    "\u2581\u13a0\u13be\u13d3\u13c5\u13df": 1601,
    "\u2581\u13de\u13a9\u13f3": 1602,
    "\u2581\u13d4\u13b5\u13e7\u13c8": 1603,
    "\u2581\u13a2\u13f3\u13ea\u13c5\u13cd\u13d7": 1604,
    "\u2581\u13a0\u13aa\u13c4": 1605,
    "\u2581\u13cc\u13ba\u13b5\u13f1": 1606,
    "\u2581\u13a9\u13df": 1607,
    "\u2581\u13a0\u13eb\u13c4\u13e3": 1608,
    "\u2581\u13e7\u13cd\u13c6\u13c5\u13be": 1609,
    "\u2581\u13ac\u13d4\u13c2\u13d3\u13cd\u13d7": 1610,
    "\u2581\u13a4\u13ec\u13da\u13af": 1611,
    "\u2581\u13a6\u13a8\u13db": 1612,
    "\u2581\u13a4\u13ec\u13da\u13af\u13f3": 1613,
    "\u2581\u13d7\u13a6\u13c5\u13d9\u13d7": 1614,
    "\u2581\u13e7\u13d3\u13b4\u13c5\u13d3": 1615,
    "\u2581\u13a2\u13e8\u13d7\u13cd\u13a8\u13cd\u13d7": 1616,
    "\u13d5\u13be": 1617,
    "\u2581\u13a0\u13a7\u13d4\u13ae\u13a2": 1618,
    "\u2581\u13d3\u13e3": 1619,
    "\u2581\u13a4\u13d5": 1620,
    "\u2581\u13a0\u13e5\u13cd\u13db": 1621,
    "\u2581\u13a0\u13df\u13b6\u13cd\u13d7": 1622,
    "\u2581\u13a4\u13c2\u13f4\u13cd\u13d7\u13f1": 1623,
    "\u2581\u13a4\u13b6\u13d2\u13cd\u13d7": 1624,
    "\u2581\u13e4\u13ae\u13a2": 1625,
    "\u2581\u13da\u13b4\u13c1\u13a2": 1626,
    "\u2581\u13a8\u13a6": 1627,
    "\u2581\u13f0\u13ad": 1628,
    "\u2581\u13a0\u13ce\u13a9": 1629,
    "\u2581\u13a0\u13c1\u13ae\u13a2": 1630,
    "\u13b6\u13d2": 1631,
    "\u2581\u13d7\u13c6": 1632,
    "\u2581\u13a0\u13e5\u13b8\u13c9\u13d7": 1633,
    "\u2581\u13a6\u13cd\u13a9\u13b8\u13a2": 1634,
    "\u2581\u13a6\u13f2\u13df\u13c9": 1635,
    "\u2581\u13e5\u13eb": 1636,
    "\u2581\u13a4\u13da\u13b8\u13d7": 1637,
    "\u13c1\u13ac": 1638,
    "\u2581\u13a4\u13cd\u13aa\u13b5": 1639,
    "\u2581\u13a6\u13e5\u13ef": 1640,
    "\u2581\u13a0\u13a8\u13f4\u13c3": 1641,
    "\u13e8\u13af": 1642,
    "\u13ad\u13d7": 1643,
    "\u13a9\u13be": 1644,
    "\u2581\u13a4\u13b8": 1645,
    "\u2581\u13f1\u13d5": 1646,
    "\u2581\u13db\u13be": 1647,
    "\u2581\u13d5\u13ac\u13e9": 1648,
    "\u13c5\u13c5": 1649,
    "\u2581\u13d4\u13b5\u13ad": 1650,
    "\u13db\u13c1\u13b5": 1651,
    "\u2581\u13a3\u13cf\u13c9": 1652,
    "\u13cd\u13a6\u13b8": 1653,
    "\u13b7\u13a6": 1654,
    "\u13b3\u13c5\u13af": 1655,
    "\u2581\u13d9\u13af\u13f1": 1656,
    "\u13d3\u13b4": 1657,
    "\u13c5\u13cf\u13d3\u13cd\u13d7": 1658,
    "\u2581\u13eb\u13ac\u13e9": 1659,
    "n": 1660,
    "\u2581\u13ac\u13e9\u13be": 1661,
    "\u2581\u13ec": 1662,
    "\u13b5\u13a2": 1663,
    "\u13d9\u13b3": 1664,
    "\u2581\u13da\u13b3\u13cd\u13ac": 1665,
    "\u13cd\u13d7\u13cd\u13a8\u13cd\u13d7": 1666,
    "\u13c2\u13f4": 1667,
    "\u2581\u13da\u13b4\u13c1": 1668,
    "\u2581\u13a4\u13c1\u13c5\u13ce": 1669,
    "\u2581\u13f4\u13a6": 1670,
    "\u2581\u13a0\u13dc": 1671,
    "\u13c5\u13c2": 1672,
    "\u2581\u13c3\u13ca": 1673,
    "\u13d4\u13c5\u13a2": 1674,
    "\u13a6\u13d3": 1675,
    "\u2581\u13b0\u13e9": 1676,
    "\u2581\u13d7\u13e3\u13d3\u13c5\u13d9": 1677,
    "\u2581\u13a0\u13c2\u13d9\u13be\u13a5": 1678,
    "\u2581\u13a0\u13c8\u13bb\u13b4\u13a9": 1679,
    "\u13ac\u13bf\u13a8": 1680,
    "\u2581\u13c2\u13e3\u13db\u13c1\u13b8": 1681,
    "\u2581\u13a4\u13f0\u13e4": 1682,
    "\u2581\u13e8\u13cd\u13a9\u13c3": 1683,
    "\u2581\u13a0\u13c6\u13a7\u13db": 1684,
    "\u2581\u13f1\u13a8": 1685,
    "\u2581\u13a0\u13c1\u13d9\u13b2": 1686,
    "\u2581\u13d3\u13e0\u13af\u13cd\u13db": 1687,
    "\u13a0\u13ef": 1688,
    "\u2581\u13ed\u13b6\u13ce": 1689,
    "\u2581\u13d3\u13be\u13d3": 1690,
    "\u2581\u13d5\u13ad\u13b7\u13a8": 1691,
    "\u2581\u13a0\u13e5\u13a6\u13d8\u13d7\u13cd\u13d7": 1692,
    "\u13d7\u13f3": 1693,
    "\u2581\u13a2\u13f3\u13db\u13c1\u13d7": 1694,
    "\u2581\u13d5\u13a6\u13b6\u13d7": 1695,
    "\u2581\u13be\u13af\u13f3\u13c9": 1696,
    "\u2581\u13a4\u13ec\u13b5": 1697,
    "\u2581\u13a2\u13cf\u13ba\u13b5": 1698,
    "\u2581\u13a6\u13b7\u13ef\u13cd\u13d8": 1699,
    "\u2581\u13d1\u13be\u13d9\u13d3\u13c6\u13cd\u13d7": 1700,
    "\u2581\u13a4\u13d3\u13c5\u13ce": 1701,
    "\u2581\u13ac\u13e9\u13cd\u13d3\u13e9\u13db\u13ce\u13a2": 1702,
    "ett": 1703,
    "\u2581\u13c5\u13d3\u13f3\u13c2\u13b6\u13d2\u13af": 1704,
    "\u2581\u13a4\u13b5\u13d7\u13e8": 1705,
    "\u2581\u13a2\u13ef\u13c5\u13d9": 1706,
    "\u2581\u13d7\u13ac\u13d4\u13c2\u13d3\u13cd\u13d7": 1707,
    "\u2581\u13d7\u13e6\u13e2\u13d9\u13d7": 1708,
    "\u2581\u13c2\u13ac\u13e9\u13ea\u13ce\u13b8\u13a9": 1709,
    "\u2581\u13a2\u13a6\u13ea\u13cd\u13d7": 1710,
    "\u2581\u13e3\u13d3\u13b5\u13a2": 1711,
    "\u2581\u13d5\u13b9\u13cd\u13a6": 1712,
    "\u2581\u13d7\u13cd\u13d3\u13d3\u13c5\u13df": 1713,
    "\u2581\u13ad\u13e9\u13e7": 1714,
    "\u2581\u13a0\u13c2\u13a6\u13d3\u13ad": 1715,
    "\u2581\u13d9\u13f1\u13e8": 1716,
    "\u2581\u13a0\u13eb\u13d2\u13d7\u13f1": 1717,
    "\u2581\u13cc\u13be\u13f1": 1718,
    "\u2581\u13aa\u13ea\u13b3": 1719,
    "\u2581\u13a4\u13b4\u13c2\u13d9\u13b8": 1720,
    "\u2581\u13a4\u13c1\u13b5\u13e4\u13a2": 1721,
    "\u2581\u13af\u13cd\u13a9\u13c3": 1722,
    "\u2581\u13a6\u13c2\u13a6\u13d4": 1723,
    "\u2581\u13e5\u13da\u13d9\u13a5": 1724,
    "\u2581\u13a4\u13be\u13e0\u13be\u13cd\u13d7": 1725,
    "\u2581\u13a4\u13cf\u13e9": 1726,
    "\u2581\u13a0\u13d6\u13b5\u13d9": 1727,
    "\u2581\u13a4\u13ec\u13da\u13e8": 1728,
    "\u2581\u13f1\u13c2\u13a6\u13b5\u13cd\u13d3": 1729,
    "\u2581\u13ae": 1730,
    "\u2581\u13d7\u13f0\u13d9\u13b3\u13db\u13d7": 1731,
    "\u2581\u13a4\u13d5\u13b0\u13af\u13cd\u13d7": 1732,
    "\u2581\u13be\u13c2\u13ea\u13cd\u13ac\u13a9": 1733,
    "\u2581\u13a0\u13a9\u13f0\u13b8\u13ad": 1734,
    "\u2581\u13a4\u13be\u13c1\u13b3\u13c5\u13af": 1735,
    "\u2581\u13c1\u13b2\u13be": 1736,
    "\u2581\u13a2\u13ac\u13d3": 1737,
    "\u2581\u13d7\u13c2\u13c5\u13cc\u13d7": 1738,
    "\u2581\u13a4\u13b7\u13af\u13cd\u13d7\u13f1": 1739,
    "\u2581\u13a4\u13c2\u13af\u13cd\u13d7\u13f1": 1740,
    "\u2581\u13c4\u13be\u13db\u13c5\u13a2": 1741,
    "\u13c5\u13db": 1742,
    "\u2581\u13d5\u13ad\u13b7\u13a8\u13a2": 1743,
    "\u2581\u13d3\u13c1\u13e9\u13d7\u13d2\u13a2": 1744,
    "\u13e4\u13a2": 1745,
    "\u2581\u13a4\u13d3\u13c5\u13db": 1746,
    "\u13c9\u13b3": 1747,
    "\u2581\u13a0\u13c1\u13a9": 1748,
    "\u2581\u13a4\u13df\u13cd\u13d3": 1749,
    "\u13cd\u13a6\u13a9": 1750,
    "\u2581\u13ef\u13c2": 1751,
    "\u2581\u13d4\u13b5\u13c1\u13a2": 1752,
    "\u2581\u13a6\u13c5": 1753,
    "\u13b7\u13a9": 1754,
    "\u2581\u13a8\u13f4\u13a2": 1755,
    "\u13db\u13d7\u13f1": 1756,
    "\u13d7\u13cd\u13ac\u13a2": 1757,
    "\u13eb\u13cd\u13d7": 1758,
    "\u2581\u13a0\u13db\u13aa\u13d7": 1759,
    "\u2581\u13c2\u13a6\u13b5\u13cd\u13d3": 1760,
    "\u13be\u13d7": 1761,
    "\u2581\u13d7\u13e4": 1762,
    "\u13d3\u13cf": 1763,
    "\u13ef\u13c5": 1764,
    "\u2581\u13d9\u13a9": 1765,
    "\u13a7\u13c5": 1766,
    "\u2581\u13eb\u13d7": 1767,
    "\u13d6": 1768,
    ",)": 1769,
    "\u13cd\u13d3\u13e9\u13d7\u13d9\u13af": 1770,
    "\u2581\u13e3\u13be": 1771,
    "\u2581\u13a4\u13f2\u13e8": 1772,
    "\u2581\u13d9\u13af": 1773,
    "\u13a8\u13ce": 1774,
    "\u13a8\u13f3": 1775,
    "\u2581\u13d7\u13be": 1776,
    "\u2581\u13a4\u13c7\u13d3\u13b8": 1777,
    "\u13a9\u13b8": 1778,
    "\u13e1": 1779,
    "\u2581\u13aa\u13e2": 1780,
    "\u2581\u13f3\u13be": 1781,
    "\u2581\u13cd\u13a9\u13ef": 1782,
    "\u2581\u13ed\u13ef\u13c5\u13ae": 1783,
    "\u2581\u13a4\u13e3": 1784,
    "\u2581\u13e3\u13c9": 1785,
    "\u2581\u13d5\u13a9": 1786,
    "\u2581\u13a4\u13be\u13d9\u13b4\u13b0\u13d2": 1787,
    "\u13e3\u13d8": 1788,
    "\u2581\u13a1\u13cf\u13f1": 1789,
    "\u2581\u13a1\u13ae": 1790,
    "\u2581\u13a0\u13e5\u13be\u13dd\u13a2": 1791,
    "\u2581\u13a4\u13da\u13b5\u13cd\u13a8": 1792,
    "\u13d5\u13a9": 1793,
    "\u2581\u13a0\u13c6\u13da\u13b5\u13cd\u13ac": 1794,
    "\u2581\u13a8\u13b5\u13cd\u13ac": 1795,
    "\u2581\u13da\u13b8\u13eb\u13cd\u13d3\u13c1\u13b8": 1796,
    "\u2581\u13b9\u13cf\u13d9\u13c2": 1797,
    "\u2581\u13a0\u13d9\u13b3\u13c5\u13cd\u13d7": 1798,
    "\u2581\u13d5\u13e5\u13b8\u13eb\u13cd\u13d3\u13c1\u13b2": 1799,
    "\u2581\u13c4\u13be\u13db\u13c5": 1800,
    "\u2581\u13a2\u13be": 1801,
    "\u2581\u13c5\u13d7\u13a6\u13b5\u13cd\u13d9\u13d7": 1802,
    "\u2581\u13ed\u13f4\u13b4": 1803,
    "\u13d4\u13c5\u13ad": 1804,
    "\u13ce\u13c3": 1805,
    "\u2581\u13d9\u13d3\u13b8": 1806,
    "a": 1807,
    "\u2581\u13a0\u13be\u13d3\u13be\u13cf\u13c2\u13d9\u13af": 1808,
    "\u2581\u13a6\u13e3\u13c4\u13b3": 1809,
    "\u2581\u13a2\u13f3\u13e9\u13ac\u13d8": 1810,
    "\u2581\u13a0\u13b5\u13f0\u13be": 1811,
    "\u2581\u13a0\u13b1\u13cd\u13d5\u13cd\u13d7": 1812,
    "\u2581\u13a2\u13ac\u13e9\u13b5\u13cd\u13d9\u13d7": 1813,
    "\u2581\u13a2\u13e3\u13b5\u13cd\u13d9\u13d7\u13f1": 1814,
    "\u2581\u13eb\u13a6\u13b7\u13a9": 1815,
    "\u2581\u13a4\u13b5\u13cd\u13a8\u13db": 1816,
    "\u2581\u13a0\u13c2\u13a9\u13b7\u13eb": 1817,
    "\u2581\u13e5\u13c4\u13ea\u13ce\u13a2": 1818,
    "\u2581\u13ad\u13eb\u13c2\u13e8": 1819,
    "\u2581\u13ab\u13ab": 1820,
    "\u2581\u13a0\u13d2\u13ac": 1821,
    "\u2581\u13a0\u13e4\u13b7\u13a9": 1822,
    "\u2581\u13ab\u13b4": 1823,
    "\u2581\u13a7\u13c3\u13ae\u13d7": 1824,
    "\u2581\u13cf\u13f2": 1825,
    "\u2581\u13a4\u13f2\u13b1\u13af\u13cd\u13d7\u13f1": 1826,
    "\u2581\u13c4\u13be\u13d3\u13b4\u13d2": 1827,
    "\u2581\u13ed\u13c2\u13b6\u13ce\u13a2": 1828,
    "\u2581\u13a2\u13f3\u13cd\u13d8": 1829,
    "\u2581\u13a0\u13c6\u13da\u13b5\u13ad": 1830,
    "\u13a1\u13ad": 1831,
    "\u2581\u13f1\u13a8\u13d0\u13a2": 1832,
    "\u2581\u13d7\u13c1\u13b2": 1833,
    "\u2581\u13d7\u13a9\u13cf": 1834,
    "\u2581\u13e7\u13b3\u13cf\u13d5\u13c2": 1835,
    "\u2581\u13da\u13b8\u13eb\u13cd\u13d3\u13c1\u13b8\u13a2": 1836,
    "\u2581\u13c2\u13aa\u13af\u13b8\u13be\u13c9": 1837,
    "\u2581\u13a8\u13b5\u13a0": 1838,
    "\u2581\u13a0\u13c1\u13d9\u13b2\u13a2": 1839,
    "\u2581\u13a1\u13d9\u13b2\u13a2": 1840,
    "\u2581\u13a2\u13a6\u13e4\u13b5\u13a6": 1841,
    "\u2581\u13a4\u13c1\u13e2\u13d4\u13c5\u13db": 1842,
    "\u2581\u13a4\u13a9\u13e8\u13db\u13c3": 1843,
    "\u13d9\u13b4": 1844,
    "\u13d3\u13db": 1845,
    "\u13c3\u13af": 1846,
    "\u13c1\u13b0": 1847,
    "\u2581\u13d7\u13c1\u13b2\u13a2": 1848,
    "\u2581\u13c2\u13aa\u13af\u13b8\u13be": 1849,
    "\u2581\u13a4\u13a8\u13f3\u13af": 1850,
    "\u13e9\u13d2": 1851,
    "\u13a6\u13d9\u13c3": 1852,
    "\u2581\u13c2\u13e5\u13a5\u13a2": 1853,
    "\u2581\u13cd\u13a9\u13c3": 1854,
    "\u2581\u13ef\u13be": 1855,
    "\u13c2\u13c3": 1856,
    "\u2581\u13a4\u13c2\u13b7\u13e4\u13a2": 1857,
    "\u2581\u13a1\u13ae\u13cd\u13d7": 1858,
    "\u13ac\u13c5": 1859,
    "\u2581\u13c6\u13b4\u13d7\u13c3": 1860,
    "\u2581\u13d3\u13e8": 1861,
    "\u13d5\u13d7": 1862,
    "\u13b5\u13cd\u13d4\u13c1": 1863,
    "\u13d0\u13c5": 1864,
    "\u2581\u13cc\u13e9\u13c2\u13c3": 1865,
    "\u2581\u13a1\u13be": 1866,
    "\u2581\u13d7\u13c2\u13cf\u13d7": 1867,
    "\u2581\u13a0\u13a9\u13b5\u13f2\u13a2\u13cd\u13d7": 1868,
    "\u2581\u13a0\u13cb\u13d2\u13c9": 1869,
    "\u2581\u13e5\u13cd\u13da": 1870,
    "\u13a9\u13d2": 1871,
    "\u2581\u13c1\u13b0": 1872,
    "\u13f3\u13af": 1873,
    "\u13b8\u13c5": 1874,
    "\u13a6\u13db\u13a6": 1875,
    "\u13d4\u13c5\u13be": 1876,
    "\u13d5\u13c5": 1877,
    "\u13a8\u13f3\u13af": 1878,
    "\u13be\u13c3": 1879,
    "\u2581\u13a4\u13f2\u13c9": 1880,
    "\u13da\u13b5": 1881,
    "\u2581\u13aa\u13af\u13cd\u13a9\u13c2": 1882,
    "\u13d4\u13be": 1883,
    "\u2581\u13aa\u13a8": 1884,
    "\u13c5\u13d2\u13a9": 1885,
    "\u13b6\u13a2": 1886,
    "\u13aa\u13b5\u13f0\u13cd\u13a9": 1887,
    "\u2581\u13d1\u13be\u13b4\u13c3": 1888,
    "\u2581\u13a4\u13d3\u13c5\u13c5": 1889,
    "\u13cd\u13a9\u13ef": 1890,
    "\u2581\u13d5\u13ac": 1891,
    "\u13d9\u13a2": 1892,
    "\u2581\u13d4\u13b5\u13c3": 1893,
    "\u2581\u13d7\u13e5\u13f2\u13b5": 1894,
    "\u2581\u13a0\u13c2\u13d0": 1895,
    "\u13c5\u13a6": 1896,
    "\u13c9\u13d7": 1897,
    "\u13d3\u13b6\u13c2\u13a8": 1898,
    "\u13a9\u13db": 1899,
    "\u13e5\u13ef": 1900,
    "\u2581\u13e3\u13c2\u13c3": 1901,
    "\u2581\u13a1\u13b3\u13ea": 1902,
    "\u2581\u13cf\u13a9\u13bb": 1903,
    "\u2581\u13ed\u13be": 1904,
    "\u2581\u13e7\u13be\u13c4\u13ec": 1905,
    "\u13c2\u13b5": 1906,
    "\u2581\u13a0\u13c2\u13eb\u13c5": 1907,
    "\u2581\u13a4\u13a9\u13e8\u13db": 1908,
    "\u2581\u13d0\u13a2\u13f1": 1909,
    "\u2581\u13a4\u13c1\u13b3\u13c5\u13af\u13f1": 1910,
    "\u13a6\u13c5": 1911,
    "\u13a7\u13c1": 1912,
    "\u2581\u13d3\u13eb\u13d2": 1913,
    "\u2581\u13e3\u13d3": 1914,
    "\u2581\u13a4\u13be\u13f0\u13af\u13cd\u13d7\u13f3": 1915,
    "\u2581\u13c4\u13db\u13c5": 1916,
    "\u13d3\u13c2": 1917,
    "\u2581\u13a0\u13c6\u13db\u13a6\u13c5": 1918,
    "\u2581\u13d7\u13a7\u13c3\u13a9\u13cd\u13d7": 1919,
    "\u2581\u13a1\u13dd\u13ea": 1920,
    "y": 1921,
    "\u2581\u13a0\u13c2\u13cc\u13da\u13cf": 1922,
    "\u2581\u13ac\u13cd\u13a6\u13a2\u13cd\u13d3\u13a9": 1923,
    "\u2581\u13c2\u13a6\u13c5\u13af\u13ce\u13cd\u13d7": 1924,
    "\u2581\u13a4\u13b5\u13aa\u13b2\u13cd\u13d7": 1925,
    "\u2581\u13c4\u13dc\u13cf\u13db\u13d2\u13be": 1926,
    "\u2581\u13e7\u13c3\u13d1\u13b6\u13e8\u13af": 1927,
    "\u2581\u13c5\u13a9\u13e7\u13c8": 1928,
    "\u2581\u13cc\u13ef\u13c2": 1929,
    "\u2581\u13e7\u13be\u13e6\u13af\u13cd\u13d7": 1930,
    "\u2581\u13b3\u13cf\u13b3": 1931,
    "\u2581\u13a4\u13b6\u13d2\u13cd\u13d4\u13c5\u13af": 1932,
    "\u2581\u13d4\u13b7\u13e3": 1933,
    "\u2581\u13eb\u13c4\u13d2\u13b8": 1934,
    "\u2581\u13a4\u13f4\u13e3": 1935,
    "\u2581\u13a2\u13f3\u13d3\u13a8\u13db": 1936,
    "\u2581\u13e5\u13d4\u13a6": 1937,
    "\u2581\u13a2\u13e8\u13d4\u13f2\u13ce\u13ad": 1938,
    "\u2581\u13a6\u13f0\u13cc\u13d7": 1939,
    "\u2581\u13eb\u13c2\u13a6\u13b5\u13cd\u13d3": 1940,
    "\u2581\u13a2\u13e3\u13d3\u13d9\u13b5\u13cd\u13d7\u13cd\u13a8\u13cd\u13d7": 1941,
    "\u2581\u13a2\u13c5\u13af\u13f3": 1942,
    "\u2581\u13a2\u13a9\u13cd\u13d5\u13b5\u13cd\u13a9": 1943,
    "\u2581\u13d7\u13c1\u13b6\u13d9\u13d7": 1944,
    "\u2581\u13a2\u13a6\u13ea\u13db": 1945,
    "\u2581\u13a4\u13b5\u13d1\u13eb\u13d3": 1946,
    "\u2581\u13e7\u13be\u13b3\u13cf\u13d5\u13c2": 1947,
    "\u2581\u13a3\u13cc\u13c2": 1948,
    "\u2581\u13a3\u13a6\u13c1\u13b3\u13c5\u13af": 1949,
    "\u2581\u13e7\u13be\u13d3\u13b5\u13a2": 1950,
    "\u2581\u13a4\u13a6\u13c3\u13e9": 1951,
    "\u2581\u13a4\u13da\u13eb\u13db": 1952,
    "\u2581\u13be\u13db\u13c1\u13ae\u13cd\u13d7": 1953,
    "\u2581\u13a2\u13f3\u13c5\u13c1\u13d7\u13f1": 1954,
    "\u2581\u13aa\u13a8\u13f1": 1955,
    "\u2581\u13a4\u13ec\u13e2\u13c5\u13af": 1956,
    "\u13d3\u13c1\u13b8": 1957,
    "\u2581\u13c4\u13be\u13db\u13c1\u13b8\u13a9": 1958,
    "\u2581\u13e7\u13b8\u13eb\u13cd\u13d3\u13c1\u13d7\u13f1": 1959,
    "\u2581\u13a0\u13c5\u13d7\u13cd\u13ac": 1960,
    "\u2581\u13da\u13c1\u13b4": 1961,
    "\u2581\u13be\u13a5\u13c2\u13f3": 1962,
    "\u2581\u13d7\u13a6\u13b5\u13a0\u13c5\u13af\u13db": 1963,
    "\u2581\u13a0\u13be\u13d3\u13c5\u13d6\u13cd\u13ac": 1964,
    "\u2581\u13a4\u13be\u13c4\u13aa\u13eb\u13ce\u13a2": 1965,
    "\u2581\u13e3\u13c1\u13ae\u13a2": 1966,
    "\u2581\u13a4\u13d9\u13af\u13f3\u13d7\u13f1": 1967,
    "\u2581\u13a4\u13df\u13f0\u13c3": 1968,
    "\u2581\u13ed\u13b6\u13d2\u13a9": 1969,
    "\u2581\u13a0\u13b5\u13ae\u13b5\u13cd\u13d7": 1970,
    "\u2581\u13a0\u13d3\u13c5\u13d6\u13d7": 1971,
    "\u2581\u13d3\u13e0\u13af\u13cd\u13db\u13a2": 1972,
    "\u2581\u13a2\u13ac\u13d2": 1973,
    "\u2581\u13d5\u13a8\u13cc\u13d7\u13d2\u13a2": 1974,
    "\u13f0\u13af": 1975,
    "\u2581\u13a0\u13e5\u13b8\u13a0\u13c1\u13b6\u13af": 1976,
    "\u2581\u13c5\u13e9": 1977,
    "\u2581\u13a4\u13d4\u13b7\u13a9\u13cd\u13a9": 1978,
    "\u13e9\u13c2": 1979,
    "\u2581\u13e7\u13b5\u13a2": 1980,
    "\u2581\u13a4\u13c1\u13e4\u13b8\u13a9": 1981,
    "\u2581\u13aa\u13af\u13db": 1982,
    "\u2581\u13be\u13af\u13f3\u13c9\u13c3": 1983,
    "\u13b3\u13db": 1984,
    "\u2581\u13ac\u13d7\u13cd\u13ac\u13a2": 1985,
    "\u13ce\u13b8": 1986,
    "\u2581\u13da\u13d8\u13c5\u13ce": 1987,
    "\u2581\u13bb": 1988,
    "\u2581\u13a0\u13f0\u13b8\u13d7": 1989,
    "\u2581\u13c3\u13ef\u13c3": 1990,
    "\u2581\u13a4\u13f0\u13b8\u13db\u13a2": 1991,
    "\u13ce\u13ad": 1992,
    "\u13c4\u13ea": 1993,
    "\u13aa\u13b8": 1994,
    "\u13db\u13ad": 1995,
    "\u2581\u13ac\u13aa\u13e9\u13db\u13d7": 1996,
    "\u13c5\u13ad": 1997,
    "\u2581\u13bf": 1998,
    "\u13be\u13db\u13a6": 1999,
    "\u13b8\u13c9\u13d9\u13d7": 2000,
    "\u2581\u13ea": 2001,
    "\u13e2\u13d9\u13d7": 2002,
    "\u2581\u13c4\u13cd\u13db\u13be": 2003,
    "\u2581\u13af\u13a6\u13d4\u13ad": 2004,
    "\u2581---": 2005,
    "\u2581\u13a4\u13c2\u13e3\u13d4": 2006,
    "\u13ec": 2007,
    "\u13a6\u13d4\u13b2\u13be": 2008,
    "\u2581\u13d2": 2009,
    "\u13a7\u13d4": 2010,
    "\u2581\u13a4\u13b4\u13eb\u13cd\u13d4\u13c5": 2011,
    "\u2581\u13c5\u13c3": 2012,
    "\u2581\u13a0\u13c2\u13a6\u13d4\u13bf\u13a2": 2013,
    "\u2581\u13d3\u13f2": 2014,
    "\u2581\u13a0\u13d3\u13c5\u13d9\u13cd\u13a9\u13c2": 2015,
    "\u13cd\u13d7\u13cd\u13a8\u13a2": 2016,
    "\u2581\u13d3\u13f0": 2017,
    "\u13ef\u13c5\u13b2": 2018,
    "\u2581\u13a0\u13c7": 2019,
    "t": 2020,
    "\u2581\u13e5\u13a8\u13f3\u13a2": 2021,
    "\u2581\u13da\u13c5": 2022,
    "\u2581\u13a0\u13f2\u13b1": 2023,
    "\u13a6\u13a5": 2024,
    "\u2581\u13d9\u13f3": 2025,
    "\u2581\u13a4\u13ec\u13b4": 2026,
    "\u13d3\u13ef": 2027,
    "\u2581\u13a3\u13a9\u13c2": 2028,
    "\u2581\u13a0\u13f2": 2029,
    "\u2581\u13a4\u13ef": 2030,
    "\u2581\u13f3\u13c2": 2031,
    "\u2581\u13a2\u13e8\u13ef": 2032,
    "\u13d7\u13a6": 2033,
    "\u2581\u13a4\u13b6\u13d2": 2034,
    "\u2581\u13c2\u13d9\u13d3\u13f3": 2035,
    "\u13ac\u13eb\u13f3\u13af": 2036,
    "\u2581\u13d9\u13d3\u13a6": 2037,
    "\u13df\u13cd\u13d7": 2038,
    "\u2581\u13d9\u13a6": 2039,
    "\u13a9\u13b5": 2040,
    "\u2581\u13a0\u13c6\u13b5": 2041,
    "\u13c5\u13d3": 2042,
    "\u2581Cr": 2043,
    "\u13a9\u13d3": 2044,
    "\u2581\u13e5\u13ef": 2045,
    "\u2581\u13a0\u13c1\u13d9\u13ae": 2046,
    "\u2581\u13a4\u13c2\u13b5": 2047,
    "\u2581\u13a0\u13e8\u13cd\u13d9\u13d7": 2048,
    "\u2581\u13ac\u13e9\u13db\u13db\u13c1": 2049,
    "\u2581\u13e7\u13a6\u13d2\u13cd\u13d7": 2050,
    "\u2581\u13eb\u13ac": 2051,
    "\u13af\u13cd\u13d9\u13d7": 2052,
    "\u2581\u13a0\u13c2\u13a8\u13be\u13c2": 2053,
    "\u2581\u13ae\u13a6": 2054,
    "\u2581\u13ce\u13b3\u13f1": 2055,
    "\u2581\u13a4\u13e9\u13a8\u13eb": 2056,
    "\u13a6\u13b6\u13c1\u13db": 2057,
    "\u2581\u13a0\u13d2\u13a8": 2058,
    "\u13b3\u13cf": 2059,
    "\u2581\u13ce\u13bb": 2060,
    "\u2581\u13a0\u13c2\u13c2": 2061,
    "\u2581\u13d5\u13a8\u13f4": 2062,
    "\u2581\u13a6\u13be": 2063,
    "\u2581\u13e7\u13ea": 2064,
    "\u13c4\u13ec\u13cd\u13d7": 2065,
    "\u2581\u13da\u13be\u13d3\u13e1\u13e9\u13d7\u13d2": 2066,
    "\u2581\u13e5\u13c5\u13cf\u13d3\u13cd\u13d7": 2067,
    "\u13aa\u13e3\u13b4\u13db": 2068,
    "\u2581\u13a4\u13d9\u13d3\u13c3": 2069,
    "\u2581\u13d3\u13c5\u13c5": 2070,
    "\u2581\u13a7\u13c3": 2071,
    "an": 2072,
    "\u2581\u13a0\u13a9\u13be\u13eb": 2073,
    "\u2581\u13a2\u13f3\u13d3\u13c5\u13af\u13d3": 2074,
    "\u2581\u13c0\u13be": 2075,
    "\u2581\u13cd\u13cf\u13c9\u13ef": 2076,
    "\u2581\u13d1\u13d3\u13b4\u13a9": 2077,
    "\u2581\u13a4\u13d9\u13b4\u13b0\u13ce": 2078,
    "\u2581\u13d7\u13a6\u13d9\u13cc\u13d7\u13cd\u13d7\u13f1": 2079,
    "\u2581\u13d7\u13aa\u13d2\u13d4\u13c5": 2080,
    "\u2581\u13c5\u13ec\u13d8": 2081,
    "\u2581\u13c4\u13cd\u13d7\u13d3\u13c5": 2082,
    "\u2581\u13cc\u13d9\u13c2": 2083,
    "\u2581\u13e7\u13be\u13e6\u13f4\u13cd\u13d7": 2084,
    "\u2581\u13d7\u13c2\u13a8\u13eb": 2085,
    "\u2581\u13a4\u13a7\u13f2\u13db\u13af": 2086,
    "\u2581\u13d7\u13a6\u13d8\u13cd\u13d9\u13d7": 2087,
    "\u2581\u13a6\u13c3\u13cd\u13a9\u13cd\u13a9": 2088,
    "\u2581\u13a6\u13b6\u13c4\u13ae\u13db": 2089,
    "\u13a0\u13ce\u13c3": 2090,
    "\u2581\u13a8\u13e3\u13cd\u13a6\u13a9": 2091,
    "\u2581\u13da\u13d1\u13ac": 2092,
    "\u2581\u13ac\u13a9\u13cd\u13a6\u13a9": 2093,
    "\u2581\u13cd\u13d7\u13eb": 2094,
    "\u2581\u13a6\u13da\u13a2\u13d7\u13e2": 2095,
    "\u2581\u13e9\u13db\u13ac\u13a6": 2096,
    "\u2581\u13c1\u13c2\u13cf": 2097,
    "\u2581\u13a0\u13c2\u13a6\u13d4\u13be\u13a2": 2098,
    "\u2581\u13d7\u13cd\u13c6\u13be\u13b3\u13d7\u13cd\u13d7": 2099,
    "\u2581\u13d7\u13b3\u13d1\u13b6": 2100,
    "\u2581\u13a2\u13e5\u13ef\u13eb\u13cd\u13a8\u13cd\u13d7": 2101,
    "\u2581\u13d7\u13c2\u13b0\u13b5": 2102,
    "\u2581\u13c7\u13cd\u13d3": 2103,
    "\u2581\u13a4\u13d5\u13b6\u13b0\u13ce": 2104,
    "\u2581\u13da\u13a6\u13d2\u13cd\u13db": 2105,
    "\u2581\u13a0\u13d3\u13c5\u13d6\u13cd\u13a8": 2106,
    "\u2581\u13a0\u13c2\u13a6\u13d4\u13af": 2107,
    "\u2581\u13a4\u13ea\u13b7\u13c5\u13a9": 2108,
    "\u2581\u13a3\u13ad\u13c2": 2109,
    "\u2581\u13a0\u13c2\u13a9\u13cf\u13d9\u13af": 2110,
    "\u2581\u13c4\u13d5\u13d8\u13f4\u13ae\u13a2": 2111,
    "\u2581\u13d7\u13e5\u13b6\u13cd\u13d4\u13c5": 2112,
    "\u2581\u13a3\u13e5\u13a6\u13d4\u13ad": 2113,
    "\u2581\u13a2\u13e5\u13c5\u13df": 2114,
    "\u2581\u13a4\u13db\u13d0\u13c5\u13af": 2115,
    "\u2581\u13e5\u13ae\u13be": 2116,
    "\u2581\u13d5\u13a6\u13b6\u13d7\u13af": 2117,
    "\u2581\u13a4\u13ea\u13d9\u13b8": 2118,
    "\u2581\u13a4\u13c1\u13b7\u13c1\u13a2": 2119,
    "\u2581\u13a0\u13cd\u13a6\u13f0\u13ac\u13cd\u13d4": 2120,
    "\u2581\u13a2\u13e5\u13cd\u13a6\u13c5\u13e8\u13a2": 2121,
    "\u2581\u13aa\u13e2\u13c5\u13af": 2122,
    "\u13be\u13a5": 2123,
    "\u2581\u13ac\u13e9\u13b7\u13e4\u13b8\u13a9": 2124,
    "\u2581\u13a4\u13d3\u13c5\u13d2\u13a9": 2125,
    "\u2581\u13a1\u13b3\u13d7\u13e3": 2126,
    "\u2581\u13a4\u13d3\u13d4\u13c5\u13af": 2127,
    "\u2581\u13eb\u13b6\u13af": 2128,
    "\u2581\u13a4\u13ea\u13c5\u13cd\u13d7": 2129,
    "\u2581\u13ae\u13d7": 2130,
    "\u2581\u13a4\u13f2\u13b1\u13af\u13cd\u13d7": 2131,
    "\u2581\u13a4\u13c2\u13cd\u13a6\u13c5\u13e8\u13af": 2132,
    "\u2581\u13aa\u13e2\u13d2\u13a2": 2133,
    "\u2581\u13d3\u13a7\u13c5\u13a2": 2134,
    "\u2581\u13a8\u13be\u13c2\u13f1": 2135,
    "\u2581\u13e5\u13aa\u13a8": 2136,
    "\u2581\u13da\u13be\u13d3\u13e1\u13e9\u13d7\u13d2\u13a2": 2137,
    "\u2581\u13a4\u13a8\u13f3\u13af\u13f3": 2138,
    "\u2581\u13a4\u13b5\u13cd\u13d5\u13b8\u13d9\u13d7": 2139,
    "\u2581\u13aa\u13e3\u13b4\u13db": 2140,
    "\u13d3\u13c5\u13db\u13a2": 2141,
    "\u2581\u13d3\u13f3\u13b6\u13d2": 2142,
    "\u2581\u13da\u13c2\u13b8\u13eb\u13cd\u13d3\u13c1\u13b2\u13a2": 2143,
    "\u2581\u13c2\u13a6\u13ea\u13cd\u13ac\u13a9": 2144,
    "\u2581\u13a3\u13c2\u13f1": 2145,
    "\u2581\u13a0\u13be\u13b5": 2146,
    "\u2581\u13a0\u13e5\u13b8\u13a8\u13b6\u13af": 2147,
    "\u2581\u13f1\u13a6\u13a9": 2148,
    "\u2581\u13a1\u13b5\u13cd\u13a8": 2149,
    "\u2581\u13a4\u13bf\u13e5": 2150,
    "\u2581\u13a0\u13d4\u13b4\u13d2\u13a2": 2151,
    "\u2581\u13d3\u13ac\u13be": 2152,
    "\u2581\u13c2\u13a6\u13da": 2153,
    "\u2581\u13f1\u13b0": 2154,
    "\u2581C": 2155,
    "\u2581\u13e1\u13ac\u13a2": 2156,
    "\u13c3\u13ae\u13ad": 2157,
    "\u13cd\u13aa\u13c3": 2158,
    "\u2581\u13a4\u13aa\u13ae\u13a2": 2159,
    "\u2581\u13a4\u13d3\u13c5\u13d6\u13b8": 2160,
    "\u2581\u13e4\u13e3": 2161,
    "\u2581\u13b4\u13e5\u13b5\u13c3": 2162,
    "\u2581\u13be\u13a5\u13c3": 2163,
    "\u2581\u13a2\u13a8": 2164,
    "\u2581\u13a4\u13f2\u13b1\u13d2\u13a2": 2165,
    "\u13a9\u13cf": 2166,
    "\u13be\u13a9": 2167,
    "\u13da\u13a9": 2168,
    "\u2581\u13e5\u13ac": 2169,
    "\u13d7\u13cd": 2170,
    "\u13c1\u13e4\u13b8": 2171,
    "\u2581\u13c5\u13d7": 2172,
    "\u2581\u13d7\u13e4\u13b2": 2173,
    "\u2581\u13ad\u13b5": 2174,
    "\u13b7\u13e4\u13d7\u13f1": 2175,
    "\u13ad\u13c2": 2176,
    "\u13aa\u13b3": 2177,
    "\u2581\u13a0\u13cd\u13da\u13b2": 2178,
    "\u13f4\u13cd\u13d7": 2179,
    "\u13a5\u13a9": 2180,
    "\u2581\u13a4\u13cd\u13d8\u13f0\u13ac": 2181,
    "\u13c5\u13c1": 2182,
    ";)": 2183,
    "\u13d3\u13b4\u13c5\u13db": 2184,
    "\u13b4\u13c2": 2185,
    "\u2581\u13d7\u13d3\u13c1\u13b8": 2186,
    "\u13cd\u13db\u13a9": 2187,
    "\u13ce\u13b8\u13a9": 2188,
    "\u2581\u13a3\u13a6\u13e4\u13b5": 2189,
    "\u2581\u13a4\u13e4": 2190,
    "\u13e5\u13c1\u13b8": 2191,
    "\u2581\u13a4\u13c1\u13b3": 2192,
    "\u2581\u13a4\u13d3\u13c5\u13d6": 2193,
    "\u2581\u13a4\u13ab\u13f4\u13d7": 2194,
    "\u13c1\u13cd\u13a8": 2195,
    "\u2581\u13a1\u13d3": 2196,
    "\u13ce\u13b8\u13af": 2197,
    "\u2581\u13a4\u13b5\u13c2\u13ac\u13ac": 2198,
    "\u13ac\u13d3": 2199,
    "\u13cc\u13c2": 2200,
    "\u13ab\u13f4\u13d9\u13d7": 2201,
    "\u2581\u13e4\u13a9": 2202,
    "\u2581\u13e4\u13c6": 2203,
    "\u2581\u13a3\u13cd": 2204,
    "\u13f4\u13d3": 2205,
    "\u2581\u13c4\u13ac\u13eb\u13f3\u13d2\u13c3": 2206,
    "\u13cd\u13d5\u13b8": 2207,
    "\u13a6\u13da": 2208,
    "\u2581\u13e5\u13a8": 2209,
    "\u2581\u13a0\u13cd\u13aa\u13af\u13c1": 2210,
    "\u13c2\u13d2": 2211,
    "\u2581\u13a0\u13f0\u13b2": 2212,
    "\u13d3\u13b4\u13c5\u13af": 2213,
    "\u2581\u13ed\u13c2\u13b7\u13e8": 2214,
    "\u2581\u13a4\u13be\u13db\u13c1\u13a2": 2215,
    "\u2581\u13c2\u13aa\u13af\u13b8\u13c3": 2216,
    "\u2581\u13a4\u13c2\u13c1\u13e8": 2217,
    "\u2581\u13da\u13ea": 2218,
    "\u2581\u13a2\u13d3\u13b5": 2219,
    "\u13be\u13c2": 2220,
    "\u2581\u13cf\u13bb\u13ef\u13c2": 2221,
    "\u2581\u13d7\u13ef\u13d6\u13be": 2222,
    "\u2581\u13da\u13b8\u13eb\u13cd\u13d3\u13c1\u13b2": 2223,
    "\u2581\u13c8\u13b3": 2224,
    "\u2581\u13a6\u13b5\u13c9\u13a9\u13c1": 2225,
    "\u2581\u13a7\u13c3\u13ae\u13cd\u13ac": 2226,
    "\u2581\u13c4\u13be\u13db\u13c1\u13b8": 2227,
    "\u2581\u13a4\u13b5\u13c1\u13e8": 2228,
    "\u2581\u13a4\u13c2\u13e3\u13db\u13a9": 2229,
    "\u2581\u13a6\u13b5\u13c9\u13a9\u13c3": 2230,
    "\u13a1\u13d7": 2231,
    "\u2581\u13aa\u13f1\u13c1": 2232,
    "\u2581\u13eb\u13da\u13ef\u13c5\u13ae": 2233,
    "\u2581\u13a4\u13dc\u13c5\u13db": 2234,
    "\u2581\u13d7\u13c2\u13f0\u13b8": 2235,
    "\u2581\u13d7\u13a8\u13e5": 2236,
    "\u2581\u13da\u13b8\u13cc\u13db": 2237,
    "\u2581\u13a1\u13b3\u13c2\u13ac": 2238,
    "\u2581\u13a0\u13c1\u13b5\u13cd\u13a8": 2239,
    "\u2581\u13a4\u13c2\u13a9\u13ce": 2240,
    "\u13b4\u13d7": 2241,
    "\u2581\u13a4\u13be\u13da\u13b5\u13cd\u13ac": 2242,
    "\u2581\u13c2\u13da\u13e9\u13c1\u13b8": 2243,
    "\u2581\u13a0\u13c2\u13c1\u13ac": 2244,
    "\u13c5\u13cd\u13d7\u13f1": 2245,
    "\u2581\u13a4\u13ea\u13c5\u13d2": 2246,
    "\u2581\u13a4\u13be\u13b3\u13c5\u13af": 2247,
    "\u2581\u13a2\u13ef\u13c6\u13db\u13c1\u13d7": 2248,
    "\u2581\u13f1\u13e5\u13a6\u13d4": 2249,
    "\u2581\u13a0\u13d7\u13c6\u13b8\u13d5\u13f2": 2250,
    "\u2581\u13a4\u13c2\u13e3\u13db": 2251,
    "\u2581\u13a0\u13f4\u13eb\u13ef": 2252,
    "\u2581\u13c1\u13b3\u13a9": 2253,
    "\u2581\u13a0\u13c7\u13b5\u13d2": 2254,
    "\u2581\u13a0\u13c2\u13e9\u13e5\u13c2": 2255,
    "\u2581\u13a6\u13b3\u13b1\u13c2": 2256,
    "\u2581\u13e7\u13d3\u13bf\u13e9\u13db": 2257,
    "\u2581\u13a2\u13ac\u13e9\u13db\u13c1\u13d7": 2258,
    "\u2581\u13be\u13aa\u13d4\u13c5\u13be": 2259,
    "\u2581\u13a0\u13db\u13f3\u13a8\u13d7": 2260,
    "\u2581\u13cf\u13cc\u13b5\u13f1": 2261,
    "\u2581\u13c5\u13d3\u13a6\u13b5\u13cd\u13d9\u13d3": 2262,
    "\u2581\u13d7\u13a8\u13e5\u13a4\u13cd\u13d5\u13ce\u13b8\u13af": 2263,
    "\u2581\u13da\u13c3\u13e2\u13d4\u13c5\u13a9": 2264,
    "\u2581\u13c4\u13d3\u13b5\u13d3\u13cd\u13db\u13be": 2265,
    "\u2581\u13cd\u13aa\u13ef": 2266,
    "\u2581\u13a2\u13e7\u13e9\u13c1\u13d7\u13f1": 2267,
    "\u2581\u13c2\u13a6\u13b5\u13cd\u13d4\u13c2\u13d9\u13b2": 2268,
    "\u2581\u13e3\u13d4\u13a6": 2269,
    "\u2581\u13d7\u13d3\u13ec\u13cd\u13a9": 2270,
    "\u2581\u13a4\u13ec\u13d1\u13b6\u13e8\u13af": 2271,
    "\u2581\u13a5\u13a9\u13c5\u13cf\u13db": 2272,
    "\u2581\u13e7\u13c6\u13b6\u13ac": 2273,
    "\u2581\u13be\u13b5\u13cd\u13c6\u13d7\u13cd\u13ac\u13be": 2274,
    "\u2581\u13a2\u13f3\u13d5\u13d8\u13f4\u13d3": 2275,
    "\u2581\u13a0\u13e5\u13a4\u13cd\u13d5\u13ce\u13b8\u13af": 2276,
    "\u2581\u13a2\u13e5\u13f0\u13b8\u13ce\u13cd\u13d7": 2277,
    "\u2581\u13c2\u13ac\u13ea\u13ce\u13ad": 2278,
    "\u2581\u13a2\u13e7\u13b3\u13d7\u13e2": 2279,
    "\u2581\u13c2\u13da\u13be\u13d3\u13ea\u13ce\u13b4\u13a2": 2280,
    "\u2581\u13a2\u13e5\u13a6\u13d4\u13ae\u13cd\u13d7": 2281,
    "\u2581\u13c2\u13e3\u13db\u13c1\u13ae\u13cd\u13d7": 2282,
    "\u2581\u13a6\u13c2\u13d3\u13db": 2283,
    "\u2581\u13c5\u13d3\u13a6\u13b5\u13cd\u13d9\u13d4\u13c2": 2284,
    "\u2581\u13a3\u13c2\u13d7\u13e2": 2285,
    "\u2581\u13a2\u13e3\u13c5\u13d6\u13cd\u13d7": 2286,
    "\u2581\u13d7\u13a6\u13aa\u13d7": 2287,
    "\u2581\u13a2\u13e5\u13a6\u13d9\u13a5\u13af\u13cd\u13d7\u13f1": 2288,
    "\u2581\u13aa\u13af\u13f3\u13b2\u13cd\u13a9": 2289,
    "\u2581\u13a0\u13cc\u13c5\u13d9\u13d7": 2290,
    "\u2581\u13a0\u13c2\u13c3\u13cd\u13a9\u13cd\u13a9": 2291,
    "\u2581\u13e7\u13be\u13b5\u13c2\u13a9\u13db": 2292,
    "\u2581\u13a2\u13ef\u13cd\u13d8": 2293,
    "\u2581\u13a4\u13d9\u13b4\u13b0\u13af\u13cd\u13d7\u13f1": 2294,
    "\u2581\u13d7\u13d1\u13e2\u13db": 2295,
    "\u2581\u13c2\u13a6\u13b5\u13cd\u13d4\u13c5\u13ad": 2296,
    "\u2581\u13af\u13cd\u13a6\u13ef": 2297,
    "\u2581\u13a0\u13d3\u13f0\u13cd\u13a9": 2298,
    "\u2581\u13c5\u13e7\u13b5\u13cd\u13d9\u13d4\u13c5": 2299,
    "\u2581\u13a2\u13d5\u13af": 2300,
    "\u2581\u13d7\u13c2\u13ec\u13c2\u13cd\u13a9": 2301,
    "\u2581\u13a2\u13f3\u13b5\u13cd\u13d4\u13c5\u13af": 2302,
    "\u2581\u13cd\u13a9\u13d9\u13b5\u13a9": 2303,
    "\u2581\u13a4\u13e3\u13d6": 2304,
    "\u2581\u13a2\u13ef\u13c6\u13db\u13c1\u13d7\u13f1": 2305,
    "\u2581\u13da\u13e0\u13f1\u13b4\u13a2": 2306,
    "\u2581\u13a0\u13a6\u13ef\u13b7\u13d7": 2307,
    "\u2581\u13a4\u13c1\u13d3\u13cd\u13d7": 2308,
    "\u2581\u13e7\u13c2\u13b3\u13eb\u13a2\u13cd\u13d7\u13f1": 2309,
    "\u2581\u13c4\u13c2\u13ea\u13d2": 2310,
    "\u2581\u13a1\u13c2\u13d7": 2311,
    "\u2581\u13e7\u13cd\u13aa\u13b5": 2312,
    "\u2581\u13a6\u13be\u13cd\u13d3": 2313,
    "\u2581\u13b9\u13d7": 2314,
    "\u2581\u13c2\u13e8\u13c1\u13b8": 2315,
    "\u2581\u13a4\u13b5\u13ec\u13e8": 2316,
    "\u2581\u13c2\u13da\u13e9\u13c1\u13b8\u13a9": 2317,
    "\u2581\u13a0\u13e8\u13ef": 2318,
    "\u2581\u13a0\u13b5\u13e5\u13d9\u13b2\u13cd\u13a9": 2319,
    "\u2581\u13a4\u13c2\u13a9\u13d2\u13a9": 2320,
    "\u2581\u13e7\u13c2\u13be\u13eb\u13f1": 2321,
    "\u2581\u13d8\u13b5": 2322,
    "\u2581\u13a8\u13a5\u13a2": 2323,
    "\u2581\u13a4\u13d5\u13b5\u13d2": 2324,
    "\u2581\u13d3\u13d3\u13cf": 2325,
    "\u13c1\u13c3": 2326,
    "\u2581\u13a4\u13e0\u13be\u13cd\u13d7": 2327,
    "\u2581\u13a4\u13df\u13c2\u13a9\u13d3": 2328,
    "\u2581\u13a2\u13d5\u13be": 2329,
    "\u2581\u13a8\u13c2\u13d7": 2330,
    "\u2581\u13e5\u13c1\u13ac": 2331,
    "\u2581\u13ed\u13c2\u13b7\u13e4\u13a2": 2332,
    "\u2581\u13e7\u13b5": 2333,
    "\u2581\u13a4\u13cd\u13c6\u13db": 2334,
    "\u2581\u13e7\u13d3\u13c5\u13db\u13a2": 2335,
    "\u2581\u13c2\u13eb": 2336,
    "\u13a9\u13b3": 2337,
    "\u2581\u13a6\u13db\u13ac\u13a2": 2338,
    "\u2581\u13e6\u13a2\u13c3": 2339,
    "\u2581\u13ad\u13d3\u13c5\u13d6\u13cd\u13ac": 2340,
    "\u2581\u13a1\u13d8\u13f4": 2341,
    "\u2581\u13a4\u13aa\u13b2\u13af": 2342,
    "\u2581\u13c4\u13db\u13c1\u13b8\u13a2": 2343,
    "\u2581\u13e3\u13d3\u13c5\u13d9": 2344,
    "\u13aa\u13b5\u13f0\u13d7": 2345,
    "\u2581\u13e5\u13e5": 2346,
    "\u13c2\u13a8": 2347,
    "\u2581\u13e4\u13ae": 2348,
    "\u13cf\u13c6": 2349,
    "\u2581\u13a0\u13c2\u13c1": 2350,
    "\u2581\u13a5\u13dd\u13cd\u13a9\u13c2\u13c3\u13c5": 2351,
    "\u13a0\u13ef\u13d7": 2352,
    "\u2581\u13a0\u13c6\u13b5\u13cf": 2353,
    "\u13c4\u13aa": 2354,
    "\u2581\u13aa\u13af\u13f3\u13d7\u13cd\u13a9": 2355,
    "\u13a8\u13f3\u13d7": 2356,
    "\u2581\u13a1\u13b3": 2357,
    "\u2581\u13a4\u13db\u13c5\u13a9": 2358,
    "\u2581\u13e5\u13d3\u13c2": 2359,
    "\u13e5\u13c5\u13cf\u13db": 2360,
    "\u2581\u13d7\u13aa": 2361,
    "\u2581\u13ed\u13c2\u13b7\u13e4": 2362,
    "\u2581\u13d7\u13ac\u13d9\u13d7": 2363,
    "\u2581\u13a0\u13a9\u13ad": 2364,
    "\u13c1\u13cd\u13d7": 2365,
    "\u2581\u13a0\u13d9": 2366,
    "\u2581\u13e7\u13ea\u13d8": 2367,
    "\u2581\u13a8\u13d9\u13b2": 2368,
    "\u13cd\u13d3\u13f4": 2369,
    "\u13c2\u13b3": 2370,
    "\u13b1": 2371,
    "\u2581\u13a3\u13e3": 2372,
    "\u2581\u13a6\u13db": 2373,
    "\u13c2\u13af": 2374,
    "\u2581\u13a4\u13ea\u13c5": 2375,
    "\u13a6\u13be": 2376,
    "\u13be\u13d5": 2377,
    "\u2581\u13e5\u13d9": 2378,
    "\u13b5\u13d3\u13cd\u13d7": 2379,
    "\u2581\u13c2\u13d5": 2380,
    "\u2581\u13ee": 2381,
    "\u2581\u13a4\u13be\u13b5\u13cd": 2382,
    "\u2581\u13c2\u13e3\u13db\u13c5\u13a2": 2383,
    "\u13ef\u13a5\u13a2": 2384,
    "\u13be\u13c9": 2385,
    "\u2581\u13c2\u13a6\u13d7\u13f3\u13f0\u13c3": 2386,
    "\u2581\u13a4\u13c2\u13b2": 2387,
    "\u13e9\u13d7": 2388,
    "\u13cd\u13d5\u13b5\u13cd\u13a9": 2389,
    "\u13ce\u13b4": 2390,
    "\u2581\u13e5\u13aa\u13c3": 2391,
    "\u13d3\u13b8": 2392,
    "\u2581\u13d7\u13ac\u13e9\u13c2": 2393,
    "\u2581\u13a4\u13e9\u13c5": 2394,
    "\u13c5\u13ce\u13a2": 2395,
    "\u13ea\u13ad": 2396,
    "\u2581\u13a4\u13c2\u13f4": 2397,
    "\u2581\u13f1\u13da\u13c2": 2398,
    "\u2581\u13b9": 2399,
    "\u13c2\u13f4\u13d7": 2400,
    "\u13a4\u13d9\u13af\u13f3": 2401,
    "\u2581\u13a4\u13d3\u13c2\u13b5\u13a8": 2402,
    "\u2581\u13a0\u13a6\u13d4\u13bf\u13a2": 2403,
    "\u13c5\u13cf\u13d9\u13af": 2404,
    "\u13ce\u13af": 2405,
    "\u2581\u13a0\u13c9\u13f0\u13c2": 2406,
    "\u2581\u13c4\u13ea": 2407,
    "\u13a8\u13b3\u13cd\u13d7": 2408,
    "\u2581\u13a4\u13be\u13b4\u13c5\u13ae": 2409,
    "\u13b5\u13cd\u13d3": 2410,
    "\u2581\u13a4\u13c2\u13c3\u13ae\u13b8": 2411,
    "\u2581\u13be\u13c6\u13db\u13c1\u13b8": 2412,
    "\u13f0\u13b8\u13d7": 2413,
    "\u2581\u13a0\u13a9\u13aa\u13b2\u13a9": 2414,
    "\u2581\u13da\u13aa\u13b2": 2415,
    "\u2581\u13da\u13a7\u13be\u13c1": 2416,
    "\u2581\u13eb\u13a6\u13c5\u13c5": 2417,
    "\u2581\u13d5\u13a6\u13c5\u13c5": 2418,
    "\u2581\u13a5\u13d3\u13b8": 2419,
    "\u2581\u13a4\u13c3\u13c1\u13b4": 2420,
    "\u13a2\u13f3\u13be\u13cd\u13d7": 2421,
    "\u2581\u13e3\u13a7\u13db": 2422,
    "\u2581\u13a6\u13f0\u13cc\u13db": 2423,
    "\u2581\u13a0\u13c2\u13e8\u13ef": 2424,
    "\u2581\u13c2\u13e3\u13db\u13c5": 2425,
    "\u2581\u13a2\u13e3\u13d3": 2426,
    "\u2581\u13a4\u13f0\u13b8\u13c1": 2427,
    "\u2581\u13a4\u13bf\u13a5": 2428,
    "\u2581\u13a8\u13a6\u13d1\u13f0\u13db": 2429,
    "\u2581\u13ef\u13c6\u13da\u13b5": 2430,
    "\u2581\u13a0\u13c1": 2431,
    "\u2581\u13a2\u13ac\u13e9\u13c1\u13d7": 2432,
    "\u2581\u13a0\u13e5\u13a2\u13cd\u13d7": 2433,
    "\u2581\u13d7\u13c4\u13aa\u13d7\u13cd\u13a9": 2434,
    "\u13d9\u13e2\u13c5": 2435,
    "\u13ef\u13a9": 2436,
    "\u2581\u13a0\u13b9\u13f3\u13b8\u13d3": 2437,
    "\u2581\u13a1\u13a9\u13b5\u13c8": 2438,
    "\u2581\u13a2\u13d7\u13cd\u13d3\u13d3\u13b3": 2439,
    "\u2581\u13be\u13e5\u13be\u13dd\u13a5\u13be": 2440,
    "\u2581\u13c2\u13d3\u13aa\u13d4\u13c5\u13be": 2441,
    "\u2581\u13da\u13a7\u13d4\u13cd\u13d4\u13c1\u13a2": 2442,
    "\u2581\u13e3\u13a6\u13df\u13b6\u13cd\u13d4\u13c5\u13af": 2443,
    "\u2581Chap": 2444,
    "\u2581\u13a2\u13f3\u13db\u13c1\u13b8\u13af": 2445,
    "\u2581\u13a0\u13c2\u13c8\u13b5\u13cd\u13d7": 2446,
    "\u2581\u13a0\u13f0\u13b3\u13cd\u13d8": 2447,
    "\u2581\u13a2\u13ef\u13ac\u13c1\u13b8\u13af": 2448,
    "\u2581\u13cc\u13f1\u13b3": 2449,
    "\u2581\u13a2\u13c6\u13bb": 2450,
    "\u2581\u13c5\u13d3\u13a6\u13e5\u13f4\u13c1\u13b5": 2451,
    "\u2581\u13d7\u13ac\u13e9\u13b8\u13cc\u13db": 2452,
    "\u2581\u13a4\u13f2\u13cd\u13db\u13c9": 2453,
    "\u2581\u13a6\u13ab\u13cd\u13db\u13d7": 2454,
    "\u2581\u13a0\u13d7\u13d2\u13cd\u13d7": 2455,
    "\u2581\u13d7\u13a6\u13c5\u13cd\u13a8\u13c2": 2456,
    "\u13de\u13cd\u13d7": 2457,
    "\u2581\u13cf\u13b5\u13f1": 2458,
    "\u2581\u13d7\u13e5\u13a6\u13d9\u13b5": 2459,
    "\u2581\u13a7\u13c1\u13cd\u13aa": 2460,
    "\u2581\u13e4\u13c8\u13d7": 2461,
    "\u2581\u13a4\u13ea\u13bf\u13a2\u13f3": 2462,
    "\u2581\u13ac\u13b5\u13cd\u13c6\u13d7\u13cd\u13a9": 2463,
    "\u2581\u13f1\u13e5\u13cd\u13a6\u13a2\u13ae\u13cd\u13d7": 2464,
    "\u2581\u13a2\u13f3\u13ea\u13db": 2465,
    "\u2581\u13a2\u13f3\u13ea\u13e8\u13af": 2466,
    "\u2581\u13d7\u13a8\u13e5\u13be\u13cc\u13a2": 2467,
    "\u2581\u13e5\u13c2\u13e3\u13db\u13c5": 2468,
    "\u2581\u13a2\u13e3\u13e0\u13be\u13cd\u13d7": 2469,
    "\u2581\u13d3\u13ac\u13d4\u13c2": 2470,
    "\u2581\u13a2\u13f3\u13e9\u13c1\u13af": 2471,
    "\u13b8\u13d7": 2472,
    "\u2581\u13a0\u13d5\u13d2\u13b2\u13cd\u13a9": 2473,
    "\u2581\u13a6\u13d0\u13af": 2474,
    "\u2581\u13e6\u13af\u13cd\u13d9\u13d7": 2475,
    "\u2581\u13e7\u13be\u13d3\u13c5\u13d9": 2476,
    "\u2581\u13da\u13c3\u13a1\u13a2": 2477,
    "\u2581\u13ed\u13b7\u13e3": 2478,
    "\u2581\u13ac\u13c2\u13a8\u13d2\u13a2\u13f3": 2479,
    "\u2581\u13e3\u13e4\u13b5\u13aa\u13af": 2480,
    "\u2581\u13a4\u13a9\u13d3\u13df\u13c5\u13ef": 2481,
    "\u2581\u13a4\u13b3\u13a8\u13ef\u13db\u13e4\u13a2": 2482,
    "\u2581\u13a4\u13b5\u13f0\u13a2\u13b6\u13af\u13cd\u13d7": 2483,
    "\u2581\u13a4\u13e3\u13d4": 2484,
    "\u2581\u13a4\u13b5\u13cd\u13a8\u13d3": 2485,
    "\u2581\u13f3\u13e9\u13c1\u13a6": 2486,
    "\u2581\u13e5\u13f2\u13ce\u13b8": 2487,
    "\u2581\u13a0\u13a9\u13ac\u13eb\u13f3\u13af": 2488,
    "\u13d7\u13a6\u13d8\u13ef": 2489,
    "\u13c1\u13e4\u13d7": 2490,
    "\u2581\u13a0\u13c3\u13cd\u13db": 2491,
    "\u2581\u13ac\u13e9\u13cd\u13d3\u13e9\u13db\u13d2\u13a9": 2492,
    "\u2581\u13d3\u13a8\u13cf": 2493,
    "\u2581\u13ed\u13b6\u13af\u13cd\u13d7\u13f1": 2494,
    "\u2581\u13a3\u13a9\u13d9\u13d3": 2495,
    "\u2581\u13c2\u13a6\u13c5\u13af\u13d2\u13a9": 2496,
    "\u2581\u13aa\u13ea\u13b3\u13c5\u13af": 2497,
    "\u2581\u13a6\u13c5\u13af\u13d3": 2498,
    "\u2581\u13a4\u13c2\u13c1\u13ab\u13e5\u13db": 2499,
    "\u2581\u13e5\u13c2\u13a6\u13ea\u13ad": 2500,
    "\u2581\u13a0\u13a6\u13d4\u13be\u13a2": 2501,
    "\u2581\u13a4\u13be\u13d7\u13cd\u13a6\u13b6\u13d7": 2502,
    "\u2581\u13b0\u13cd\u13db": 2503,
    "\u2581\u13e6\u13b3\u13c2": 2504,
    "\u2581\u13a0\u13e5\u13c3\u13ae\u13cd\u13ac\u13a2": 2505,
    "\u2581\u13a1\u13b3\u13d7\u13e2": 2506,
    "\u2581\u13a0\u13c2\u13c3\u13ae\u13cd\u13a9": 2507,
    "\u2581\u13a1\u13c9\u13d7\u13f1": 2508,
    "\u2581\u13a4\u13d3\u13c5\u13d6\u13b8\u13af": 2509,
    "\u2581\u13e5\u13e5\u13a6\u13d4\u13ad": 2510,
    "\u2581\u13e7\u13d3\u13d5\u13cd\u13d7\u13f1": 2511,
    "\u2581\u13ac\u13e9\u13b7\u13e4\u13b8": 2512,
    "\u2581\u13a4\u13ec\u13e2\u13c5\u13a9": 2513,
    "\u2581\u13a2\u13f3\u13cd\u13a9\u13c2\u13c3\u13c5": 2514,
    "\u2581\u13a4\u13d5\u13c1\u13b8\u13af": 2515,
    "\u2581\u13ef\u13a6\u13d4\u13ad": 2516,
    "\u2581\u13a0\u13b5\u13cd\u13aa\u13b8\u13d3\u13c1\u13d7": 2517,
    "\u13c2\u13a9\u13db": 2518,
    "\u2581\u13be\u13a8": 2519,
    "\u2581\u13a0\u13a2\u13d2\u13a2": 2520,
    "\u2581\u13d3\u13c2\u13c1\u13b8\u13a2": 2521,
    "\u2581\u13a4\u13c1\u13e2\u13d4\u13c5\u13af": 2522,
    "\u13a5\u13cd\u13ac": 2523,
    "\u2581\u13e6\u13b3": 2524,
    "\u2581\u13e7\u13c1\u13ac": 2525,
    "\u2581\u13a6\u13cd\u13a9\u13b6\u13a9": 2526,
    "\u2581\u13a0\u13da\u13d3\u13b4\u13cd\u13d9\u13d7": 2527,
    "\u13e4\u13b5\u13a6": 2528,
    "\u13aa\u13e9\u13db": 2529,
    "\u13c3\u13ae\u13d7": 2530,
    "\u2581\u13e4\u13d9\u13b2": 2531,
    "\u2581\u13a4\u13cd\u13a6\u13c5\u13e8\u13af": 2532,
    "\u2581\u13d5\u13e1\u13ac\u13a2": 2533,
    "\u2581\u13a0\u13c6\u13d3\u13c5\u13d9\u13a9": 2534,
    "\u2581\u13a4\u13be\u13db\u13a6\u13c5\u13af": 2535,
    "\u2581\u13a4\u13e2\u13a9": 2536,
    "\u2581\u13d7\u13e5\u13f0\u13b8": 2537,
    "\u2581\u13c2\u13da\u13cd\u13db": 2538,
    "\u2581\u13e7\u13c2\u13a6\u13f4\u13b5\u13a8": 2539,
    "\u13e5\u13aa\u13e9\u13db": 2540,
    "\u13aa\u13a9": 2541,
    "\u2581\u13a6\u13d9\u13ac\u13a9": 2542,
    "\u2581\u13e5\u13d9\u13ac": 2543,
    "\u2581\u13d9\u13a2\u13f3\u13cd\u13d7": 2544,
    "\u13d2\u13c5": 2545,
    "\u2581\u13a8\u13b3\u13cd\u13d7": 2546,
    "\u2581\u13a4\u13f0": 2547,
    "\u2581\u13a2\u13a6\u13db\u13af": 2548,
    "\u2581\u13ac\u13c2\u13f3": 2549,
    "\u2581\u13a4\u13c2\u13cd\u13a6\u13c5\u13e8\u13a2": 2550,
    "\u2581\u13a4\u13bf\u13a5\u13a2": 2551,
    "\u2581\u13b6\u13d7\u13c3": 2552,
    "\u2581\u13c5\u13d7\u13a6\u13b5\u13cd\u13d9\u13d7\u13cd\u13ac\u13a2": 2553,
    "\u13d3\u13e1\u13ac": 2554,
    "\u2581\u13a4\u13b7\u13e4\u13a2": 2555,
    "\u2581\u13e6\u13af\u13f3\u13d2": 2556,
    "id": 2557,
    "\u13a8\u13ef": 2558,
    "\u2581\u13a4\u13a9\u13e8\u13c5": 2559,
    "\u2581\u13dd\u13f0\u13c3": 2560,
    "\u13c1\u13ae\u13a2": 2561,
    "\u13cd\u13c6\u13c2\u13aa\u13d7": 2562,
    "\u13d3\u13cd\u13d7": 2563,
    "\u13db\u13d3": 2564,
    "\u13cd\u13a6\u13c5\u13e8": 2565,
    "\u13e3\u13db": 2566,
    "\u13cd\u13c6\u13d3": 2567,
    "\u2581\u13a0\u13c2\u13c5\u13a2": 2568,
    "\u2581\u13ad\u13e9": 2569,
    "\u2581\u13f1\u13d3\u13a9": 2570,
    "\u2581\u13a4\u13c5\u13cf\u13d9\u13af": 2571,
    "\u13a5\u13a6": 2572,
    "\u13a8\u13e3": 2573,
    "\u2581\u13db\u13c2": 2574,
    "\u2581\u13a4\u13cd\u13da\u13a2\u13d2": 2575,
    "\u2581\u13be\u13db\u13c1\u13b2": 2576,
    "\u2581\u13d5\u13a6\u13db": 2577,
    "\u13aa\u13c5": 2578,
    "\u2581\u13e5\u13c2\u13a6\u13ea": 2579,
    "\u13ea\u13b3": 2580,
    "\u2581\u13a3\u13d3\u13c5\u13db": 2581,
    "\u13f2\u13b1\u13d2": 2582,
    "\u2581\u13d5\u13ad": 2583,
    "\u2581\u13a2\u13cf\u13b5\u13f1": 2584,
    "\u13c2\u13cd\u13a9": 2585,
    "\u13cd\u13d4\u13c5\u13a2": 2586,
    "\u13b5\u13cd\u13aa\u13b8\u13d4\u13c5\u13af": 2587,
    "\u13a6\u13d4\u13af": 2588,
    "\u2581\u13c2\u13ac\u13e9": 2589,
    "\u13b6\u13cd\u13ac": 2590,
    "\u13f2\u13b1": 2591,
    "\u2581\u13eb\u13da\u13a7\u13bf": 2592,
    "\u13a5\u13cf": 2593,
    "\u2581\u13a0\u13c6\u13d3": 2594,
    "\u13d3\u13b4\u13d2": 2595,
    "\u2581\u13a4\u13f4": 2596,
    "\u2581\u13e6\u13a6": 2597,
    "\u13e9\u13db\u13b2": 2598,
    "\u13cf\u13d7\u13d2": 2599,
    "\u13cd\u13d4\u13c5\u13ad": 2600,
    "\u2581\u13f1\u13be": 2601,
    "\u2581\u13cc\u13da": 2602,
    "\u13b5\u13e6\u13db": 2603,
    "\u2581\u13c4\u13d3": 2604,
    "\u13d5\u13ad": 2605,
    "\u13b5\u13cd\u13aa": 2606,
    "\u13f2\u13cf": 2607,
    "\u13f4\u13a9": 2608,
    "\u2581\u13a0\u13c1\u13b5\u13cd\u13ac": 2609,
    "\u2581\u13a2\u13d2": 2610,
    "\u13a6\u13c3": 2611,
    "\u13d7\u13c3": 2612,
    "\u13f2\u13ad": 2613,
    "\u13c2\u13ac": 2614,
    "\u13f2\u13cd\u13d9\u13d7": 2615,
    "\u13cd\u13d9\u13a2": 2616,
    "\u2581\u13c4\u13c2": 2617,
    "\u2581\u13d5\u13c2": 2618,
    "\u13b5\u13ad": 2619,
    "\u13be\u13eb": 2620,
    "\u13f0\u13e5": 2621,
    "\u13cd\u13da\u13c5": 2622,
    "\u2581\u13ce\u13b3": 2623,
    "\u13a9\u13cd\u13a8\u13cd\u13d7": 2624,
    "\u13c4\u13a6": 2625,
    "\u13a6\u13d9\u13b5": 2626,
    "\u2581\u13a0\u13a2\u13d2": 2627,
    "\u13d3\u13be": 2628,
    "\u13c3\u13c1\u13b8\u13a9": 2629,
    "\u2581\u13af\u13a6\u13d8\u13cf": 2630,
    "\u2581\u13d7\u13c2\u13cd\u13aa\u13b5": 2631,
    "\u2581\u13da\u13be\u13b4\u13c1": 2632,
    "\u2581\u13a1\u13c8\u13b5": 2633,
    "\u2581\u13da\u13be\u13a7\u13db": 2634,
    "\u2581\u13ad\u13bb": 2635,
    "\u2581\u13b7\u13c8\u13c2": 2636,
    "\u13b5\u13cd\u13d4\u13c5": 2637,
    "\u2581\u13f1\u13c2\u13ac": 2638,
    "\u13a0\u13c6": 2639,
    "\u13be\u13c4\u13aa\u13eb\u13ce\u13b8": 2640,
    "\u2581\u13a0\u13d4\u13b4\u13a6\u13d2": 2641,
    "\u2581\u13c2\u13a6\u13ea": 2642,
    "\u2581\u13d5\u13a6\u13da\u13e9\u13d7\u13d2": 2643,
    "\u13aa\u13b1\u13cd\u13d7": 2644,
    "\u2581\u13e7\u13e9\u13ab\u13d4\u13c5\u13d2": 2645,
    "\u2581\u13ef\u13a6\u13d4\u13ae": 2646,
    "\u2581\u13a0\u13da\u13a2\u13cd\u13db": 2647,
    "\u13d7\u13cd\u13a6\u13b6\u13d7": 2648,
    "\u2581\u13da\u13ec\u13a1": 2649,
    "\u2581\u13f1\u13a8\u13d0": 2650,
    "\u2581\u13d9\u13d3\u13ac": 2651,
    "\u2581\u13a4\u13db\u13d0\u13c5": 2652,
    "\u2581\u13d3\u13c2\u13c1\u13b8": 2653,
    "\u2581\u13a3\u13b5\u13e9": 2654,
    "\u2581\u13a6\u13cc\u13c6\u13b8": 2655,
    "\u2581\u13d1\u13d3\u13b3\u13cd\u13aa\u13af": 2656,
    "\u2581\u13d7\u13ab\u13d3\u13b8\u13d7\u13f1": 2657,
    "\u2581\u13a1\u13b9\u13c2\u13d3": 2658,
    "\u2581\u13a6\u13cc\u13be\u13b5": 2659,
    "\u2581\u13e7\u13ef\u13d6\u13c3\u13af": 2660,
    "\u2581\u13a5\u13d8\u13a3\u13a9": 2661,
    "\u2581\u13e7\u13d9\u13d3\u13cb\u13d3": 2662,
    "\u2581\u13a2\u13cd\u13a6\u13b3\u13d7": 2663,
    "\u2581\u13a6\u13b6\u13af\u13cd\u13d7\u13f3\u13b6\u13d7": 2664,
    "\u2581\u13a2\u13e4\u13b3\u13d7\u13d9\u13ae\u13cd\u13d7": 2665,
    "\u2581\u13c1\u13b3\u13cd\u13aa\u13af": 2666,
    "\u2581\u13e7\u13d2\u13af\u13d3": 2667,
    "\u2581\u13d1\u13be\u13d3\u13b4\u13a9": 2668,
    "\u2581\u13d1\u13d5\u13d8\u13f4\u13db": 2669,
    "\u2581\u13ac\u13c9\u13ce\u13b0": 2670,
    "\u2581\u13a4\u13ef\u13d6\u13c3\u13af": 2671,
    "\u2581\u13bb\u13be\u13cc": 2672,
    "\u2581\u13d5\u13a8\u13e5\u13f0\u13b8\u13d4\u13c5\u13a9": 2673,
    "\u2581\u13f1\u13c5\u13a6\u13b5\u13cd\u13d3": 2674,
    "\u2581\u13a4\u13be\u13e2\u13c9\u13d7": 2675,
    "\u2581\u13a2\u13f3\u13e9\u13c2\u13cc\u13c5\u13af": 2676,
    "\u2581\u13c2\u13e3\u13ea\u13d2": 2677,
    "\u2581\u13a4\u13ea\u13bf\u13a2": 2678,
    "\u2581\u13a0\u13a6\u13d7\u13db": 2679,
    "\u2581\u13c4\u13b5\u13cd\u13d4\u13be": 2680,
    "\u2581\u13d7\u13cd\u13c6\u13a8\u13c2": 2681,
    "\u2581\u13a4\u13c2\u13c1\u13ab": 2682,
    "\u2581\u13c5\u13d3\u13f3\u13b5\u13cd\u13d9\u13d7\u13f1": 2683,
    "\u2581\u13d7\u13a7\u13be\u13e9\u13db\u13cd\u13d7": 2684,
    "\u2581\u13c5\u13d3\u13ac\u13c1\u13b5": 2685,
    "\u2581\u13a8\u13e3\u13cd\u13d3\u13e9\u13d7\u13d9\u13af": 2686,
    "\u2581\u13a1\u13b5\u13c6": 2687,
    "\u2581\u13a2\u13f2\u13cd\u13db": 2688,
    "\u2581\u13a2\u13a7\u13c1\u13e8\u13af": 2689,
    "\u2581\u13a0\u13a6\u13b5\u13cd\u13ac": 2690,
    "\u2581\u13e7\u13be\u13b4\u13af\u13d0\u13d7": 2691,
    "\u2581\u13a1\u13e5\u13b8\u13c9\u13d3": 2692,
    "\u2581\u13a2\u13f3\u13db\u13bf\u13d5\u13a9": 2693,
    "\u2581\u13a0\u13c2\u13c8\u13b7": 2694,
    "\u2581\u13eb\u13e8\u13b7\u13e4\u13d7\u13f1": 2695,
    "\u2581\u13be\u13c2\u13a6\u13d4\u13b2\u13be": 2696,
    "\u2581\u13d3\u13d3\u13b6\u13c2": 2697,
    "\u2581\u13cd\u13a9\u13c4\u13cd\u13db": 2698,
    "\u2581\u13d7\u13d3\u13b4\u13b2\u13cd\u13a6": 2699,
    "\u2581\u13a2\u13f3\u13e9\u13c2\u13b8": 2700,
    "\u2581\u13db\u13cd\u13c6\u13b8\u13af": 2701,
    "\u13af\u13eb": 2702,
    "\u2581\u13a2\u13f3\u13e9\u13c1\u13b8\u13af": 2703,
    "\u2581\u13cc\u13c9\u13a4\u13c5": 2704,
    "\u2581\u13a4\u13c1\u13b7\u13c5\u13a9": 2705,
    "\u2581\u13a2\u13e3\u13db\u13a6\u13c5\u13af": 2706,
    "\u2581\u13a4\u13c2\u13b7\u13af\u13cd\u13d7\u13f1": 2707,
    "\u2581\u13a4\u13ad\u13a8\u13db": 2708,
    "\u2581\u13a4\u13c1\u13cd\u13d3\u13b3": 2709,
    "\u2581\u13a0\u13c2\u13e6\u13a2": 2710,
    "\u2581\u13a4\u13d3\u13d9\u13b5\u13cd\u13d3\u13c1\u13b4\u13a2": 2711,
    "\u2581\u13a2\u13e3\u13b5\u13cd\u13d5\u13b8\u13d9\u13d7": 2712,
    "\u2581\u13ed\u13c2\u13b6\u13af\u13cd\u13d7\u13f1": 2713,
    "\u2581\u13be\u13a9\u13ea\u13d2\u13a9": 2714,
    "\u2581\u13d9\u13d3\u13f3": 2715,
    "\u2581\u13d7\u13d3\u13c2\u13d0\u13d7\u13f1": 2716,
    "\u2581\u13a4\u13db\u13aa\u13d7\u13f1": 2717,
    "\u2581\u13e5\u13cd\u13c6\u13ef": 2718,
    "\u2581\u13a4\u13b7\u13e4\u13b4": 2719,
    "\u2581\u13a4\u13c2\u13c7\u13d3\u13b8\u13a2": 2720,
    "\u2581\u13a2\u13e3\u13d3\u13e1\u13ac": 2721,
    "\u2581\u13a4\u13f0\u13b8\u13c5": 2722,
    "\u2581\u13d7\u13a6\u13b4\u13c2": 2723,
    "\u2581\u13a4\u13be\u13b5\u13aa\u13af": 2724,
    "\u2581\u13a0\u13ac\u13a5\u13af\u13cd\u13d7": 2725,
    "\u2581\u13a4\u13be\u13d5\u13c5\u13af": 2726,
    "\u2581\u13af\u13a8\u13f4": 2727,
    "\u2581\u13e6\u13e2\u13d7": 2728,
    "\u2581\u13eb\u13da\u13ef\u13c5\u13b2\u13a9": 2729,
    "\u2581\u13d7\u13a6\u13d3\u13ad": 2730,
    "\u2581\u13a4\u13b5\u13e0\u13ef\u13cd\u13d5\u13cd\u13d7": 2731,
    "\u2581\u13a0\u13a9\u13c5\u13cf\u13db": 2732,
    "\u2581\u13a4\u13b5\u13cd\u13d4\u13f4\u13d7": 2733,
    "\u2581\u13e6\u13d3\u13b8": 2734,
    "\u2581\u13a6\u13b4\u13c2": 2735,
    "\u2581\u13a4\u13c2\u13c3\u13ae\u13b8\u13af": 2736,
    "\u2581\u13da\u13c1\u13e4\u13b8\u13a9": 2737,
    "\u2581\u13a0\u13d9\u13b4\u13b0\u13af\u13cd\u13d9\u13d7": 2738,
    "\u2581\u13a2\u13f3\u13db\u13c1\u13d7\u13f1": 2739,
    "\u13c4\u13ea\u13d2": 2740,
    "\u2581\u13c2\u13ac\u13c1\u13ad": 2741,
    "\u2581\u13a4\u13ea\u13c5\u13cd\u13d7\u13f1": 2742,
    "\u2581\u13d9\u13e7\u13be\u13d3\u13c5\u13db\u13a2": 2743,
    "\u2581\u13d3\u13d5\u13f2\u13b2\u13cd\u13ac\u13a2": 2744,
    "\u2581\u13a4\u13ea\u13d9\u13b8\u13a9": 2745,
    "\u2581\u13b9\u13a9": 2746,
    "\u13de": 2747,
    "\u2581\u13a4\u13d3\u13d9\u13b5\u13e3\u13d8\u13f3": 2748,
    "\u2581\u13a4\u13b5\u13ec\u13e8\u13af": 2749,
    "\u13c2\u13ac\u13a6": 2750,
    "\u2581\u13c4\u13be\u13db\u13c1\u13b4\u13a2": 2751,
    "\u13d7\u13d2": 2752,
    "\u13d8\u13c5": 2753,
    "\u2581\u13e4\u13b2\u13a9": 2754,
    "\u2581\u13a0\u13ce\u13cd\u13a9\u13c2\u13c3\u13c5": 2755,
    "\u2581\u13d5\u13a8\u13e5": 2756,
    "\u2581\u13a4\u13f0\u13b8\u13ae": 2757,
    "\u2581\u13d5\u13aa\u13ea\u13b8": 2758,
    "\u2581\u13a4\u13be\u13b5\u13cd\u13d3\u13f4\u13d7\u13f1": 2759,
    "\u2581\u13be\u13c2\u13ea\u13cd\u13ac\u13a2": 2760,
    "\u2581\u13a4\u13ea\u13b5\u13cd\u13d7": 2761,
    "\u2581\u13be\u13a6\u13d4\u13b2\u13be": 2762,
    "\u2581\u13a0\u13a6\u13cd\u13ac": 2763,
    "\u2581\u13c2\u13a6\u13b5\u13cd\u13d7\u13cd\u13a8\u13cd\u13d7": 2764,
    "\u2581\u13a0\u13e8\u13ef\u13a2": 2765,
    "\u2581\u13d7\u13a6\u13b6\u13d7": 2766,
    "\u2581\u13a0\u13e5\u13b8\u13a8\u13b3\u13cd\u13d7\u13f1": 2767,
    "\u2581\u13a4\u13c2\u13a9\u13cd\u13d7": 2768,
    "\u2581\u13a6\u13f0\u13af": 2769,
    "\u2581\u13a4\u13d3\u13d1\u13ef": 2770,
    "\u2581\u13a4\u13c4\u13aa\u13e8\u13a9": 2771,
    "\u2581\u13a7\u13c5\u13d1\u13b8": 2772,
    "\u13a7\u13b5": 2773,
    "\u13b4\u13c5\u13af": 2774,
    "\u2581\u13a0\u13e4\u13b5\u13cd\u13db\u13a2": 2775,
    "\u2581\u13a4\u13b6\u13a9\u13b8\u13a2": 2776,
    "\u13b5\u13cd\u13aa\u13b8\u13d3\u13c1\u13b8\u13af": 2777,
    "\u2581\u13a6\u13b5\u13c9\u13a9\u13c1\u13c3": 2778,
    "\u2581\u13a4\u13f0\u13b8\u13c1\u13a2": 2779,
    "\u2581\u13da\u13a7\u13bf\u13c5": 2780,
    "\u2581\u13a4\u13b4\u13c1": 2781,
    "\u2581\u13d7\u13a6\u13c5": 2782,
    "\u2581\u13da\u13cc\u13b3\u13d3\u13c1": 2783,
    "\u2581\u13a3\u13ac\u13d2": 2784,
    "\u2581\u13a0\u13c8\u13bb\u13b4\u13a9\u13c3": 2785,
    "\u2581\u13c3\u13ca\u13c3": 2786,
    "\u2581\u13a0\u13c2\u13c1\u13b5": 2787,
    "\u2581\u13be\u13c6": 2788,
    "\u2581\u13ad\u13be\u13c9": 2789,
    "\u2581\u13c4\u13e9\u13c1\u13b4\u13a2": 2790,
    "\u2581\u13a6\u13ec\u13c2\u13cd\u13ac\u13a2": 2791,
    "\u2581\u13d7\u13a6\u13c5\u13cc\u13d7": 2792,
    "\u2581\u13ed\u13f4\u13b8": 2793,
    "\u2581\u13a4\u13f0\u13b8\u13af": 2794,
    "\u2581\u13a4\u13c3\u13ae\u13b8": 2795,
    "\u2581\u13b5\u13a0\u13c3": 2796,
    "\u2581\u13da\u13c2\u13c5\u13ce": 2797,
    "\u13be\u13a2": 2798,
    "\u13d5\u13a6": 2799,
    "\u2581\u13f4\u13a8\u13e5": 2800,
    "\u2581\u13a4\u13ea\u13d9\u13b5\u13cd\u13d7": 2801,
    "\u2581\u13a7\u13aa": 2802,
    "\u2581\u13c2\u13aa": 2803,
    "\u13c1\u13e4\u13b8\u13af": 2804,
    "\u13b8\u13db": 2805,
    "\u2581\u13a4\u13a7\u13db\u13a2": 2806,
    "\u13db\u13c1\u13d7": 2807,
    "\u13ef\u13db": 2808,
    "\u2581\u13b4": 2809,
    "\u13c1\u13a9": 2810,
    "\u13e2\u13c5": 2811,
    "\u13b6\u13ce": 2812,
    "\u13c2\u13f4\u13db": 2813,
    "\u2581\u13c4\u13be\u13b5\u13cd\u13d4\u13c1": 2814,
    "\u13c6\u13db": 2815,
    "\u2581\u13ce": 2816,
    "\u2581\u13a0\u13c2\u13d0\u13a2\u13c3": 2817,
    "\u13f0\u13ad": 2818,
    "\u2581\u13a2\u13ac\u13c1": 2819,
    "\u13d1\u13f0\u13db": 2820,
    "\u13c2\u13f2": 2821,
    "\u13d1": 2822,
    "\u2581\u13a0\u13cd\u13aa\u13af\u13c3": 2823,
    "\u13f0\u13d7": 2824,
    "\u2581\u13e9\u13a9": 2825,
    "\u13d9\u13ac": 2826,
    "\u13da\u13b5\u13ad": 2827,
    "\u2581\u13c7": 2828,
    "\u2581\u13a0\u13c2\u13c6\u13b5\u13cf\u13c3": 2829,
    "\u13a6\u13ef": 2830,
    "\u13c3\u13af\u13ce\u13b8": 2831,
    "\u13f2\u13a6": 2832,
    "\u2581\u13a4\u13a6\u13d4\u13b2\u13d2": 2833,
    "\u2581\u13a4\u13ec\u13c2\u13d2": 2834,
    "\u13a6\u13e8": 2835,
    "\u2581\u13ac\u13e9\u13aa\u13b2": 2836,
    "\u2581\u13a0\u13cb": 2837,
    "\u2581\u13d5\u13aa": 2838,
    "\u13cd\u13db\u13d7\u13cd\u13d7": 2839,
    "\u2581\u13a0\u13a9\u13aa\u13b2": 2840,
    "\u2581\u13a4\u13ec\u13da": 2841,
    "\u13ce\u13b4\u13a2": 2842,
    "\u2581\u13d7\u13e8": 2843,
    "ro": 2844,
    "\u13e4\u13af": 2845,
    "\u2581\u13e9\u13c1": 2846,
    "\u2581\u13e7\u13c1": 2847,
    "\u2581\u13a4\u13c2\u13f0\u13b8\u13c1": 2848,
    "\u2581\u13f1\u13cf": 2849,
    "\u13e9\u13d4": 2850,
    "\u13c1\u13b8\u13ad": 2851,
    "\u2581\u13a4\u13a7": 2852,
    "\u13a5\u13be": 2853,
    "\u13b4\u13f4": 2854,
    "\u13b7\u13e4\u13b8": 2855,
    "\u2581\u13a0\u13a7": 2856,
    "\u13aa\u13af\u13f3": 2857,
    "\u2581\u13a4\u13be\u13db\u13a6\u13c1": 2858,
    "\u2581\u13a2\u13aa\u13af": 2859,
    "\u2581\u13a9\u13b3\u13c3": 2860,
    "\u2581\u13a4\u13f2\u13b4": 2861,
    "\u2581\u13f1\u13d9\u13a6": 2862,
    "\u13c5\u13d9\u13d7": 2863,
    "\u2581\u13a4\u13bf": 2864,
    "\u2581\u13a4\u13f0\u13b8\u13ce": 2865,
    "\u2581\u13c4\u13b5\u13cd\u13d4\u13c1\u13ae": 2866,
    "\u2581\u13a0\u13a9\u13f0\u13b8": 2867,
    "\u2581\u13be\u13cb\u13c1\u13b8": 2868,
    "\u2581\u13f0\u13b5\u13cd\u13a8": 2869,
    "\u13b4\u13c5\u13db": 2870,
    "\u2581\u13a0\u13d3\u13c5\u13d6\u13b5\u13d9": 2871,
    "\u13c5\u13cf": 2872,
    "\u13e9\u13db\u13ae": 2873,
    "\u13c3\u13ae": 2874,
    "\u13e3\u13c1": 2875,
    "\u13b2\u13cd\u13a6": 2876,
    "\u13e8\u13a2": 2877,
    "\u2581\u13a2\u13e3\u13b5": 2878,
    "\u13bf\u13a5\u13a2": 2879,
    "\u13c1\u13b6\u13d7": 2880,
    "\u13c6\u13d3": 2881,
    "\u13f2\u13af\u13cd\u13d7": 2882,
    "\u2581\u13a2\u13a4": 2883,
    "\u13c1\u13b0\u13a2": 2884,
    "\u13da\u13ac": 2885,
    "\u13af\u13c3": 2886,
    "\u2581\u13a6\u13c5\u13ac": 2887,
    "\u2581\u13a9\u13b3\u13af": 2888,
    "\u13a1\u13cd\u13d7": 2889,
    "l": 2890,
    "\u2581\u13ac\u13e9\u13b7\u13e4\u13b4": 2891,
    "\u13d3\u13f2": 2892,
    "\u13a6\u13d7": 2893,
    "\u13e5\u13af\u13cd\u13d7": 2894,
    "\u2581\u13c2\u13a6\u13b5\u13cd\u13d7\u13cd\u13a8": 2895,
    "\u13a1\u13b8\u13a9": 2896,
    "\u2581\u13d0\u13a3\u13c1\u13b3": 2897,
    "\u2581\u13e5\u13cd\u13aa\u13f4": 2898,
    "\u2581\u13c7\u13d5\u13b5": 2899,
    "\u2581\u13a0\u13a9\u13c1\u13e8": 2900,
    "\u2581\u13cc\u13ca": 2901,
    "\u2581\u13a4\u13e6": 2902,
    "\u2581\u13e6\u13c8": 2903,
    "\u2581\u13be\u13ac\u13c1\u13b8": 2904,
    "\u13d1\u13f0": 2905,
    "\u2581\u13aa\u13e2\u13d2": 2906,
    "\u13d7\u13c2\u13c5\u13cc\u13d7": 2907,
    "\u13a6\u13b5\u13f4": 2908,
    "\u2581\u13be\u13c2\u13ea\u13cd\u13ac": 2909,
    "\u13ad\u13d5\u13ec": 2910,
    "\u2581\u13a4\u13c4\u13aa\u13e4": 2911,
    "\u13a0\u13d5\u13b8": 2912,
    "\u2581\u13a1\u13d9\u13ae": 2913,
    "\u2581\u13ac\u13ef": 2914,
    "\u2581\u13a4\u13c2\u13e0\u13f1": 2915,
    "\u2581\u13f2\u13a9": 2916,
    "\u2581\u13d5\u13a4\u13b4\u13d4\u13c5": 2917,
    "\u13a0\u13a9\u13be": 2918,
    "\u2581\u13da\u13c2\u13b8\u13eb\u13cd\u13d3\u13c1\u13b8": 2919,
    "\u13a8\u13b5\u13a0": 2920,
    "\u2581\u13e7\u13d3\u13c5\u13db": 2921,
    "\u2581\u13cc\u13ec\u13da": 2922,
    "\u2581\u13a4\u13da": 2923,
    "\u2581\u13d7\u13aa\u13ea\u13b5": 2924,
    "\u2581\u13a0\u13c2\u13c3\u13af\u13b5\u13d9": 2925,
    "\u2581\u13e7\u13c2\u13b3\u13eb\u13a2\u13cd\u13d7": 2926,
    "\u2581\u13c5\u13f2": 2927,
    "\u2581\u13f1\u13d9": 2928,
    "\u2581\u13a2\u13d9\u13bb": 2929,
    "\u2581\u13da\u13f3\u13aa\u13d7": 2930,
    "\u13db\u13c1\u13b2": 2931,
    "\u13d3\u13f1\u13b5": 2932,
    "\u2581\u13d3\u13d3": 2933,
    "rs": 2934,
    "\u2581\u13c6\u13b3\u13c6": 2935,
    "\u2581Philadelphia": 2936,
    "\u2581\u13a2\u13e7\u13be\u13d3\u13b3": 2937,
    "\u2581\u13a4\u13d3\u13d1\u13f1": 2938,
    "\u2581\u13c7\u13da\u13a1\u13b5": 2939,
    "\u2581\u13d0\u13b5\u13b9\u13c5": 2940,
    "\u2581\u13d5\u13e6\u13af\u13f3\u13ce\u13cd\u13d7": 2941,
    "\u2581\u13d7\u13a6\u13d2\u13cd\u13d4\u13c5": 2942,
    "\u2581\u13a0\u13d3\u13ea\u13b3\u13a9\u13cd\u13a9": 2943,
    "\u2581\u13a4\u13b5\u13cf\u13c2\u13d7": 2944,
    "\u2581\u13e3\u13b5\u13cd\u13d9\u13c2": 2945,
    "\u2581\u13f1\u13aa\u13b5\u13a6": 2946,
    "\u2581\u13d7\u13be\u13d5\u13f2\u13b2\u13cd\u13a9": 2947,
    "\u2581\u13a0\u13be\u13db\u13a9\u13cd\u13a9": 2948,
    "\u2581\u13d5\u13aa\u13ea\u13b5\u13cd\u13ac": 2949,
    "\u2581\u13f1\u13c4\u13b5\u13cd\u13d4\u13be": 2950,
    "\u2581\u13a2\u13f3\u13d3\u13b5\u13ad": 2951,
    "\u2581\u13e5\u13a3\u13b5": 2952,
    "\u2581\u13e2\u13d3\u13e5": 2953,
    "\u2581\u13da\u13b7\u13eb\u13cd\u13d4\u13c1\u13b2": 2954,
    "\u2581\u13d0\u13a3\u13c1\u13b3\u13cd\u13aa\u13af": 2955,
    "\u2581\u13a8\u13c5\u13a2\u13cd\u13d7": 2956,
    "\u2581\u13a2\u13e6\u13af\u13f3\u13af": 2957,
    "\u2581\u13da\u13a7\u13bf\u13c1": 2958,
    "\u2581\u13a4\u13d3\u13c5\u13b5\u13f0\u13a5": 2959,
    "\u2581\u13d7\u13a6\u13b8\u13eb\u13cd\u13d3\u13c1\u13b8\u13af": 2960,
    "\u2581\u13a1\u13c5\u13cd\u13d7": 2961,
    "\u2581\u13f1\u13e3\u13d3\u13c5\u13d6\u13d7\u13cd\u13a8\u13cd\u13d7": 2962,
    "\u2581\u13da\u13cd\u13c6\u13b8\u13d4\u13c1": 2963,
    "\u2581\u13a4\u13d2\u13af\u13f0\u13f1": 2964,
    "\u13ad\u13c4\u13b8\u13af": 2965,
    "\u2581\u13e7\u13b4\u13af\u13cc\u13c5\u13af": 2966,
    "\u2581\u13d7\u13a8\u13e5\u13be\u13dd\u13a2": 2967,
    "\u2581\u13a0\u13e5\u13cd\u13d5\u13b8\u13d7": 2968,
    "\u2581\u13a4\u13e3\u13b4\u13d3": 2969,
    "\u2581\u13a4\u13cd\u13d7\u13a7\u13c2": 2970,
    "\u2581\u13d3\u13f3\u13c2\u13b6\u13d2": 2971,
    "\u2581\u13e7\u13d3\u13b4\u13c5\u13b2": 2972,
    "\u2581\u13c4\u13da\u13b5\u13cd\u13ac\u13be": 2973,
    "\u2581\u13d7\u13db\u13d3\u13c5\u13af": 2974,
    "\u2581\u13ac\u13e9\u13e0\u13ef\u13cd\u13d7": 2975,
    "\u2581\u13da\u13c3\u13e2\u13c5\u13a9": 2976,
    "\u2581\u13d4\u13b8\u13d7": 2977,
    "\u2581\u13a4\u13be\u13b5\u13d7\u13a9\u13db": 2978,
    "\u2581\u13a4\u13c2\u13c7\u13d3\u13b5": 2979,
    "\u2581\u13a7\u13f4\u13d0\u13b5": 2980,
    "\u2581\u13e7\u13b4\u13d4\u13c5\u13af": 2981,
    "\u2581\u13a2\u13d7\u13c5\u13c1": 2982,
    "\u2581\u13a6\u13d3\u13b7\u13ef\u13db": 2983,
    "\u2581\u13ac\u13c6\u13db\u13c1\u13d7\u13f1": 2984,
    "\u2581\u13d7\u13e5\u13b8\u13eb\u13cd\u13d3\u13c1\u13d7\u13f1": 2985,
    "\u2581\u13a4\u13ec\u13ea\u13b3\u13c5\u13af": 2986,
    "\u2581\u13a1\u13e3\u13c2\u13b5": 2987,
    "\u2581\u13c0\u13a2\u13f3": 2988,
    "\u2581\u13a2\u13e7\u13d5\u13d8\u13f4\u13db": 2989,
    "\u2581\u13a2\u13e5\u13c6\u13b5\u13cf": 2990,
    "\u2581\u13a4\u13ec\u13d3\u13b8": 2991,
    "\u2581\u13a0\u13a9\u13b7\u13e5\u13b8": 2992,
    "\u2581\u13a4\u13be\u13d5\u13c5": 2993,
    "\u2581\u13a5\u13e5\u13aa\u13a5\u13a9": 2994,
    "\u2581\u13a0\u13c2\u13b4\u13f4\u13cd\u13a9": 2995,
    "\u2581\u13a0\u13cd\u13c6\u13da\u13b8": 2996,
    "\u2581\u13ac\u13e9\u13f2\u13b1\u13af\u13cd\u13d7": 2997,
    "\u13f4\u13cd\u13d7\u13f1": 2998,
    "\u2581\u13a0\u13c2\u13eb\u13be": 2999,
    "\u2581\u13c2\u13e3\u13db\u13a6": 3000,
    "\u2581\u13a4\u13be\u13d3\u13d3\u13cd\u13ac": 3001,
    "\u2581\u13a4\u13d3\u13b4\u13e8": 3002,
    "\u2581\u13d7\u13c7\u13c5\u13d2": 3003,
    "\u2581\u13a4\u13c2\u13aa\u13ae": 3004,
    "\u2581\u13d7\u13ac\u13aa\u13e9\u13db\u13d7": 3005,
    "\u2581\u13a0\u13d3\u13cd\u13d3\u13e9\u13d7\u13d9\u13af": 3006,
    "\u2581\u13be\u13ef\u13db\u13a1\u13cd\u13d7": 3007,
    "\u2581\u13cd\u13a9\u13be\u13dd\u13a2": 3008,
    "\u2581\u13e7\u13f4\u13e2": 3009,
    "\u2581\u13ed\u13c2\u13f4\u13b4\u13a2": 3010,
    "\u2581\u13a0\u13b9\u13b4\u13a9": 3011,
    "\u2581\u13cf\u13d3\u13c1\u13b8": 3012,
    "\u2581\u13ed\u13c2\u13b6\u13d2\u13a9": 3013,
    "\u2581\u13a0\u13a9\u13f0\u13b8\u13b2": 3014,
    "\u2581\u13a4\u13ea\u13a7\u13c5\u13a9": 3015,
    "\u2581\u13a7\u13b8": 3016,
    "\u2581\u13cf\u13c5\u13d3": 3017,
    "\u2581\u13be\u13cd\u13a6\u13a2\u13b2\u13be": 3018,
    "\u2581\u13a4\u13a7\u13ad\u13db": 3019,
    "\u2581\u13d7\u13e6\u13d7": 3020,
    "\u2581\u13e3\u13be\u13eb": 3021,
    "\u2581\u13e7\u13f4\u13e8": 3022,
    "\u13c3\u13d7": 3023,
    "\u2581\u13a2\u13a9\u13c5\u13df": 3024,
    "\u2581\u13a4\u13d5\u13c1\u13a2": 3025,
    "\u2581\u13a4\u13c2\u13f0\u13b8\u13d2\u13a9": 3026,
    "\u13d9\u13b5\u13a9": 3027,
    "\u2581\u13c4\u13c2\u13ea\u13ce\u13b8\u13a9": 3028,
    "\u2581\u13a4\u13c5\u13d9\u13d7\u13f1": 3029,
    "\u2581\u13a5\u13a9\u13d9\u13c9": 3030,
    "\u2581\u13a8\u13e5\u13c1\u13b8\u13af": 3031,
    "\u2581\u13a1\u13d9\u13ad": 3032,
    "\u2581\u13d7\u13a6\u13b5\u13cd\u13d9\u13d7\u13ad": 3033,
    "\u2581\u13e7\u13be\u13c4\u13e9\u13a2": 3034,
    "\u13aa\u13b5\u13ef": 3035,
    "\u2581\u13be\u13c2\u13a1\u13a2": 3036,
    "\u2581\u13c2\u13a6\u13b5\u13cd\u13d9\u13d7\u13ad": 3037,
    "\u2581\u13a0\u13da\u13b8\u13d7": 3038,
    "\u2581\u13a4\u13d5\u13d7\u13f1": 3039,
    "\u2581\u13a4\u13b4\u13eb\u13cd\u13d4\u13c1": 3040,
    "\u2581\u13d3\u13f3\u13d3\u13b4\u13c5\u13d3": 3041,
    "\u2581\u13a4\u13d7\u13d4\u13b2": 3042,
    "\u2581\u13be\u13c1\u13b2\u13be": 3043,
    "\u2581\u13e7\u13c1\u13e2\u13d4\u13c5\u13db": 3044,
    "\u2581\u13a0\u13df\u13cd\u13db\u13a2": 3045,
    "\u2581\u13d7\u13a6\u13d3\u13c1": 3046,
    "\u2581\u13a6\u13c5\u13d9\u13d7": 3047,
    "\u2581\u13d7\u13c2\u13a6\u13d8\u13ef": 3048,
    "\u2581\u13da\u13d3": 3049,
    "\u13d9\u13a5": 3050,
    "\u2581\u13a2\u13a9\u13c1\u13b8\u13af": 3051,
    "\u2581\u13d0\u13d3\u13bb\u13f1": 3052,
    "\u2581\u13da\u13ec": 3053,
    "\u2581\u13ad\u13be\u13c2": 3054,
    "\u2581\u13cf\u13a0": 3055,
    "\u2581\u13ef\u13a9\u13ad": 3056,
    "\u2581\u13ed\u13b7\u13e8\u13a9": 3057,
    "\u2581\u13da\u13c2\u13b8\u13eb\u13cd\u13d3\u13c1\u13b8\u13a2": 3058,
    "\u2581\u13a4\u13be\u13d7\u13c5\u13d7": 3059,
    "\u2581\u13e9\u13a9\u13b7\u13e8": 3060,
    "\u2581\u13a1\u13d9\u13ae\u13a2": 3061,
    "\u2581\u13a4\u13e8\u13c9\u13d7": 3062,
    "\u2581\u13c2\u13a6\u13b5\u13cd\u13d9\u13d7\u13cd\u13a8": 3063,
    "\u2581\u13ac\u13e9\u13aa\u13e9\u13db\u13d7": 3064,
    "\u2581\u13a6\u13c1\u13cc\u13a2\u13af": 3065,
    "\u2581\u13a0\u13d3\u13a8\u13d7": 3066,
    "\u2581\u13d7\u13df\u13cd\u13d7": 3067,
    "\u2581\u13a4\u13ea\u13c1\u13a2": 3068,
    "\u2581\u13a4\u13c2\u13b7\u13e4\u13d7": 3069,
    "\u2581\u13a4\u13be\u13db\u13a6\u13c1\u13a2": 3070,
    "\u2581\u13d7\u13ac\u13d7": 3071,
    "\u2581\u13a4\u13d3\u13c5\u13d6\u13b8\u13a2": 3072,
    "\u2581\u13c5\u13a9\u13c1\u13c3": 3073,
    "\u2581\u13d5\u13e5\u13b8\u13eb\u13cd\u13d3\u13c1\u13b2\u13a2": 3074,
    "\u2581\u13a0\u13a7\u13b5\u13ec\u13af": 3075,
    "\u2581\u13a4\u13e9\u13db\u13ae\u13a2": 3076,
    "\u2581\u13a4\u13ef\u13c5\u13af": 3077,
    "\u2581\u13ac\u13d9\u13d7\u13f1": 3078,
    "\u2581\u13be\u13be\u13db\u13c1\u13b2\u13a2": 3079,
    "\u2581\u13a4\u13d3\u13c5\u13ce\u13a2": 3080,
    "\u2581\u13f2\u13e5": 3081,
    "\u13e4\u13d7": 3082,
    "\u13d7\u13cd\u13aa\u13c2\u13af": 3083,
    "\u2581\u13e5\u13f4": 3084,
    "\u2581\u13a6\u13d3\u13c5\u13d6\u13cd\u13ac\u13a2": 3085,
    "\u2581\u13a2\u13e6\u13af\u13f3\u13d2\u13a2": 3086,
    "\u2581\u13eb\u13da\u13c2": 3087,
    "\u13cd\u13d3\u13e9\u13d7\u13d2": 3088,
    "\u2581\u13a0\u13cd\u13a6\u13be\u13a2": 3089,
    "\u2581\u13da\u13c1\u13e4\u13b4\u13a2": 3090,
    "\u2581\u13a1\u13b2\u13a9": 3091,
    "\u2581\u13a5\u13b5": 3092,
    "\u2581\u13a0\u13b5\u13e5\u13d9\u13b2\u13cd\u13a8": 3093,
    "\u13d9\u13b4\u13b0\u13af\u13cd\u13d7": 3094,
    "\u2581\u13a4\u13aa\u13b2\u13a9": 3095,
    "\u13ef\u13eb": 3096,
    "\u2581\u13d7\u13d0\u13a2": 3097,
    "\u2581\u13da\u13c1\u13b4\u13a2": 3098,
    "\u13c2\u13d3\u13cd\u13d7\u13f1": 3099,
    "\u13f0\u13b8\u13af": 3100,
    "\u2581\u13c2\u13ac\u13c1": 3101,
    "\u13b8\u13ae": 3102,
    "\u2581\u13a7\u13c1\u13a2\u13cd\u13d7": 3103,
    "\u13b5\u13cd\u13ac": 3104,
    "\u2581\u13da\u13c3\u13b8": 3105,
    "\u2581\u13a4\u13ea\u13c5\u13ce\u13a2": 3106,
    "\u2581\u13b5\u13c7\u13a9\u13c3": 3107,
    "\u2581\u13d7\u13e3\u13d3": 3108,
    "\u13a9\u13b8\u13d7": 3109,
    "\u2581\u13e7\u13ec\u13b8": 3110,
    "\u2581\u13a4\u13be\u13d9\u13d3\u13c6\u13cd\u13ac\u13a2": 3111,
    "\u2581\u13b5\u13cf": 3112,
    "\u13d3\u13ec": 3113,
    "\u13cc\u13d8": 3114,
    "\u13af\u13db": 3115,
    "\u2581\u13e7\u13d3\u13cf\u13c3": 3116,
    "\u2581\u13a4\u13ea\u13b7\u13c1\u13a2": 3117,
    "\u2581\u13a2\u13ef\u13c2\u13a2": 3118,
    "\u2581\u13a6\u13da\u13f1": 3119,
    "\u2581\u13be\u13c2": 3120,
    "\u2581\u13c5\u13a9\u13c1": 3121,
    "\u2581\u13a0\u13d3\u13c5\u13d6\u13cd\u13ac\u13a2": 3122,
    "\u13b5\u13d3": 3123,
    "\u2581\u13de": 3124,
    "\u2581\u13a2\u13be\u13db\u13c3": 3125,
    "\u2581\u13e7\u13ec": 3126,
    "\u13cd\u13ca": 3127,
    "\u2581\u13c5\u13d7\u13a6\u13b5\u13cd\u13d9\u13d7\u13cd\u13a8\u13a2": 3128,
    "\u13d7\u13d4": 3129,
    "\u13ac\u13ad": 3130,
    "\u2581\u13e5\u13c4": 3131,
    "\u13d4\u13f2": 3132,
    "\u13b3\u13c5": 3133,
    "\u13f2\u13aa": 3134,
    "\u2581\u13a4\u13c4\u13aa\u13a2\u13cd\u13d7": 3135,
    "\u13ef\u13a1\u13cd\u13d7": 3136,
    "\u13d3\u13a9\u13cd\u13a8": 3137,
    "\u13c2\u13cd\u13ac": 3138,
    "\u13b2\u13cd\u13a8\u13cd\u13d7": 3139,
    "\u2581\u13c5\u13d3\u13f3\u13be\u13b5\u13cd\u13aa\u13b8\u13d4": 3140,
    "\u2581\u13a6\u13c5\u13a8": 3141,
    "\u13db\u13c1\u13a2": 3142,
    "\u2581\u13a2\u13b3": 3143,
    "\u2581\u13ac\u13d7\u13ad": 3144,
    "\u13c1\u13b2\u13a9": 3145,
    "\u2581\u13d7\u13c2\u13e9\u13be\u13a6\u13b3": 3146,
    "\u2581\u13d1\u13d3\u13b5\u13c1": 3147,
    "\u13c4\u13aa\u13eb\u13ce": 3148,
    "\u13c4\u13aa\u13e9": 3149,
    "\u2581\u13e3\u13da": 3150,
    "\u13a8\u13f3\u13ad": 3151,
    "\u13b2\u13cd\u13ac": 3152,
    "\u13a8\u13f4": 3153,
    "\u13ef\u13c5\u13db": 3154,
    "\u2581\u13a0\u13a6\u13d5": 3155,
    "\u13af\u13ad": 3156,
    "\u13b7\u13e3": 3157,
    "\u13aa\u13d7\u13f1": 3158,
    "\u13d7\u13d4\u13cd\u13d7": 3159,
    "\u2581\u13c4\u13c2\u13ac\u13eb\u13f3\u13d2\u13c3": 3160,
    "\u13ab\u13f4": 3161,
    "\u13d9\u13b8": 3162,
    "\u2581\u13a8\u13e5\u13c1\u13d7": 3163,
    "\u2581\u13d7\u13be\u13d3": 3164,
    "\u13cf\u13f1": 3165,
    "\u13c5\u13a6\u13b8": 3166,
    "\u2581\u13a0\u13f0": 3167,
    "\u2581\u13e8\u13d7": 3168,
    "\u2581\u13a0\u13c6\u13d3\u13c5\u13d6\u13d7": 3169,
    "\u13cd\u13a6\u13c5\u13e8\u13a2": 3170,
    "\u13e5\u13f4": 3171,
    "\u2581\u13a4\u13c3\u13ae\u13b4": 3172,
    "\u13a8\u13cd\u13d7\u13d7": 3173,
    "\u2581\u13a5\u13e3": 3174,
    "\u13c7\u13b5": 3175,
    "\u13cd\u13c6\u13c2\u13aa\u13d9\u13d7\u13f1": 3176,
    "\u2581\u13f3\u13e9": 3177,
    "\u13d9\u13a0": 3178,
    "\u13e5\u13c1\u13b8\u13af": 3179,
    "\u13c2\u13b4": 3180,
    "\u13ce\u13d7": 3181,
    "\u13cd\u13d5\u13b5\u13ad": 3182,
    "\u13a1\u13d7\u13f1": 3183,
    "\u13d2\u13d7": 3184,
    "\u2581\u13a0\u13ab": 3185,
    "\u13c3\u13ae\u13cd\u13ac\u13a2": 3186,
    "\u13e6\u13af": 3187,
    "\u13ea\u13ce\u13b8": 3188,
    "\u2581\u13a6\u13e8": 3189,
    "\u13e5\u13a9": 3190,
    "\u2581\u13a0\u13ef\u13a5": 3191,
    "\u13b7\u13e5": 3192,
    "\u2581\u13e7\u13b4": 3193,
    "\u13c2\u13ad": 3194,
    "\u13a9\u13f4": 3195,
    "\u13e3\u13c5": 3196,
    "\u2581\u13a2\u13ac\u13f1\u13f1\u13c3": 3197,
    "\u2581\u13a4\u13e9\u13db\u13b2": 3198,
    "\u13d9\u13b2": 3199,
    "\u13d7\u13cd\u13aa\u13a2": 3200,
    "\u2581\u13a1\u13b3\u13ea\u13f1": 3201,
    "\u13cd\u13d9\u13d3": 3202,
    "\u13b8\u13c3": 3203,
    "\u13d1\u13f0\u13d2": 3204,
    "\u13c3\u13ae\u13cd\u13ac": 3205,
    "\u13b5\u13a8": 3206,
    "\u13f2\u13d2\u13a9": 3207,
    "\u13b3\u13c1\u13a2": 3208,
    "\u2581\u13e4\u13b2": 3209,
    "\u2581\u13f1\u13d9\u13a8": 3210,
    "\u13af\u13c9": 3211,
    "\u13ef\u13a5": 3212,
    "\u2581\u13d7\u13a9\u13a6": 3213,
    "\u13b3\u13cd\u13d3": 3214,
    "\u13e6\u13c5": 3215,
    "\u2581\u13e7\u13d9": 3216,
    "\u2581\u13d3\u13b6\u13c2\u13a8\u13a2": 3217,
    "\u2581\u13d7\u13aa\u13e2": 3218,
    "\u2581\u13a0\u13b5\u13ae\u13b5\u13ac": 3219,
    "\u13db\u13d9\u13d7": 3220,
    "\u13ee": 3221,
    "\u13eb\u13d2": 3222,
    "\u13a0\u13c2": 3223,
    "\u2581\u13e7\u13c5": 3224,
    "\u13f4\u13ad": 3225,
    "\u13f2\u13af\u13ce\u13b8\u13a9": 3226,
    "\u13b5\u13e6": 3227,
    "\u13e8\u13be": 3228,
    "\u13e4\u13ad": 3229,
    "\u2581\u13eb\u13da\u13be": 3230,
    "\u13b8\u13c9\u13d7\u13ad": 3231,
    "\u13e1\u13d7\u13cd\u13a9": 3232,
    "\u13e2\u13a9": 3233,
    "\u13f1\u13c3": 3234,
    "\u2581\u13a0\u13c2\u13cd\u13a6": 3235,
    "\u2581\u13a4\u13be\u13d3\u13c5": 3236,
    "\u13b5\u13cd\u13d3\u13f4\u13d7": 3237,
    "\u13d9\u13ae\u13cd\u13d7": 3238,
    "\u13a1\u13b4\u13a2": 3239,
    "\u13ef\u13c5\u13ae": 3240,
    "\u2581\u13c4\u13ec": 3241,
    "\u13aa\u13db": 3242,
    "\u13a9\u13c2": 3243,
    "\u13a5\u13dd": 3244,
    "\u13a0\u13a9": 3245,
    "\u13ef\u13c5\u13d7": 3246,
    "\u13a2\u13cd\u13d9\u13d7": 3247,
    "\u13f2\u13b0": 3248,
    "d": 3249,
    "h": 3250,
    "\u13c1\u13e2\u13d4\u13c5\u13db": 3251,
    "\u13f2\u13df": 3252,
    "\u13b5\u13bb": 3253,
    "\u2581\u13a4\u13ed": 3254,
    "\u13db\u13c5\u13a9": 3255,
    "\u13c1\u13a6\u13b8": 3256,
    "\u13cd\u13d3\u13c1": 3257,
    "\u13af\u13d3": 3258,
    "\u13d3\u13b3": 3259,
    "\u2581\u13eb\u13da\u13ef\u13c5\u13b2": 3260,
    "\u13af\u13af": 3261,
    "\u13a7\u13b5\u13ec\u13af": 3262,
    "\u13cd\u13d3\u13f1\u13f3": 3263,
    "\u2581\u13a0\u13a6\u13cd\u13a6\u13c2": 3264,
    "\u2581\u13e4\u13a6\u13b3\u13ef": 3265,
    "\u2581\u13a4\u13c2\u13c3\u13ae\u13b4": 3266,
    "\u13db\u13c1\u13ad": 3267,
    "\u2581\u13ae\u13bc": 3268,
    "\u2581\u13a2\u13c6\u13b6\u13c2": 3269,
    "\u13a0\u13ce": 3270,
    "\u2581\u13c2\u13da\u13ea\u13ce\u13b8": 3271,
    "\u2581\u13d3\u13b5\u13cd\u13d7\u13b3\u13c1\u13ac": 3272,
    "\u2581\u13a7\u13b8\u13ac": 3273,
    "\u2581\u13ef\u13c3\u13a9\u13f3": 3274,
    "\u2581\u13da\u13c5\u13ce": 3275,
    "\u2581\u13a4\u13c1\u13b5\u13ce": 3276,
    "\u2581\u13ac\u13e9\u13d4\u13f2\u13ce\u13b4": 3277,
    "\u13a4\u13cd\u13c6\u13c2\u13a9\u13d7": 3278,
    "\u2581\u13d5\u13a6\u13b3\u13eb\u13a5": 3279,
    "\u2581\u13d7\u13e5\u13a6\u13f4\u13b5\u13a8": 3280,
    "\u2581\u13a4\u13cd\u13d3\u13a6\u13b8": 3281,
    "\u2581\u13a4\u13d7\u13db\u13ae": 3282,
    "\u2581\u13d3\u13df\u13b6\u13cd\u13db": 3283,
    "\u2581\u13da\u13b4\u13af\u13cc\u13c5": 3284,
    "\u13d3\u13d7": 3285,
    "\u13cd\u13aa\u13b8": 3286,
    "\u2581\u13a4\u13ec\u13ce\u13b4": 3287,
    "\u2581\u13a4\u13ea\u13c5\u13d2\u13a9": 3288,
    "\u2581\u13a2\u13a9\u13cd\u13a6\u13c5\u13e8": 3289,
    ".)": 3290,
    "\u13a4\u13d9\u13af\u13f3\u13af": 3291,
    "\u13cd\u13d3\u13e9\u13db\u13d2\u13a9": 3292,
    "\u2581\u13a0\u13c2\u13d9\u13be\u13a1": 3293,
    "\u2581\u13a7\u13c3\u13ae\u13d3": 3294,
    "\u13ea\u13ce\u13b8\u13a9": 3295,
    "\u13f2\u13be": 3296,
    "\u2581\u13a4\u13ea\u13a7\u13c1\u13b4": 3297,
    "\u2581\u13d7\u13aa\u13ea\u13b6\u13d7": 3298,
    "\u2581\u13aa\u13b9\u13b5": 3299,
    "\u2581\u13a2\u13f3\u13c5\u13c1\u13d7": 3300,
    "\u2581\u13a4\u13c2\u13b8\u13c9\u13d7": 3301,
    "\u2581\u13a3\u13a9\u13be": 3302,
    "\u13e2\u13db": 3303,
    "\u2581\u13eb\u13a6\u13b6\u13af\u13cd\u13d7": 3304,
    "\u13d4\u13b7\u13a9\u13cd\u13a9": 3305,
    "\u2581\u13e7\u13ec\u13da\u13af": 3306,
    "\u2581\u13a1\u13c9\u13c4\u13b6\u13d7": 3307,
    "\u2581\u13a2\u13f0\u13c6": 3308,
    "\u2581\u13a4\u13ad\u13b8\u13c2\u13af": 3309,
    "\u2581\u13a4\u13c2\u13da\u13ef\u13cd\u13d7": 3310,
    "\u2581\u13a4\u13d3\u13cf\u13c2\u13d5\u13be": 3311,
    "\u2581\u13a4\u13ea\u13f2\u13d3\u13db": 3312,
    "\u2581\u13a6\u13e3\u13c4\u13b8": 3313,
    "\u2581\u13af\u13cd\u13a9\u13e7\u13c8": 3314,
    "\u2581\u13b0\u13ea\u13b8\u13a6": 3315,
    "\u2581\u13c2\u13da\u13c5\u13cf\u13f4": 3316,
    "\u2581\u13c4\u13e0\u13be\u13cd\u13db\u13be": 3317,
    "\u2581\u13c5\u13d3\u13ac\u13f4\u13c1\u13b5": 3318,
    "\u2581\u13c6\u13bb\u13c6\u13c2": 3319,
    "\u2581\u13c8\u13ef\u13cf\u13c6": 3320,
    "\u2581\u13e6\u13a9\u13b8\u13eb\u13cd\u13d3\u13c1\u13af": 3321,
    "\u2581\u13eb\u13c2\u13a6\u13b5\u13cd\u13d9\u13d3": 3322,
    "\u2581\u13a0\u13d3\u13ce\u13aa\u13a9\u13cd\u13a8\u13cd\u13d7": 3323,
    "\u2581\u13da\u13e9\u13c2\u13a6\u13e2": 3324,
    "\u2581\u13e7\u13a6\u13c3\u13ee": 3325,
    "\u2581\u13a9\u13be\u13b5\u13a2": 3326,
    "\u2581\u13d7\u13c9\u13f0\u13c2": 3327,
    "\u2581\u13a4\u13ef\u13c5\u13d2\u13af": 3328,
    "\u2581\u13a0\u13a6\u13f4\u13b5\u13a8\u13cd\u13db\u13f1": 3329,
    "\u2581\u13a0\u13c2\u13d9\u13be\u13a2": 3330,
    "\u2581\u13c2\u13da\u13be\u13d3\u13ea\u13ce\u13b8\u13a9": 3331,
    "\u2581\u13a4\u13d8\u13f4\u13af": 3332,
    "\u2581\u13d7\u13e6\u13f0\u13c2": 3333,
    "\u2581\u13d7\u13be\u13d3\u13c2\u13f1\u13cd\u13a9": 3334,
    "\u2581\u13a4\u13d7\u13d7\u13e2": 3335,
    "\u2581\u13af\u13b8\u13af\u13e8": 3336,
    "\u2581\u13a2\u13d7\u13a6\u13ea\u13cd\u13d7": 3337,
    "\u2581\u13ed\u13ac\u13eb\u13f3\u13d2": 3338,
    "\u2581\u13ad\u13b4\u13c9": 3339,
    "\u2581\u13cc\u13b5\u13c2": 3340,
    "\u2581\u13c4\u13ec\u13af\u13f3\u13d2\u13be": 3341,
    "\u2581\u13c5\u13d3\u13aa\u13af\u13e5": 3342,
    "\u2581\u13d5\u13e5\u13f2\u13b5\u13b8\u13ad": 3343,
    "\u2581\u13d7\u13a6\u13c3\u13e3\u13df": 3344,
    "\u2581\u13c5\u13c3\u13b1\u13b6\u13d7": 3345,
    "\u2581\u13e7\u13d9\u13d3\u13c6\u13db": 3346,
    "\u2581\u13cc\u13b6\u13b5": 3347,
    "\u2581\u13af\u13cd\u13a9\u13a6\u13da": 3348,
    "\u2581\u13b2\u13d7\u13cd\u13a8\u13cd\u13d7": 3349,
    "\u2581\u13ac\u13e9\u13d5\u13c1\u13b8\u13af": 3350,
    "\u2581\u13d7\u13c6\u13b3\u13cf\u13d5\u13c2": 3351,
    "\u2581\u13a6\u13b5\u13e6\u13d9\u13d9\u13d7": 3352,
    "\u2581\u13a2\u13e8\u13cd\u13d7\u13f0\u13d7\u13ad": 3353,
    "\u2581\u13a0\u13b9\u13f3\u13b6\u13d7": 3354,
    "\u2581\u13a6\u13ef\u13b4\u13cd\u13d7": 3355,
    "\u2581\u13a4\u13ec\u13de": 3356,
    "\u2581\u13e7\u13c3\u13e9": 3357,
    "\u2581\u13a4\u13c2\u13ac\u13a5\u13cd\u13a9": 3358,
    "\u2581\u13a0\u13be\u13d3\u13d9\u13b5\u13cd\u13d3\u13c1\u13af": 3359,
    "\u2581\u13af\u13b3\u13aa": 3360,
    "\u2581\u13a2\u13ef\u13a7\u13b5\u13a2": 3361,
    "\u2581\u13a4\u13cd\u13d7\u13a9\u13db": 3362,
    "\u2581\u13d7\u13ac\u13e9\u13d3\u13c2\u13b8\u13a2\u13cd\u13d7": 3363,
    "\u2581\u13c5\u13d3\u13f3\u13d3\u13b4\u13c5\u13db": 3364,
    "\u2581\u13e7\u13e9\u13c2\u13a6\u13dd\u13c5": 3365,
    "\u2581\u13aa\u13d2\u13d4\u13c5": 3366,
    "\u2581\u13a4\u13b4\u13c5\u13a9": 3367,
    "\u2581\u13d7\u13e8\u13c2\u13d7\u13f3": 3368,
    "\u2581\u13af\u13a7\u13c5\u13ad": 3369,
    "\u2581\u13e7\u13d3\u13d8\u13be\u13a2": 3370,
    "\u2581\u13e7\u13d9\u13a2\u13d3": 3371,
    "\u2581\u13c4\u13c2\u13b2\u13be": 3372,
    "\u2581\u13da\u13a6\u13cc\u13db": 3373,
    "\u2581\u13a0\u13e3\u13ea\u13d0\u13b8\u13cd\u13d9\u13d7\u13f1": 3374,
    "\u2581\u13f1\u13c4\u13b5\u13cd\u13d4\u13c5": 3375,
    "\u2581\u13a5\u13a9\u13c5\u13df": 3376,
    "\u2581\u13d5\u13a8\u13a6\u13e8\u13cd\u13d7\u13cd\u13ac": 3377,
    "\u2581\u13a2\u13e5\u13ea\u13cd\u13d7\u13f1": 3378,
    "\u2581\u13eb\u13a8\u13e5\u13f2\u13b5\u13ad": 3379,
    "\u2581\u13a7\u13c3\u13a9\u13cd\u13d7": 3380,
    "\u2581\u13d9\u13d7\u13e3\u13d3\u13c5\u13db\u13a2": 3381,
    "\u2581\u13d7\u13a9\u13c5\u13d2": 3382,
    "\u2581\u13d3\u13ad\u13c3\u13eb": 3383,
    "\u2581\u13a0\u13c2\u13be\u13c1\u13cd\u13ac": 3384,
    "\u2581\u13a6\u13c6\u13d8": 3385,
    "\u2581\u13da\u13e6\u13af\u13cd\u13db": 3386,
    "\u2581\u13d5\u13aa\u13e2\u13e9\u13d7\u13d2": 3387,
    "\u2581\u13a1\u13e3\u13b8\u13c9\u13d7\u13f3": 3388,
    "\u13d9\u13b4\u13b0\u13cf": 3389,
    "\u2581\u13a4\u13c2\u13cd\u13c6\u13c2\u13aa\u13d2\u13a9": 3390,
    "\u2581\u13d7\u13a7\u13c1\u13a2\u13cd\u13d7": 3391,
    "\u2581\u13a6\u13b5\u13a1\u13b5\u13a6": 3392,
    "\u2581\u13a2\u13e5\u13cd\u13c6\u13c2\u13aa\u13d9\u13d7": 3393,
    "\u2581\u13a0\u13c6\u13d3\u13b5\u13a2": 3394,
    "\u2581\u13a1\u13c3\u13f1": 3395,
    "\u2581\u13ac\u13e9\u13d3\u13cd\u13d5\u13b8\u13d7": 3396,
    "\u2581\u13a0\u13d3\u13cd\u13d3\u13f4\u13d7": 3397,
    "\u2581\u13e5\u13c5\u13d7\u13a6\u13b5\u13cd\u13d9\u13d7\u13ad": 3398,
    "\u2581\u13a0\u13c2\u13af\u13d7": 3399,
    "\u2581\u13cc\u13c8": 3400,
    "\u2581\u13a4\u13be\u13db\u13c1\u13b8\u13d7": 3401,
    "\u2581\u13a4\u13c2\u13d1\u13b8\u13d3": 3402,
    "\u2581\u13a4\u13b5\u13ac\u13ad\u13b7\u13f4\u13af": 3403,
    "\u2581\u13a4\u13e2\u13c9\u13d7": 3404,
    "\u13c2\u13d9\u13b2": 3405,
    "\u13ec\u13c2\u13af\u13cd\u13d7": 3406,
    "\u2581\u13ee\u13db": 3407,
    "\u2581\u13d7\u13a6\u13c5\u13af\u13d3": 3408,
    "\u13aa\u13b2\u13cd\u13d9\u13d7": 3409,
    "\u2581\u13ad\u13c2\u13e3": 3410,
    "\u2581\u13a4\u13c2\u13b5\u13e6\u13e9\u13db": 3411,
    "\u2581\u13a4\u13c3\u13af\u13f3\u13d7\u13f1": 3412,
    "\u2581\u13a4\u13ea\u13da\u13b2": 3413,
    "\u2581\u13ae\u13c2\u13b5": 3414,
    "\u2581\u13a0\u13f2\u13d9\u13d7": 3415,
    "\u2581\u13da\u13c1\u13e4\u13b8": 3416,
    "\u2581\u13a2\u13a9\u13a8\u13f3\u13af\u13f3": 3417,
    "\u2581\u13a0\u13d3\u13ea\u13b3\u13a9\u13cd\u13ac": 3418,
    "\u2581\u13a4\u13d3\u13b5\u13d3\u13cd\u13d7": 3419,
    "\u2581\u13a0\u13a6\u13b8\u13d3": 3420,
    "\u2581\u13a4\u13be\u13d5\u13d7\u13f1": 3421,
    "\u2581\u13a2\u13e5\u13c1\u13cd\u13d7": 3422,
    "\u2581\u13a4\u13c3\u13cd\u13db": 3423,
    "\u2581\u13f1\u13cd\u13a6\u13a2\u13ae\u13cd\u13d7": 3424,
    "\u2581\u13a0\u13cb\u13ad": 3425,
    "\u2581\u13ec\u13a9\u13b7\u13e8\u13a9": 3426,
    "\u13c1\u13b8\u13be": 3427,
    "\u2581\u13a4\u13c2\u13e9\u13db\u13ae": 3428,
    "\u2581\u13a0\u13ac\u13ad\u13b8\u13db": 3429,
    "\u2581\u13a4\u13d3\u13c5\u13d6\u13db": 3430,
    "\u2581\u13d3\u13ac\u13c1\u13b5": 3431,
    "\u2581\u13a7\u13eb": 3432,
    "\u2581\u13af\u13a6\u13d9\u13b5": 3433,
    "\u2581\u13a4\u13c2\u13b8\u13c9\u13d4\u13c1": 3434,
    "\u2581\u13a4\u13be\u13a6\u13d9\u13cd\u13d5\u13a2": 3435,
    "\u13b8\u13c1": 3436,
    "\u2581\u13a0\u13d3\u13b4\u13c2\u13cd\u13ac": 3437,
    "\u2581\u13a4\u13d4\u13f2\u13ce\u13b4": 3438,
    "\u2581\u13a0\u13d3\u13f0\u13a8\u13cd\u13d7": 3439,
    "\u2581\u13a0\u13aa\u13d4\u13c5\u13af": 3440,
    "\u2581\u13a0\u13ac\u13d7\u13cd\u13ac\u13a2": 3441,
    "\u2581\u13d7\u13d3\u13ec\u13cd\u13d7": 3442,
    "\u2581\u13d7\u13e5\u13be\u13eb\u13f1": 3443,
    "\u2581\u13e5\u13cd\u13aa\u13b5": 3444,
    "\u2581\u13e7\u13be\u13c4\u13aa\u13eb\u13d2\u13af": 3445,
    "\u2581\u13a4\u13c2\u13cd\u13c6\u13c2\u13aa\u13d9\u13d7": 3446,
    "\u2581\u13a0\u13aa\u13ce\u13ae\u13cd\u13d7": 3447,
    "\u2581\u13a4\u13c5\u13d3\u13d5": 3448,
    "\u2581\u13d7\u13b5\u13cd\u13aa\u13b8\u13d3\u13c1\u13b8\u13af": 3449,
    "\u2581\u13a1\u13cd\u13a6\u13c2": 3450,
    "\u2581\u13a4\u13c2\u13c1\u13e8\u13a9": 3451,
    "\u2581\u13aa\u13e2\u13d7": 3452,
    "\u2581\u13a4\u13cc\u13af\u13b8\u13a2": 3453,
    "\u2581\u13a4\u13be\u13c5\u13d7": 3454,
    "\u2581\u13a0\u13f4\u13e4\u13c2": 3455,
    "\u2581\u13a0\u13c2\u13a9\u13cd\u13ac": 3456,
    "\u13cf\u13f3": 3457,
    "\u2581\u13ac\u13c1\u13cd\u13d7": 3458,
    "\u2581\u13e7\u13c1\u13e4\u13a2": 3459,
    "\u13b7\u13e8": 3460,
    "\u13b3\u13cf\u13d5\u13c2": 3461,
    "\u2581\u13ce\u13c9": 3462,
    "\u2581\u13d3\u13c2\u13a7\u13c5": 3463,
    "\u2581\u13a4\u13c2\u13a9\u13cd\u13d7\u13f1": 3464,
    "\u2581\u13a2\u13a9\u13cd\u13a6\u13c5\u13e8\u13a2": 3465,
    "\u2581\u13a1\u13ae\u13be": 3466,
    "\u2581\u13a0\u13c2\u13ef\u13a2": 3467,
    "\u2581\u13af\u13ec\u13c2\u13cd\u13ac": 3468,
    "\u2581\u13a0\u13c1\u13e2\u13d4\u13c5\u13af": 3469,
    "\u2581\u13a6\u13df\u13ae": 3470,
    "\u2581\u13d3\u13cd\u13db\u13a2": 3471,
    "\u2581\u13a6\u13f2\u13b5": 3472,
    "\u2581\u13a0\u13e5\u13b3": 3473,
    "\u2581\u13a4\u13d3\u13db\u13db\u13c1": 3474,
    "\u2581\u13a4\u13ac\u13eb\u13f3\u13ad": 3475,
    "\u13be\u13c4\u13aa\u13a2\u13cd\u13d7": 3476,
    "\u2581\u13a4\u13ea\u13c5\u13a9": 3477,
    "\u2581\u13a0\u13c7\u13c5\u13cd\u13d7": 3478,
    "\u13c3\u13ae\u13cd\u13a9": 3479,
    "\u2581\u13d7\u13b2": 3480,
    "\u2581\u13d5\u13ac\u13d7\u13cd\u13ac": 3481,
    "\u2581\u13a0\u13b5\u13ae\u13b5\u13a8": 3482,
    "\u2581\u13ef\u13d7\u13ad": 3483,
    "\u2581\u13aa\u13ea\u13b8\u13a9": 3484,
    "\u13b6\u13af\u13cd\u13d7\u13f1": 3485,
    "\u2581\u13a4\u13c2\u13aa\u13b2\u13af": 3486,
    "\u2581\u13a4\u13f0\u13b8\u13ad": 3487,
    "\u13d7\u13cd\u13ac\u13a9": 3488,
    "\u2581\u13a6\u13d3\u13cd\u13ac\u13a2": 3489,
    "\u2581\u13be\u13c6\u13cd\u13db": 3490,
    "\u2581\u13c4\u13db\u13c5\u13a2": 3491,
    "\u2581\u13c4\u13d3\u13b4\u13af": 3492,
    "\u2581\u13d7\u13e3\u13d9\u13d7": 3493,
    "\u2581\u13a4\u13e9\u13db\u13ae": 3494,
    "\u13ab\u13e9": 3495,
    "\u2581\u13ae\u13d3": 3496,
    "\u2581\u13a4\u13c2\u13a9\u13ce\u13a2": 3497,
    "\u13d7\u13a9": 3498,
    "\u13c2\u13d9": 3499,
    "\u2581\u13c5\u13b5\u13cc\u13b5\u13c9": 3500,
    "\u2581\u13c8\u13ac": 3501,
    "\u13be\u13d3\u13e4\u13b5": 3502,
    "\u13ea\u13b8": 3503,
    "\u2581\u13a4\u13c2\u13c1\u13ac": 3504,
    "\u2581\u13d5\u13e8": 3505,
    "\u13ce\u13d7\u13f1": 3506,
    "\u2581\u13a6\u13c5\u13c5\u13a2": 3507,
    "\u13c8\u13b5": 3508,
    "\u2581\u13a4\u13cd\u13a6\u13b4": 3509,
    "\u2581\u13a4\u13ec\u13b8\u13a2": 3510,
    "\u13b5\u13cd\u13da": 3511,
    "\u2581\u13a0\u13aa\u13b5\u13f0\u13d7": 3512,
    "\u13cd\u13d6": 3513,
    "\u2581\u13d0\u13b3\u13c3": 3514,
    "\u2581\u13a4\u13c2\u13a9\u13d2": 3515,
    "\u2581\u13a0\u13c2\u13cd\u13a6\u13be\u13a2": 3516,
    "\u13f2\u13cd\u13d7\u13cd\u13ac": 3517,
    "\u2581\u13c4\u13b5\u13cd\u13d4\u13c2\u13d9\u13b8\u13a2": 3518,
    "\u2581\u13a4\u13b6\u13a9\u13b8\u13c3": 3519,
    "\u2581\u13c4\u13cd\u13d5\u13a2": 3520,
    "\u2581\u13c4\u13be\u13b5\u13cd\u13d3\u13c1\u13b8": 3521,
    "\u2581\u13a4\u13c1\u13e4\u13b8\u13a2": 3522,
    "\u2581\u13b9\u13be": 3523,
    "\u13b5\u13cd\u13d3\u13cf": 3524,
    "\u2581\u13f1\u13c4": 3525,
    "\u2581\u13a8\u13a6\u13ab\u13f4\u13a1": 3526,
    "\u2581\u13d9\u13e7": 3527,
    "\u2581\u13a6\u13c5\u13cd\u13d9\u13d7\u13c3": 3528,
    "\u2581\u13c1\u13b5\u13cd\u13ac": 3529,
    "\u2581\u13d5\u13e5\u13c1\u13b8": 3530,
    "\u13b5\u13b9": 3531,
    "\u2581\u13a4\u13be\u13db\u13a6\u13c5\u13a9": 3532,
    "\u13e8\u13ef": 3533,
    "\u2581\u13e7\u13b5\u13cf": 3534,
    "\u2581\u13e5\u13a6\u13d4\u13ad\u13f0\u13c3": 3535,
    "\u13f2\u13cd\u13d3": 3536,
    "\u13cf\u13b3\u13db\u13d7": 3537,
    "\u2581\u13be\u13c2\u13b3\u13cd\u13d3\u13b8": 3538,
    "\u2581\u13a2\u13d5\u13b2": 3539,
    "\u2581\u13a0\u13c2\u13d4\u13b5\u13ad": 3540,
    "\u2581\u13e3\u13a8": 3541,
    "\u13c6\u13b6": 3542,
    "\u2581\u13da\u13d9": 3543,
    "\u2581\u13d7\u13c1\u13d9\u13b2": 3544,
    "\u2581\u13a4\u13ea\u13c5\u13ce\u13c3": 3545,
    "\u13e5\u13aa": 3546,
    "\u2581\u13e3\u13da\u13b5\u13cd\u13ac": 3547,
    "\u2581\u13a4\u13c4\u13aa\u13e8": 3548,
    "\u2581\u13cf\u13b3": 3549,
    "\u13a2\u13a6": 3550,
    "\u13b7\u13e5\u13cf": 3551,
    "\u2581\u13a4\u13cd\u13c6\u13b8": 3552,
    "\u13c2\u13d9\u13b8": 3553,
    "\u2581\u13a4\u13ec\u13af\u13f3": 3554,
    "\u2581\u13a0\u13c6\u13d3\u13c5\u13db": 3555,
    "\u13a6\u13f0": 3556,
    "\u2581\u13ce\u13b5\u13c3": 3557,
    "\u2581\u13f4\u13d3": 3558,
    "\u2581\u13a6\u13ec\u13c2": 3559,
    "\u2581\u13a4\u13db\u13c5\u13a2\u13cd\u13d4\u13c1": 3560,
    "\u2581\u13c5\u13e9\u13cd\u13db": 3561,
    "\u2581\u13f2\u13a6": 3562,
    "\u2581\u13e6\u13e5": 3563,
    "\u13cd\u13c6\u13b5": 3564,
    "\u13eb\u13d2\u13af": 3565,
    "\u13cd\u13aa\u13af": 3566,
    "\u2581\u13a9\u13b5": 3567,
    "\u2581\u13a4\u13be\u13b5\u13ae\u13b5\u13e4": 3568,
    "\u2581\u13e5\u13c1": 3569,
    "\u2581\u13a6\u13c4\u13b8\u13d2": 3570,
    "\u2581\u13d3\u13e5\u13ef": 3571,
    "\u2581\u13a4\u13aa\u13b2\u13c3": 3572,
    "\u2581\u13d3\u13e4\u13b8": 3573,
    "\u13f4\u13a6": 3574,
    "\u2581\u13d9\u13d8": 3575,
    "\u13e2\u13d4": 3576,
    "\u13e3\u13b3\u13a9": 3577,
    "\u2581\u13f3\u13da\u13b5": 3578,
    "\u2581\u13a6\u13c1\u13df\u13f4\u13cd\u13d7": 3579,
    "\u2581\u13d9\u13e5": 3580,
    "\u2581\u13a4\u13be\u13d3\u13c5\u13ce": 3581,
    "\u13f4\u13b5": 3582,
    "\u2581\u13da\u13a6": 3583,
    "\u2581\u13d3\u13c2\u13b8": 3584,
    "\u2581\u13da\u13e9\u13db\u13ae": 3585,
    "\u13a6\u13d8\u13d3": 3586,
    "\u13a8\u13be": 3587,
    "\u2581\u13c2\u13a6\u13db\u13c1\u13b2": 3588,
    "\u13e9\u13db\u13d7\u13f1": 3589,
    "\u13e3\u13b5": 3590,
    "\u13d3\u13c5\u13d9": 3591,
    "\u13c3\u13b2\u13cf": 3592,
    "\u2581\u13d7\u13a8\u13a6": 3593,
    "\u13b5\u13cd\u13d9": 3594,
    "\u2581\u13ae\u13af": 3595,
    "\u2581\u13f1\u13d3\u13c2": 3596,
    "\u13d5\u13c2": 3597,
    "\u2581\u13a0\u13a6\u13d8\u13f0": 3598,
    "\u13cf\u13c5": 3599,
    "\u2581\u13d9\u13a9\u13be": 3600,
    "\u13cd\u13d3\u13c1\u13af": 3601,
    "\u2581\u13a2\u13e5\u13b2": 3602,
    "\u2581\u13a4\u13c4\u13e2": 3603,
    "\u13a7\u13cf": 3604,
    "\u2581\u13d9\u13c9": 3605,
    "\u13d5\u13b8": 3606,
    "\u13c5\u13e9": 3607,
    "\u2581\u13a4\u13cd\u13c9\u13df": 3608,
    "\u2581\u13ac\u13e9\u13db\u13d7": 3609,
    "\u2581\u13da\u13ed": 3610,
    "\u13a7\u13b2": 3611,
    "\u13a7\u13c1\u13b8": 3612,
    "\u2581\u13d7\u13ab": 3613,
    "\u2581\u13c2\u13e8": 3614,
    "\u2581\u13da\u13c1": 3615,
    "\u13a9\u13a1\u13b8": 3616,
    "\u2581\u13d7\u13f0": 3617,
    "\u13eb\u13db": 3618,
    "\u13dd\u13c5": 3619,
    "\u2581\u13a4\u13cd\u13c6\u13c2\u13aa\u13ce": 3620,
    "\u13a9\u13cd\u13a8": 3621,
    "\u2581\u13a7\u13c3\u13ae": 3622,
    "\u13d3\u13c2\u13f4": 3623,
    "\u13da\u13a2\u13cd\u13d3\u13c1\u13b8\u13af": 3624,
    "\u2581\u13e7\u13b3": 3625,
    "\u13d9\u13b5\u13cd\u13d7": 3626,
    "\u2581\u13f1\u13ac\u13a9": 3627,
    "\u13d3\u13c1\u13af": 3628,
    "\u2581\u13a3\u13d2": 3629,
    "\u13d7\u13a8": 3630,
    "\u13cd\u13c6\u13c2\u13aa": 3631,
    "\u13c2\u13eb": 3632,
    "\u13a6\u13db\u13c5": 3633,
    "\u2581\u13a4\u13c2\u13b7\u13e4\u13b8": 3634,
    "\u2581\u13da\u13b5": 3635,
    "\u2581\u13a0\u13d7\u13d4": 3636,
    "\u13d3\u13e5": 3637,
    "\u13b5\u13db": 3638,
    "\u2581\u13a6\u13c2\u13cf": 3639,
    "\u2581\u13a4\u13be\u13d3\u13d1\u13f4": 3640,
    "\u2581\u13a0\u13c2\u13b6": 3641,
    "\u13ea\u13ce\u13a2": 3642,
    "\u2581\u13d7\u13a7": 3643,
    "\u13be\u13a1": 3644,
    "\u13cd\u13d3\u13c1\u13b8": 3645,
    "\u13b2\u13cd\u13a8": 3646,
    "\u2581\u13a0\u13be\u13b5\u13c5\u13df\u13c3": 3647,
    "\u13ef\u13d7": 3648,
    "\u2581\u13d3\u13c6\u13a7\u13be\u13c5": 3649,
    "\u2581\u13af\u13cd\u13a9\u13a6": 3650,
    "\u2581\u13a7\u13b5": 3651,
    "\u2581\u13d3\u13f3\u13c2": 3652,
    "\u13a7\u13b5\u13a2": 3653,
    "\u13f0\u13b8\u13d2\u13a9": 3654,
    "\u2581\u13a9\u13ef": 3655,
    "\u2581\u13d9\u13ef": 3656,
    "\u13ef\u13a6": 3657,
    "\u2581\u13d7\u13a6\u13d3": 3658,
    "\u13a6\u13f4\u13b5\u13a8": 3659,
    "\u2581\u13ad\u13d7": 3660,
    "\u13eb\u13ce\u13b4\u13a2": 3661,
    "\u13e5\u13a6\u13d4\u13ad": 3662,
    "\u13e5\u13c5": 3663,
    "\u13c1\u13d3": 3664,
    "\u13b8\u13d3": 3665,
    "\u13e2\u13be": 3666,
    "\u2581\u13aa\u13a6": 3667,
    "\u13ae\u13be": 3668,
    "\u2581\u13e6\u13cf": 3669,
    "\u2581\u13be\u13cd": 3670,
    "\u2581\u13c8\u13b5": 3671,
    "\u13e4\u13ea": 3672,
    "\u13aa\u13a6": 3673,
    "\u2581\u13d1\u13be\u13b4\u13c9": 3674,
    "\u13d7\u13e2": 3675,
    "\u13c7\u13c5": 3676,
    "\u13aa\u13e9\u13db\u13d7\u13f1": 3677,
    "\u13c4\u13aa\u13eb\u13cf": 3678,
    "\u13a1\u13b5\u13cd\u13d7": 3679,
    "\u2581\u13e6\u13d2": 3680,
    "\u2581\u13a0\u13c6\u13b5\u13cd\u13d3\u13f4\u13d7": 3681,
    "\u13d4\u13f2\u13ce\u13ad": 3682,
    "\u2581\u13e5\u13b7\u13cf\u13b5\u13bb\u13c3": 3683,
    "\u13ce\u13b5": 3684,
    "\u13da\u13d3\u13b4": 3685,
    "\u13c1\u13b2\u13be": 3686,
    "\u13b3\u13c2": 3687,
    "\u13c2\u13a6\u13d3": 3688,
    "\u13f2\u13cd\u13d4\u13c5": 3689,
    "\u2581\u13a4\u13f2\u13af\u13cd\u13d4\u13c1": 3690,
    "\u13a6\u13d4\u13ae": 3691,
    "\u13e9\u13d7\u13d2\u13a2": 3692,
    "\u13b5\u13c2\u13a9\u13d7\u13f3": 3693,
    "\u2581\u13c2\u13a6\u13d7\u13f3\u13c3": 3694,
    "\u13e7\u13ac": 3695,
    "\u2581\u13d0": 3696,
    "\u13da\u13d3\u13b4\u13cd\u13d9\u13d7": 3697,
    "\u13d7\u13cf": 3698,
    "\u2581\u13d7\u13a9\u13f2\u13af": 3699,
    "r": 3700,
    "\u13be\u13c4\u13aa\u13e8\u13af": 3701,
    "\u2581\u13a7\u13c2\u13b5\u13ef": 3702,
    "\u2581\u13d7\u13aa\u13d1\u13b4\u13d7\u13f1": 3703,
    "\u13d0\u13c9": 3704,
    "\u2581\u13a1\u13c2\u13be\u13ef": 3705,
    "\u2581\u13a0\u13cd": 3706,
    "\u2581\u13f1\u13a8\u13e3": 3707,
    "\u2581\u13c2\u13ac\u13c1\u13b2": 3708,
    "\u13a0\u13b9": 3709,
    "\u13f0\u13db": 3710,
    "\u13a6\u13d8\u13f4": 3711,
    "\u13cd\u13c8\u13ef": 3712,
    "\u13db\u13a9\u13ad": 3713,
    "\u13b5\u13cd\u13d3\u13f4\u13d7\u13f1": 3714,
    "\u13c1\u13a6": 3715,
    "\u2581\u13c2\u13e3\u13db\u13c1\u13b2": 3716,
    "\u13d5\u13b0": 3717,
    "\u2581\u13da\u13be\u13c4\u13aa\u13eb\u13ce\u13b4": 3718,
    "\u2581\u13a4\u13b5\u13ae\u13b5\u13e8": 3719,
    "\u13a6\u13b5\u13b7\u13a8\u13cd\u13d7": 3720,
    "\u2581\u13a0\u13cd\u13c6\u13b5\u13cd\u13ac": 3721,
    "\u2581\u13d9\u13d3\u13c6\u13cd\u13ac": 3722,
    "\u2581\u13d3\u13c2\u13d9\u13a8": 3723,
    "\u2581\u13d5\u13a6\u13b6\u13a8\u13d2": 3724,
    "\u2581\u13a4\u13e6\u13f1\u13b4": 3725,
    "\u13c2\u13cc": 3726,
    "\u13d7\u13a6\u13b5\u13a0\u13c5\u13af\u13db": 3727,
    "\u2581\u13ae\u13b5\u13a0": 3728,
    "\u2581\u13a4\u13be\u13c4\u13aa\u13eb\u13ce\u13b4": 3729,
    "\u2581\u13a7\u13c1\u13cc": 3730,
    "\u13c2\u13d9\u13af": 3731,
    "\u2581\u13ed\u13c2\u13b6\u13ce": 3732,
    "\u2581\u13d5\u13e3\u13d3\u13c5\u13db": 3733,
    "\u2581\u13a4\u13e9\u13d4\u13c5": 3734,
    "\u13d1\u13be\u13b4": 3735,
    "\u2581\u13c4\u13be\u13db\u13c1\u13b4": 3736,
    "\u13a6\u13d4\u13b0": 3737,
    "\u2581\u13a4\u13cc\u13af\u13b8": 3738,
    "\u2581\u13da\u13e9\u13c2\u13a6\u13b8": 3739,
    "\u2581\u13a0\u13be\u13b5\u13ae\u13b5\u13a8": 3740,
    "\u2581\u13a4\u13be\u13c4\u13aa\u13eb\u13d2": 3741,
    "\u2581\u13a4\u13ea\u13f4": 3742,
    "\u2581\u13d3\u13d5\u13f2\u13b2\u13cd\u13a8": 3743,
    "\u13e2\u13c2": 3744,
    "\u2581\u13ec\u13a9\u13b7\u13e8": 3745,
    "\u2581\u13a1\u13b5\u13cd\u13ac": 3746,
    "\u2581\u13c2\u13a6\u13c5\u13af\u13d2": 3747,
    "\u13e7\u13c8\u13cd\u13d7": 3748,
    "\u2581\u13a4\u13ac\u13eb\u13f3\u13ce\u13cd\u13d7": 3749,
    "\u2581\u13d5\u13a6\u13a7\u13b2": 3750,
    "\u2581\u13a0\u13a9\u13c1": 3751,
    "\u2581\u13a2\u13e3\u13da\u13b5": 3752,
    "\u2581\u13a2\u13a8\u13ac\u13c1\u13d7": 3753,
    "\u13d9\u13b5\u13e8": 3754,
    "\u2581\u13a4\u13be\u13a9\u13b8": 3755,
    "\u13b0\u13b5": 3756,
    "\u2581\u13e7\u13ed\u13aa\u13d9\u13d7": 3757,
    "\u13b6\u13c1": 3758,
    "\u2581\u13a4\u13c1\u13dd\u13c5": 3759,
    "\u2581\u13af\u13cd\u13a9\u13c1": 3760,
    "\u2581\u13aa\u13cc\u13c2": 3761,
    "\u2581\u13e7\u13c2\u13b8\u13eb\u13cd\u13d3\u13c1\u13d7": 3762,
    "\u13a6\u13d8\u13d5\u13af": 3763,
    "\u13c4\u13d3\u13b4": 3764,
    "\u2581\u13a4\u13e5\u13b8\u13d2": 3765,
    "\u2581\u13a0\u13af\u13d7": 3766,
    "\u2581\u13a0\u13b5\u13cf\u13be\u13af\u13cd\u13d4\u13c5\u13af": 3767,
    "\u2581\u13a0\u13be\u13d3\u13cd\u13a6\u13b6\u13a9": 3768,
    "\u2581\u13a0\u13c2\u13f0\u13aa\u13a9": 3769,
    "\u2581\u13a0\u13d0\u13a5\u13cd\u13d9\u13d7": 3770,
    "\u2581\u13a0\u13f2\u13d3\u13cc\u13b2": 3771,
    "\u2581\u13a2\u13e3\u13b5\u13ae\u13b5\u13a8\u13cd\u13d7": 3772,
    "\u2581\u13a4\u13b5\u13cf\u13c2\u13d5\u13c5": 3773,
    "\u2581\u13a4\u13be\u13d7\u13cd\u13a6\u13df": 3774,
    "\u2581\u13a4\u13e9\u13ad\u13c2\u13b4": 3775,
    "\u2581\u13c1\u13b3\u13e7\u13c8": 3776,
    "\u2581\u13c4\u13be\u13d3\u13a1\u13cd\u13d7": 3777,
    "\u2581\u13c5\u13e7\u13d3\u13b4\u13c5\u13b2\u13be": 3778,
    "\u2581\u13d5\u13e5\u13a7\u13bf\u13e9\u13d7\u13d9\u13ae\u13cd\u13d7": 3779,
    "\u2581\u13da\u13ef\u13ea\u13a8": 3780,
    "\u2581\u13e3\u13d3\u13f2\u13c1\u13b8\u13a9": 3781,
    "\u2581\u13f1\u13e4\u13b5\u13af\u13cd\u13a8\u13cd\u13d7": 3782,
    "\u2581\u13a0\u13aa\u13d5\u13cd\u13a9": 3783,
    "\u2581\u13a0\u13d3\u13f2\u13c1\u13ae\u13cd\u13d7": 3784,
    "\u2581\u13aa\u13b0\u13cd\u13d8": 3785,
    "\u2581\u13d7\u13e6\u13ea\u13b5\u13cd\u13a9": 3786,
    "\u2581\u13a2\u13e7\u13b4\u13ad": 3787,
    "\u2581\u13a8\u13b4\u13cf\u13f1": 3788,
    "\u2581\u13a6\u13c5\u13c3\u13e9": 3789,
    "\u2581\u13d0\u13a3\u13c1\u13b3\u13e7\u13c8": 3790,
    "\u2581\u13a0\u13e6\u13b3\u13c5": 3791,
    "\u2581\u13c5\u13db\u13c6\u13d3\u13b4\u13c5\u13af": 3792,
    "\u2581\u13ae\u13ef\u13d4\u13ae\u13cd\u13d7": 3793,
    "\u2581\u13e7\u13e3\u13f2\u13cd\u13d7": 3794,
    "\u2581\u13a0\u13be\u13d3\u13cd\u13d3\u13e9\u13d7\u13d9\u13af": 3795,
    "\u2581\u13c5\u13e5\u13ea\u13ce\u13b8\u13a9": 3796,
    "\u2581\u13a4\u13ea\u13d0\u13c5\u13f4": 3797,
    "\u2581\u13da\u13cd\u13d3\u13a6\u13b8": 3798,
    "\u2581\u13a4\u13db\u13b4\u13ae": 3799,
    "\u2581\u13e7\u13c1\u13bf\u13a2": 3800,
    "\u2581\u13a2\u13f3\u13ea\u13ce\u13b8\u13af": 3801,
    "\u2581\u13c7\u13b5\u13e5\u13c6": 3802,
    "\u2581\u13be\u13a8\u13a2\u13f4": 3803,
    "\u2581\u13a0\u13ef\u13d6\u13c5": 3804,
    "\u2581\u13a2\u13a7\u13c1\u13a2\u13cd\u13d7\u13cd\u13a8\u13cd\u13d7": 3805,
    "\u2581\u13a4\u13a6\u13d4\u13d4\u13c5\u13af": 3806,
    "\u2581\u13d7\u13a7\u13c3\u13a9\u13cd\u13d9\u13d7": 3807,
    "\u2581\u13a4\u13b5\u13f2\u13d7": 3808,
    "\u2581\u13cf\u13b5\u13cf\u13f1": 3809,
    "\u2581\u13e6\u13a2\u13e7\u13c8": 3810,
    "\u2581\u13c2\u13a9\u13ea\u13cf": 3811,
    "\u2581\u13d3\u13f2\u13e4\u13cf": 3812,
    "\u2581\u13a4\u13ed\u13e2\u13d4\u13c5\u13a9": 3813,
    "\u2581\u13d5\u13e5\u13c3\u13a9\u13cd\u13a8\u13cd\u13d7": 3814,
    "\u2581\u13a4\u13b6\u13d7\u13e2": 3815,
    "\u2581\u13b2\u13d3": 3816,
    "\u2581\u13d3\u13ad\u13cf": 3817,
    "\u2581\u13f0\u13d9\u13ad": 3818,
    "\u2581\u13a0\u13cd\u13a9\u13d7\u13cd\u13a8\u13a2": 3819,
    "\u2581\u13e7\u13be\u13ac\u13e9\u13b6\u13d7": 3820,
    "\u2581\u13eb\u13e8\u13f2\u13ea\u13b3\u13cf": 3821,
    "\u2581\u13a2\u13e6\u13af\u13f3\u13d7\u13f1": 3822,
    "\u2581\u13a2\u13ac\u13db\u13c1\u13d7": 3823,
    "\u2581\u13cd\u13a9\u13cd\u13d3\u13e9\u13da\u13a6": 3824,
    "\u2581\u13d4\u13d8\u13c4\u13a6": 3825,
    "\u2581\u13cd\u13aa\u13af\u13cd\u13c6": 3826,
    "\u2581\u13a2\u13ef\u13e5\u13b8\u13c9\u13d7": 3827,
    "\u2581\u13a4\u13ec\u13c2\u13ce": 3828,
    "\u2581\u13a6\u13c2\u13a9\u13b8": 3829,
    "\u2581\u13d1\u13d3\u13b5\u13cd\u13aa\u13af": 3830,
    "\u2581\u13da\u13b7\u13eb\u13cd\u13d4\u13c1\u13ae": 3831,
    "\u2581\u13e5\u13a6\u13d8\u13cf": 3832,
    "\u2581\u13c2\u13a9\u13ea\u13ce\u13b8\u13ad": 3833,
    "\u2581\u13d7\u13a6\u13b6\u13d4\u13c5": 3834,
    "\u2581\u13c3\u13a9\u13ea\u13ce\u13b8": 3835,
    "\u2581\u13d3\u13f1\u13be": 3836,
    "\u2581\u13ac\u13ec\u13af\u13f3\u13c5\u13a9": 3837,
    "\u2581\u13d7\u13ab\u13aa\u13d7\u13cd\u13a9": 3838,
    "\u2581\u13e7\u13c2\u13b6\u13b8\u13d7": 3839,
    "\u2581\u13bf\u13db\u13a6": 3840,
    "\u2581\u13e5\u13da\u13f3\u13aa\u13d7": 3841,
    "\u2581\u13eb\u13d7\u13b6\u13af": 3842,
    "\u2581\u13f1\u13c2\u13ac\u13c1\u13ad": 3843,
    "\u2581\u13c4\u13ea\u13b2\u13be": 3844,
    "\u2581\u13a0\u13be\u13b5\u13cd\u13d5\u13b5\u13cd\u13a9": 3845,
    "\u2581\u13c2\u13f4\u13c1\u13b8": 3846,
    "\u2581\u13aa\u13ea\u13b4": 3847,
    "\u2581\u13cd\u13a9\u13a8\u13f3\u13a2\u13f3": 3848,
    "\u2581\u13d3\u13a6\u13db\u13c1\u13b5": 3849,
    "\u2581\u13a3\u13a6\u13da\u13b5\u13ad": 3850,
    "\u2581\u13c2\u13e3\u13db\u13bf\u13d5\u13ac\u13a2": 3851,
    "\u2581\u13a0\u13c2\u13aa\u13b2\u13ad": 3852,
    "\u2581\u13da\u13a8\u13d3\u13b5\u13f4": 3853,
    "\u2581\u13eb\u13e5\u13b7\u13e8\u13ad": 3854,
    "\u2581\u13a4\u13e3\u13db\u13a9": 3855,
    "\u2581\u13cd\u13c8\u13cd\u13d4": 3856,
    "\u2581\u13d7\u13e3\u13a7\u13c5\u13a6": 3857,
    "\u2581\u13d7\u13a9\u13b8\u13eb\u13cd\u13d3\u13c1\u13d7\u13f1": 3858,
    "\u2581\u13a0\u13d3\u13ea\u13af": 3859,
    "\u2581\u13d5\u13aa\u13ea\u13b4\u13cd\u13d7": 3860,
    "\u2581\u13d7\u13a6\u13ec\u13c2\u13af\u13cd\u13d7": 3861,
    "\u2581\u13a1\u13e5\u13ef\u13c5\u13db": 3862,
    "\u2581\u13e7\u13be\u13c4\u13aa\u13eb\u13ce\u13d7\u13f1": 3863,
    "\u2581\u13d7\u13be\u13a2\u13d2": 3864,
    "\u2581\u13a0\u13c2\u13a6\u13f2\u13df": 3865,
    "\u2581\u13aa\u13af\u13a2\u13f4": 3866,
    "\u2581\u13a0\u13d3\u13c1\u13e3\u13cd\u13da\u13b6\u13a9\u13af": 3867,
    "\u2581\u13a8\u13e5\u13c5\u13d2\u13af": 3868,
    "\u2581\u13a2\u13e3\u13da\u13b5\u13cd\u13a8\u13cd\u13d7": 3869,
    "\u2581\u13a8\u13e5\u13cd\u13d5\u13b8\u13d7": 3870,
    "\u2581\u13e7\u13b7\u13eb\u13cd\u13d4\u13c1\u13d7": 3871,
    "\u2581\u13a6\u13c3\u13d9\u13d7\u13f1": 3872,
    "\u2581\u13a4\u13be\u13d3\u13d9\u13b5\u13cd\u13d3\u13c1\u13b8\u13a9": 3873,
    "\u2581\u13a1\u13e5\u13c5\u13cf\u13d3\u13cd\u13d7": 3874,
    "\u2581\u13af\u13b8\u13c9\u13d3": 3875,
    "\u2581\u13a0\u13d3\u13c5\u13d6\u13cd\u13aa": 3876,
    "\u2581\u13a0\u13e5\u13b8\u13f3\u13b5": 3877,
    "\u2581\u13ad\u13d3\u13c5\u13be": 3878,
    "\u2581\u13e7\u13c2\u13ec\u13c2\u13af\u13cd\u13d7": 3879,
    "\u2581\u13e7\u13d3\u13b5\u13a2": 3880,
    "\u2581\u13e5\u13e7\u13e3": 3881,
    "\u2581\u13a2\u13e3\u13d3\u13c5\u13d8": 3882,
    "\u2581\u13c7\u13d7\u13c2\u13f1": 3883,
    "\u2581\u13a2\u13e3\u13db\u13d3\u13cd\u13d3": 3884,
    "\u2581\u13a0\u13ab\u13e9\u13cc": 3885,
    "\u2581\u13d7\u13e3\u13d3\u13b4\u13c5\u13db": 3886,
    "\u2581\u13a2\u13e5\u13e0\u13f1": 3887,
    "\u2581\u13a0\u13cd\u13d5\u13ef\u13d3": 3888,
    "\u2581\u13a2\u13e5\u13ef\u13a1\u13cd\u13d7": 3889,
    "\u2581\u13e5\u13f0\u13b8\u13a2": 3890,
    "\u2581\u13a4\u13c1\u13c9\u13e8\u13af": 3891,
    "\u2581\u13a2\u13a6\u13b5\u13cd\u13d9\u13d7\u13f1": 3892,
    "\u2581\u13e5\u13e3\u13db\u13a9\u13ad": 3893,
    "\u2581\u13a4\u13c1\u13cd\u13a9\u13b8": 3894,
    "\u2581\u13a4\u13cd\u13a6\u13a3\u13c5": 3895,
    "\u2581\u13a4\u13b5\u13cd\u13da\u13a2\u13db": 3896,
    "\u2581\u13a4\u13ac\u13a5\u13cd\u13a9": 3897,
    "\u2581\u13a4\u13b4\u13f4\u13d2": 3898,
    "\u2581\u13a4\u13d3\u13d9\u13b5\u13e3\u13db": 3899,
    "\u2581\u13a6\u13c1": 3900,
    "\u2581\u13a4\u13be\u13db\u13c5\u13a9": 3901,
    "\u2581\u13a0\u13af\u13d7\u13f3": 3902,
    "\u2581\u13a4\u13c3\u13af\u13f3\u13c5\u13af": 3903,
    "\u2581\u13a1\u13e5\u13c1\u13d7": 3904,
    "\u2581\u13da\u13ad\u13c4\u13ee": 3905,
    "\u13a4\u13f2": 3906,
    "\u2581\u13e3\u13d9\u13b3\u13c5\u13cd\u13d7": 3907,
    "\u2581\u13a4\u13c2\u13a9\u13b5\u13f2\u13a2\u13cd\u13d7": 3908,
    "\u2581\u13be\u13ef\u13db\u13a5\u13a9": 3909,
    "\u2581\u13a2\u13aa\u13ea\u13b3": 3910,
    "\u2581\u13a4\u13db\u13d2\u13af": 3911,
    "\u2581\u13c2\u13e8\u13a6": 3912,
    "\u13d8\u13c3\u13b8": 3913,
    "\u2581\u13a4\u13be\u13c2\u13a9\u13d2\u13a9": 3914,
    "\u2581\u13a4\u13c3\u13af\u13f3\u13c5\u13a9": 3915,
    "\u2581\u13a1\u13b5\u13cd\u13a8\u13a2": 3916,
    "\u2581\u13e5\u13f3\u13aa\u13d7": 3917,
    "\u13be\u13c4\u13aa\u13eb\u13d2\u13af": 3918,
    "\u2581\u13d7\u13d8\u13f2\u13af": 3919,
    "\u2581\u13a4\u13d4\u13c2\u13d3": 3920,
    "\u13d3\u13d3\u13cd\u13ac": 3921,
    "\u2581\u13a2\u13cd\u13d5\u13be": 3922,
    "\u2581\u13a4\u13d9\u13af\u13f3\u13af\u13cd\u13a9\u13c2\u13c3\u13c5": 3923,
    "\u2581\u13b9\u13a6": 3924,
    "\u2581\u13a0\u13e0\u13d7\u13f1": 3925,
    "\u2581\u13a4\u13be\u13db\u13aa\u13d7\u13f1": 3926,
    "\u2581\u13a4\u13f2\u13a2\u13f4": 3927,
    "\u2581\u13a0\u13a9\u13b5\u13a8\u13c2": 3928,
    "\u2581\u13a9\u13b3\u13af\u13f3": 3929,
    "\u2581\u13a4\u13c2\u13aa\u13e9\u13db\u13d7\u13f1": 3930,
    "\u2581\u13eb\u13e5\u13a6\u13db\u13a2": 3931,
    "\u2581\u13a4\u13ea\u13cd\u13a9\u13b8\u13a2": 3932,
    "\u2581\u13a0\u13a6\u13d4\u13af\u13f3": 3933,
    "\u2581\u13d4\u13ef": 3934,
    "\u2581\u13d3\u13e8\u13c1\u13b5": 3935,
    "\u2581\u13c2\u13da\u13e9\u13c1\u13b4\u13a2": 3936,
    "\u2581\u13ef\u13c2\u13a6\u13d4\u13ae": 3937,
    "\u2581\u13a4\u13bf\u13b7\u13d2\u13a9": 3938,
    "\u2581\u13e5\u13d9\u13a6": 3939,
    "\u2581\u13a4\u13d3\u13f4\u13ce\u13a2": 3940,
    "\u2581\u13e7\u13b3\u13cd\u13a9": 3941,
    "\u2581\u13a4\u13c2\u13e0\u13f1\u13ad": 3942,
    "\u13cd\u13da\u13a2\u13d2": 3943,
    "\u2581\u13a0\u13e9\u13be\u13a6\u13b3": 3944,
    "\u2581\u13d3\u13be\u13d5\u13f2\u13b2\u13cd\u13ac": 3945,
    "\u2581\u13d7\u13be\u13d3\u13aa\u13be\u13d7\u13cd\u13ac\u13a2": 3946,
    "\u2581\u13a4\u13e9\u13d4\u13c5\u13a9": 3947,
    "\u2581\u13aa\u13b5\u13cd\u13d7": 3948,
    "\u2581\u13a0\u13c2\u13f4\u13a9": 3949,
    "\u2581\u13a6\u13d3\u13d9\u13b5\u13cd\u13d7\u13cd\u13ac\u13a2": 3950,
    "\u2581\u13dd\u13a8": 3951,
    "\u2581\u13a4\u13ea\u13a7\u13c1\u13a2": 3952,
    "\u2581\u13a0\u13be\u13d3\u13aa\u13be\u13d7\u13cd\u13ac\u13a2": 3953,
    "\u2581\u13a0\u13a2\u13d2\u13a9": 3954,
    "\u2581\u13ed\u13c2\u13b7\u13e8\u13a9": 3955,
    "\u2581\u13a6\u13b5\u13c9\u13a9\u13c1\u13cd\u13a9\u13c2": 3956,
    "\u2581\u13a0\u13c2\u13c3\u13ae\u13ad": 3957,
    "\u2581\u13af\u13be\u13a9": 3958,
    "\u2581\u13a4\u13d5\u13b6\u13b0\u13d2": 3959,
    "\u2581\u13e5\u13c1\u13a6": 3960,
    "\u13cd\u13d5\u13d3\u13b5\u13f4": 3961,
    "\u2581\u13a2\u13f3\u13d2\u13af": 3962,
    "\u2581\u13a4\u13be\u13c2\u13a9\u13ce\u13a2": 3963,
    "\u2581\u13a4\u13d3\u13d9\u13b5\u13cd\u13d4\u13c1\u13a2": 3964,
    "\u2581\u13a4\u13da\u13d3\u13b4\u13db": 3965,
    "\u2581\u13a0\u13e8\u13cd\u13db": 3966,
    "\u2581\u13b6\u13bb": 3967,
    "\u13d1\u13b4": 3968,
    "\u2581\u13a4\u13e6\u13f1\u13b4\u13a2": 3969,
    "\u13b7\u13ac": 3970,
    "\u2581\u13a0\u13b2\u13db": 3971,
    "\u2581\u13c7\u13b5\u13a9": 3972,
    "\u2581\u13a6\u13a2\u13d2": 3973,
    "\u2581\u13da\u13e9\u13c2\u13a6\u13b8\u13a2": 3974,
    "\u2581\u13a4\u13a9\u13d2\u13a9": 3975,
    "\u2581\u13eb\u13a6\u13b7\u13ac": 3976,
    "\u13de\u13a2": 3977,
    "\u2581\u13a0\u13a9\u13c1\u13e8\u13a2": 3978,
    "\u2581\u13a4\u13be\u13d5\u13d7": 3979,
    "\u2581\u13a0\u13da\u13d3\u13b4\u13cd\u13d7": 3980,
    "\u2581\u13a4\u13d7\u13db\u13ae\u13a2": 3981,
    "\u2581\u13a4\u13c7\u13d3\u13b5\u13c9": 3982,
    "\u2581\u13a4\u13f0\u13e8": 3983,
    "\u2581\u13cd\u13aa\u13af": 3984,
    "\u2581\u13a4\u13a9\u13ce\u13a2": 3985,
    "\u2581\u13eb\u13d3\u13c2": 3986,
    "\u2581\u13cd\u13aa\u13c1": 3987,
    "\u13b2\u13cd\u13ac\u13be": 3988,
    "\u2581\u13a4\u13c4\u13aa\u13e4\u13a2": 3989,
    "\u2581\u13c4\u13e9\u13c1\u13b8\u13a9": 3990,
    "\u2581\u13e6\u13be": 3991,
    "\u2581\u13a2\u13a6\u13a6\u13d3": 3992,
    "\u2581\u13eb\u13da\u13ef\u13c5\u13ae\u13a2": 3993,
    "\u2581\u13a2\u13a6\u13b5\u13a2": 3994,
    "\u2581\u13a4\u13b5\u13cd\u13c6\u13db": 3995,
    "\u2581\u13ab\u13a6": 3996,
    "\u2581\u13a1\u13d3\u13cd\u13d7": 3997,
    "\u2581\u13b7\u13c8\u13c2\u13c3": 3998,
    "\u2581\u13a4\u13d3\u13c5\u13d9\u13a9": 3999,
    "\u2581\u13a1\u13d9": 4000,
    "\u2581\u13a0\u13d3\u13af\u13af": 4001,
    "\u2581\u13a4\u13be\u13c4\u13aa\u13a2\u13cd\u13d7": 4002,
    "\u2581\u13a1\u13be\u13a2": 4003,
    "\u2581\u13a2\u13e8\u13c3\u13ae\u13ae\u13b8": 4004,
    "\u2581\u13a4\u13be\u13d3\u13c5\u13d6\u13b4": 4005,
    "\u2581\u13c2\u13da\u13a9\u13e8\u13c2\u13d2\u13a2": 4006,
    "\u2581\u13e9\u13be": 4007,
    "\u2581\u13a4\u13aa\u13e9\u13db\u13d7\u13f1": 4008,
    "\u13e0\u13af": 4009,
    "\u2581\u13d7\u13a9\u13a6\u13f4\u13b5\u13a8\u13a2": 4010,
    "\u13d3\u13c1\u13ae": 4011,
    "\u2581\u13d3\u13a7": 4012,
    "\u2581\u13e7\u13c4\u13ec": 4013,
    "\u13ea\u13ce": 4014,
    "\u2581\u13a4\u13cd\u13aa\u13d2": 4015,
    "\u2581\u13a0\u13e6\u13f4\u13a2": 4016,
    "\u2581\u13c2\u13d5\u13ac\u13c1\u13b2": 4017,
    "\u2581\u13a4\u13c1\u13c5\u13ce\u13c3": 4018,
    "\u2581\u13d5\u13e3\u13d9\u13a5\u13a2": 4019,
    "\u2581\u13a4\u13b7\u13e4\u13b4\u13a2": 4020,
    "\u2581\u13a4\u13c2\u13aa\u13b2\u13a9": 4021,
    "\u2581\u13da\u13b4\u13c5\u13c3": 4022,
    "\u13c5\u13c5\u13a2": 4023,
    "\u13a1\u13b8\u13af": 4024,
    "\u2581\u13a4\u13c2\u13e3\u13d6\u13cd\u13d7": 4025,
    "\u2581\u13a0\u13f0\u13df": 4026,
    "\u2581\u13e6\u13a0": 4027,
    "\u2581\u13a4\u13c2\u13f0\u13b8\u13ce": 4028,
    "\u2581\u13a0\u13d3\u13eb\u13c3": 4029,
    "\u13e9\u13db\u13af": 4030,
    "\u2581\u13d7\u13aa\u13e2\u13c5\u13af": 4031,
    "\u13b2\u13d2": 4032,
    "\u2581\u13a8\u13cd\u13d7\u13d7": 4033,
    "\u2581\u13e5\u13d5\u13e3": 4034,
    "\u13d7\u13b9": 4035,
    "\u13e5\u13f2": 4036,
    "\u2581\u13e3\u13d7\u13ad": 4037,
    "\u2581\u13e5\u13c4\u13cd\u13d5": 4038,
    "\u13cd\u13a9\u13b8": 4039,
    "\u2581\u13c4\u13ea\u13ce\u13b8\u13a2": 4040,
    "\u13c4\u13cd\u13db": 4041,
    "\u2581\u13a4\u13c2\u13f4\u13ae": 4042,
    "s": 4043,
    "\u2581\u13da\u13c1\u13e4\u13b4\u13c3": 4044,
    "\u13d3\u13a8": 4045,
    "\u2581\u13b2\u13a6": 4046,
    "\u13c4\u13aa\u13eb\u13d2\u13a9": 4047,
    "\u2581\u13d3\u13d4\u13b4\u13d2\u13a2": 4048,
    "\u2581\u13a0\u13f0\u13b5\u13d2": 4049,
    "\u2581\u13da\u13f2\u13ce": 4050,
    "\u2581\u13a0\u13e3": 4051,
    "\u2581\u13a4\u13be\u13dd\u13a2\u13c3": 4052,
    "\u2581\u13bb\u13b3": 4053,
    "\u13c2\u13f4\u13b2": 4054,
    "\u13ac\u13e9\u13c2": 4055,
    "\u13d2\u13c2": 4056,
    "\u13a1\u13b2": 4057,
    "\u2581\u13a4\u13be\u13d3\u13c5\u13d6\u13b8": 4058,
    "\u2581\u13a2\u13f3\u13be": 4059,
    "\u2581\u13a4\u13c1\u13e4\u13a2": 4060,
    "\u2581\u13a4\u13c1\u13e4\u13b4\u13a2": 4061,
    "\u2581\u13eb\u13c4": 4062,
    "\u2581\u13a4\u13cd\u13a6\u13c5\u13e8\u13a2": 4063,
    "\u13ef\u13a1": 4064,
    "\u2581\u13a4\u13e9\u13d4\u13c1": 4065,
    "\u2581\u13a0\u13a6\u13f4\u13b5\u13a8\u13f0\u13c3": 4066,
    "\u2581\u13a4\u13b5\u13cd\u13c6\u13d5": 4067,
    "\u13ac\u13c2\u13a8": 4068,
    "\u2581\u13e7\u13c1\u13e4\u13b4": 4069,
    "\u2581\u13a4\u13b5\u13cd\u13c6\u13b8\u13d7\u13c3": 4070,
    "\u13c5\u13e4": 4071,
    "\u2581\u13a0\u13d0\u13f4": 4072,
    "\u2581\u13a1\u13b6\u13db\u13c3": 4073,
    "\u2581\u13a4\u13be\u13d9\u13d3\u13c6\u13cd\u13ac\u13c3": 4074,
    "\u13f4\u13d9\u13d7": 4075,
    "\u2581\u13a2\u13b8\u13cd\u13a9\u13c3": 4076,
    "\u13d3\u13f1": 4077,
    "\u2581\u13d3\u13a9\u13b8\u13eb\u13cd\u13d3\u13c1\u13b2": 4078,
    "\u13d7\u13cd\u13d7\u13f1": 4079,
    "\u13c5\u13d3\u13d7\u13cd\u13d9\u13d7": 4080,
    "\u2581\u13a0\u13b9\u13c2": 4081,
    "\u2581\u13a6\u13ef": 4082,
    "\u2581\u13a4\u13db\u13a6\u13cd\u13d5": 4083,
    "\u2581\u13ba\u13b5\u13c3": 4084,
    "\u2581\u13d3\u13d4\u13b4\u13d2\u13c3": 4085,
    "\u2581\u13c5\u13a6\u13cd\u13aa\u13af\u13c3": 4086,
    "\u2581\u13c4\u13e9\u13c1\u13b0": 4087,
    "\u2581\u13f1\u13c5\u13a6": 4088,
    "\u13be\u13c4\u13aa\u13eb\u13cf": 4089,
    "\u2581\u13a0\u13cd\u13ab\u13d5\u13cd\u13d7\u13f1": 4090,
    "\u13b5\u13cd\u13d3\u13f4": 4091,
    "\u2581\u13a2\u13e3\u13d3\u13c5\u13d6\u13cd\u13ac": 4092,
    "\u13d3\u13f4\u13b3\u13db": 4093,
    "\u2581\u13d1\u13d3\u13b5\u13c3": 4094,
    "\u2581\u13a2\u13e8\u13d7\u13cd\u13ac": 4095,
    "\u13f4\u13d7": 4096,
    "\u13cf\u13c1": 4097,
    "\u13b5\u13cd\u13d3\u13f4\u13b2\u13cd\u13a6": 4098,
    "\u2581\u13a8\u13e5\u13c5\u13cf\u13db\u13c3": 4099,
    "\u13e9\u13d8": 4100,
    "\u2581\u13d7\u13d0\u13f4": 4101,
    "\u2581\u13d3\u13a7\u13c5": 4102,
    "\u13c5\u13d3\u13db": 4103,
    "\u2581\u13a4\u13da\u13b5": 4104,
    "\u2581\u13f0\u13b5\u13a6": 4105,
    "\u13aa\u13b2\u13cd\u13ac": 4106,
    "\u13d7\u13cd\u13ac\u13be": 4107,
    "\u13ef\u13d3": 4108,
    "\u13c2\u13d3\u13cd\u13d7": 4109,
    "\u13cd\u13c6\u13b8": 4110,
    "\u2581\u13c2\u13aa\u13af\u13b8\u13c9": 4111,
    "\u13cc\u13c1": 4112,
    "\u13d2\u13c9": 4113,
    "\u2581\u13d7\u13c3\u13ea\u13b5\u13cd\u13a9\u13c3": 4114,
    "\u13a6\u13c5\u13a6": 4115,
    "\u2581\u13cd\u13a9\u13cd\u13d5\u13b8": 4116,
    "al": 4117,
    "\u13cc\u13b2": 4118,
    "\u13a6\u13cc": 4119,
    "\u13b2\u13cd\u13ac\u13a2": 4120,
    "\u2581\u13a4\u13d3\u13c5\u13d2": 4121,
    "\u13da\u13e5": 4122,
    "\u13a5\u13cd\u13a8\u13cd\u13d7": 4123,
    "\u2581\u13e5\u13b3": 4124,
    "\u2581\u13eb\u13d7\u13a6": 4125,
    "\u13d3\u13c5\u13d6\u13b4": 4126,
    "\u13b5\u13ce\u13b2": 4127,
    "\u13c5\u13d4": 4128,
    "\u13ec\u13c2\u13cd\u13ac": 4129,
    "\u13d1\u13b6": 4130,
    "\u13cf\u13d7": 4131,
    "\u13cd\u13d3\u13c1\u13ae": 4132,
    "\u13b6\u13c3": 4133,
    "\u13d7\u13a6\u13b5\u13cd\u13d9\u13d7": 4134,
    "\u13e9\u13c1": 4135,
    "\u13cf\u13c3": 4136,
    "\u13b9\u13c2": 4137,
    "\u13a1\u13b8": 4138,
    "\u13d5\u13a8\u13cd\u13d7": 4139,
    "\u2581\u13d5\u13ab": 4140,
    "\u13ac\u13d9\u13d7": 4141,
    "\u13eb\u13be": 4142,
    "\u13d9\u13a1\u13cd\u13d7": 4143,
    "\u13aa\u13d2": 4144,
    "\u13d8\u13c3\u13a6": 4145,
    "\u13d3\u13a6": 4146,
    "\u13d3\u13d9\u13b5\u13cd\u13d7\u13cd\u13ac": 4147,
    "\u13f0\u13b8\u13be": 4148,
    "\u2581\u13a4\u13d9\u13af\u13f3\u13ad": 4149,
    "\u13db\u13c1\u13d7\u13f1": 4150,
    "\u13d5\u13a8": 4151,
    "\u13be\u13c4\u13aa\u13eb\u13cd\u13d7\u13f1": 4152,
    "\u13f2\u13b0\u13ce\u13b8": 4153,
    "\u2581\u13e3\u13c1": 4154,
    "\u2581\u13af\u13c6": 4155,
    "\u13e5\u13c1\u13d7\u13f1": 4156,
    "\u13d7\u13be": 4157,
    "\u13b7\u13e5\u13b8": 4158,
    "\u2581\u13a2\u13ac\u13f1\u13f1\u13c9": 4159,
    "\u13e3\u13db\u13c2\u13cf": 4160,
    "\u13b5\u13cd\u13a6\u13cd\u13d9\u13d7": 4161,
    "\u13cd\u13c6\u13db": 4162,
    "\u13f0\u13b4": 4163,
    "\u13b5\u13cd\u13d5\u13b8": 4164,
    "\u2581\u13e7\u13c1\u13a6": 4165,
    "\u2581\u13a3\u13ac": 4166,
    "\u13d3\u13c2\u13b8\u13e8\u13af": 4167,
    "\u2581\u13f3\u13eb": 4168,
    "\u2581\u13a0\u13c6\u13d3\u13c5": 4169,
    "\u13c6\u13cf": 4170,
    "\u2581\u13a2\u13e5\u13f0\u13b8": 4171,
    "\u2581\u13c2\u13ac\u13c1\u13b8": 4172,
    "\u2581\u13d7\u13e6": 4173,
    "\u2581\u13a4\u13cd\u13c6\u13b8\u13af\u13d7": 4174,
    "\u13ef\u13c5\u13af": 4175,
    "\u13b3\u13a9\u13d2": 4176,
    "\u13cd\u13aa\u13b5": 4177,
    "\u13d7\u13c9": 4178,
    "\u13d6\u13cd\u13d7": 4179,
    "\u2581\u13e3\u13c6": 4180,
    "\u13c1\u13a8": 4181,
    "\u2581\u13aa\u13af\u13f3": 4182,
    "\u2581\u13db\u13a9": 4183,
    "\u13b5\u13c2\u13a9\u13db": 4184,
    "\u13e0\u13f1": 4185,
    "\u2581\u13a2\u13a9\u13c1\u13b8": 4186,
    "\u2581\u13d5\u13ac\u13e9\u13c2": 4187,
    "\u13b5\u13cd\u13d4": 4188,
    "\u13a6\u13ce": 4189,
    "\u13c2\u13cd\u13a8\u13cd\u13d7": 4190,
    "\u2581\u13c8": 4191,
    "\u13aa\u13b5\u13f0\u13a5\u13af": 4192,
    "\u13d3\u13a8\u13f3\u13d7": 4193,
    "\u13b8\u13d2": 4194,
    "\u13b2\u13cd\u13aa\u13a2": 4195,
    "\u13da\u13a6": 4196,
    "\u2581\u13a2\u13e7\u13b3\u13c3": 4197,
    "\u13db\u13d4\u13c2": 4198,
    "\u2581\u13a4\u13aa\u13b5\u13f0\u13a5": 4199,
    "\u13ef\u13eb\u13cd\u13a9": 4200,
    "\u2581\u13f1\u13c5": 4201,
    "\u13e1\u13ac": 4202,
    "\u13a9\u13cc": 4203,
    "\u13d3\u13d1\u13ef": 4204,
    "\u13c3\u13ae\u13b8": 4205,
    "\u2581\u13c3\u13f3": 4206,
    "\u2581\u13a8\u13cd": 4207,
    "\u13b5\u13a0": 4208,
    "\u2581\u13a2\u13e5\u13c1\u13d7": 4209,
    "\u2581\u13e7\u13c2\u13b5": 4210,
    "\u13cd\u13d3\u13f2": 4211,
    "\u2581\u13a4\u13d3\u13b5\u13a2\u13c3": 4212,
    "\u2581\u13f1\u13e3\u13d3": 4213,
    "\u13f4\u13d4\u13c1\u13a2": 4214,
    "\u13ec\u13c1\u13d4\u13c5": 4215,
    "\u13d9\u13db": 4216,
    "\u2581\u13d7\u13a8\u13e3": 4217,
    "\u13db\u13ac\u13a6": 4218,
    "\u13e9\u13ce": 4219,
    "\u13d7\u13a6\u13db\u13af": 4220,
    "\u13cd\u13d3\u13f1": 4221,
    "\u2581\u13d3\u13ac\u13a9": 4222,
    "\u13f4\u13ae\u13a2": 4223,
    "\u13c3\u13cd\u13a9\u13d2": 4224,
    "\u2581\u13c4\u13c2\u13ea\u13ce": 4225,
    "\u13c2\u13b2": 4226,
    "\u13db\u13db\u13c5": 4227,
    "\u2581\u13a4\u13c5\u13d2\u13c3": 4228,
    "\u13cf\u13b3\u13db": 4229,
    "\u2581\u13af\u13a6\u13d4\u13b2": 4230,
    "\u2581\u13a4\u13be\u13b5\u13aa": 4231,
    "\u13c5\u13d3\u13d7\u13cd\u13d7": 4232,
    "\u2581\u13a4\u13c2\u13be\u13eb": 4233,
    "\u13b8\u13c2": 4234,
    "\u13a7\u13af\u13ef\u13cd\u13d7": 4235,
    "\u13e4\u13e5": 4236,
    "\u13d3\u13ec\u13cd\u13d7": 4237,
    "\u2581\u13c1\u13e3": 4238,
    "\u13e2\u13d7\u13f1": 4239,
    "\u13ea\u13d2": 4240,
    "\u2581\u13d3\u13d8": 4241,
    "\u2581\u13c3\u13a6": 4242,
    "\u2581\u13d5\u13c5": 4243,
    "\u13c2\u13e5": 4244,
    "\u13a7\u13ad": 4245,
    "\u13d9\u13a9\u13ef": 4246,
    "\u13d5\u13d8\u13f4": 4247,
    "\u2581\u13a0\u13be\u13d7\u13cd\u13a8": 4248,
    "\u13aa\u13b5": 4249,
    "\u2581\u13a4\u13be\u13c4\u13aa\u13eb\u13ce": 4250,
    "\u13b5\u13cd\u13d3\u13f4\u13b2\u13cd\u13ac\u13a2": 4251,
    "\u13b6\u13db": 4252,
    "\u2581\u13a4\u13d9\u13af\u13f3\u13c1": 4253,
    "\u2581\u13a0\u13ab\u13f4\u13d7": 4254,
    "\u13c5\u13d5": 4255,
    "\u2581\u13c2\u13a6\u13b5\u13cd\u13d9\u13d7": 4256,
    "\u13d4\u13b5": 4257,
    "\u13ef\u13d6\u13be": 4258,
    "\u13da\u13c2": 4259,
    "\u13a4\u13b7\u13e8": 4260,
    "\u13c1\u13b8\u13d7": 4261,
    "\u2581\u13e3\u13ab": 4262,
    "\u13cf\u13b8": 4263,
    "\u2581\u13e7\u13b3\u13d1\u13b6": 4264,
    "\u2581\u13a4\u13c2\u13cd\u13c6\u13c2\u13aa\u13ce": 4265,
    "\u13aa\u13e9\u13d8\u13cd\u13ac": 4266,
    "\u13c2\u13df": 4267,
    "\u13eb\u13cd\u13a9": 4268,
    "\u2581\u13d3\u13c2\u13b3\u13eb\u13a5": 4269,
    "\u13c2\u13cf\u13c5": 4270,
    "\u2581\u13da\u13c2\u13f2": 4271,
    "\u2581\u13ae\u13b3\u13c2": 4272,
    "\u2581\u13a2\u13ac\u13ea\u13c5\u13db": 4273,
    "\u13c2\u13b6\u13d2": 4274,
    "\u13b3\u13cd": 4275,
    "\u2581\u13a0\u13d3\u13c1\u13e3\u13cd\u13da\u13b6": 4276,
    "\u2581\u13a4\u13b5\u13cd\u13d7\u13f3": 4277,
    "\u13b6\u13bb": 4278,
    "\u13e7\u13cd\u13c6\u13f4\u13cd\u13d7": 4279,
    "\u2581\u13a4\u13c1\u13b7\u13ac": 4280,
    "\u2581\u13d3\u13d5\u13f2\u13b2\u13cd\u13ac": 4281,
    "\u2581\u13a0\u13d3\u13e0\u13cd\u13d7": 4282,
    "\u2581\u13d5\u13a6\u13b3\u13c5\u13db": 4283,
    "\u2581\u13a0\u13d3\u13ea\u13b5\u13a9\u13cd\u13ac": 4284,
    "\u2581\u13a4\u13ec\u13e2\u13c5": 4285,
    "\u2581\u13a0\u13a9\u13c7\u13d3\u13b8": 4286,
    "\u2581\u13a2\u13e3\u13b5\u13ae\u13b5\u13ac": 4287,
    "\u13eb\u13b5\u13bb": 4288,
    "\u2581\u13a4\u13b5\u13f0\u13d4\u13c1": 4289,
    "\u2581\u13d9\u13e7\u13be\u13d3\u13c5\u13db": 4290,
    "\u2581\u13d5\u13a6\u13cd\u13a9\u13b8": 4291,
    "\u13d4\u13f2\u13ce\u13b8": 4292,
    "\u2581\u13f1\u13e5\u13a6\u13d4\u13ae": 4293,
    "\u2581\u13c2\u13a6\u13b5\u13cd\u13d7\u13cd\u13aa": 4294,
    "\u2581\u13a4\u13ec\u13af\u13f3\u13d2": 4295,
    "\u2581\u13e7\u13c1\u13e8": 4296,
    "\u13cd\u13ab": 4297,
    "\u2581\u13a0\u13c2\u13a6\u13f4\u13b5\u13a8": 4298,
    "\u2581\u13a2\u13e3\u13d3\u13d9\u13b5\u13cd\u13d7\u13cd\u13ac": 4299,
    "\u13f4\u13d0\u13b5": 4300,
    "\u2581\u13c4\u13c2\u13ea\u13ce\u13b4": 4301,
    "\u2581\u13ef\u13db\u13c5": 4302,
    "\u2581\u13ba": 4303,
    "\u2581\u13da\u13d3\u13d8\u13be\u13a5": 4304,
    "\u2581\u13a3\u13a6\u13db\u13a6\u13c5": 4305,
    "\u13c5\u13e4\u13a2": 4306,
    "\u13b3\u13cf\u13d5\u13be": 4307,
    "\u13ae\u13b5": 4308,
    "\u2581\u13a5\u13a9\u13d9": 4309,
    "\u13b5\u13e6\u13e9\u13db": 4310,
    "\u2581\u13a4\u13be\u13d3\u13d1\u13f0\u13db": 4311,
    "\u13a9\u13b5\u13f2\u13a2\u13cd\u13d7": 4312,
    "\u2581\u13f1\u13c4\u13cd\u13d5": 4313,
    "\u2581\u13a4\u13c1\u13a2\u13cd\u13d4\u13c5": 4314,
    "\u2581\u13a4\u13be\u13c2\u13a9\u13ce": 4315,
    "\u2581\u13a4\u13ec\u13af\u13f3\u13c5": 4316,
    "\u2581\u13c7\u13d3\u13c1\u13b3\u13bb": 4317,
    "\u2581\u13a0\u13c7\u13d3\u13cd\u13d7": 4318,
    "\u2581\u13a2\u13ef\u13ac\u13c1\u13d7": 4319,
    "\u2581\u13e7\u13c2\u13a7\u13bf\u13e9\u13db\u13cd\u13d7": 4320,
    "\u2581\u13ed\u13b7\u13e4\u13b4": 4321,
    "\u2581\u13d5\u13a6\u13ec\u13c1\u13d7\u13cd\u13ac": 4322,
    "\u2581\u13d7\u13a8\u13ab\u13aa\u13d3\u13c1\u13d7": 4323,
    "\u2581\u13e4\u13c5\u13cd\u13d7": 4324,
    "\u2581\u13c4\u13c5\u13c1\u13b8": 4325,
    "\u13cd\u13a9\u13d3\u13cd\u13ac\u13a2": 4326,
    "\u2581\u13d7\u13ab\u13cd\u13d9\u13cd\u13d7": 4327,
    "\u2581\u13ed\u13ef\u13c5\u13b2": 4328,
    "\u2581\u13a0\u13d3\u13d9\u13b5\u13cd\u13d9\u13d7": 4329,
    "\u2581\u13a0\u13e5\u13db\u13d9\u13d7": 4330,
    "\u13eb\u13c2\u13d7\u13e2": 4331,
    "\u2581\u13a0\u13c2\u13e5\u13ca\u13cf": 4332,
    "\u2581\u13a2\u13ac\u13c6\u13db\u13c1\u13d7": 4333,
    "\u2581\u13a2\u13b5\u13a1\u13cc": 4334,
    "\u2581\u13a2\u13ef\u13d3\u13db\u13c1\u13af": 4335,
    "\u2581\u13a2\u13ef\u13db\u13c1\u13b5\u13d3\u13cd\u13d7": 4336,
    "\u2581\u13a5\u13c6\u13b8\u13a2\u13db": 4337,
    "\u2581\u13ab\u13eb\u13cd\u13ab\u13eb": 4338,
    "\u2581\u13b0\u13e2\u13d4\u13c5\u13ad": 4339,
    "\u2581\u13b4\u13a3\u13d7\u13cf\u13ef": 4340,
    "\u2581\u13be\u13e5\u13a4\u13cd\u13d5\u13ce\u13b8\u13be": 4341,
    "\u2581\u13c2\u13e6\u13b5\u13ac\u13be": 4342,
    "\u2581\u13d7\u13ac\u13e9\u13a9\u13e8\u13d7": 4343,
    "\u2581\u13d7\u13d3\u13b4\u13c5\u13d7\u13cd\u13a9": 4344,
    "\u2581\u13d7\u13ef\u13d6\u13c5": 4345,
    "\u2581\u13e5\u13c8\u13a3\u13c2": 4346,
    "\u2581\u13e7\u13be\u13aa\u13c5\u13cd\u13d3\u13b5": 4347,
    "\u2581\u13a0\u13b5\u13cf\u13be\u13af\u13cd\u13d9\u13d7": 4348,
    "\u2581\u13a0\u13c2\u13b1\u13e3": 4349,
    "\u2581\u13a4\u13b5\u13e6\u13af\u13db": 4350,
    "\u2581\u13a4\u13d6\u13b8\u13b3\u13db": 4351,
    "\u2581\u13a6\u13c3\u13b1\u13a9\u13cd\u13ac": 4352,
    "\u2581\u13d7\u13be\u13d9\u13b4\u13c6\u13cd\u13a9": 4353,
    "\u2581\u13d7\u13e3\u13b3\u13cf\u13d7\u13f1": 4354,
    "\u2581\u13e7\u13c2\u13e6\u13ef\u13cd\u13d7": 4355,
    "\u2581\u13ed\u13d5\u13b5\u13e4": 4356,
    "\u2581\u13a2\u13ac\u13be\u13d5\u13c5": 4357,
    "\u2581\u13a4\u13cd\u13d4\u13f2\u13d2": 4358,
    "\u2581\u13aa\u13b5\u13c2\u13d7\u13f1": 4359,
    "\u2581\u13d3\u13b3\u13da": 4360,
    "\u2581\u13e7\u13ac\u13e9\u13b3\u13c5\u13af": 4361,
    "\u2581\u13d3\u13d3\u13c2\u13b8\u13a8\u13cd\u13d7": 4362,
    "\u2581\u13e7\u13be\u13d7\u13a9\u13d3": 4363,
    "\u2581\u13a4\u13a6\u13c3\u13ee": 4364,
    "\u2581\u13d3\u13c2\u13f4\u13ac\u13a2": 4365,
    "\u2581\u13e6\u13a8\u13cf": 4366,
    "\u2581\u13a0\u13aa\u13b2\u13cd\u13d4\u13c5\u13af": 4367,
    "\u2581\u13a0\u13c2\u13aa\u13d7\u13f3": 4368,
    "\u2581\u13c4\u13d3\u13d1\u13f4\u13be": 4369,
    "\u2581\u13be\u13c3\u13af\u13f3\u13b2\u13cd\u13ac\u13be": 4370,
    "\u2581\u13c2\u13d5\u13a4\u13e9\u13c2\u13a6\u13b8": 4371,
    "\u2581\u13d3\u13c7\u13aa\u13d4\u13c5": 4372,
    "\u2581\u13a0\u13c4\u13a6\u13b8\u13af": 4373,
    "\u2581\u13be\u13c2\u13cd\u13a6\u13c5\u13be": 4374,
    "\u2581\u13e5\u13c2\u13e8\u13ea\u13ce\u13b8\u13a9": 4375,
    "\u2581\u13e6\u13cd\u13d3\u13d3\u13c5\u13df": 4376,
    "\u2581\u13a0\u13be\u13b5\u13d6\u13b8\u13b2\u13cd\u13a9": 4377,
    "\u2581\u13a4\u13e6\u13a0\u13ce\u13d7": 4378,
    "\u2581\u13c6\u13cf\u13b9": 4379,
    "\u2581\u13d1\u13d3\u13b5\u13e7\u13c8": 4380,
    "\u2581\u13a2\u13f3\u13e9\u13ac\u13d7": 4381,
    "\u2581\u13a4\u13c2\u13b5\u13c5\u13e8\u13af": 4382,
    "\u2581\u13d7\u13a8\u13d8\u13c2\u13d3\u13cd\u13d7": 4383,
    "\u2581\u13a2\u13a8\u13ac\u13c1\u13b8\u13af": 4384,
    "oss": 4385,
    "\u2581\u13be\u13c2\u13cd\u13a6\u13a2\u13b2\u13be": 4386,
    "\u2581\u13a0\u13c1\u13b8\u13d7\u13cd\u13a8\u13a2": 4387,
    "\u2581\u13b9\u13ba\u13b5": 4388,
    "\u2581\u13d7\u13a7\u13c2\u13a8\u13c2": 4389,
    "\u2581\u13e5\u13a6\u13da\u13ad": 4390,
    "\u2581\u13ed\u13d5\u13b5\u13e8": 4391,
    "\u13db\u13db\u13b2\u13cd\u13a6": 4392,
    "\u2581\u13f1\u13c2\u13a6\u13a9": 4393,
    "\u2581\u13a2\u13f3\u13be\u13d3\u13b3": 4394,
    "\u2581\u13a2\u13aa\u13c2\u13ef": 4395,
    "\u2581\u13f1\u13e5\u13aa\u13b5\u13f0\u13a3": 4396,
    "\u2581\u13e9\u13a9\u13b7\u13e3": 4397,
    "\u2581\u13e3\u13a6\u13d1\u13b2\u13a2": 4398,
    "\u2581\u13d5\u13a6\u13c5\u13d9\u13ac": 4399,
    "\u2581\u13d4\u13b7\u13e3\u13a9\u13af": 4400,
    "\u2581\u13a1\u13e5\u13f2\u13b5\u13b8\u13ad": 4401,
    "\u2581\u13c5\u13d3\u13f3\u13be\u13d3\u13b4\u13c5\u13af": 4402,
    "\u2581\u13b1\u13c2\u13b7\u13e4": 4403,
    "\u2581\u13d5\u13e5\u13c2\u13f4\u13ce\u13cd\u13d7": 4404,
    "\u2581\u13d3\u13f2\u13e3\u13db\u13c1\u13b5": 4405,
    "\u2581\u13a2\u13e5\u13c7\u13d3\u13b8": 4406,
    "\u2581\u13ac\u13e9\u13d5\u13f1\u13db": 4407,
    "\u2581\u13b6\u13e9\u13c2": 4408,
    "\u2581\u13a2\u13e5\u13c1\u13ab": 4409,
    "\u2581\u13d7\u13ac\u13e9\u13c2\u13f0\u13af": 4410,
    "\u2581\u13a6\u13b6\u13af\u13cd\u13d7\u13f3\u13b3": 4411,
    "\u2581\u13c1\u13c6\u13b8": 4412,
    "\u2581\u13a4\u13b5\u13c3\u13af\u13f4\u13af": 4413,
    "\u2581\u13c4\u13be\u13db\u13c1\u13b5\u13d9\u13b8": 4414,
    "\u2581\u13a2\u13ef\u13c6\u13b5\u13cd\u13d9\u13d7\u13f1": 4415,
    "\u2581\u13aa\u13af\u13f3\u13b2\u13cd\u13a8\u13cd\u13d7": 4416,
    "\u2581\u13a0\u13d9\u13b4\u13b0\u13d2\u13af": 4417,
    "\u2581\u13da\u13ed\u13e2\u13d4\u13c5\u13a9": 4418,
    "\u2581\u13d3\u13d3\u13db\u13c2": 4419,
    "\u2581\u13eb\u13e5\u13f2\u13b5\u13a6": 4420,
    "\u2581\u13a0\u13c2\u13a1\u13bc\u13b5": 4421,
    "\u2581\u13a4\u13a6\u13db\u13be\u13e8\u13af": 4422,
    "\u2581\u13da\u13ea\u13a7\u13c5\u13a9": 4423,
    "\u2581\u13a4\u13c2\u13cd\u13a6\u13ce\u13d7": 4424,
    "\u2581\u13d0\u13a2\u13d7\u13e2": 4425,
    "\u2581\u13d3\u13a6\u13e5\u13c1\u13b5": 4426,
    "\u2581\u13c5\u13e9\u13d9\u13af\u13cd\u13db": 4427,
    "\u2581\u13a6\u13d7\u13a8\u13c2": 4428,
    "\u2581\u13d7\u13df\u13cd\u13d9\u13d7": 4429,
    "\u2581\u13aa\u13a2\u13f3\u13b2\u13cd\u13a6": 4430,
    "\u2581\u13e7\u13ec\u13e2\u13c5\u13af": 4431,
    "\u2581\u13ef\u13c2\u13a6\u13d4\u13b2\u13be": 4432,
    "\u2581\u13ac\u13ec\u13af\u13f3\u13b2\u13cd\u13a9": 4433,
    "\u2581\u13da\u13c4\u13cc\u13db": 4434,
    "\u2581\u13a0\u13c2\u13be\u13f0\u13cd\u13a9": 4435,
    "\u2581\u13a2\u13e7\u13d6": 4436,
    "\u2581\u13b1\u13b7\u13e3": 4437,
    "\u2581\u13a0\u13be\u13db\u13a9\u13cd\u13a8": 4438,
    "\u2581\u13a7\u13c1\u13cd\u13ac": 4439,
    "\u2581\u13d5\u13a6\u13f0\u13cc\u13db": 4440,
    "\u2581\u13d7\u13e3\u13b4\u13b2\u13a6": 4441,
    "\u2581\u13c5\u13d3\u13f3\u13c5\u13cf\u13db": 4442,
    "\u2581\u13a2\u13e8\u13f2\u13ea\u13b3\u13cf": 4443,
    "\u2581\u13a4\u13db\u13a6\u13be": 4444,
    "\u2581\u13ad\u13db\u13d3\u13cd\u13d3": 4445,
    "\u2581\u13d7\u13e5\u13a8\u13eb": 4446,
    "\u2581\u13e7\u13c8\u13ef": 4447,
    "\u2581\u13d0\u13c1\u13b3": 4448,
    "\u2581\u13e7\u13b5\u13ac\u13e9\u13df": 4449,
    "\u2581\u13a6\u13b6\u13e3\u13d7": 4450,
    "\u2581\u13a4\u13ec\u13d2\u13c5": 4451,
    "\u2581\u13d7\u13c2\u13c3\u13a8\u13c2": 4452,
    "\u2581\u13e7\u13b8\u13eb\u13cd\u13d3\u13c1\u13b8\u13af": 4453,
    "\u2581\u13d7\u13a6\u13be\u13cc\u13a2": 4454,
    "\u2581\u13d5\u13c5\u13d9\u13a5": 4455,
    "\u2581\u13a2\u13e5\u13cd\u13c6\u13c2\u13aa\u13d5\u13cd\u13d7": 4456,
    "\u2581\u13d3\u13a9\u13ef\u13ea\u13a6": 4457,
    "\u2581\u13c5\u13c1\u13b8\u13ad": 4458,
    "\u2581\u13d7\u13a9\u13f4\u13eb": 4459,
    "\u2581\u13a4\u13be\u13d9\u13b4\u13b0\u13af\u13cd\u13d9\u13d7": 4460,
    "\u2581\u13a4\u13ea\u13d3\u13cd\u13d7": 4461,
    "\u2581\u13ac\u13f2\u13ce\u13ad": 4462,
    "\u2581\u13a0\u13b5\u13e5\u13d9\u13d7": 4463,
    "\u2581\u13d8\u13a6\u13d9\u13b5": 4464,
    "\u2581\u13d7\u13e3\u13b3\u13cf\u13d5\u13c2": 4465,
    "\u2581\u13a6\u13e5\u13ef\u13c1\u13b3\u13c5\u13af": 4466,
    "\u2581\u13a4\u13ea\u13ef\u13b8\u13e4\u13a2": 4467,
    "\u2581\u13d3\u13c2\u13c4\u13d9\u13ac\u13a2": 4468,
    "\u2581\u13da\u13da\u13d3\u13db\u13a2": 4469,
    "\u2581\u13a0\u13c6\u13d3\u13c5\u13d6\u13db": 4470,
    "\u2581\u13eb\u13c4\u13ea\u13ce\u13a2": 4471,
    "\u2581\u13a0\u13a9\u13cd\u13a6\u13c5\u13e8\u13af": 4472,
    "\u2581\u13a0\u13c2\u13cd\u13a6\u13f0\u13ac\u13cd\u13d3": 4473,
    "\u2581\u13e3\u13ac\u13eb\u13f3\u13cc\u13d5\u13a9": 4474,
    "\u2581\u13d7\u13e5\u13b8\u13eb\u13cd\u13d3\u13c1\u13af": 4475,
    "\u2581\u13a0\u13e5\u13f0\u13af": 4476,
    "\u2581\u13aa\u13d2\u13c5": 4477,
    "\u2581\u13a1\u13c8\u13b3": 4478,
    "\u2581\u13a0\u13c2\u13c3\u13ae\u13cd\u13a8": 4479,
    "\u2581\u13a2\u13e8\u13f2\u13ea\u13b3\u13c1\u13ad": 4480,
    "\u2581\u13a2\u13ef\u13d3\u13c5\u13d6\u13d7": 4481,
    "\u2581\u13d0\u13c9\u13af\u13ad": 4482,
    "\u2581\u13a2\u13e4\u13b5\u13ad": 4483,
    "\u2581\u13a4\u13be\u13da\u13b5\u13cd\u13a9": 4484,
    "\u2581\u13a4\u13b5\u13e8\u13d3\u13c6\u13d3": 4485,
    "\u2581\u13c5\u13db\u13db\u13c1\u13b5": 4486,
    "\u13ea\u13cf": 4487,
    "\u2581\u13a0\u13c6\u13db\u13c5\u13a2\u13cd\u13d7": 4488,
    "\u2581\u13a2\u13e4\u13c5\u13cd\u13d7\u13f1": 4489,
    "\u2581\u13da\u13ec\u13c1\u13d4\u13c5\u13a9": 4490,
    "\u2581\u13a4\u13f2\u13b1\u13ce\u13ae\u13cd\u13d7": 4491,
    "\u2581\u13eb\u13c2\u13ea\u13cf": 4492,
    "\u2581\u13ed\u13b3\u13a9\u13d2": 4493,
    "\u2581\u13a0\u13c2\u13cf\u13be\u13cc\u13c2": 4494,
    "\u2581\u13a0\u13ac\u13d3\u13a8\u13c2": 4495,
    "\u2581\u13a4\u13c6\u13db\u13a9": 4496,
    "\u2581\u13a2\u13e3\u13db\u13c1\u13d7": 4497,
    "\u2581\u13a0\u13c6\u13d7\u13d4\u13cd\u13d7": 4498,
    "\u2581\u13c2\u13e5\u13ea\u13cd\u13ac": 4499,
    "\u2581\u13a0\u13be\u13d3\u13ad\u13f2\u13af": 4500,
    "\u2581\u13f3\u13d3\u13d1\u13ef": 4501,
    "\u2581\u13d7\u13e5\u13a7\u13bf\u13e9\u13db\u13cd\u13d7\u13f1": 4502,
    "\u2581\u13a6\u13c1\u13e5\u13f1": 4503,
    "\u2581\u13a0\u13f0\u13a2\u13b5\u13d3\u13cd\u13d7": 4504,
    "\u2581\u13a4\u13ec\u13e8\u13d7": 4505,
    "\u2581\u13a0\u13c2\u13a7\u13d4\u13ae\u13a2": 4506,
    "\u2581\u13da\u13d8\u13c3\u13ae\u13b4\u13a2": 4507,
    "\u2581\u13a0\u13c6\u13d5\u13b6\u13b0\u13d2": 4508,
    "\u2581\u13e7\u13c2\u13f2\u13af\u13cd\u13d7\u13f1": 4509,
    "\u2581\u13e4\u13b5\u13aa": 4510,
    "\u2581\u13c5\u13d3\u13cd\u13c6": 4511,
    "\u2581\u13a0\u13c4\u13ec\u13a9\u13af": 4512,
    "\u2581\u13a4\u13c1\u13a2\u13cd\u13d7\u13f1": 4513,
    "\u2581\u13a2\u13f3\u13ea\u13cd\u13d7": 4514,
    "\u2581\u13a2\u13e5\u13c1\u13e8": 4515,
    "\u2581\u13a0\u13cd\u13ab\u13d5\u13cd\u13d7": 4516,
    "\u2581\u13a2\u13e3\u13db\u13ac\u13a6": 4517,
    "\u13e9\u13d5\u13ac": 4518,
    "\u2581\u13d3\u13e5\u13c1\u13b5": 4519,
    "\u2581\u13a2\u13e5\u13a8\u13f4": 4520,
    "\u2581\u13a3\u13a9\u13c5\u13cf\u13db": 4521,
    "\u2581\u13e3\u13d3\u13b8\u13a9": 4522,
    "\u2581\u13ac\u13d4\u13f2\u13ce\u13ad": 4523,
    "\u13e5\u13b6\u13cf": 4524,
    "\u13e9\u13db\u13b2\u13cd\u13d7\u13f1": 4525,
    "\u2581\u13a4\u13c2\u13c3\u13ae\u13d7\u13f1": 4526,
    "\u2581\u13d7\u13ab\u13cd\u13d9\u13cd\u13d7\u13f1": 4527,
    "\u2581\u13e3\u13d4\u13b3\u13ec\u13af\u13cd\u13d7": 4528,
    "\u2581\u13a4\u13ea\u13d9\u13b4\u13a2": 4529,
    "\u2581\u13a4\u13cd\u13c6\u13c2\u13aa\u13d4\u13c1\u13a2": 4530,
    "\u2581\u13a4\u13c2\u13cd\u13a6\u13b4\u13a2": 4531,
    "\u2581\u13c7\u13b5\u13cf": 4532,
    "\u2581\u13a2\u13e8\u13a8\u13f3\u13a2\u13f3": 4533,
    "\u2581\u13a4\u13c2\u13f0": 4534,
    "\u2581\u13e7\u13ec\u13ea\u13b3\u13c5": 4535,
    "\u2581\u13ed\u13d3\u13aa\u13be\u13db\u13db": 4536,
    "\u13cd\u13a6\u13e8\u13af": 4537,
    "\u2581\u13a4\u13f4\u13b5\u13b4": 4538,
    "\u2581\u13d3\u13c2\u13f4\u13a8\u13cd\u13d7": 4539,
    "\u2581\u13cd\u13aa\u13c2\u13d7\u13e2": 4540,
    "\u2581\u13e6\u13a8\u13e5": 4541,
    "\u2581\u13a0\u13cb\u13d4\u13c5\u13af": 4542,
    "\u2581\u13a4\u13c2\u13a6\u13d9\u13a5\u13d2\u13af": 4543,
    "\u2581\u13da\u13cf\u13d4\u13db": 4544,
    "\u2581\u13e7\u13f2\u13af\u13cd\u13d7\u13f1": 4545,
    "\u2581\u13a4\u13d3\u13d1\u13f0\u13db": 4546,
    "\u2581\u13a4\u13be\u13c5\u13d7\u13f1": 4547,
    "\u2581\u13a4\u13be\u13db\u13aa\u13d7": 4548,
    "\u2581\u13a4\u13c1\u13dd\u13c5\u13af": 4549,
    "\u2581\u13a4\u13a6\u13d4\u13b2\u13ce": 4550,
    "\u2581\u13a2\u13e5\u13ef\u13c5\u13db": 4551,
    "\u2581\u13a1\u13cd\u13a6\u13c2\u13f3": 4552,
    "\u2581\u13da\u13ea\u13f4": 4553,
    "\u2581\u13a4\u13a7\u13b5\u13b8": 4554,
    "\u2581\u13f3\u13f2\u13b1\u13d2": 4555,
    "\u13c3\u13db": 4556,
    "\u13be\u13f0\u13af\u13cd\u13d7": 4557,
    "\u2581\u13e3\u13be\u13eb\u13f1": 4558,
    "\u2581\u13d5\u13a6\u13c4\u13aa\u13ac": 4559,
    "\u2581\u13be\u13e5\u13ea\u13ce\u13b4\u13a2": 4560,
    "\u2581\u13a0\u13a9\u13aa\u13e9\u13db\u13d7\u13f1": 4561,
    "\u13c5\u13c1\u13d7\u13f1": 4562,
    "\u2581\u13a0\u13c6\u13db\u13c1\u13d7\u13f1": 4563,
    "\u2581\u13a4\u13ec\u13ea\u13b3\u13c5\u13a9": 4564,
    "\u13cd\u13a6\u13c5\u13e4\u13b8\u13af": 4565,
    "\u2581\u13c5\u13d3\u13f0": 4566,
    "\u2581\u13af\u13cd\u13aa\u13b5": 4567,
    "\u2581\u13a0\u13a9\u13b7\u13e4\u13b8\u13a9": 4568,
    "\u2581\u13d5\u13af\u13a7\u13c5": 4569,
    "\u2581\u13a4\u13c2\u13da\u13b2\u13a2": 4570,
    "-\u201c": 4571,
    "\u2581\u13d7\u13ad\u13be\u13ec": 4572,
    "\u2581\u13a2\u13e8\u13d9\u13d7\u13f1": 4573,
    "\u2581\u13a0\u13ef\u13d6\u13be": 4574,
    "\u2581\u13cd\u13a6\u13f0\u13ac\u13cd\u13d4": 4575,
    "\u2581\u13a0\u13c8\u13b7": 4576,
    "\u2581\u13a2\u13e3\u13b5\u13cd\u13d3\u13f4\u13d7\u13f1": 4577,
    "\u2581\u13d5\u13a6\u13a7\u13b2\u13a9": 4578,
    "\u2581\u13a0\u13c1\u13d9\u13ad": 4579,
    "\u2581\u13f3\u13ea\u13ad": 4580,
    "\u2581\u13a4\u13ec\u13b3": 4581,
    "\u2581\u13a6\u13f2\u13df\u13a8": 4582,
    "\u2581\u13a4\u13a6\u13b9": 4583,
    "\u2581\u13a4\u13be\u13c4\u13aa\u13e5\u13b8": 4584,
    "\u2581\u13a0\u13cc\u13b3\u13d9\u13d7": 4585,
    "\u2581\u13ac\u13e9\u13cd\u13a6\u13a9": 4586,
    "\u2581\u13a4\u13b8\u13c9\u13d4\u13c1": 4587,
    "\u2581\u13a0\u13eb\u13cc\u13c5": 4588,
    "\u2581\u13a4\u13db\u13c5\u13d7\u13a6\u13b3\u13eb\u13a2\u13cd\u13d7\u13f1": 4589,
    "\u13b5\u13d2": 4590,
    "\u2581\u13a5\u13c3\u13e5": 4591,
    "\u2581\u13a4\u13e9\u13c2\u13a6\u13b8\u13a2": 4592,
    "\u2581\u13a2\u13e8\u13c1\u13d7": 4593,
    "\u2581\u13a1\u13e5\u13c1\u13b8\u13af": 4594,
    "\u2581\u13d7\u13a6\u13c1\u13b2": 4595,
    "\u2581\u13e7\u13be\u13db\u13be": 4596,
    "\u2581\u13a6\u13c1\u13ae\u13a2": 4597,
    "\u2581\u13af\u13c4\u13aa\u13a2": 4598,
    "\u2581\u13d5\u13aa\u13ea\u13b8\u13a9": 4599,
    "\u2581\u13a4\u13c2\u13be\u13a5": 4600,
    "\u2581\u13a4\u13c2\u13f0\u13b8\u13af": 4601,
    "\u2581\u13e7\u13d3\u13b4\u13c1\u13a2": 4602,
    "\u2581\u13a4\u13d4\u13ea\u13d9\u13c1\u13a2": 4603,
    "\u2581\u13db\u13c6": 4604,
    "\u2581\u13a0\u13e4\u13cd\u13d9\u13a9\u13af": 4605,
    "\u2581\u13d9\u13d3\u13c6\u13d3": 4606,
    "\u13d9\u13b2\u13a9": 4607,
    "\u2581\u13ed\u13f4\u13b8\u13a9": 4608,
    "\u2581\u13a0\u13c7\u13b5\u13d2\u13a9": 4609,
    "\u2581\u13a4\u13b6\u13a8\u13d2": 4610,
    "\u2581\u13a4\u13b4\u13c5\u13b2\u13a9": 4611,
    "\u2581\u13a7\u13c3\u13ae\u13cd\u13ac\u13a9": 4612,
    "\u2581\u13a4\u13b5\u13f0\u13d4\u13c1\u13a2": 4613,
    "\u2581\u13a4\u13b4\u13c5\u13b2": 4614,
    "\u2581\u13d7\u13a6\u13ab\u13cd\u13db\u13d7\u13f1": 4615,
    "\u2581\u13a4\u13c2\u13e7\u13c8\u13cd\u13d7": 4616,
    "\u2581\u13d3\u13e5\u13c2": 4617,
    "\u13c1\u13cf": 4618,
    "\u2581\u13a2\u13f3\u13b5\u13cd\u13d4\u13c5": 4619,
    "\u2581\u13ed\u13a9\u13b6\u13eb\u13ce": 4620,
    "\u13e6\u13db": 4621,
    "\u2581\u13a0\u13b3\u13d1\u13b6": 4622,
    "\u13c1\u13e8": 4623,
    "\u2581\u13a4\u13ec\u13e2\u13c5\u13a2": 4624,
    "\u2581\u13da\u13d5\u13f2\u13c1": 4625,
    "\u2581\u13a4\u13be\u13d9\u13b4\u13b0\u13d2\u13a9": 4626,
    "\u2581\u13e3\u13d3\u13c5\u13db\u13a2": 4627,
    "\u2581\u13a6\u13aa\u13b5\u13cd\u13d7": 4628,
    "\u2581\u13a4\u13c1\u13c5\u13d2\u13a9": 4629,
    "\u2581\u13a0\u13c6\u13df\u13c2\u13ac\u13c1\u13b8": 4630,
    "\u2581\u13f1\u13d9\u13ac": 4631,
    "\u13ef\u13c2": 4632,
    "\u2581\u13c2\u13e3\u13db\u13c1\u13b2\u13a2": 4633,
    "\u13ec\u13a5": 4634,
    "\u2581\u13a4\u13cd\u13d3\u13a6\u13b8\u13a2": 4635,
    "\u2581\u13d3\u13df\u13b6\u13cd\u13db\u13a2": 4636,
    "\u2581\u13a6\u13b5\u13b7\u13a8\u13cd\u13d7": 4637,
    "\u2581\u13a4\u13d5\u13d4\u13c5\u13af": 4638,
    "\u2581\u13e5\u13c5\u13b5": 4639,
    "\u2581\u13a4\u13f4\u13b8\u13a9": 4640,
    "\u2581\u13e9\u13a6\u13db\u13a2": 4641,
    "\u2581\u13a4\u13b5\u13cd\u13d7\u13f3\u13c3": 4642,
    "\u13c5\u13c1\u13b8": 4643,
    "\u2581\u13e7\u13ea\u13e5\u13db\u13af": 4644,
    "\u2581\u13a1\u13d9\u13b2\u13a9": 4645,
    "\u2581\u13a4\u13ec\u13e2\u13c1\u13a2": 4646,
    "\u2581\u13a4\u13c2\u13e9\u13db\u13d7": 4647,
    "\u2581\u13ed\u13b7\u13e4\u13b4\u13a2": 4648,
    "\u13c2\u13cc\u13c1": 4649,
    "\u2581\u13a4\u13e6\u13cd\u13d7": 4650,
    "\u13d4\u13f2\u13ce\u13b8\u13a9": 4651,
    "\u2581\u13e7\u13e9\u13ab\u13d4\u13c5\u13d2\u13a2": 4652,
    "\u2581\u13e3\u13cd\u13c6": 4653,
    "\u2581\u13ad\u13d5\u13ec": 4654,
    "\u2581\u13a9\u13a6\u13ad": 4655,
    "\u2581\u13d5\u13b3": 4656,
    "\u2581\u13ed\u13d3\u13d2\u13cd\u13d4\u13c1": 4657,
    "\u2581\u13d9\u13af\u13c9": 4658,
    "\u2581\u13a4\u13e1\u13d7\u13cd\u13a9": 4659,
    "\u2581\u13be\u13c6\u13db\u13c1\u13b8\u13a2": 4660,
    "\u2581\u13a4\u13d9\u13b3\u13c5\u13cd\u13d7": 4661,
    "\u2581\u13e3\u13a7\u13db\u13a2": 4662,
    "\u13b3\u13c5\u13a9": 4663,
    "\u2581\u13c2\u13d5\u13a6\u13ea\u13ce\u13b2": 4664,
    "\u2581\u13a4\u13d3\u13c5\u13a6\u13b8\u13db": 4665,
    "\u2581\u13e4\u13e3\u13a7\u13c3\u13d7": 4666,
    "\u2581\u13a8\u13d9\u13b2\u13a2": 4667,
    "\u2581\u13ac\u13e9\u13b7\u13e4\u13b4\u13a2": 4668,
    "\u2581\u13a0\u13a9\u13e9\u13db\u13b2": 4669,
    "\u13d8\u13c4\u13a6": 4670,
    "\u13c5\u13a2\u13cd\u13d7\u13f1": 4671,
    "\u2581\u13a0\u13c2\u13c1\u13ac\u13a2": 4672,
    "\u2581\u13a4\u13b6\u13a8\u13d2\u13a2": 4673,
    "\u2581\u13be\u13db\u13c1\u13b2\u13a2": 4674,
    "\u2581\u13a2\u13e2": 4675,
    "\u2581\u13a1\u13b5\u13a9": 4676,
    "\u2581\u13a4\u13d3\u13c5\u13d6\u13a2": 4677,
    "\u2581\u13a4\u13ec\u13ce\u13b4\u13a2": 4678,
    "\u2581\u13a4\u13c2\u13f4\u13ae\u13a2": 4679,
    "\u2581\u13d3\u13eb\u13d2\u13a2": 4680,
    "\u13c1\u13e6": 4681,
    "\u2581\u13a1\u13b3\u13c2\u13ac\u13a2": 4682,
    "\u2581\u13c2\u13e3\u13db\u13c1\u13b8\u13a2": 4683,
    "\u13c4\u13cd\u13d7": 4684,
    "\u2581\u13a4\u13be\u13c4\u13aa\u13eb\u13cd\u13d7\u13f1": 4685,
    "\u2581\u13a4\u13d3\u13c2\u13b5\u13a8\u13c3": 4686,
    "\u2581\u13a0\u13c2\u13aa\u13e9\u13d8\u13cd\u13ac": 4687,
    "\u2581\u13d9\u13d3\u13b8\u13a2": 4688,
    "\u2581\u13a4\u13c2\u13c1\u13c9\u13e4": 4689,
    "\u13c5\u13b5": 4690,
    "\u2581\u13aa\u13db": 4691,
    "\u13df\u13b6\u13cd\u13d9\u13d7": 4692,
    "\u2581\u13a0\u13be\u13a2\u13d2\u13a2": 4693,
    "\u2581\u13ac\u13bf\u13a8": 4694,
    "\u2581\u13a4\u13b7\u13e8\u13af": 4695,
    "\u2581\u13a9\u13c2": 4696,
    "\u2581\u13a2\u13e5\u13a6\u13d4\u13ad\u13f0\u13c3": 4697,
    "\u2581\u13a3\u13c2\u13f1\u13c3": 4698,
    "\u2581\u13a6\u13b3\u13a8\u13f4\u13a2": 4699,
    "\u2581\u13d5\u13a6\u13da\u13b2\u13a2": 4700,
    "\u13f4\u13d4\u13c2\u13b8": 4701,
    "\u2581\u13d3\u13d3\u13c1\u13b8\u13a2": 4702,
    "\u2581\u13d3\u13c6\u13d9\u13a5\u13a2": 4703,
    "\u2581\u13ad\u13d7\u13d4": 4704,
    "\u2581\u13c2\u13a8\u13e5\u13ea\u13ce\u13b8": 4705,
    "\u13d6\u13b8\u13d7": 4706,
    "\u13b5\u13cd\u13d9\u13d4\u13c5": 4707,
    "\u2581\u13d3\u13cc": 4708,
    "\u13c2\u13a8\u13c2": 4709,
    "\u13d9\u13ad": 4710,
    "\u2581\u13c2\u13e8\u13c1\u13b2": 4711,
    "\u2581\u13cf\u13c6\u13cf": 4712,
    "\u13cd\u13d5\u13be": 4713,
    "\u2581\u13a2\u13a8\u13e3\u13db\u13c1\u13d7": 4714,
    "\u13c7\u13d3": 4715,
    "\u2581\u13a0\u13c2\u13ec\u13c2\u13cd\u13ac\u13a2": 4716,
    "\u2581\u13a3\u13a8\u13c5\u13d2": 4717,
    "\u13e5\u13c3": 4718,
    "\u2581\u13d7\u13aa\u13e9\u13db\u13d7": 4719,
    "ha": 4720,
    "\u2581\u13a2\u13e5\u13b2\u13a2": 4721,
    "\u2581\u13a4\u13c5\u13d9\u13d7": 4722,
    "\u13c8\u13f1": 4723,
    "\u2581\u13a4\u13db\u13a6\u13c1\u13a2": 4724,
    "\u13f2\u13af\u13cf": 4725,
    "\u13b4\u13a9": 4726,
    "\u13c4\u13b5\u13cd\u13d4\u13c1": 4727,
    "\u13c1\u13e4\u13d7\u13f1": 4728,
    "\u2581\u13a0\u13c2\u13a9\u13a6\u13a8": 4729,
    "\u13df\u13c2\u13ac\u13ac": 4730,
    "\u2581\u13d7\u13a9\u13f2\u13b1\u13d2\u13af": 4731,
    "\u13a9\u13d7": 4732,
    "\u13e9\u13db\u13db": 4733,
    "\u13e5\u13eb": 4734,
    "\u13c6\u13d7": 4735,
    "\u2581\u13da\u13f3": 4736,
    "\u2581\u13aa\u13d9": 4737,
    "\u2581\u13a2\u13e5\u13c1\u13ac": 4738,
    "\u2581\u13a4\u13b5\u13cd\u13c6": 4739,
    "\u13d3\u13c2\u13b8\u13e4\u13a2": 4740,
    "\u13d3\u13c2\u13b8\u13a2\u13cd\u13d7": 4741,
    "\u2581\u13d3\u13be\u13e0\u13f1\u13b2": 4742,
    "\u13e2\u13a2": 4743,
    "\u2581\u13a0\u13e5\u13c5\u13cf\u13d3\u13cd\u13d7\u13c3": 4744,
    "\u13e5\u13c1\u13d7": 4745,
    "\u13a7\u13bf": 4746,
    "\u2581\u13d5\u13eb\u13f0\u13c3": 4747,
    "\u2581\u13ac\u13d2": 4748,
    "\u2581\u13a6\u13b5\u13e6\u13d9\u13d7": 4749,
    "\u13db\u13c1\u13b2\u13a2": 4750,
    "\u2581\u13a1\u13cc": 4751,
    "\u2581\u13c2\u13e5\u13ea\u13ce\u13b8": 4752,
    "\u2581\u13a6\u13f0\u13e5": 4753,
    "\u13b8\u13cc\u13db": 4754,
    "\u13e5\u13be\u13c4\u13aa\u13eb\u13cf": 4755,
    "\u13d2\u13d3": 4756,
    "\u13aa\u13ce\u13ad": 4757,
    "\u2581\u13a4\u13be\u13b4\u13c5\u13b2": 4758,
    "\u2581\u13a4\u13be\u13d3\u13df\u13cc\u13c5": 4759,
    "\u2581\u13e5\u13cd\u13c6\u13c3": 4760,
    "\u13d3\u13c1\u13b5": 4761,
    "\u13ec\u13a2": 4762,
    "\u13f2\u13af\u13ce\u13d7\u13f1": 4763,
    "\u2581\u13da\u13c3\u13c1\u13b4": 4764,
    "\u13c5\u13c1\u13a2": 4765,
    "\u2581\u13e5\u13a6\u13d4": 4766,
    "\u13be\u13b2": 4767,
    "\u2581\u13a0\u13a9\u13c3\u13ae\u13b8": 4768,
    "\u13f4\u13b8": 4769,
    "\u2581\u13f4\u13a8": 4770,
    "\u13e5\u13f2\u13cf": 4771,
    "\u2581\u13a4\u13b5\u13ae\u13b5\u13e4": 4772,
    "\u2581\u13c5\u13d3\u13ac\u13e9": 4773,
    "\u13be\u13d4": 4774,
    "\u13e2\u13d4\u13c2": 4775,
    "\u2581\u13aa\u13af\u13f3\u13d7\u13cd\u13a9\u13c2": 4776,
    "\u13e9\u13d3": 4777,
    "\u13a6\u13c5\u13d3\u13d7\u13cd\u13d9\u13d7": 4778,
    "\u13c6\u13b4": 4779,
    "\u13f0\u13b8\u13c5": 4780,
    "\u2581\u13c2\u13e3\u13cd\u13db": 4781,
    "\u13a8\u13f3\u13af\u13f3": 4782,
    "\u2581\u13a4\u13d9\u13f3": 4783,
    "\u13a7\u13be": 4784,
    "\u13cd\u13a6\u13a2\u13ae\u13cd\u13d7": 4785,
    "\u2581\u13e7\u13be\u13d7\u13d4\u13cd\u13d7": 4786,
    "\u13ad\u13f2\u13b2": 4787,
    "\u13e4\u13b7\u13af": 4788,
    "\u2581\u13a2\u13b8\u13af\u13e2\u13c3": 4789,
    "\u13d3\u13d7\u13cd\u13d7": 4790,
    "\u2581\u13ac\u13a8\u13f3\u13a2": 4791,
    "\u2581\u13a6\u13b3": 4792,
    "\u13d4\u13c2\u13d3\u13cd\u13d7": 4793,
    "\u13a6\u13d9\u13a5": 4794,
    "\u2581\u13a7\u13c1\u13ac\u13c3": 4795,
    "\u13e5\u13ea\u13cf": 4796,
    "\u2581\u13a2\u13d7\u13a6\u13d8": 4797,
    "\u2581\u13a4\u13d3\u13c5\u13c1": 4798,
    "\u2581\u13a2\u13e5\u13ad": 4799,
    "\u13b2\u13cd\u13a8\u13a2": 4800,
    "\u13e5\u13a6\u13d4": 4801,
    "\u2581\u13a2\u13cc": 4802,
    "\u13cd\u13a6\u13a2\u13ae": 4803,
    "\u13f2\u13a9": 4804,
    "\u13d3\u13c5\u13db": 4805,
    "\u13ce\u13ae": 4806,
    "\u2581\u13a6\u13f3\u13b3\u13f0\u13c3": 4807,
    "\u13b7\u13e4": 4808,
    "\u13b5\u13c3\u13ae\u13d4\u13c5\u13a9": 4809,
    "\u2581\u13a2\u13f3\u13cd\u13a9\u13c2\u13c3": 4810,
    "\u13db\u13af\u13cd\u13d9\u13d7": 4811,
    "\u13f2\u13a2\u13f3": 4812,
    "\u13c1\u13be": 4813,
    "\u13ab": 4814,
    "\u13b5\u13f1\u13b6\u13af\u13cd\u13d7": 4815,
    "\u13f4\u13b4\u13a2": 4816,
    "\u13b2\u13af": 4817,
[...]
